{
  "version": "1.0",
  "truncation": null,
  "padding": null,
  "added_tokens": [
    {
      "id": 0,
      "special": true,
      "content": "[PAD]",
      "single_word": false,
      "lstrip": false,
      "rstrip": false,
      "normalized": false
    },
    {
      "id": 1,
      "special": true,
      "content": "[UNK]",
      "single_word": false,
      "lstrip": false,
      "rstrip": false,
      "normalized": false
    },
    {
      "id": 2,
      "special": true,
      "content": "[SEP]",
      "single_word": false,
      "lstrip": false,
      "rstrip": false,
      "normalized": false
    },
    {
      "id": 3,
      "special": true,
      "content": "[CLS]",
      "single_word": false,
      "lstrip": false,
      "rstrip": false,
      "normalized": false
    },
    {
      "id": 4,
      "special": true,
      "content": "[MASK]",
      "single_word": false,
      "lstrip": false,
      "rstrip": false,
      "normalized": false
    },
    {
      "id": 5,
      "special": true,
      "content": "\\frac",
      "single_word": false,
      "lstrip": false,
      "rstrip": false,
      "normalized": false
    },
    {
      "id": 6,
      "special": true,
      "content": "\\sin",
      "single_word": false,
      "lstrip": false,
      "rstrip": false,
      "normalized": false
    },
    {
      "id": 7,
      "special": true,
      "content": "\\cos",
      "single_word": false,
      "lstrip": false,
      "rstrip": false,
      "normalized": false
    },
    {
      "id": 8,
      "special": true,
      "content": "\\sqrt",
      "single_word": false,
      "lstrip": false,
      "rstrip": false,
      "normalized": false
    },
    {
      "id": 9,
      "special": true,
      "content": "\\sum",
      "single_word": false,
      "lstrip": false,
      "rstrip": false,
      "normalized": false
    },
    {
      "id": 10,
      "special": true,
      "content": "\\forall",
      "single_word": false,
      "lstrip": false,
      "rstrip": false,
      "normalized": false
    },
    {
      "id": 11,
      "special": true,
      "content": "\\exists",
      "single_word": false,
      "lstrip": false,
      "rstrip": false,
      "normalized": false
    },
    {
      "id": 12,
      "special": true,
      "content": "\\log",
      "single_word": false,
      "lstrip": false,
      "rstrip": false,
      "normalized": false
    },
    {
      "id": 13,
      "special": true,
      "content": "\\pi",
      "single_word": false,
      "lstrip": false,
      "rstrip": false,
      "normalized": false
    },
    {
      "id": 14,
      "special": true,
      "content": "\\alpha",
      "single_word": false,
      "lstrip": false,
      "rstrip": false,
      "normalized": false
    },
    {
      "id": 15,
      "special": true,
      "content": "\\int",
      "single_word": false,
      "lstrip": false,
      "rstrip": false,
      "normalized": false
    },
    {
      "id": 16,
      "special": true,
      "content": "\\beta",
      "single_word": false,
      "lstrip": false,
      "rstrip": false,
      "normalized": false
    },
    {
      "id": 17,
      "special": true,
      "content": "\\|dots",
      "single_word": false,
      "lstrip": false,
      "rstrip": false,
      "normalized": false
    },
    {
      "id": 18,
      "special": true,
      "content": "\\infty",
      "single_word": false,
      "lstrip": false,
      "rstrip": false,
      "normalized": false
    }
  ],
  "normalizer": null,
  "pre_tokenizer": {
    "type": "Sequence",
    "pretokenizers": [
      {
        "type": "Split",
        "pattern": {
          "String": "(\\\\frac|\\\\sin|\\\\cos|\\\\sqrt|\\\\sum|\\\\forall|\\\\exists|\\\\log|\\\\pi|\\\\alpha|\\\\int|\\\\beta|\\\\\\|dots|\\\\infty|\\$[^\\$]+\\$|[^\\s{}_^\\\\$]+|[{}_^\\\\$])"
        },
        "behavior": "Isolated",
        "invert": false
      },
      {
        "type": "WhitespaceSplit"
      }
    ]
  },
  "post_processor": null,
  "decoder": null,
  "model": {
    "type": "BPE",
    "dropout": null,
    "unk_token": "[UNK]",
    "continuing_subword_prefix": null,
    "end_of_word_suffix": null,
    "fuse_unk": false,
    "vocab": {
      "[PAD]": 0,
      "[UNK]": 1,
      "[SEP]": 2,
      "[CLS]": 3,
      "[MASK]": 4,
      "\\frac": 5,
      "\\sin": 6,
      "\\cos": 7,
      "\\sqrt": 8,
      "\\sum": 9,
      "\\forall": 10,
      "\\exists": 11,
      "\\log": 12,
      "\\pi": 13,
      "\\alpha": 14,
      "\\int": 15,
      "\\beta": 16,
      "\\|dots": 17,
      "\\infty": 18,
      "!": 19,
      "\"": 20,
      "#": 21,
      "$": 22,
      "%": 23,
      "&": 24,
      "'": 25,
      "(": 26,
      ")": 27,
      "*": 28,
      "+": 29,
      ",": 30,
      "-": 31,
      ".": 32,
      "/": 33,
      "0": 34,
      "1": 35,
      "2": 36,
      "3": 37,
      "4": 38,
      "5": 39,
      "6": 40,
      "7": 41,
      "8": 42,
      "9": 43,
      ":": 44,
      ";": 45,
      "<": 46,
      "=": 47,
      ">": 48,
      "?": 49,
      "@": 50,
      "A": 51,
      "B": 52,
      "C": 53,
      "D": 54,
      "E": 55,
      "F": 56,
      "G": 57,
      "H": 58,
      "I": 59,
      "J": 60,
      "K": 61,
      "L": 62,
      "M": 63,
      "N": 64,
      "O": 65,
      "P": 66,
      "Q": 67,
      "R": 68,
      "S": 69,
      "T": 70,
      "U": 71,
      "V": 72,
      "W": 73,
      "X": 74,
      "Y": 75,
      "Z": 76,
      "[": 77,
      "\\": 78,
      "]": 79,
      "^": 80,
      "_": 81,
      "`": 82,
      "a": 83,
      "b": 84,
      "c": 85,
      "d": 86,
      "e": 87,
      "f": 88,
      "g": 89,
      "h": 90,
      "i": 91,
      "j": 92,
      "k": 93,
      "l": 94,
      "m": 95,
      "n": 96,
      "o": 97,
      "p": 98,
      "q": 99,
      "r": 100,
      "s": 101,
      "t": 102,
      "u": 103,
      "v": 104,
      "w": 105,
      "x": 106,
      "y": 107,
      "z": 108,
      "{": 109,
      "|": 110,
      "}": 111,
      "~": 112,
      "": 113,
      "{\\": 114,
      "_{": 115,
      "\\l": 116,
      "^{": 117,
      "ra": 118,
      "}\\": 119,
      "ta": 120,
      "el": 121,
      "al": 122,
      "ar": 123,
      "ig": 124,
      "\\la": 125,
      "rac": 126,
      "\\p": 127,
      "frac": 128,
      "^2": 129,
      "}{": 130,
      "el{": 131,
      "\\lab": 132,
      "\\label{": 133,
      "ti": 134,
      "in": 135,
      "ft": 136,
      "ma": 137,
      "_{\\": 138,
      "2}": 139,
      "eta": 140,
      "igh": 141,
      "righ": 142,
      "ha": 143,
      "mu": 144,
      "\\frac{": 145,
      "hi": 146,
      "eft": 147,
      "right": 148,
      "er": 149,
      "\\left": 150,
      "1}": 151,
      "\\s": 152,
      "\\,": 153,
      "^{\\": 154,
      "\\o": 155,
      "\\b": 156,
      "am": 157,
      "si": 158,
      "}}": 159,
      "pha": 160,
      "alpha": 161,
      "tial": 162,
      "artial": 163,
      "ver": 164,
      "me": 165,
      "da": 166,
      "}(": 167,
      "right)": 168,
      "\\left(": 169,
      "elta": 170,
      "bda": 171,
      "nu": 172,
      "th": 173,
      "\\over": 174,
      "ot": 175,
      "\\;": 176,
      ")}": 177,
      "amma": 178,
      "_1": 179,
      "cal": 180,
      "dot": 181,
      "\\mu": 182,
      "de": 183,
      "\\e": 184,
      "on": 185,
      "\\in": 186,
      "^{-": 187,
      "\\c": 188,
      "qu": 189,
      "delta": 190,
      "1}{": 191,
      "\\nu": 192,
      "igma": 193,
      "{\\cal": 194,
      "psi": 195,
      "})": 196,
      "_0": 197,
      "}=": 198,
      "\\partial": 199,
      "ga": 200,
      "le": 201,
      "mega": 202,
      "\\phi": 203,
      "t{": 204,
      "_2": 205,
      "}^{": 206,
      "\\right)": 207,
      "\\v": 208,
      "{\\p": 209,
      "theta": 210,
      "\\frac{1}{": 211,
      "}_{": 212,
      "rm": 213,
      "ad": 214,
      "{\\b": 215,
      "lon": 216,
      "_{\\mu": 217,
      "ray": 218,
      "array": 219,
      "{array": 220,
      "til": 221,
      "tilde": 222,
      "gamma": 223,
      "psilon": 224,
      "quad": 225,
      "mbda": 226,
      "\\lambda": 227,
      "_i": 228,
      "(\\": 229,
      ",\\": 230,
      "(x": 231,
      "ho": 232,
      "_{i": 233,
      "um": 234,
      "qr": 235,
      "rho": 236,
      "eq": 237,
      "\\\\": 238,
      ")=": 239,
      "ng": 240,
      "ngle": 241,
      "\\delta": 242,
      "},": 243,
      "\\bar": 244,
      "tau": 245,
      "ri": 246,
      "^{(": 247,
      "\\sigma": 248,
      "\\P": 249,
      "}\\right)": 250,
      "ambda": 251,
      "ro": 252,
      "\\right": 253,
      "^{2}": 254,
      "nd": 255,
      "{\\partial": 256,
      "ec": 257,
      "~~": 258,
      "phi": 259,
      "\\theta": 260,
      "}\\,": 261,
      "-1": 262,
      "\\psi": 263,
      "qrt{": 264,
      "\\gamma": 265,
      "}_": 266,
      "xi": 267,
      "{\\bf": 268,
      "\\var": 269,
      "dots": 270,
      "\\label{eq": 271,
      "}+": 272,
      "\\frac{\\": 273,
      "{1": 274,
      "}^": 275,
      "ab": 276,
      "hat": 277,
      "pa": 278,
      "Gamma": 279,
      "\\omega": 280,
      "{\\rm": 281,
      "fty": 282,
      "eg": 283,
      "}^{\\": 284,
      "\\rho": 285,
      "(1": 286,
      "\\left[": 287,
      "rime": 288,
      "3}": 289,
      "\\epsilon": 290,
      "egin": 291,
      "math": 292,
      "\\tilde": 293,
      "2}\\": 294,
      "ap": 295,
      "_{n": 296,
      "^2}": 297,
      "=0": 298,
      "lin": 299,
      "nd{array": 300,
      "egin{array": 301,
      "c}": 302,
      ".\\label{": 303,
      "rangle": 304,
      "egin{array}{": 305,
      "bo": 306,
      "line": 307,
      "4}": 308,
      "la": 309,
      "st": 310,
      "^{\\mu": 311,
      "Lambda": 312,
      "\\tau": 313,
      "\\label{eq:": 314,
      "tar": 315,
      "_\\mu": 316,
      "hat{": 317,
      "\\vec": 318,
      "Delta": 319,
      "box": 320,
      "_{1}": 321,
      "e^{-": 322,
      "_n": 323,
      "\\rangle": 324,
      "\\;\\;": 325,
      "epsilon": 326,
      "\\sqrt{": 327,
      "_{0": 328,
      "}{\\": 329,
      "\\end{array": 330,
      "\\begin{array}{": 331,
      "2\\pi": 332,
      "\\Phi": 333,
      "\\eta": 334,
      "^{-1}": 335,
      "}-": 336,
      "e^{": 337,
      "frac{": 338,
      "m}": 339,
      "\\m": 340,
      "row": 341,
      "Omega": 342,
      "\\right]": 343,
      "_{\\alpha": 344,
      "\\xi": 345,
      "kap": 346,
      "kappa": 347,
      "(x)": 348,
      "tarrow": 349,
      "_j": 350,
      "_3": 351,
      "_{1": 352,
      "\\Gamma": 353,
      "\\quad": 354,
      "qquad": 355,
      "bar": 356,
      "\\{": 357,
      "^{\\p": 358,
      "\\varphi": 359,
      "int": 360,
      "),": 361,
      "rightarrow": 362,
      "{1\\over": 363,
      "iv": 364,
      "(z": 365,
      ")^2": 366,
      "=1}": 367,
      "\\!": 368,
      "im": 369,
      "_{j": 370,
      "r}": 371,
      "box{": 372,
      "\\frac{1}{2}": 373,
      "+1": 374,
      "}(x": 375,
      "-1}": 376,
      "\\chi": 377,
      "{\\s": 378,
      "^3": 379,
      "_{\\mu\\nu": 380,
      "..": 381,
      "dag": 382,
      "os": 383,
      "l}": 384,
      "-2": 385,
      "quiv": 386,
      "}\\p": 387,
      "^4": 388,
      "dx": 389,
      "}_{\\": 390,
      "Big": 391,
      "0}": 392,
      "time": 393,
      "_{k": 394,
      "\\Delta": 395,
      "^a": 396,
      "times": 397,
      "_a": 398,
      "}\\right": 399,
      "}{2}": 400,
      "_k": 401,
      "\\langle": 402,
      "lambda": 403,
      "_{2}": 404,
      "(2": 405,
      "\\cdot": 406,
      "^i": 407,
      ",\\label{": 408,
      "xp": 409,
      "over": 410,
      "=-": 411,
      "n}": 412,
      "^{\\prime": 413,
      "\\,\\,": 414,
      "\\bar{": 415,
      "^\\mu": 416,
      "\\n": 417,
      "j}": 418,
      "\\Lambda": 419,
      "\\Omega": 420,
      "(t": 421,
      "0,": 422,
      "\\hat": 423,
      "-1)": 424,
      "ge": 425,
      "\\pm": 426,
      "\\dot": 427,
      "/2}": 428,
      "\\w": 429,
      "ger": 430,
      "dagger": 431,
      "zeta": 432,
      "\\partial_": 433,
      "(p": 434,
      "i}": 435,
      "\\equiv": 436,
      "t}": 437,
      "\\hat{": 438,
      "s}": 439,
      "\\h": 440,
      "}\\s": 441,
      "^2+": 442,
      "\\}": 443,
      "_{-": 444,
      "a}": 445,
      "(k": 446,
      "\\end{array}": 447,
      "\\Psi": 448,
      "^2)": 449,
      "qrt": 450,
      "\\qquad": 451,
      "+1}": 452,
      "abla": 453,
      "di": 454,
      "^{1": 455,
      "\\big": 456,
      "\\vec{": 457,
      "to": 458,
      "yle": 459,
      "style": 460,
      "r)": 461,
      "0)": 462,
      "y)": 463,
      "_{2": 464,
      "\\kappa": 465,
      "\\Big": 466,
      "}{2": 467,
      "k}": 468,
      "ide": 469,
      "\\tilde{": 470,
      "\\mbox{": 471,
      "\\frac{d": 472,
      "\\cdots": 473,
      "\\ldots": 474,
      "ed": 475,
      "\\overline": 476,
      "infty": 477,
      "_{m": 478,
      "p}": 479,
      "\\frac{\\partial": 480,
      "^{2": 481,
      "_+": 482,
      "\\math": 483,
      "beta": 484,
      "\\rightarrow": 485,
      "cc": 486,
      "}\\over": 487,
      "}\\partial": 488,
      "^{i": 489,
      "var": 490,
      "0&": 491,
      "_{\\rm": 492,
      "Sigma": 493,
      "1,": 494,
      "{\\pi": 495,
      "-\\frac{": 496,
      "^+": 497,
      "}{\\partial": 498,
      "(n": 499,
      "\\ln": 500,
      "-i": 501,
      "\\exp": 502,
      "\\prime": 503,
      "x}": 504,
      "_{a": 505,
      ")+": 506,
      "}\\left(": 507,
      "^2}{": 508,
      "sp": 509,
      ",\\quad": 510,
      "}\\int": 511,
      "Phi": 512,
      "ell": 513,
      "\\varepsilon": 514,
      "/2": 515,
      "tilde{": 516,
      "ce": 517,
      "_1}": 518,
      "}\\frac{": 519,
      "^{\\alpha": 520,
      "}.": 521,
      "^*": 522,
      "}\\c": 523,
      "_{\\nu": 524,
      "omega": 525,
      "rod": 526,
      "5}": 527,
      "}\\;": 528,
      "{\\bar": 529,
      "0.": 530,
      "_m": 531,
      "_4": 532,
      "_{ij": 533,
      ").": 534,
      "g}": 535,
      "_1,": 536,
      "tri": 537,
      "_-": 538,
      "+2": 539,
      "d}": 540,
      "edge": 541,
      "1-": 542,
      "it": 543,
      "6}": 544,
      "\\lim": 545,
      "e}": 546,
      "\\nu}": 547,
      "\\cr": 548,
      "e^{i": 549,
      "4\\pi": 550,
      "cal{": 551,
      "ds": 552,
      "\\bar{\\": 553,
      "und": 554,
      "dt": 555,
      "\\zeta": 556,
      "(\\tau": 557,
      "1+": 558,
      "_{\\mu}": 559,
      "_\\alpha": 560,
      "(-": 561,
      "}\\e": 562,
      "\\nabla": 563,
      "bf": 564,
      ")\\,": 565,
      "vec": 566,
      "spa": 567,
      "_{+": 568,
      "}^2": 569,
      "space": 570,
      "\\frac{1}": 571,
      "disp": 572,
      "(q": 573,
      "^-": 574,
      "(1-": 575,
      "lay": 576,
      "display": 577,
      "_c": 578,
      "displaystyle": 579,
      "_2}": 580,
      "(a": 581,
      "N}": 582,
      "{\\alpha": 583,
      "_{ab": 584,
      "sigma": 585,
      "b}": 586,
      "re": 587,
      "_s": 588,
      "^0": 589,
      "ex": 590,
      ")}(": 591,
      "}\\right]": 592,
      "\\:": 593,
      "_{p": 594,
      "_{\\p": 595,
      "A}": 596,
      ")}{": 597,
      "f}": 598,
      "vert": 599,
      "(r": 600,
      "^{-1": 601,
      "\\left\\{": 602,
      "^n": 603,
      "'}": 604,
      "under": 605,
      "left": 606,
      "8}": 607,
      "\\otimes": 608,
      "\\prod": 609,
      "}\\delta": 610,
      "^\\": 611,
      "m^2": 612,
      "{2": 613,
      "t)": 614,
      "D}": 615,
      "12": 616,
      "~~~": 617,
      "...": 618,
      "}^{2}": 619,
      "=1}^{": 620,
      "^1": 621,
      "\\Sigma": 622,
      "^\\prime": 623,
      "{\\phi": 624,
      "\\begin{array}{c": 625,
      "_p": 626,
      "^{a": 627,
      "^{(1": 628,
      "Th": 629,
      "id": 630,
      "fo": 631,
      "\\wedge": 632,
      "(x,": 633,
      "\\wide": 634,
      "\\frac{2": 635,
      "')": 636,
      "\\label{c": 637,
      "Theta": 638,
      "^{+": 639,
      "underline": 640,
      "(u": 641,
      "\\sim": 642,
      "L}": 643,
      "}(x)": 644,
      "^2-": 645,
      ".1": 646,
      "_2)": 647,
      "+1)": 648,
      "_{\\mu\\nu}": 649,
      "_A": 650,
      "_{3": 651,
      "]=": 652,
      "_{A": 653,
      "(s": 654,
      "B}": 655,
      "(\\lambda": 656,
      "_{r": 657,
      "e^{\\": 658,
      "\\,,": 659,
      "{\\sqrt{": 660,
      "_{l": 661,
      "_b": 662,
      "\\beta}": 663,
      "{d": 664,
      "\\end{array}\\right)": 665,
      "_\\nu": 666,
      "^{ab": 667,
      "(\\phi": 668,
      "\\vert": 669,
      "}\\frac": 670,
      "}{d": 671,
      "^j": 672,
      "{\\beta": 673,
      "\\label{s": 674,
      "(z)": 675,
      "}^{(": 676,
      "_5": 677,
      "infty}": 678,
      "_{ij}": 679,
      "\\label{2": 680,
      "rm{": 681,
      "_{(": 682,
      "}\\phi": 683,
      "varphi": 684,
      "pt": 685,
      "\\frac{1}{2": 686,
      "z)": 687,
      "pro": 688,
      "^{n": 689,
      "\\label{1": 690,
      "r^2": 691,
      "0)}": 692,
      "^{\\dagger": 693,
      "(t)": 694,
      "\\to": 695,
      "_R": 696,
      "ll": 697,
      "tion": 698,
      "M}": 699,
      "\\ell": 700,
      "=\\frac{": 701,
      "\\times": 702,
      "og": 703,
      "rc": 704,
      "\\Pi": 705,
      "7}": 706,
      "}\\sum": 707,
      "({\\bf": 708,
      ",\\qquad": 709,
      ",x": 710,
      "\\,.": 711,
      "\\!\\!": 712,
      "}\\b": 713,
      "z}": 714,
      "''": 715,
      "\\dot{": 716,
      "{\\frac{": 717,
      "det": 718,
      "}=-": 719,
      "+i": 720,
      "~,": 721,
      "ck": 722,
      "{\\delta": 723,
      "^{\\nu": 724,
      "\\frac{1}{2}\\": 725,
      "^{(2": 726,
      "))": 727,
      "S_{": 728,
      "{\\math": 729,
      "_l": 730,
      "Tr": 731,
      "^{*": 732,
      "{\\hat": 733,
      "ast": 734,
      "\\sum_{n": 735,
      "_1)": 736,
      "_{i}": 737,
      "(\\sigma": 738,
      "(2\\pi": 739,
      "0&0&": 740,
      "\\mathcal{": 741,
      "d^2": 742,
      "{\\lambda": 743,
      "}\\psi": 744,
      "its": 745,
      "ol": 746,
      "{\\tilde": 747,
      "~~~~": 748,
      "\\begin{array}{cc}": 749,
      "2}}": 750,
      "matri": 751,
      "^\\alpha": 752,
      "=\\int": 753,
      "R}": 754,
      "\\bigg": 755,
      "(\\partial": 756,
      "ext": 757,
      "\\displaystyle": 758,
      "\\overline{": 759,
      "(1+": 760,
      "\\label{e": 761,
      "\\limits": 762,
      "dot{": 763,
      ")-": 764,
      "(m": 765,
      "Psi": 766,
      "}\\bar": 767,
      "(\\alpha": 768,
      "9}": 769,
      "e^{2": 770,
      "{{": 771,
      "(\\theta": 772,
      "\\mid": 773,
      "^{3": 774,
      "^\\dagger": 775,
      "(g": 776,
      "_r": 777,
      "\\sum_{i": 778,
      "tack": 779,
      "{\\mu": 780,
      "tackr": 781,
      "(-1)": 782,
      "^b": 783,
      "})=": 784,
      "_{0}": 785,
      "(r)": 786,
      "q}": 787,
      "_{N": 788,
      "_{\\beta": 789,
      "=0,": 790,
      "_B": 791,
      "wide": 792,
      "(A": 793,
      "\\frac{i": 794,
      "(d": 795,
      "\\label{3": 796,
      "bf{": 797,
      "(i": 798,
      "=1}^": 799,
      "\\hbar": 800,
      "matrix": 801,
      "\\hspace": 802,
      "}}=": 803,
      "\\Theta": 804,
      "y}": 805,
      "^A": 806,
      "_{b": 807,
      "en": 808,
      "^{\\mu\\nu": 809,
      "ef": 810,
      "\\left|": 811,
      "nabla": 812,
      "\\leq": 813,
      ")]": 814,
      "e^{-i": 815,
      "^\\nu": 816,
      "_{12}": 817,
      "appro": 818,
      "con": 819,
      "ac": 820,
      "|^2": 821,
      "\\;\\;\\;\\;": 822,
      "(y": 823,
      "approx": 824,
      "_L": 825,
      "^{(1)}": 826,
      "}}{": 827,
      "ds^2": 828,
      "_N": 829,
      "\\begin{array}{c}": 830,
      "{\\sigma": 831,
      "16": 832,
      "(N": 833,
      "~.": 834,
      "text": 835,
      "&=": 836,
      "d^4": 837,
      "{\\psi": 838,
      ")}}": 839,
      "(y)": 840,
      "(D": 841,
      "\\begin{array}{cc": 842,
      "_{\\lambda": 843,
      "=\\left(": 844,
      "_{x": 845,
      "^{2}\\": 846,
      "^k": 847,
      "cri": 848,
      "_{s": 849,
      "_{I": 850,
      "-2}": 851,
      "p)": 852,
      "us": 853,
      "^{\\mu}": 854,
      "(X": 855,
      "(\\xi": 856,
      "\\sqrt{-": 857,
      "sqrt{": 858,
      "_f": 859,
      "}\\gamma": 860,
      "tr": 861,
      "}{4": 862,
      "se": 863,
      "H}": 864,
      "_{c": 865,
      "(x-": 866,
      ")}=": 867,
      "cript": 868,
      "l(": 869,
      ")^{": 870,
      "}=0": 871,
      "\\partial_\\mu": 872,
      "F}": 873,
      "\\frac{\\pi": 874,
      "_{M": 875,
      "(T": 876,
      "-3": 877,
      "-m": 878,
      "}_{i": 879,
      "}\\big": 880,
      "dy": 881,
      "\\int_0": 882,
      "=1,": 883,
      ".2": 884,
      "T}": 885,
      "\\right\\}": 886,
      ")\\": 887,
      "{\\theta": 888,
      "{\\c": 889,
      "\\frac{\\delta": 890,
      "{\\vec": 891,
      "&=&": 892,
      "^{\\frac{": 893,
      "e^{-2": 894,
      "ut": 895,
      "}}}": 896,
      "+\\frac{": 897,
      "}},": 898,
      "}^{\\mu": 899,
      "8\\pi": 900,
      "^m": 901,
      "2,": 902,
      "_0}": 903,
      "d^{": 904,
      "\\left\\": 905,
      "\\;,": 906,
      "g^2": 907,
      "\\alpha}": 908,
      "x})": 909,
      "\\stackr": 910,
      "{\\Gamma": 911,
      "\\label{f": 912,
      "C}": 913,
      "^{1/2}": 914,
      "dz": 915,
      "}\\epsilon": 916,
      "{\\gamma": 917,
      ",n": 918,
      "_I": 919,
      "tan": 920,
      "\\left(\\frac{": 921,
      "{k": 922,
      "(\\omega": 923,
      "_0)": 924,
      "\\dots": 925,
      "h}": 926,
      "S}": 927,
      "{\\rho": 928,
      "\\right|": 929,
      "\\label{a": 930,
      "varepsilon": 931,
      "\\g": 932,
      "left(": 933,
      "A_\\mu": 934,
      "_2,": 935,
      "_{\\sigma": 936,
      "_{\\rho": 937,
      "12}": 938,
      "]}": 939,
      "sin": 940,
      "}\\Big": 941,
      "G}": 942,
      "\\frac{\\partial}{\\partial": 943,
      "ong": 944,
      ".\\label{eq:": 945,
      "1)": 946,
      "hbar": 947,
      ":=": 948,
      "-k": 949,
      "\\label{p": 950,
      "}\\cdot": 951,
      "underline{": 952,
      "erp": 953,
      "=\\,": 954,
      "_{\\bar": 955,
      "}{\\delta": 956,
      "^{k": 957,
      "_M": 958,
      ")^": 959,
      "\\left.": 960,
      "{\\omega": 961,
      ",m": 962,
      "}(z": 963,
      "}^{\\infty}": 964,
      "^I": 965,
      "mbox{": 966,
      "or": 967,
      "^{2}+": 968,
      "-p": 969,
      "d^3": 970,
      "}\\end{array": 971,
      "(0)": 972,
      "_1+": 973,
      "}^{\\p": 974,
      ",k": 975,
      "\\label{4": 976,
      "}(k": 977,
      "irc": 978,
      ",\\theta": 979,
      "\\sinh": 980,
      "(\\mu": 981,
      "_x": 982,
      "^{A": 983,
      "\\approx": 984,
      "}{2}\\": 985,
      "}})": 986,
      ")}\\": 987,
      "^{-2}": 988,
      "^{2}}": 989,
      "-\\frac{1}{": 990,
      "(3": 991,
      ")},": 992,
      "\\mu}": 993,
      "}^a": 994,
      "overline": 995,
      "=1": 996,
      "(\\rho": 997,
      "up": 998,
      "_{\\pm": 999,
      "\\cosh": 1000,
      "d\\tau": 1001,
      "_{t": 1002,
      "{p": 1003,
      "tion}": 1004,
      "-x": 1005,
      "\\d": 1006,
      "=\\;": 1007,
      "exp": 1008,
      "}{2\\pi": 1009,
      ",\\\\": 1010,
      "pl": 1011,
      "^{j": 1012,
      "\\star": 1013,
      "\\;.": 1014,
      "}\\equiv": 1015,
      "v}": 1016,
      "}\\hat{": 1017,
      "[A": 1018,
      "}\\hat": 1019,
      "\\lambda}": 1020,
      "&&": 1021,
      "^5": 1022,
      "(x)=": 1023,
      "{\\eta": 1024,
      "}\\Gamma": 1025,
      "=~": 1026,
      "om": 1027,
      "q)": 1028,
      ",t": 1029,
      "^{0": 1030,
      "matrix{": 1031,
      "\\sum_{k": 1032,
      "(\\beta": 1033,
      "}{3": 1034,
      "}]": 1035,
      "^{ij": 1036,
      "textstyle": 1037,
      "-n": 1038,
      "!}": 1039,
      "(f": 1040,
      "^{(n": 1041,
      "brac": 1042,
      "(w": 1043,
      "{i": 1044,
      "cm}": 1045,
      "^{m": 1046,
      ",j": 1047,
      "^{(0)}": 1048,
      "^2\\over": 1049,
      "^{\\pm": 1050,
      "~=~": 1051,
      "P}": 1052,
      "}\\Phi": 1053,
      "\\,\\,\\,\\,": 1054,
      "{\\frac": 1055,
      "meq": 1056,
      "^{(2)}": 1057,
      "k^2": 1058,
      "(\\gamma": 1059,
      "\\geq": 1060,
      "(\\vec{": 1061,
      "eff": 1062,
      "\\sum_{": 1063,
      "mbox": 1064,
      "}\\\\": 1065,
      "\\frac{3": 1066,
      "a^2": 1067,
      ",p": 1068,
      "E}": 1069,
      "_{4": 1070,
      "\\;\\;\\;": 1071,
      "for": 1072,
      "\\mathbf{": 1073,
      "\\neq": 1074,
      "I}": 1075,
      "{q": 1076,
      "_{\\alpha}": 1077,
      "_q": 1078,
      "\\vartheta": 1079,
      "\\int_{": 1080,
      "(\\eta": 1081,
      "Pi": 1082,
      "\\phi}": 1083,
      "(M": 1084,
      ",\\,": 1085,
      "}\\eta": 1086,
      "\\sigma}": 1087,
      "_{[": 1088,
      "_0^2": 1089,
      "}\\sigma": 1090,
      "}^{a": 1091,
      "J}": 1092,
      "\\label{b": 1093,
      "=2": 1094,
      "(R": 1095,
      "0\\\\": 1096,
      "u}": 1097,
      "}{r": 1098,
      "+m": 1099,
      "_{B": 1100,
      "\\rho}": 1101,
      "(\\frac{": 1102,
      "\\hspace{": 1103,
      "plus": 1104,
      "-q": 1105,
      "\\label{t": 1106,
      "-4": 1107,
      "Tr}": 1108,
      "\\label{d": 1109,
      "_i)": 1110,
      "_{d": 1111,
      "{\\cal{": 1112,
      "mm": 1113,
      "(l": 1114,
      "\\end{array}\\right": 1115,
      "\\frac{1}{\\sqrt{": 1116,
      "^\\infty": 1117,
      "_H": 1118,
      "}(t": 1119,
      "}\\theta": 1120,
      "1}{2}": 1121,
      "\\;=\\;": 1122,
      "^c": 1123,
      "{x": 1124,
      "hspace": 1125,
      "\\infty}": 1126,
      "mb": 1127,
      "\\label{eqn": 1128,
      "(v": 1129,
      "_\\beta": 1130,
      "_{ab}": 1131,
      "an": 1132,
      "dr": 1133,
      "\\sum_{j": 1134,
      "}\\rangle": 1135,
      "in}": 1136,
      "_D": 1137,
      "o}": 1138,
      "|0": 1139,
      ")=-": 1140,
      "d^4x": 1141,
      "\\begin{array}{l": 1142,
      "_{\\alpha\\beta": 1143,
      "}^{+": 1144,
      "\\alpha'": 1145,
      "_{R": 1146,
      "\\frac{1}{4}": 1147,
      "}\\alpha": 1148,
      "ki": 1149,
      "ul": 1150,
      "and": 1151,
      "L}_{": 1152,
      "}),": 1153,
      "V}": 1154,
      "\\frac{1}{4": 1155,
      "_\\pm": 1156,
      "}\\,\\": 1157,
      "}^{\\infty": 1158,
      "(E": 1159,
      ",z": 1160,
      "{3": 1161,
      "^{4": 1162,
      "II": 1163,
      "=\\": 1164,
      "\\right),": 1165,
      "_{L": 1166,
      "}(p": 1167,
      "\\frac{\\lambda": 1168,
      "^{N": 1169,
      "(0,": 1170,
      "}_{1}": 1171,
      "}\\bigg": 1172,
      "{\\Phi": 1173,
      "}^{i": 1174,
      "}^\\infty": 1175,
      "\\si": 1176,
      "}_\\mu": 1177,
      "=0}^{": 1178,
      "^{\\infty": 1179,
      "(L": 1180,
      "\\simeq": 1181,
      "^T": 1182,
      "\\frac{m": 1183,
      "}\\,,": 1184,
      "\\frac{\\alpha": 1185,
      "(p)": 1186,
      "_t": 1187,
      "}\\frac{\\partial": 1188,
      "\\label{5": 1189,
      "}\\quad": 1190,
      "cm": 1191,
      "\\right\\": 1192,
      ",b": 1193,
      "\\label{n": 1194,
      ".}": 1195,
      "/2}\\": 1196,
      "(1)}": 1197,
      "u)": 1198,
      "}}+": 1199,
      "_1^2": 1200,
      "-{1\\over": 1201,
      "10": 1202,
      "{\\kappa": 1203,
      "\\right).": 1204,
      "}_{n": 1205,
      "\\label{eqn:": 1206,
      "}\\o": 1207,
      "_{+}": 1208,
      "}^{\\prime": 1209,
      "_F": 1210,
      "^{\\infty}": 1211,
      "\\widetilde{": 1212,
      "}{\\sqrt{": 1213,
      "^{b": 1214,
      "}({\\bf": 1215,
      "=0.": 1216,
      "script": 1217,
      "M^2": 1218,
      "x^2": 1219,
      "(1,": 1220,
      "K}": 1221,
      "}(\\theta": 1222,
      "(4": 1223,
      "\\long": 1224,
      "\\label{g": 1225,
      "}\\,.": 1226,
      "\\pi}": 1227,
      "_i,": 1228,
      "_{11}": 1229,
      "^{\\beta": 1230,
      ")=0": 1231,
      "({\\cal": 1232,
      "_{\\gamma": 1233,
      "|}": 1234,
      "\\ldots,": 1235,
      "(P": 1236,
      "_{D": 1237,
      "{\\pi}": 1238,
      "\\right\\rangle": 1239,
      "onu": 1240,
      "-\\frac{1}{2}": 1241,
      "(\\vec": 1242,
      "d\\theta": 1243,
      "ur": 1244,
      "}=\\frac{": 1245,
      "{\\xi": 1246,
      "sum": 1247,
      "-z": 1248,
      "A_{\\mu": 1249,
      "R^2": 1250,
      "}_n": 1251,
      ".5": 1252,
      "],": 1253,
      "}\\varphi": 1254,
      "ch": 1255,
      "_{q": 1256,
      "_{j}": 1257,
      "^6": 1258,
      "{\\dot": 1259,
      "}^i": 1260,
      "{\\epsilon": 1261,
      "rall": 1262,
      "}(\\tau": 1263,
      "x)": 1264,
      "mathrm{": 1265,
      "\\det": 1266,
      "lo": 1267,
      "}\\tilde": 1268,
      "{}": 1269,
      "_{-\\infty": 1270,
      "SU": 1271,
      "\\widetilde": 1272,
      "^N": 1273,
      "du": 1274,
      "_{n}": 1275,
      "+n": 1276,
      "\\mathrm{": 1277,
      "$}": 1278,
      "mo": 1279,
      "\\mbox": 1280,
      "}}.": 1281,
      "mber": 1282,
      "^{\\mu\\nu}": 1283,
      "^{\\prime}": 1284,
      "_{\\nu}": 1285,
      "old": 1286,
      "cos": 1287,
      "_{5": 1288,
      "\\circ": 1289,
      "^{1}": 1290,
      "}{1": 1291,
      "-s": 1292,
      "_0,": 1293,
      "(\\tau)": 1294,
      "\\bar{z": 1295,
      "-a": 1296,
      "_i}": 1297,
      "ve": 1298,
      "^2=": 1299,
      "\\label{E": 1300,
      ".3": 1301,
      "{\\Lambda": 1302,
      "widetilde": 1303,
      "\\stackrel{": 1304,
      "w}": 1305,
      ",\\label{eq:": 1306,
      "\\perp": 1307,
      "ran": 1308,
      "\\sqrt{2}": 1309,
      "}(x,": 1310,
      ",\\tau": 1311,
      "oldmath": 1312,
      "\\mp": 1313,
      "def": 1314,
      "mathcal{": 1315,
      "(C": 1316,
      "{\\Delta": 1317,
      "\\right)^2": 1318,
      "{r": 1319,
      "_{3}": 1320,
      "(k)": 1321,
      "(b": 1322,
      "\\\\0": 1323,
      "wedge": 1324,
      "}_j": 1325,
      "',": 1326,
      "{4": 1327,
      "_{\\tau": 1328,
      "-2)": 1329,
      "_z": 1330,
      "_\\lambda": 1331,
      "chi": 1332,
      "_{1},": 1333,
      "\\bar{\\psi": 1334,
      "[\\phi": 1335,
      "_{z": 1336,
      "{\\mathcal": 1337,
      "{\\begin{array}{": 1338,
      "(\\pi": 1339,
      "W}": 1340,
      "^{d": 1341,
      "}\\frac{1}{": 1342,
      "{\\boldmath": 1343,
      "}{(2\\pi": 1344,
      ")}.": 1345,
      "%%": 1346,
      "r]": 1347,
      "-1,": 1348,
      "/2)": 1349,
      "(\\Phi": 1350,
      "_T": 1351,
      "}\\omega": 1352,
      "}\\xi": 1353,
      "\\left\\langle": 1354,
      "\\partial_i": 1355,
      "un": 1356,
      "^{2})": 1357,
      "onumber": 1358,
      "+}": 1359,
      "^4}": 1360,
      "{\\sqrt": 1361,
      "ski": 1362,
      ",a": 1363,
      "ss": 1364,
      "}(z)": 1365,
      "_C": 1366,
      "Q}": 1367,
      "}_a": 1368,
      "(z,": 1369,
      "+k": 1370,
      "^3}": 1371,
      "d\\Omega": 1372,
      "g)": 1373,
      "}}{\\partial": 1374,
      "^{\\dagger}": 1375,
      "}).": 1376,
      "}_{\\rm": 1377,
      "(S": 1378,
      "{\\varphi": 1379,
      "_{S": 1380,
      "^{p": 1381,
      "}\\bar{": 1382,
      "{\\tau": 1383,
      "}\\tilde{": 1384,
      "(u)": 1385,
      "\\int_{\\": 1386,
      "(c": 1387,
      "-t": 1388,
      "_6": 1389,
      "\\partial_\\nu": 1390,
      "\\oint": 1391,
      "})^2": 1392,
      "{\\overline": 1393,
      "{\\textstyle": 1394,
      "}^{\\dagger": 1395,
      "_{-}": 1396,
      "1&": 1397,
      "}=\\left(": 1398,
      "(h": 1399,
      "^{I": 1400,
      "_{0}^{": 1401,
      "\\longrightarrow": 1402,
      "^{ab}": 1403,
      "(B": 1404,
      "angle": 1405,
      "{n": 1406,
      "}\\put": 1407,
      "^{ij}": 1408,
      "}\\chi": 1409,
      "p^2": 1410,
      "(\\varphi": 1411,
      "\\>": 1412,
      "\\,=\\,": 1413,
      "\\prod_{i": 1414,
      "d\\phi": 1415,
      "+2}": 1416,
      "fi": 1417,
      "skip": 1418,
      "=\\frac{1}{": 1419,
      "}{4}": 1420,
      "}_{-": 1421,
      "(2)}": 1422,
      "triangle": 1423,
      "\\left\\{\\begin{array}{": 1424,
      "^\\beta": 1425,
      "l[": 1426,
      "(F": 1427,
      "q^2": 1428,
      "_{C": 1429,
      "(j": 1430,
      ")\\right]": 1431,
      "e^2": 1432,
      "{\\chi": 1433,
      "^{\\ast": 1434,
      "_{g": 1435,
      "\\label{A": 1436,
      ",\\dots": 1437,
      "{}^": 1438,
      "^{\\rm": 1439,
      "\\Bigg": 1440,
      "_2^2": 1441,
      "}\\right|": 1442,
      "|x": 1443,
      "-1)}": 1444,
      "\\}=": 1445,
      "\\frac12": 1446,
      ",l": 1447,
      "^\\pm": 1448,
      ",\\alpha": 1449,
      "-\\lambda": 1450,
      "_d": 1451,
      "ub": 1452,
      "{m": 1453,
      "}\\!": 1454,
      "_{\\theta": 1455,
      "(e": 1456,
      "^M": 1457,
      "tr}": 1458,
      ",s": 1459,
      "}\\Psi": 1460,
      "_S": 1461,
      "}\\exp": 1462,
      "\\sum_{\\": 1463,
      "op": 1464,
      "\\sqrt{\\frac{": 1465,
      "Z}": 1466,
      "}\\right)^2": 1467,
      "(1)": 1468,
      "}{2}}": 1469,
      "\\pi^2": 1470,
      "})+": 1471,
      ".0": 1472,
      "^B": 1473,
      "_1=": 1474,
      "_{1,": 1475,
      "\\end{array}\\right.": 1476,
      "{z": 1477,
      "\\label{r": 1478,
      "^{\\dag": 1479,
      ",\\hspace": 1480,
      "-g": 1481,
      "}_{j": 1482,
      "}^{\\alpha": 1483,
      "}_{\\nu": 1484,
      "d^3x": 1485,
      "(Q": 1486,
      "_E": 1487,
      "\\right.": 1488,
      "^{1/": 1489,
      ")^2}": 1490,
      "mp": 1491,
      "_g": 1492,
      "_{\\phi": 1493,
      "\\sin^2": 1494,
      "^{\\rho": 1495,
      "(0": 1496,
      "_h": 1497,
      "}{3}": 1498,
      "(\\epsilon": 1499,
      "=1}^N": 1500,
      "-y": 1501,
      "Xi": 1502,
      "\\oplus": 1503,
      "}_{a": 1504,
      "(x-y)": 1505,
      "wi": 1506,
      "}\\sqrt{": 1507,
      "}\\over{": 1508,
      "(J": 1509,
      "+a": 1510,
      "-{": 1511,
      "|z": 1512,
      "^{c": 1513,
      "}\\pi": 1514,
      "_{k}": 1515,
      "(s)": 1516,
      "+3": 1517,
      "^{-1})": 1518,
      "{\\nu": 1519,
      "}_{0": 1520,
      "}_k": 1521,
      "(\\zeta": 1522,
      "\\stackrel": 1523,
      "}_{m": 1524,
      "^{(i": 1525,
      "\\gamma}": 1526,
      "_3)": 1527,
      "g_{": 1528,
      "^{r": 1529,
      "_o": 1530,
      "}%": 1531,
      ",q": 1532,
      ";\\;": 1533,
      "_{mn": 1534,
      "+\\frac{1}{2}": 1535,
      "X}": 1536,
      "}{k": 1537,
      "+1)}": 1538,
      "(\\bar": 1539,
      "=\\sum": 1540,
      "S_{\\rm": 1541,
      "_n)": 1542,
      "(G": 1543,
      "^{-2": 1544,
      "(\\delta": 1545,
      "\\nonumber": 1546,
      "\\hbox{": 1547,
      "_{AB": 1548,
      "F_{\\mu": 1549,
      "cc}": 1550,
      "\\label{l": 1551,
      "^{(3": 1552,
      ",\\phi": 1553,
      "\\i": 1554,
      "x},": 1555,
      "2\\pi}": 1556,
      "}\\cdots": 1557,
      "^l": 1558,
      "rop": 1559,
      "set": 1560,
      "\\frac{d}{d": 1561,
      "{\\hat{": 1562,
      "].": 1563,
      "{\\left": 1564,
      "}\\rho": 1565,
      ")=\\frac{": 1566,
      "^{a}": 1567,
      "}^{*": 1568,
      "co": 1569,
      "^{i}": 1570,
      "-b": 1571,
      "_\\rho": 1572,
      "_3}": 1573,
      "\\pmatrix{": 1574,
      "\\tan": 1575,
      "\\frac1": 1576,
      "d^": 1577,
      "\\partial_{\\mu}": 1578,
      "Im": 1579,
      "x\\right)": 1580,
      ")^2+": 1581,
      "(q)": 1582,
      "_y": 1583,
      "_{f": 1584,
      "^r": 1585,
      "\\\\&": 1586,
      "\\cdots,": 1587,
      ".4": 1588,
      "_e": 1589,
      "\\frac{k": 1590,
      "er}": 1591,
      "_{\\alpha\\beta}": 1592,
      "\\label{con": 1593,
      ")\\right)": 1594,
      "={": 1595,
      "_P": 1596,
      "^{'": 1597,
      "\\,\\,\\,": 1598,
      "^{3/2}": 1599,
      "}(y)": 1600,
      "\\not": 1601,
      "}\\Delta": 1602,
      ")}+": 1603,
      ",\\xi": 1604,
      "_{m}": 1605,
      "metri": 1606,
      "2)": 1607,
      "SO": 1608,
      "brack": 1609,
      "Re": 1610,
      "}=\\int": 1611,
      "\\widehat{": 1612,
      "&0": 1613,
      ",0": 1614,
      "11}": 1615,
      "eck": 1616,
      "=-\\infty": 1617,
      "}\\overline": 1618,
      "(\\psi": 1619,
      "{\\Omega": 1620,
      "_{\\Lambda": 1621,
      "d^2x": 1622,
      "(H": 1623,
      "}\\nabla": 1624,
      "^{-1/2}": 1625,
      "+\\,": 1626,
      "^{3}": 1627,
      "mathbf{": 1628,
      "_{0}}": 1629,
      "{D": 1630,
      "},\\label{": 1631,
      "\\frac{\\mu": 1632,
      "}\\Omega": 1633,
      "}(t)": 1634,
      "(\\nu": 1635,
      "x,": 1636,
      "_{-1}": 1637,
      "\\le": 1638,
      "dt^2": 1639,
      "}\\begin{array}{": 1640,
      "\\hspace{1": 1641,
      "a_1": 1642,
      "\\tau}": 1643,
      "d\\sigma": 1644,
      "ic": 1645,
      "k)": 1646,
      "/4": 1647,
      ">=": 1648,
      "{A": 1649,
      "_{2}\\": 1650,
      "^{\\alpha}": 1651,
      "\\sum_{m": 1652,
      "\\frac{4": 1653,
      "}_3": 1654,
      "_{1})": 1655,
      "{\\sin": 1656,
      "\\dagger": 1657,
      "const": 1658,
      "(U": 1659,
      "^{\\lambda": 1660,
      ",r": 1661,
      "_{a}": 1662,
      "^{4}": 1663,
      "(\\Lambda": 1664,
      "\\begin{array}{ccc}": 1665,
      "}\\mu": 1666,
      "_0=": 1667,
      "s)": 1668,
      "}{m": 1669,
      "}_{2}": 1670,
      "+4": 1671,
      "-c": 1672,
      "-r": 1673,
      "ag": 1674,
      "^{[": 1675,
      "^2,": 1676,
      "\\frac{g": 1677,
      "\\rangle=": 1678,
      "aa": 1679,
      "-\\alpha": 1680,
      "S=": 1681,
      "ropto": 1682,
      "mm}": 1683,
      "^{M": 1684,
      "\\label{h": 1685,
      "_{\\hat": 1686,
      ",\\beta": 1687,
      "-N": 1688,
      "2i": 1689,
      "ot}": 1690,
      ",i": 1691,
      "{\\Psi": 1692,
      "^{D": 1693,
      "^2}}": 1694,
      "(\\Delta": 1695,
      "(\\nabla": 1696,
      ",\\mu": 1697,
      "{a": 1698,
      "\\,.\\label{": 1699,
      "\\lambda)": 1700,
      ")=\\int": 1701,
      ")|": 1702,
      "{\\left(": 1703,
      "^{\\nu}": 1704,
      "{R": 1705,
      "(2)": 1706,
      "_{2n": 1707,
      "ln": 1708,
      "(\\tilde": 1709,
      "+p": 1710,
      "\\begin{array}{rc": 1711,
      "A_0": 1712,
      "_{{\\rm": 1713,
      "}\\rightarrow": 1714,
      "brace": 1715,
      "=0}": 1716,
      "}_{\\p": 1717,
      "\\sum\\limits": 1718,
      "(4\\pi": 1719,
      "15": 1720,
      "_{\\vec": 1721,
      "_{\\omega": 1722,
      "}(\\phi": 1723,
      "(x,y)": 1724,
      "_{P": 1725,
      "}\\beta": 1726,
      "}\\otimes": 1727,
      ")^{2}": 1728,
      "3,": 1729,
      "l^2": 1730,
      "}{R": 1731,
      "}{4\\pi": 1732,
      "=1}^{N": 1733,
      "+b": 1734,
      "_\\sigma": 1735,
      "{\\tilde{": 1736,
      "}{a": 1737,
      "}\\wedge": 1738,
      "\\vdots": 1739,
      "\\frac{\\sqrt{": 1740,
      "mm]": 1741,
      "L}_": 1742,
      "\\ast": 1743,
      "\\frac{n": 1744,
      "sim": 1745,
      "16\\pi": 1746,
      "et": 1747,
      "_{e": 1748,
      "}\\end{array}\\right)": 1749,
      "\\frac{\\beta": 1750,
      "}[": 1751,
      "\\left(\\begin{array}{cc}": 1752,
      "_2=": 1753,
      "}\\sin": 1754,
      "sqrt": 1755,
      "arrow": 1756,
      "\\partial_{\\mu": 1757,
      "(V": 1758,
      "O}(": 1759,
      "U}": 1760,
      "ze": 1761,
      "|\\phi": 1762,
      "at": 1763,
      "^{(0)": 1764,
      "{\\script": 1765,
      "\\sqrt{-g}": 1766,
      ").\\label{": 1767,
      "A_i": 1768,
      "]+": 1769,
      "mid": 1770,
      "ne": 1771,
      "{\\displaystyle": 1772,
      "\\mu^2": 1773,
      "_{\\pm}": 1774,
      "}\\Lambda": 1775,
      "(Z": 1776,
      "+q": 1777,
      "-\\,": 1778,
      "}}\\left(": 1779,
      "\\frac{\\kappa": 1780,
      "erm": 1781,
      "^{\\bar": 1782,
      "(\\lambda)": 1783,
      "(\\phi)": 1784,
      "e^": 1785,
      "\\theta}": 1786,
      "-\\frac{2": 1787,
      "}\\end{array}": 1788,
      "-}": 1789,
      "_8": 1790,
      "}{N": 1791,
      "(\\hat{": 1792,
      "}\\prod": 1793,
      "\\sum_i": 1794,
      "}\\tau": 1795,
      "}\\varepsilon": 1796,
      "gau": 1797,
      "(x),": 1798,
      "}(x)=": 1799,
      "0&0&0&0&": 1800,
      "scriptstyle": 1801,
      "\\int\\limits": 1802,
      "cl": 1803,
      "{\\nabla": 1804,
      "\\label{m": 1805,
      "_{2})": 1806,
      "-d": 1807,
      "[2": 1808,
      "_v": 1809,
      "}{n": 1810,
      "\\label{S": 1811,
      ")})": 1812,
      "_{i}^{": 1813,
      "\\label{2.": 1814,
      "L}}": 1815,
      "_*": 1816,
      "_u": 1817,
      "_0+": 1818,
      ",\\eta": 1819,
      "{\\bf{q": 1820,
      "\\Xi": 1821,
      "x_2": 1822,
      "}\\vec": 1823,
      "size": 1824,
      "\\sqrt{2": 1825,
      "+d": 1826,
      "F_{\\mu\\nu": 1827,
      "sion": 1828,
      "\\exp\\left(": 1829,
      "-1}{": 1830,
      "_{\\epsilon": 1831,
      "}(q": 1832,
      "ota": 1833,
      "w)": 1834,
      "_{\\xi": 1835,
      "\\begin{array}{l}": 1836,
      "}_{k": 1837,
      ",2": 1838,
      "x_1": 1839,
      "}(\\vec{": 1840,
      "}\\:": 1841,
      "_{21}": 1842,
      "\\label{6": 1843,
      "def}": 1844,
      "^{+}": 1845,
      "+\\alpha": 1846,
      "{g": 1847,
      "}=0,": 1848,
      "-\\partial": 1849,
      "/3": 1850,
      "=i": 1851,
      "_\\perp": 1852,
      "_{\\dot": 1853,
      "}(u": 1854,
      "}_{2": 1855,
      "e}^{-": 1856,
      ")^{-1}": 1857,
      "{\\line": 1858,
      "arge": 1859,
      "}_+": 1860,
      "_n}": 1861,
      "-\\beta": 1862,
      "if": 1863,
      "\\propto": 1864,
      "\\frac{r": 1865,
      "=1}^\\infty": 1866,
      "^{(n)}": 1867,
      ",v": 1868,
      "il": 1869,
      "}^\\mu": 1870,
      "1.": 1871,
      "x^\\mu": 1872,
      "~~~~~": 1873,
      "({": 1874,
      "_{\\cal": 1875,
      "\\partial_z": 1876,
      "{\\widetilde": 1877,
      "}^{2": 1878,
      "partial": 1879,
      "x'": 1880,
      "\\label{v": 1881,
      "}_m": 1882,
      "\\rho^2": 1883,
      "_{n-1}": 1884,
      "{k}}": 1885,
      ")\\over": 1886,
      "-\\mu": 1887,
      "\\partial_{": 1888,
      "^{*}": 1889,
      ",t)": 1890,
      "^{l": 1891,
      "^{s": 1892,
      "}\\right\\}": 1893,
      "\\kappa^2": 1894,
      "({\\rm": 1895,
      "+\\lambda": 1896,
      "^p": 1897,
      "(\\kappa": 1898,
      "\\label{w": 1899,
      "_{1}}": 1900,
      "(K": 1901,
      "2.": 1902,
      "r^2}": 1903,
      "|c": 1904,
      "=1}^{n": 1905,
      "-f": 1906,
      "\\underline": 1907,
      "\\label{B": 1908,
      "\\label{D": 1909,
      "{\\phi}": 1910,
      "\\int_{-\\infty": 1911,
      ",\\bar": 1912,
      "-E": 1913,
      "}{p": 1914,
      "\\gamma^\\mu": 1915,
      "}^*": 1916,
      "eff}": 1917,
      "}\\cos": 1918,
      "=1,2,": 1919,
      ",\\sigma": 1920,
      "ker": 1921,
      "ab}": 1922,
      "tom": 1923,
      "forall": 1924,
      "14": 1925,
      "_J": 1926,
      "(\\hat": 1927,
      "\\Bigl(": 1928,
      "^J": 1929,
      "^R": 1930,
      "a)": 1931,
      "{\\mbox": 1932,
      "_{o": 1933,
      ",\\;": 1934,
      "^L": 1935,
      "c^2": 1936,
      "|n": 1937,
      "\\begin{array}{ll": 1938,
      "3.": 1939,
      "ntom": 1940,
      "pi": 1941,
      "(\\Gamma": 1942,
      "c_1": 1943,
      "k})": 1944,
      "x_0": 1945,
      "al}": 1946,
      "~~~,": 1947,
      "d^{4}": 1948,
      "-\\frac": 1949,
      "={1\\over": 1950,
      "com": 1951,
      "(z)=": 1952,
      "|0\\rangle": 1953,
      "\\L": 1954,
      "\\frac{p": 1955,
      "}(\\sigma": 1956,
      "\\hline": 1957,
      "\\overline{\\psi": 1958,
      "widetilde{": 1959,
      "_\\ell": 1960,
      "\\frac{e": 1961,
      "eq}": 1962,
      "(-i": 1963,
      "em": 1964,
      "n_2": 1965,
      "-\\frac{i": 1966,
      "}(\\xi": 1967,
      "}\\frac{d": 1968,
      "(x,y": 1969,
      "-j": 1970,
      "-\\delta": 1971,
      "A)": 1972,
      "sh": 1973,
      "|\\psi": 1974,
      "H^2": 1975,
      "a}}": 1976,
      "\\frac{a": 1977,
      "}^{(1)}": 1978,
      "\\sum_{n=0": 1979,
      "{\\cos": 1980,
      "\\},": 1981,
      "}(-": 1982,
      "{\\mathcal{": 1983,
      "+\\beta": 1984,
      "O}": 1985,
      "action}": 1986,
      "x}}": 1987,
      ")}{\\partial": 1988,
      "\\begin{array}{ll}": 1989,
      ",g": 1990,
      "[a": 1991,
      "\\ge": 1992,
      "\\matrix{": 1993,
      "m^{2}": 1994,
      "_{4}": 1995,
      "}=\\frac{1}{": 1996,
      "_2+": 1997,
      "\\lambda^2": 1998,
      "\\gamma_5": 1999,
      "\\partial_-": 2000,
      "{i\\over": 2001,
      "A}}": 2002,
      "[J": 2003,
      "heck": 2004,
      "^{(4": 2005,
      ".\\label{s": 2006,
      "(5": 2007,
      "-l": 2008,
      "_{n+1}": 2009,
      "st}": 2010,
      "_\\gamma": 2011,
      "el}": 2012,
      "all": 2013,
      ",\\vec": 2014,
      "ij": 2015,
      "m}}": 2016,
      "map": 2017,
      ",\\gamma": 2018,
      "\\frac{\\Lambda": 2019,
      "_j)": 2020,
      "_{mn}": 2021,
      "_{\\partial": 2022,
      "\\!\\!\\!": 2023,
      "{\\frac{1}{": 2024,
      "c.": 2025,
      "\\label{G": 2026,
      "(\\tilde{": 2027,
      "^{(N": 2028,
      "=1}^{\\infty}": 2029,
      "\\widehat": 2030,
      "+{1\\over": 2031,
      ">0": 2032,
      "^{\\prime}}": 2033,
      "{\\alpha}": 2034,
      "+g": 2035,
      "=\\frac": 2036,
      "A,": 2037,
      "_W": 2038,
      "od": 2039,
      "}\\dot{": 2040,
      "^{\\prime\\prime": 2041,
      "\\Bigr)": 2042,
      "not": 2043,
      "r_+": 2044,
      "}_\\alpha": 2045,
      "^{\\alpha\\beta": 2046,
      "3)": 2047,
      "a_2": 2048,
      "_{\\bf": 2049,
      "\\partial_t": 2050,
      ",}": 2051,
      "}\\left[": 2052,
      "}_{\\beta": 2053,
      "-\\sigma": 2054,
      "ow": 2055,
      "v^2": 2056,
      "\\over\\partial": 2057,
      "^{-}": 2058,
      "\\frac{\\theta": 2059,
      "\\Big)": 2060,
      "^{\\frac{1}{": 2061,
      "R)": 2062,
      "{\\hbar": 2063,
      "\\label{C": 2064,
      "}(y": 2065,
      "}_{1": 2066,
      "_i^2": 2067,
      "}{2}\\right)": 2068,
      "A_1": 2069,
      "^t": 2070,
      "_V": 2071,
      "m)": 2072,
      "~+": 2073,
      "_{J": 2074,
      "dk": 2075,
      "r})": 2076,
      "x}-": 2077,
      "(x)}": 2078,
      "=-i": 2079,
      "\\hskip": 2080,
      "metric}": 2081,
      "gauge": 2082,
      "=\\delta": 2083,
      "[X": 2084,
      "\\partial_+": 2085,
      "3}}": 2086,
      "\\r": 2087,
      "\\left(1": 2088,
      "^{\\prime})": 2089,
      "0|": 2090,
      "_7": 2091,
      "g^{-1}": 2092,
      "r_0": 2093,
      "\\,,\\label{": 2094,
      "\\bar\\theta": 2095,
      "0}}": 2096,
      "_{T": 2097,
      "\\frac{N": 2098,
      "\\right].": 2099,
      "^s": 2100,
      "^\\lambda": 2101,
      "a_i": 2102,
      "ia": 2103,
      "ss}": 2104,
      "}{8": 2105,
      "}+2": 2106,
      "_{0})": 2107,
      "\\mbox{\\boldmath": 2108,
      ".\\end{array}": 2109,
      "oth": 2110,
      "\\label{k": 2111,
      "\\frac{2\\pi": 2112,
      "\\partial^\\mu": 2113,
      "}^{(n": 2114,
      "+2)": 2115,
      "}\\Pi": 2116,
      "}\\;,": 2117,
      "[d": 2118,
      "g_{\\mu": 2119,
      "g_{\\mu\\nu}": 2120,
      "k}}": 2121,
      "}=2": 2122,
      "^{2n": 2123,
      "--": 2124,
      "A'": 2125,
      "[x": 2126,
      "_\\theta": 2127,
      "sy": 2128,
      "}{M": 2129,
      "for}": 2130,
      "ubset": 2131,
      ",c": 2132,
      "_{\\beta}": 2133,
      "(\\chi": 2134,
      "+{\\cal": 2135,
      "star": 2136,
      "^{\\,": 2137,
      "}(p)": 2138,
      "_1\\ldots": 2139,
      "\\varrho": 2140,
      "}{\\hbar": 2141,
      "int}": 2142,
      "+1}}": 2143,
      "$}}": 2144,
      "nt": 2145,
      "}\\{": 2146,
      "^{\\sigma": 2147,
      "\\epsilon}": 2148,
      "=1}^{\\infty": 2149,
      ",\\lambda": 2150,
      "4}}": 2151,
      "^8": 2152,
      "_G": 2153,
      "no": 2154,
      "\\phi^2": 2155,
      "sto": 2156,
      ",1": 2157,
      "hy": 2158,
      "^{(+": 2159,
      "_{0},": 2160,
      "-\\gamma": 2161,
      "D_\\mu": 2162,
      "so": 2163,
      "x^i": 2164,
      "ell}": 2165,
      "^{\\gamma": 2166,
      "-e": 2167,
      "C_2": 2168,
      "d^{2}": 2169,
      "n^2": 2170,
      "z_1": 2171,
      "_{F": 2172,
      "\\label{L": 2173,
      "\\right>": 2174,
      "}+i": 2175,
      "{\\bar{": 2176,
      "L}=": 2177,
      "po": 2178,
      "}\\times": 2179,
      "}(r": 2180,
      "\\\\[": 2181,
      "-1}}": 2182,
      "\\begin{array}{cccc": 2183,
      "-\\omega": 2184,
      "/3}": 2185,
      "=\\frac{1}{2}": 2186,
      "\\label{R": 2187,
      "}(\\lambda": 2188,
      "^{(k": 2189,
      "}{g": 2190,
      "}(X": 2191,
      "}(n": 2192,
      "(t,": 2193,
      "_{ijk}": 2194,
      "{2\\over": 2195,
      "ds^2=": 2196,
      "B}}": 2197,
      "F_{\\mu\\nu}": 2198,
      "T)": 2199,
      "\\text": 2200,
      "a_0": 2201,
      "p_i": 2202,
      "x\\,": 2203,
      "\\leftrightarrow": 2204,
      "\\sqrt{g": 2205,
      "(2n": 2206,
      "\\Big(": 2207,
      "^{0}": 2208,
      "top": 2209,
      "}\\;.": 2210,
      "(w)": 2211,
      "-u": 2212,
      "-\\frac{\\": 2213,
      "S}}": 2214,
      "m_2": 2215,
      "p_2": 2216,
      "\\sp": 2217,
      "det}": 2218,
      "tor": 2219,
      "{\\bf{q}}": 2220,
      "10}": 2221,
      "H}}": 2222,
      "V_{": 2223,
      "}\\}": 2224,
      "}\\zeta": 2225,
      "\\left({": 2226,
      "}^{\\nu": 2227,
      "dx^i": 2228,
      "diag": 2229,
      "{\\alpha}}": 2230,
      "\\alpha^2": 2231,
      ",1}": 2232,
      "-\\tau": 2233,
      "N_c": 2234,
      "\\triangle": 2235,
      "ff": 2236,
      "^{(b": 2237,
      "-1\\right)": 2238,
      "\\frac{i}{2}": 2239,
      "and}": 2240,
      "mapsto": 2241,
      "\\int_{0": 2242,
      "=\\frac{\\": 2243,
      "r^{2}": 2244,
      "y^2": 2245,
      "_{y": 2246,
      "e^{ik": 2247,
      "\\sum_{l": 2248,
      ",N": 2249,
      "f_1": 2250,
      "g_{\\mu\\nu": 2251,
      "h^2": 2252,
      "_{W": 2253,
      "}{}^{": 2254,
      "(\\Omega": 2255,
      "{1\\over2}": 2256,
      "(\\bar{": 2257,
      "p_1": 2258,
      "}_{b": 2259,
      "str": 2260,
      "\\right],": 2261,
      "_{AB}": 2262,
      ",x)": 2263,
      "\\sqrt{-g": 2264,
      "+c": 2265,
      "-w": 2266,
      "\\label{F": 2267,
      "scriptscriptstyle": 2268,
      "}\\displaystyle": 2269,
      "_{i}}": 2270,
      "_{i})": 2271,
      "\\omega^2": 2272,
      "(n-1)": 2273,
      "ree": 2274,
      "e^{\\frac{": 2275,
      "widehat": 2276,
      "\\cos\\theta": 2277,
      "-v": 2278,
      "}\\sum_{n": 2279,
      "(g)": 2280,
      ".1}": 2281,
      "11": 2282,
      "p})": 2283,
      "{$": 2284,
      "phi}": 2285,
      "\\int_0^\\infty": 2286,
      "^{(1)": 2287,
      "+\\frac{1}{": 2288,
      "^1,": 2289,
      "nsion": 2290,
      "sf": 2291,
      "}{1-": 2292,
      "\\over2}": 2293,
      "_i=": 2294,
      "}{\\lambda": 2295,
      "}\\int_0": 2296,
      "\\hspace{0.": 2297,
      "1/": 2298,
      "|m": 2299,
      "_{\\kappa": 2300,
      "\\left(\\begin{array}{c}": 2301,
      "form": 2302,
      "\\left(1-": 2303,
      "~~,": 2304,
      "_{ijk": 2305,
      "(\\xi)": 2306,
      "~+~": 2307,
      "+\\delta": 2308,
      "\\}}": 2309,
      "^\\rho": 2310,
      "of": 2311,
      "}(0)": 2312,
      "}=\\delta": 2313,
      "}^4": 2314,
      "+\\frac": 2315,
      "_{5}": 2316,
      "\\frac{M": 2317,
      "}_-": 2318,
      "\\partial_x": 2319,
      "T_{": 2320,
      "\\frac{2}{": 2321,
      "32": 2322,
      "AB": 2323,
      "_Q": 2324,
      "}\\approx": 2325,
      "_{\\mathrm{": 2326,
      "ds^{2}": 2327,
      "(a)": 2328,
      "\\sum_{i=1}^{": 2329,
      "_{IJ": 2330,
      "00": 2331,
      "^{\\frac": 2332,
      "\\phi)": 2333,
      "}^0": 2334,
      "^2}.": 2335,
      "\\dot{x": 2336,
      "x_i": 2337,
      "{M": 2338,
      "{0.": 2339,
      "^{5": 2340,
      "\\frac{q": 2341,
      "^{\\left(": 2342,
      "^{(-": 2343,
      "}{2})": 2344,
      "d\\xi": 2345,
      "k_2": 2346,
      "rallel": 2347,
      "\\sum_n": 2348,
      "-\\epsilon": 2349,
      "S_0": 2350,
      "}\\dot": 2351,
      "}(r)": 2352,
      "\\begin{array}{cccc}": 2353,
      ",0)": 2354,
      "B)": 2355,
      "ik": 2356,
      "n}}": 2357,
      "langle": 2358,
      "Righ": 2359,
      "YM": 2360,
      "{\\mbox{": 2361,
      "_{E": 2362,
      "\\ll": 2363,
      "}{}": 2364,
      "^{\\dot": 2365,
      "}(a": 2366,
      "\\right)+": 2367,
      "^{2}\\right)": 2368,
      "(\\theta)": 2369,
      "(T)": 2370,
      "[D": 2371,
      "{\\zeta": 2372,
      "^{B": 2373,
      "\\frac{\\omega": 2374,
      "Rightarrow": 2375,
      "(I": 2376,
      "*}": 2377,
      "1/2": 2378,
      "N^2": 2379,
      "^d": 2380,
      "_{\\;\\;": 2381,
      "\\subset": 2382,
      "long": 2383,
      "{\\beta}": 2384,
      "kern": 2385,
      "-\\theta": 2386,
      "{c": 2387,
      "}(2": 2388,
      "\\sqrt{1-": 2389,
      "=1}^n": 2390,
      "^2}{4": 2391,
      "\\pi^2}": 2392,
      "_9": 2393,
      "tin": 2394,
      "on}": 2395,
      "),\\label{": 2396,
      "(t)=": 2397,
      "~~~.": 2398,
      "\\begin{array}{rcl}": 2399,
      ".%": 2400,
      "A_\\nu": 2401,
      "\\|": 2402,
      "k_1": 2403,
      "\\lbrack": 2404,
      "}\\qquad": 2405,
      "}\\mathcal{": 2406,
      "}^+": 2407,
      "\\sqrt{g}": 2408,
      "_K": 2409,
      "is": 2410,
      "{e": 2411,
      "}(s": 2412,
      "(\\ell": 2413,
      "^{(j": 2414,
      "\\Bigl": 2415,
      "(n)": 2416,
      "=2}": 2417,
      "_\\infty": 2418,
      "})^{2}": 2419,
      "^\\ast": 2420,
      "(X)": 2421,
      "^{(i)}": 2422,
      "(|": 2423,
      "+l": 2424,
      "-V": 2425,
      "z^2": 2426,
      "_{K": 2427,
      "}_{+": 2428,
      "\\:\\:": 2429,
      "\\biggl(": 2430,
      "z_2": 2431,
      "_{u": 2432,
      "\\frac{\\Gamma": 2433,
      "\\Bigr": 2434,
      "\\prod_{j": 2435,
      "with": 2436,
      "{\\scriptsize": 2437,
      "'=": 2438,
      "{1}{": 2439,
      "ar}": 2440,
      ",\\rho": 2441,
      "\\bar\\psi": 2442,
      "}\\right).": 2443,
      "\\tau)": 2444,
      "ose": 2445,
      "\\;\\;\\;\\;\\;": 2446,
      "(W": 2447,
      ")^4": 2448,
      "-h": 2449,
      "1)}": 2450,
      "_\\Lambda": 2451,
      "dv": 2452,
      "ke": 2453,
      "}^3": 2454,
      "_j}": 2455,
      "_{jk": 2456,
      ",\\\\&": 2457,
      "_{h": 2458,
      "\\label{sp": 2459,
      "\\left(1+": 2460,
      "})]": 2461,
      "\\phi_2": 2462,
      "pansion": 2463,
      "0}}\\put": 2464,
      "^{AB": 2465,
      "\\stackrel{\\": 2466,
      "\\beta)": 2467,
      "-M": 2468,
      "te": 2469,
      "x^+": 2470,
      "}\\mbox{": 2471,
      "}{6": 2472,
      "}_{\\dot": 2473,
      "_k}": 2474,
      "16}": 2475,
      "X^\\mu": 2476,
      "cd": 2477,
      "d\\varphi": 2478,
      "_{,": 2479,
      "^{\\underline": 2480,
      "phantom": 2481,
      "}\\right),": 2482,
      "\\frac{\\sin": 2483,
      "dx^\\mu": 2484,
      "-D": 2485,
      "jmath": 2486,
      "_{c}": 2487,
      "}{L": 2488,
      "_{\\ell": 2489,
      "{\\partial}": 2490,
      "_{0}^{2}": 2491,
      "^{11}": 2492,
      "_{\\pi": 2493,
      "^{abc}": 2494,
      "}\\frac{\\partial}{\\partial": 2495,
      "N}}": 2496,
      "{Q": 2497,
      "ign": 2498,
      "}=0.": 2499,
      "\\phi_0": 2500,
      ",\\Phi": 2501,
      ")\\,,": 2502,
      ")^3": 2503,
      "|^{2}": 2504,
      "~,\\label{": 2505,
      "_{{\\cal": 2506,
      "\\label{ma": 2507,
      "}(\\alpha": 2508,
      "}^j": 2509,
      "}^{\\beta": 2510,
      "\\begin{array}{r": 2511,
      "(\\sigma)": 2512,
      "[g": 2513,
      "_\\phi": 2514,
      "bul": 2515,
      "d\\omega": 2516,
      "_{\\eta": 2517,
      "\\check": 2518,
      "\\right)=": 2519,
      "_{22}": 2520,
      "\\mbox{for": 2521,
      "\\label{3.": 2522,
      "+\\epsilon": 2523,
      "-A": 2524,
      "-B": 2525,
      "A}_": 2526,
      "H}_{": 2527,
      "_X": 2528,
      "s}}": 2529,
      "_{i},": 2530,
      "mod": 2531,
      "-\\eta": 2532,
      "ba": 2533,
      "^{(a": 2534,
      "}{\\alpha": 2535,
      "(6": 2536,
      "0\\end{array}\\right)": 2537,
      "[L": 2538,
      "^z": 2539,
      "}{1+": 2540,
      "_{\\Sigma": 2541,
      "_4)": 2542,
      "d^{4}x": 2543,
      "-3}": 2544,
      "x^-": 2545,
      "\\\\\\\\": 2546,
      "}+\\frac{": 2547,
      "bound": 2548,
      "^\\dag": 2549,
      "^{n-1}": 2550,
      "\\sqrt{\\frac": 2551,
      "-\\frac{1}{2}\\": 2552,
      "A^a": 2553,
      "D_{\\mu": 2554,
      "H_0": 2555,
      "_w": 2556,
      "_\\epsilon": 2557,
      "_c}": 2558,
      "^2\\right)": 2559,
      "}{l": 2560,
      "_{\\underline{": 2561,
      "\\left<": 2562,
      "})\\,": 2563,
      "\\partial_j": 2564,
      "\\frac{1}{2\\pi": 2565,
      "-2i": 2566,
      "}\\frac{1}": 2567,
      "}^{(0)}": 2568,
      ",y": 2569,
      "G}}": 2570,
      "|k": 2571,
      "|\\Psi": 2572,
      "}F": 2573,
      "\\label{def": 2574,
      ",\\hat{": 2575,
      "\\label{eq:}": 2576,
      "\\label{2.1": 2577,
      "')=": 2578,
      "_p}": 2579,
      "d\\mu": 2580,
      "tt": 2581,
      "}{\\cal": 2582,
      "}{z": 2583,
      "\\label{z": 2584,
      "ing": 2585,
      "{\\bf{k}}": 2586,
      "^{(3)}": 2587,
      ",T": 2588,
      ",d": 2589,
      "-2}\\": 2590,
      "-0.": 2591,
      "\\cr}": 2592,
      "\\imath": 2593,
      "F^2": 2594,
      "m^2}": 2595,
      "}-2": 2596,
      "\\}.": 2597,
      "\\alpha_1": 2598,
      "+\\mu": 2599,
      "F}_{": 2600,
      "\\underline{": 2601,
      "\\Rightarrow": 2602,
      "^D": 2603,
      "f'": 2604,
      "^{(m": 2605,
      "}_A": 2606,
      "-\\frac{1}": 2607,
      "atop": 2608,
      "i,j": 2609,
      "(n+1)": 2610,
      "\\bar{\\theta": 2611,
      "]=i": 2612,
      "(A)": 2613,
      ",-": 2614,
      "-\\left(": 2615,
      "23": 2616,
      "2}\\,": 2617,
      "^x": 2618,
      "gra": 2619,
      "{\\Theta": 2620,
      "\\partial^2": 2621,
      "e^{-\\beta": 2622,
      "gen": 2623,
      "{\\sigma}": 2624,
      ",X": 2625,
      "b)": 2626,
      "q_i": 2627,
      "}{dx": 2628,
      ",L": 2629,
      "=\\pm": 2630,
      "S=\\int": 2631,
      "[{\\cal": 2632,
      "~0": 2633,
      "~.\\label{": 2634,
      "\\,+\\,": 2635,
      "\\partial_{\\bar": 2636,
      "}^{a}": 2637,
      ",\\Lambda": 2638,
      "\\theta)": 2639,
      ")\\,.": 2640,
      "\\sum_{a": 2641,
      "H=": 2642,
      "_4}": 2643,
      "dp": 2644,
      "\\label{re": 2645,
      "}^{A": 2646,
      "\\right)}": 2647,
      "\\frac{1}{3": 2648,
      "}\\,=\\,": 2649,
      "_k)": 2650,
      "(x,x": 2651,
      "f_2": 2652,
      "{N": 2653,
      "||": 2654,
      "^{x": 2655,
      "}(x,y)": 2656,
      "+s": 2657,
      "_{Q": 2658,
      "\\label{T": 2659,
      "hoose": 2660,
      "(r)=": 2661,
      ")^{-": 2662,
      "2n": 2663,
      "ie": 2664,
      "\\;,\\label{": 2665,
      "_3^2": 2666,
      "vartheta": 2667,
      "4\\pi}": 2668,
      "own": 2669,
      "+N": 2670,
      "+\\gamma": 2671,
      "5)": 2672,
      "{\\Sigma": 2673,
      "\\frac{d^2": 2674,
      "_{abc}": 2675,
      "~~~~~~~~": 2676,
      "(0)}": 2677,
      "2}\\right)": 2678,
      "min": 2679,
      "\\phi_1": 2680,
      "\\bigr)": 2681,
      "_{2k": 2682,
      "{\\lambda}": 2683,
      "[A]": 2684,
      "}^n": 2685,
      "_{13}": 2686,
      "}\\frac{\\delta": 2687,
      "\\;\\;\\;\\;\\;\\;": 2688,
      ",\\nu": 2689,
      "H}=": 2690,
      "IN": 2691,
      "_\\Sigma": 2692,
      "g}}": 2693,
      "q^{-": 2694,
      "}{q": 2695,
      "\\frac{x": 2696,
      "\\,\\left(": 2697,
      "},x": 2698,
      "\\ne": 2699,
      "\\bigl": 2700,
      "}_{ij": 2701,
      "\\ddots": 2702,
      "A_{\\mu}": 2703,
      "C}}": 2704,
      "}\\sim": 2705,
      "\\label{di": 2706,
      "_{\\underline": 2707,
      "}^{n": 2708,
      "\\delta_{ij}": 2709,
      "}_b": 2710,
      "\\frac{\\gamma": 2711,
      "1,2,": 2712,
      "L=": 2713,
      "Q^2": 2714,
      "\\label{P": 2715,
      "let": 2716,
      "}^{(1": 2717,
      "-\\frac{3": 2718,
      "}{1\\over": 2719,
      "\\textrm{": 2720,
      ",u": 2721,
      "0\\": 2722,
      "R}}": 2723,
      "\\mapsto": 2724,
      "a_n": 2725,
      "c_2": 2726,
      "_{G": 2727,
      "{\\sum": 2728,
      "_{MN": 2729,
      "+{": 2730,
      "-\\int": 2731,
      "X^{\\mu": 2732,
      "},\\;": 2733,
      "_{n}}": 2734,
      "{\\mathbf": 2735,
      "ll}": 2736,
      "}A": 2737,
      "^{'}": 2738,
      "}{x": 2739,
      "\\label{H": 2740,
      "}^{\\rm": 2741,
      "=0}^\\infty": 2742,
      "}(k)": 2743,
      "tiny": 2744,
      "\\sin\\theta": 2745,
      "&0&": 2746,
      "+\\left(": 2747,
      "C_1": 2748,
      "m^2)": 2749,
      "\\label{7": 2750,
      "right]": 2751,
      "}^{b": 2752,
      "\\frac{\\hbar": 2753,
      "2}\\int": 2754,
      "_{23": 2755,
      "widehat{": 2756,
      "=3": 2757,
      "f)": 2758,
      "ise": 2759,
      "otimes": 2760,
      "}{8\\pi": 2761,
      "\\label{q": 2762,
      "}^\\dagger": 2763,
      "0&0&0&": 2764,
      "+\\": 2765,
      ",\\psi": 2766,
      "L^2": 2767,
      "dr^2": 2768,
      "per": 2769,
      "{f": 2770,
      "{\\varepsilon": 2771,
      "^{~": 2772,
      "}(g": 2773,
      "\\choose": 2774,
      "\\eta)": 2775,
      "e^{2\\pi": 2776,
      "_{jk}": 2777,
      "\\kappa}": 2778,
      "}\\cr": 2779,
      "longrightarrow": 2780,
      "BE": 2781,
      "]=0": 2782,
      "^0)": 2783,
      "_\\omega": 2784,
      "b^2": 2785,
      "mall": 2786,
      "v)": 2787,
      "{\\dot{": 2788,
      "{\\Pi": 2789,
      "_{X": 2790,
      "^{n}": 2791,
      "\\,{": 2792,
      "\\epsilon)": 2793,
      "0){\\line": 2794,
      "\\label{co": 2795,
      "x^{\\mu": 2796,
      "arc": 2797,
      "}{c": 2798,
      "_{\\b": 2799,
      "_{\\infty": 2800,
      "}-i": 2801,
      "+1,": 2802,
      "^{(2)": 2803,
      "}{2\\pi}": 2804,
      "d^D": 2805,
      "4.": 2806,
      "5,": 2807,
      "T^2": 2808,
      "{\\ell": 2809,
      "_{\\varphi": 2810,
      "}(\\partial": 2811,
      "_{\\mu\\nu\\rho": 2812,
      "_{\\perp": 2813,
      "^{++": 2814,
      "^{\\frac{1}{2}": 2815,
      "}\\Bigg": 2816,
      "+\\cdots": 2817,
      "L_0": 2818,
      "\\pmatrix": 2819,
      "\\label{in": 2820,
      "(x_1,": 2821,
      "....": 2822,
      "\\qquad\\qquad": 2823,
      "\\nabla^2": 2824,
      "+M": 2825,
      "-2}}": 2826,
      "A}_{": 2827,
      "Upsilon": 2828,
      "dS": 2829,
      "r}}": 2830,
      "u^2": 2831,
      "}{|": 2832,
      "}=i": 2833,
      "^{12}": 2834,
      ",\\hspace{1": 2835,
      "Ex": 2836,
      "P}}": 2837,
      "]\\": 2838,
      "ca": 2839,
      "cl}": 2840,
      "m_1": 2841,
      "\\label{M": 2842,
      "\\,\\delta": 2843,
      "\\;.\\label{": 2844,
      "\\psi_1": 2845,
      "}^\\prime": 2846,
      "A_2": 2847,
      "g_s": 2848,
      "}^{1": 2849,
      "}_{i}": 2850,
      "|c|c": 2851,
      "M}}": 2852,
      "N)": 2853,
      "b}}": 2854,
      "k'": 2855,
      "y})": 2856,
      "_{\\psi": 2857,
      "}({\\cal": 2858,
      ",\\hat": 2859,
      "\\delta}": 2860,
      "=1}^3": 2861,
      "}(x),": 2862,
      "_{2}}": 2863,
      "\\big)": 2864,
      "ed}": 2865,
      "}^{\\mu}": 2866,
      "\\tanh": 2867,
      "\\hspace{1cm}": 2868,
      ",z)": 2869,
      "[1": 2870,
      "[\\Phi": 2871,
      "gh": 2872,
      "\\label{de": 2873,
      "\\mu\\nu": 2874,
      "}^{ab": 2875,
      "\\frac{\\rho": 2876,
      "\\end{array}\\right]": 2877,
      "\\frac{1}{2}\\int": 2878,
      "+\\sigma": 2879,
      ",{\\bf": 2880,
      "-6": 2881,
      "Y}": 2882,
      "n_1": 2883,
      "make": 2884,
      "^{\\tau": 2885,
      "}_{ab": 2886,
      "_{ik": 2887,
      "=0}^{\\infty": 2888,
      "_{0}+": 2889,
      "}\\sqrt": 2890,
      "(-1)^{\\": 2891,
      "\\bar{z})": 2892,
      "D^2": 2893,
      "T^a": 2894,
      "X^i": 2895,
      "c}}": 2896,
      "ev": 2897,
      "_{H": 2898,
      "_{v": 2899,
      "erg": 2900,
      "\\phi_i": 2901,
      "\\\\\\end{array}": 2902,
      "}\\,\\,": 2903,
      "\\gamma)": 2904,
      "}{\\rho": 2905,
      "\\Big[": 2906,
      "^\\prime)": 2907,
      "}^{\\pm": 2908,
      "+h": 2909,
      ",\\varphi": 2910,
      "=4": 2911,
      "g^{\\mu": 2912,
      "ir": 2913,
      "l)": 2914,
      "tran": 2915,
      "_{~": 2916,
      "_{l}": 2917,
      "_{23}": 2918,
      "(-1)^{": 2919,
      "\\int_{\\Sigma": 2920,
      "(8": 2921,
      "+\\omega": 2922,
      "13": 2923,
      "=\\epsilon": 2924,
      "dim": 2925,
      "scal": 2926,
      "{2\\pi": 2927,
      "_{\\Omega": 2928,
      "qua": 2929,
      "_{\\mu},": 2930,
      "\\alpha)": 2931,
      "J_1": 2932,
      "i}}": 2933,
      "tw": 2934,
      "t}}": 2935,
      "{T": 2936,
      "raise": 2937,
      "}\\Sigma": 2938,
      "}{r}": 2939,
      "}^{k": 2940,
      "\\right)\\,": 2941,
      "^{(\\pm": 2942,
      "\\vec{x": 2943,
      "^{(2)}(": 2944,
      "Tr}(": 2945,
      "\\sum_{p": 2946,
      "(dx": 2947,
      ",A": 2948,
      ",Q": 2949,
      ",r)": 2950,
      "-\\xi": 2951,
      "24": 2952,
      "L)": 2953,
      "[\\alpha": 2954,
      "^\\sigma": 2955,
      "_{eff": 2956,
      "}\\vert": 2957,
      "\\put": 2958,
      "_{\\mbox": 2959,
      "\\bf": 2960,
      "}^{(2)}": 2961,
      "\\sigma_1": 2962,
      "\\exp(-": 2963,
      "^{\\alpha\\beta}": 2964,
      "\\label{4.": 2965,
      "ownarrow": 2966,
      "\\sum_{\\alpha": 2967,
      "-\\phi": 2968,
      "log": 2969,
      "|p": 2970,
      "}_i": 2971,
      "\\left(-": 2972,
      "}^{~": 2973,
      "^{(p": 2974,
      "\\sqrt{1+": 2975,
      "tackrel{": 2976,
      "{z}}": 2977,
      "/4}": 2978,
      "15}": 2979,
      "2\\,": 2980,
      "A^2": 2981,
      "[H": 2982,
      "_{p}": 2983,
      "}\\nu": 2984,
      "\\label": 2985,
      "erp}": 2986,
      "}{\\mu": 2987,
      "{\\sf": 2988,
      "d^{3}": 2989,
      "\\ddot": 2990,
      ")!": 2991,
      "0\\,": 2992,
      "3)}": 2993,
      "RO": 2994,
      "\\textstyle": 2995,
      "pt}": 2996,
      "{{\\cal": 2997,
      "^{t": 2998,
      "}\\mid": 2999,
      "}{}_{": 3000,
      "\\frac{R": 3001,
      "}(1-": 3002,
      "}=\\partial": 3003,
      "le}": 3004,
      "}^1": 3005,
      "{\\beta}}": 3006,
      "}{(2\\pi)^": 3007,
      "\\int_{0}^{": 3008,
      "'}}": 3009,
      "+B": 3010,
      "80": 3011,
      "^C": 3012,
      "har": 3013,
      "oplus": 3014,
      "ure": 3015,
      "the": 3016,
      "^{-3": 3017,
      "\\frac{\\sigma": 3018,
      "\\exp\\left[": 3019,
      "^{(1)}(": 3020,
      "\\biggl": 3021,
      "\\label{4.1": 3022,
      "{3\\over": 3023,
      "+O": 3024,
      "=\\partial": 3025,
      "A_j": 3026,
      "S}_{": 3027,
      "[\\hat{": 3028,
      "\\atop": 3029,
      "dq": 3030,
      "}{(2": 3031,
      "\\label{I": 3032,
      "^{\\underline{": 3033,
      "=0}^{\\infty}": 3034,
      "(\\rho)": 3035,
      "+r": 3036,
      "M)": 3037,
      "[\\xi": 3038,
      "cd}": 3039,
      "f^2": 3040,
      "_{w": 3041,
      "_{\\scriptscriptstyle": 3042,
      ")}{\\Gamma": 3043,
      "\\right)\\right]": 3044,
      "{\\prod": 3045,
      "\\lambda_1": 3046,
      "}^-": 3047,
      "0.0": 3048,
      "(\\alpha)": 3049,
      "(\\partial_": 3050,
      "FO": 3051,
      "F}}": 3052,
      "_s}": 3053,
      "{B": 3054,
      "{C": 3055,
      "}_1": 3056,
      "}{16": 3057,
      "}_{p": 3058,
      "}_{0}": 3059,
      "}^{\\ast": 3060,
      "_3,": 3061,
      "\\bigr": 3062,
      "\\label{3.1": 3063,
      "({\\vec": 3064,
      "23}": 3065,
      "^7": 3066,
      "_{6": 3067,
      "_{b}": 3068,
      "^{j}": 3069,
      "^2.": 3070,
      "}(m": 3071,
      "}_4": 3072,
      "\\sqrt{2}\\": 3073,
      "}{\\sqrt": 3074,
      "_+}": 3075,
      ",2}": 3076,
      "F_1": 3077,
      "^\\Lambda": 3078,
      "{1}": 3079,
      "|\\Phi": 3080,
      "}{dt": 3081,
      "}))": 3082,
      "\\lambda_2": 3083,
      "_{k-1}": 3084,
      "\\bigl(": 3085,
      "\\frac{1}{2}\\,": 3086,
      "\\cos^2": 3087,
      ",h": 3088,
      "T_2": 3089,
      "dX": 3090,
      "d{\\bf": 3091,
      "|)": 3092,
      "^{C": 3093,
      "\\frac{c": 3094,
      "e^{\\phi": 3095,
      "^{(4)}": 3096,
      ",P": 3097,
      "0\\cr": 3098,
      "5)}": 3099,
      "NS": 3100,
      "\\rm": 3101,
      "^K": 3102,
      "g^2}": 3103,
      "\\label{V": 3104,
      "\\mu)": 3105,
      "}^{j": 3106,
      "}_{\\rho": 3107,
      "}_{\\hat": 3108,
      "_{p+1}": 3109,
      "^\\prime}": 3110,
      "{d\\over": 3111,
      "-\\frac{1}{4}": 3112,
      "&0\\\\": 3113,
      "-\\pi": 3114,
      "T_{\\mu": 3115,
      "_\\p": 3116,
      "as": 3117,
      "f(x)": 3118,
      "ou": 3119,
      "{5": 3120,
      "^{J": 3121,
      "}{}^": 3122,
      "}(A": 3123,
      ")=\\frac{1}{": 3124,
      "_{\\mu\\nu}=": 3125,
      "}\\right\\rangle": 3126,
      "\\frac{d^4": 3127,
      "_{MN}": 3128,
      "(0,0)": 3129,
      "+1}{": 3130,
      "=q": 3131,
      "a^{\\dagger": 3132,
      "i\\pi": 3133,
      "{X": 3134,
      "{\\it": 3135,
      "}^{\\hat": 3136,
      "\\frac{3}{2}": 3137,
      "}(x,y": 3138,
      "\\iota": 3139,
      "\\alpha\\beta": 3140,
      ")\\psi": 3141,
      "0.\\label{": 3142,
      "[Q": 3143,
      "_\\tau": 3144,
      "_\\xi": 3145,
      "d\\rho": 3146,
      "|g": 3147,
      "}\\in": 3148,
      "^{\\Lambda": 3149,
      "}_{3": 3150,
      ",\\delta": 3151,
      "dx\\,": 3152,
      "0,0,": 3153,
      "/2)}": 3154,
      "\\frac{\\delta}{\\delta": 3155,
      "Expansion": 3156,
      "')^2": 3157,
      "13}": 3158,
      "A^\\mu": 3159,
      "F^{\\mu": 3160,
      "{\\int": 3161,
      "^{T": 3162,
      "_{i+1}": 3163,
      ")=\\left(": 3164,
      "}_\\nu": 3165,
      "_n=": 3166,
      "(\\partial_\\mu": 3167,
      "=\\left(\\begin{array}{cc}": 3168,
      "fiel": 3169,
      "+\\bar": 3170,
      "Im}": 3171,
      "j}}": 3172,
      "{P": 3173,
      "|y": 3174,
      "ral": 3175,
      "\\phi)^2": 3176,
      "\\phi^i": 3177,
      "\\label{eq:2": 3178,
      "\\sqrt{3": 3179,
      "\\Phi}": 3180,
      "-3)": 3181,
      "\\int_0^1": 3182,
      "(Y": 3183,
      "-{\\cal": 3184,
      "4)": 3185,
      "a_{n": 3186,
      "arallel": 3187,
      "i\\,": 3188,
      "|s": 3189,
      "}\\Theta": 3190,
      "}={1\\over": 3191,
      "\\phi(x)": 3192,
      "\\omega)": 3193,
      "\\label{eq:s": 3194,
      "_{00": 3195,
      "_a}": 3196,
      "dt^2+": 3197,
      "makebox": 3198,
      "=\\langle": 3199,
      "g_{ij": 3200,
      "kl": 3201,
      "reg": 3202,
      "\\label{i": 3203,
      "\\frac{2}": 3204,
      "}(\\beta": 3205,
      "^{(I": 3206,
      "\\frac{\\epsilon": 3207,
      "\\quad,": 3208,
      "_{kl": 3209,
      "_{kl}": 3210,
      "...,": 3211,
      "=1}^{N}": 3212,
      "(v)": 3213,
      "^{\\dag}": 3214,
      "\\alpha_2": 3215,
      "-{1": 3216,
      "^{m}": 3217,
      "_1\\cdots": 3218,
      "^2}\\left(": 3219,
      "\\tau_2": 3220,
      "\\Big]": 3221,
      "}\\partial_{\\mu": 3222,
      "ce}": 3223,
      "(r)}": 3224,
      "i)}": 3225,
      "{[": 3226,
      "{l": 3227,
      "|q": 3228,
      "\\begin": 3229,
      "\\left(x": 3230,
      "\\right)\\": 3231,
      "}_{N": 3232,
      "}_{l": 3233,
      "\\psi_2": 3234,
      "}{\\kappa": 3235,
      "tackrel": 3236,
      "}^{\\dagger}": 3237,
      "{\\cosh": 3238,
      ")\\;": 3239,
      "+A": 3240,
      "-\\Delta": 3241,
      "dw": 3242,
      "m_0": 3243,
      "q}}": 3244,
      "t^2": 3245,
      "zer": 3246,
      "}\\hspace": 3247,
      "\\frac{1}{3}": 3248,
      "\\theta^2": 3249,
      "^2}{\\partial": 3250,
      "4\\pi^2": 3251,
      "(x,t)": 3252,
      "{\\mathrm{": 3253,
      "{\\mu}": 3254,
      "cosh": 3255,
      "}_{\\pm": 3256,
      "=a": 3257,
      "R_{12}": 3258,
      "V'": 3259,
      "e}^{": 3260,
      "e^{\\pm": 3261,
      "n)": 3262,
      "^{6": 3263,
      "igg": 3264,
      "}^k": 3265,
      "2}\\sum": 3266,
      "cccc": 3267,
      "}_{ij}": 3268,
      "\\beta^2": 3269,
      "+f": 3270,
      "+j": 3271,
      "-R": 3272,
      "-\\!": 3273,
      "-y)": 3274,
      "F_{": 3275,
      "g_2": 3276,
      "iota": 3277,
      "{\\widehat": 3278,
      "2})": 3279,
      "\\partial_a": 3280,
      "}_{A": 3281,
      "_{0}=": 3282,
      "^{-1}=": 3283,
      "^+)": 3284,
      "\\label{sol": 3285,
      "\\biggr)": 3286,
      "24}": 3287,
      "V}}": 3288,
      "]\\,": 3289,
      "or}": 3290,
      "par": 3291,
      "|{\\bf": 3292,
      "tic": 3293,
      "}(T": 3294,
      "_1...": 3295,
      "_1\\dots": 3296,
      "^{(l": 3297,
      "\\eta}": 3298,
      "\\hat{\\phi": 3299,
      "{\\theta}": 3300,
      "\\sinh^2": 3301,
      "\\label{ne": 3302,
      "\\frac{\\phi": 3303,
      "\\sum_{r": 3304,
      "+x": 3305,
      ",%": 3306,
      "-\\frac{1}{2": 3307,
      "2m": 3308,
      "A_{\\nu": 3309,
      "H}_": 3310,
      "[f": 3311,
      "]=-": 3312,
      "d\\lambda": 3313,
      "n})": 3314,
      "r\\right)": 3315,
      "^{k}": 3316,
      "}\\kappa": 3317,
      "\\label{la": 3318,
      "\\frac{z": 3319,
      "^{\\hat": 3320,
      "}(u)": 3321,
      "\\overrightarrow": 3322,
      "}^{m": 3323,
      ")=0,": 3324,
      "^{(d": 3325,
      "\\sigma^2": 3326,
      "\\hat{\\cal": 3327,
      "(n)}": 3328,
      "reve": 3329,
      "14}": 3330,
      ";\\quad": 3331,
      "A_{": 3332,
      "F^{\\mu\\nu": 3333,
      "^9": 3334,
      "a'": 3335,
      "ase": 3336,
      "uc": 3337,
      "{u": 3338,
      "\\frac{1-": 3339,
      "\\partial_0": 3340,
      "}^{N": 3341,
      "\\sigma_2": 3342,
      ".\\label{e": 3343,
      "^{-1}\\partial": 3344,
      "\\label{com": 3345,
      "\\end{array}\\right),": 3346,
      "\\gg": 3347,
      ")/": 3348,
      "=n": 3349,
      "={\\cal": 3350,
      "fin": 3351,
      "ian": 3352,
      "|\\alpha": 3353,
      "{\\det": 3354,
      "^{{\\rm": 3355,
      "\\varphi}": 3356,
      "pt]": 3357,
      "(x-x": 3358,
      "(x-y": 3359,
      "uparrow": 3360,
      "ict": 3361,
      "+\\theta": 3362,
      "G^{-1}": 3363,
      "her": 3364,
      ",\\zeta": 3365,
      "^{(s": 3366,
      "\\frac{\\eta": 3367,
      "\\frac{\\tau": 3368,
      "}^{\\dag": 3369,
      "\\sqrt{3}": 3370,
      "^{\\pm}": 3371,
      "\\bar{z}": 3372,
      "^{n+1}": 3373,
      "\\!\\!\\!\\!": 3374,
      "_{\\lambda}": 3375,
      "|0>": 3376,
      "}^{+\\infty}": 3377,
      "^{(-)}": 3378,
      "(\\varepsilon": 3379,
      "17": 3380,
      "der": 3381,
      "k^{2}": 3382,
      "p}}": 3383,
      "ty": 3384,
      "t_1": 3385,
      "^2}{2": 3386,
      "ing}": 3387,
      "}^b": 3388,
      "_{n})": 3389,
      "_{1}\\cdots": 3390,
      "_{k}}": 3391,
      "ren": 3392,
      "_{(0)}": 3393,
      "{pict": 3394,
      "2.1": 3395,
      "U^{-1}": 3396,
      "V_0": 3397,
      "[\\delta": 3398,
      "^{7": 3399,
      "^2-1)": 3400,
      "\\label{K": 3401,
      "\\label{W": 3402,
      "}}{\\sqrt{": 3403,
      "}(R": 3404,
      "}(i": 3405,
      "})-": 3406,
      "}\\star": 3407,
      "\\big(": 3408,
      "(a)}": 3409,
      "\\bar{\\psi}": 3410,
      "18": 3411,
      "P)": 3412,
      "\\matrix": 3413,
      "])": 3414,
      "hskip": 3415,
      "{L": 3416,
      "{v": 3417,
      "_{\\hat{": 3418,
      "}=\\frac": 3419,
      ",\\tilde{": 3420,
      "}\\right.": 3421,
      "(p+1)": 3422,
      "_{\\sigma}": 3423,
      "\\Long": 3424,
      ",J": 3425,
      "56": 3426,
      "96": 3427,
      "I}}": 3428,
      "[-": 3429,
      "a_{": 3430,
      "ddot": 3431,
      "en}": 3432,
      "i\\hbar": 3433,
      "{S": 3434,
      "}^{(2": 3435,
      "lash": 3436,
      ",\\label{s": 3437,
      "^{1/2}\\": 3438,
      "(\\mu)": 3439,
      "\\int_{-": 3440,
      "'})": 3441,
      "+\\bar{": 3442,
      ",&": 3443,
      ".3}": 3444,
      "H_1": 3445,
      "^0,": 3446,
      "k},": 3447,
      "{b": 3448,
      "}{t": 3449,
      "\\label{8": 3450,
      "\\frac{Q": 3451,
      "\\phi^*": 3452,
      "(\\dot": 3453,
      "\\gamma_\\mu": 3454,
      "_{13": 3455,
      "_{10}": 3456,
      "}\\right\\": 3457,
      "(2,": 3458,
      "\\bigoplus": 3459,
      "\\frac{1}{\\sqrt": 3460,
      "~,~": 3461,
      ",\\tau)": 3462,
      "unc": 3463,
      "_{1,2}": 3464,
      "-\\bar": 3465,
      "3.1": 3466,
      "<j": 3467,
      "=\\left[": 3468,
      "ac}": 3469,
      "g^{\\mu\\nu": 3470,
      "z_0": 3471,
      "{s": 3472,
      "}_2": 3473,
      "}_{\\mu": 3474,
      "\\,,\\qquad": 3475,
      "}}-": 3476,
      "^{(\\alpha": 3477,
      "}{\\hat": 3478,
      "}{\\sin": 3479,
      "_{10": 3480,
      "dx^2": 3481,
      "\\mbox{Tr}": 3482,
      "{\\mu}}": 3483,
      "\\downarrow": 3484,
      "(\\vec{x})": 3485,
      ",D": 3486,
      ",Y": 3487,
      ",q)": 3488,
      "CD": 3489,
      "f_0": 3490,
      "g^{2}": 3491,
      "imath": 3492,
      "_{(1": 3493,
      "}\\\\\\": 3494,
      "_{\\tilde": 3495,
      "\\frac{D": 3496,
      "}(-1)": 3497,
      "}^\\alpha": 3498,
      ".\\label{c": 3499,
      "}{\\omega": 3500,
      "^{10}": 3501,
      "^+}": 3502,
      "res": 3503,
      "}(\\tau)": 3504,
      "^{(+)}": 3505,
      "(7": 3506,
      "+v": 3507,
      ".7": 3508,
      ".2}": 3509,
      "B_2": 3510,
      "M}_": 3511,
      "O}_{": 3512,
      "^1}": 3513,
      "p},": 3514,
      "ela": 3515,
      "_{\\delta": 3516,
      "\\frac{1+": 3517,
      "(x_1": 3518,
      "_{ik}": 3519,
      "\\tilde{\\cal": 3520,
      "}_{\\bar": 3521,
      "\\tilde{A": 3522,
      "\\biggr": 3523,
      "^{\\frac{1}{2}}": 3524,
      "\\sum_k": 3525,
      "(\\vartheta": 3526,
      ",B": 3527,
      "<0": 3528,
      "A=": 3529,
      "U(1)": 3530,
      "_\\kappa": 3531,
      "b_0": 3532,
      "h.": 3533,
      "{E": 3534,
      "{2}": 3535,
      "|a": 3536,
      "}|": 3537,
      "\\label{pro": 3538,
      "}=\\frac{1}{2}": 3539,
      "\\partial_{\\nu}": 3540,
      "}^{2}\\": 3541,
      "mathbf": 3542,
      "_{1}^{2}": 3543,
      "\\xi)": 3544,
      "_{\\mu\\nu\\lambda": 3545,
      "}_{\\lambda": 3546,
      "^{2}\\,": 3547,
      "\\nabla_\\mu": 3548,
      "-\\frac{1}{4": 3549,
      "\\ddot{": 3550,
      "longrightarrow}": 3551,
      "'^2": 3552,
      "+2\\pi": 3553,
      ",0}": 3554,
      "22}": 3555,
      "^q": 3556,
      "e^a": 3557,
      "z_i": 3558,
      "{F": 3559,
      "_{ma": 3560,
      "}{e": 3561,
      "_{\\;": 3562,
      "\\frac{l": 3563,
      "}\\right)\\right]": 3564,
      "}^N": 3565,
      "\\epsilon^{\\mu\\nu": 3566,
      "\\{Q": 3567,
      "(z_1": 3568,
      "(t-t": 3569,
      "_{-n": 3570,
      "]=\\int": 3571,
      "(\\beta)": 3572,
      "\\sin^2\\theta": 3573,
      "arctan": 3574,
      "-H": 3575,
      "-X": 3576,
      "V(\\phi": 3577,
      "_m}": 3578,
      "q_2": 3579,
      "{\\tiny": 3580,
      "_{r}": 3581,
      "\\gamma^0": 3582,
      "\\rho)": 3583,
      "\\hat{x": 3584,
      "\\frac{d^3": 3585,
      "{\\mathrm": 3586,
      "{\\sinh": 3587,
      "')}": 3588,
      "-T": 3589,
      "F)": 3590,
      "[C": 3591,
      "}{f": 3592,
      "\\,,\\quad": 3593,
      "}}\\left[": 3594,
      "lef": 3595,
      "(x_1)": 3596,
      "}{\\sigma": 3597,
      "}\\pm": 3598,
      "\\vec{x}": 3599,
      "_5^2": 3600,
      "{\\rho}": 3601,
      ",\\theta)": 3602,
      ",M": 3603,
      "C)": 3604,
      "F,": 3605,
      "G_{\\mu": 3606,
      "P_0": 3607,
      "T_a": 3608,
      "h_1": 3609,
      "n!": 3610,
      "p_0": 3611,
      "r'": 3612,
      "_{x}": 3613,
      "_{\\overline": 3614,
      "}}%": 3615,
      "\\end": 3616,
      ",\\tilde": 3617,
      "_3=": 3618,
      "dx^\\nu": 3619,
      "^\\mu)": 3620,
      "\\int_0^{\\infty}": 3621,
      "-p)": 3622,
      "20": 3623,
      "[N": 3624,
      "g_0": 3625,
      "p_\\mu": 3626,
      "p+1}": 3627,
      "phy": 3628,
      "q})": 3629,
      "stan": 3630,
      "ve}": 3631,
      "{|": 3632,
      "\\,{\\rm": 3633,
      "oten": 3634,
      "\\phi^a": 3635,
      "=0.\\label{": 3636,
      "_{j+1}": 3637,
      "^4)": 3638,
      "\\hat{a": 3639,
      "^2).": 3640,
      "~~~~~~": 3641,
      "action": 3642,
      "(D-2)": 3643,
      "{\\gamma}": 3644,
      "III": 3645,
      "}\\oint": 3646,
      ",n}": 3647,
      "A_+": 3648,
      "D_i": 3649,
      "E_0": 3650,
      "[\\varphi": 3651,
      "pe": 3652,
      "x_j": 3653,
      "^{g": 3654,
      "\\frac{V": 3655,
      "\\in\\Delta": 3656,
      "}^{0": 3657,
      "\\frac{1}{N": 3658,
      "lat": 3659,
      "}{\\nu": 3660,
      "\\quad.": 3661,
      "^3)": 3662,
      "ree}": 3663,
      "_{\\rho}": 3664,
      "(R)": 3665,
      "\\frac{1}{\\sqrt{2}": 3666,
      "form}": 3667,
      "(-2": 3668,
      ",R": 3669,
      ",\\;\\;": 3670,
      "=k": 3671,
      "K}}": 3672,
      "[\\gamma": 3673,
      "m_i": 3674,
      "p^{2}": 3675,
      "x^2}": 3676,
      "{t": 3677,
      "}{T": 3678,
      "_{i}-": 3679,
      "}_c": 3680,
      "\\frac{\\Delta": 3681,
      "\\Lambda^2": 3682,
      "^{1-": 3683,
      "\\overline{\\Psi": 3684,
      "}\\over{d": 3685,
      "leftrightarrow": 3686,
      "{\\circ": 3687,
      "|z|": 3688,
      "\\begin{array}{rcl": 3689,
      "d^{2}x": 3690,
      "&\\\\": 3691,
      "K_1": 3692,
      "L_1": 3693,
      "S_1": 3694,
      "l_s": 3695,
      "sta": 3696,
      "_{\\tilde{": 3697,
      "\\frac{A": 3698,
      ")=2": 3699,
      "}^{\\lambda": 3700,
      "=0,\\label{": 3701,
      "-2k": 3702,
      "\\partial_r": 3703,
      "\\vec{p": 3704,
      "{\\mbox{\\boldmath": 3705,
      "B_{\\mu": 3706,
      "L}_{\\rm": 3707,
      "P}_{": 3708,
      "[i": 3709,
      "a_3": 3710,
      "r},": 3711,
      "tex": 3712,
      "ym": 3713,
      "}D": 3714,
      "_{in": 3715,
      "_{-1": 3716,
      "\\,{\\cal": 3717,
      "^{\\Delta": 3718,
      "(\\Sigma": 3719,
      ",\\Omega": 3720,
      "\\epsilon_{ij}": 3721,
      "=0\\": 3722,
      "(2k": 3723,
      "(t)}": 3724,
      "/2}}": 3725,
      "\\mathbf": 3726,
      "underbrace": 3727,
      "rcl": 3728,
      "(3)": 3729,
      "^{(b)}": 3730,
      "leftarrow": 3731,
      "18}": 3732,
      "={\\rm": 3733,
      "ij}": 3734,
      "^{L": 3735,
      "^{q": 3736,
      "\\pm}": 3737,
      "\\label{j": 3738,
      "\\sigma)": 3739,
      "\\sigma_3": 3740,
      "ect": 3741,
      "}\\,.\\label{": 3742,
      "(1/": 3743,
      "\\sqrt{1": 3744,
      "}{\\left": 3745,
      "_{2}^{2}": 3746,
      "\\Bigr]": 3747,
      "\\frac{d^2}{": 3748,
      "}\\;\\;": 3749,
      "_4^2": 3750,
      "^-)": 3751,
      "(a,b": 3752,
      "^{mn": 3753,
      "|x|": 3754,
      "-p}": 3755,
      "4,": 3756,
      "4)}": 3757,
      "B_1": 3758,
      "N_f": 3759,
      "Q_1": 3760,
      "YM}": 3761,
      "[n": 3762,
      "a_j": 3763,
      "bi": 3764,
      "ns": 3765,
      "\\frac{b": 3766,
      "simeq": 3767,
      "}(q)": 3768,
      "\\\\-": 3769,
      "},\\label{eq:": 3770,
      "}^T": 3771,
      "\\omega}": 3772,
      "\\rangle,": 3773,
      "\\xi}": 3774,
      "}_{\\sigma": 3775,
      "_{2},": 3776,
      "\\partial_\\alpha": 3777,
      "^{1\\over": 3778,
      "}\\int\\limits": 3779,
      "\\frac{1}{\\pi": 3780,
      "(1-x": 3781,
      "\\biggl[": 3782,
      "}\\Bigr)": 3783,
      "new": 3784,
      "36": 3785,
      "=m": 3786,
      "=\\lambda": 3787,
      ">0}": 3788,
      "D}}": 3789,
      "^\\gamma": 3790,
      "f_i": 3791,
      "ol}": 3792,
      "z})": 3793,
      "^2}\\right)": 3794,
      "_{\\chi": 3795,
      "\\frac{L": 3796,
      "\\phi'": 3797,
      "\\\\\\end{array}\\right)": 3798,
      "^{-1},": 3799,
      "_{j})": 3800,
      "_{+})": 3801,
      "\\frac{2}{3}": 3802,
      "{d^2": 3803,
      "Tr}\\,": 3804,
      "}^{\\mu\\nu": 3805,
      "\\,\\,\\,\\,\\,\\,\\,\\,": 3806,
      ".00,": 3807,
      "-P": 3808,
      ".4}": 3809,
      "21}": 3810,
      "6)": 3811,
      ";\\qquad": 3812,
      "q_0": 3813,
      "sc": 3814,
      "{y": 3815,
      "_{U": 3816,
      "^{\\epsilon": 3817,
      "}=-\\frac{": 3818,
      "}^I": 3819,
      ".\\label{f": 3820,
      "\\rangle.": 3821,
      "\\frac{1}{2}}": 3822,
      "dx^j": 3823,
      "\\hat{A": 3824,
      "_1},": 3825,
      "\\sum_{n=-\\infty": 3826,
      "(f)": 3827,
      "}\\biggr)": 3828,
      "\\infty)": 3829,
      "+u": 3830,
      "+\\bar{\\": 3831,
      "=r": 3832,
      "CS": 3833,
      "bc": 3834,
      "p'": 3835,
      "s^2": 3836,
      "x}+": 3837,
      "|\\lambda": 3838,
      "ham": 3839,
      "\\frac{T": 3840,
      "1}}": 3841,
      "}(M": 3842,
      "(\\mathbf{": 3843,
      ")=0.": 3844,
      "}^A": 3845,
      "\\vec{\\sigma": 3846,
      "e^{-t": 3847,
      "\\eta^2": 3848,
      "\\frac{1}{2}\\left(": 3849,
      "dx^{\\mu}": 3850,
      "^i)": 3851,
      "\\Lambda}": 3852,
      "(k)}": 3853,
      "}\\partial_\\mu": 3854,
      "_{IJ}": 3855,
      "(z,\\bar": 3856,
      "'\\,": 3857,
      ")}\\right)": 3858,
      "-5": 3859,
      "-\\nu": 3860,
      ".5}": 3861,
      "17}": 3862,
      "2\\right)": 3863,
      "==": 3864,
      "q_1": 3865,
      "{H": 3866,
      "{V": 3867,
      "}{V": 3868,
      "\\label{int": 3869,
      "ert": 3870,
      "^{-2}\\": 3871,
      "\\cong": 3872,
      "_i+": 3873,
      "}^c": 3874,
      "2\\pi^2": 3875,
      "^2+2": 3876,
      "\\bar{\\Phi": 3877,
      "\\frac{1}{2}\\sum": 3878,
      "=1,2": 3879,
      "exp}": 3880,
      "}(\\vec{x})": 3881,
      "+\\!": 3882,
      ",\\bar{": 3883,
      ",p)": 3884,
      "-Q": 3885,
      "=\\exp": 3886,
      "F_{\\nu": 3887,
      "G_0": 3888,
      "\\})": 3889,
      "_5}": 3890,
      "a^\\dagger": 3891,
      "e^{\\alpha": 3892,
      "g_1": 3893,
      "k^2}": 3894,
      "|\\,": 3895,
      "_{{\\bf": 3896,
      "\\label{1}": 3897,
      "1},": 3898,
      "^{\\dot{": 3899,
      "}(\\varphi": 3900,
      "}^{\\left(": 3901,
      "=0,\\quad": 3902,
      "\\Bigl[": 3903,
      "_m,": 3904,
      "_1,\\ldots": 3905,
      "^{AB}": 3906,
      "}^{(n)}": 3907,
      "+V": 3908,
      "-S": 3909,
      "20}": 3910,
      "AC": 3911,
      "A_{i": 3912,
      "E)": 3913,
      "G}_{": 3914,
      "Z_1": 3915,
      "Z_2": 3916,
      "[\\,": 3917,
      "a^{2}": 3918,
      "h_{\\mu\\nu": 3919,
      "t_2": 3920,
      "{-": 3921,
      "\\left(\\frac{1}{": 3922,
      "_{i=1}^{": 3923,
      "\\delta_{n": 3924,
      "e^{-\\phi": 3925,
      ")^2-": 3926,
      "_{(m": 3927,
      "\\sum_{n=1}^\\infty": 3928,
      "_{bc": 3929,
      "usy": 3930,
      "}^{+}": 3931,
      "}^{\\prime}": 3932,
      ",w": 3933,
      "=T": 3934,
      "=\\frac{2": 3935,
      "B,": 3936,
      "E_i": 3937,
      "LL": 3938,
      "\\Upsilon": 3939,
      "a_k": 3940,
      "ion": 3941,
      "sol": 3942,
      "{{\\bf": 3943,
      "1})": 3944,
      "}(1": 3945,
      "}(1+": 3946,
      "}=1": 3947,
      "\\phi,": 3948,
      "}^{c": 3949,
      "(x;": 3950,
      "\\bar{\\cal": 3951,
      "^{(r": 3952,
      "\\theta_1": 3953,
      "-1&": 3954,
      "\\gamma^5": 3955,
      "}^{\\dot": 3956,
      ".\\label{a": 3957,
      "(p)}": 3958,
      "_-)": 3959,
      "^{-1}\\,": 3960,
      "(x,t": 3961,
      "_{3})": 3962,
      "(2\\pi)^": 3963,
      "\\right\\}.": 3964,
      "e^{-2\\phi": 3965,
      "8\\pi^2": 3966,
      "other": 3967,
      "\\alpha^\\prime": 3968,
      ",S": 3969,
      "-F": 3970,
      "-\\kappa": 3971,
      "=g": 3972,
      "A^{\\mu": 3973,
      "I_1": 3974,
      "J}}": 3975,
      "J_0": 3976,
      "_b}": 3977,
      "_f}": 3978,
      "i\\int": 3979,
      "l^2}": 3980,
      "z}}": 3981,
      "{4\\pi": 3982,
      "~,\\\\": 3983,
      "_{\\Phi": 3984,
      "\\left(\\frac{\\": 3985,
      "\\theta_2": 3986,
      "}_N": 3987,
      "e^{-2\\pi": 3988,
      "e^{4": 3989,
      "(p^2": 3990,
      "_{++": 3991,
      "rcl}": 3992,
      "(m)": 3993,
      "e^{-i\\omega": 3994,
      "(\\omega)": 3995,
      "\\int_{0}^{\\infty}": 3996,
      "+{\\rm": 3997,
      "8)": 3998,
      "E_n": 3999,
      "R_{\\mu": 4000,
      "a_{1}": 4001,
      "{(": 4002,
      "\\left(\\begin{array}{c": 4003,
      ",\\kappa": 4004,
      "{16": 4005,
      "\\label{eq:4": 4006,
      "\\wp": 4007,
      "^{2n}": 4008,
      "e^{ip": 4009,
      "}^{(0)": 4010,
      "\\sum_{n=1}^{\\infty}": 4011,
      "\\sum_{i=1}^": 4012,
      "odd": 4013,
      "\\label{new": 4014,
      "\\sum_{s": 4015,
      "\\alpha_i": 4016,
      "+\\nu": 4017,
      ",j}": 4018,
      "2k": 4019,
      "32}": 4020,
      "64": 4021,
      "=f": 4022,
      "D_m": 4023,
      "RS": 4024,
      "S=-": 4025,
      "T_1": 4026,
      "a,b": 4027,
      "c)": 4028,
      "i)": 4029,
      "n'": 4030,
      "sg": 4031,
      "z^{-": 4032,
      "|\\tau": 4033,
      "{\\l": 4034,
      "\\frac{t": 4035,
      "\\script": 4036,
      "}_{r": 4037,
      "\\left[-": 4038,
      "\\tilde{\\psi": 4039,
      "-1})": 4040,
      "\\end{array}\\right).": 4041,
      "=0}^{n": 4042,
      "&+": 4043,
      "0]": 4044,
      "2\\omega": 4045,
      "3}{2}": 4046,
      "F^{\\mu\\nu}": 4047,
      "P^2": 4048,
      "[p": 4049,
      "_\\varphi": 4050,
      "es": 4051,
      "q^{": 4052,
      "_{\\dot{": 4053,
      "\\frac{B": 4054,
      "\\frac{E": 4055,
      "\\sb": 4056,
      "}}{\\delta": 4057,
      "}(\\mu": 4058,
      "}(\\Phi": 4059,
      "\\mu_2": 4060,
      "{\\partial\\over\\partial": 4061,
      "}_L": 4062,
      "}^{\\rho": 4063,
      "(x)]": 4064,
      "_{12}\\": 4065,
      "-2)}": 4066,
      "^2+m^2": 4067,
      "tor}": 4068,
      "\\frac{1}{2}\\partial": 4069,
      "ds^2=-": 4070,
      "\\frac{1}{\\sqrt{2}}": 4071,
      "_{\\tau}": 4072,
      "\\pi)": 4073,
      "+e": 4074,
      "-K": 4075,
      "34": 4076,
      "T_0": 4077,
      "[K": 4078,
      "p_j": 4079,
      "x_\\mu": 4080,
      "|e": 4081,
      "_{q}": 4082,
      "\\frac{dx": 4083,
      "\\bul": 4084,
      "}={\\cal": 4085,
      "\\partial_1": 4086,
      "}_{12}": 4087,
      "(\\dot{": 4088,
      "_{i}^{2}": 4089,
      "}\\,,\\label{": 4090,
      "\\label{eq:c": 4091,
      "(x))": 4092,
      "_{j}}": 4093,
      "}_{\\gamma": 4094,
      "_a)": 4095,
      "\\partial_b": 4096,
      "_+)": 4097,
      "~,~~~": 4098,
      "=1,\\ldots,": 4099,
      "$$": 4100,
      ".\\label{eq": 4101,
      "=c": 4102,
      "A})": 4103,
      "P_\\mu": 4104,
      "[\\hat": 4105,
      "d\\eta": 4106,
      "g_{ij}": 4107,
      "}{u": 4108,
      "\\label{u": 4109,
      "}=\\frac{\\": 4110,
      ",\\\\\\": 4111,
      ",\\Gamma": 4112,
      "ngth": 4113,
      "\\psi}": 4114,
      "_{k+1}": 4115,
      "(p)=": 4116,
      "\\Big|": 4117,
      "matrix}": 4118,
      "\\frac{\\pi}{2}": 4119,
      "}_{\\nu}": 4120,
      "otential": 4121,
      "';": 4122,
      "+F": 4123,
      "+y": 4124,
      "-~": 4125,
      "8,": 4126,
      "f_n": 4127,
      "orm": 4128,
      "r}\\right)": 4129,
      "ule": 4130,
      "xx": 4131,
      "{\\langle": 4132,
      "{\\makebox": 4133,
      "_{A}": 4134,
      "^{R": 4135,
      "ra}": 4136,
      "}}.\\label{": 4137,
      "}(\\eta": 4138,
      "\\coth": 4139,
      "},\\,": 4140,
      "\\psi_0": 4141,
      "}^{\\;": 4142,
      "^i,": 4143,
      "(\\tau)=": 4144,
      "(-)": 4145,
      "_{3}}": 4146,
      "\\mathcal{O": 4147,
      "\\label{3.2": 4148,
      "(N-1)": 4149,
      "dy^2": 4150,
      "^{(n)}(": 4151,
      "}\\biggr": 4152,
      "}{\\hbar}": 4153,
      "+\\xi": 4154,
      "-\\": 4155,
      "-\\vec": 4156,
      "D}^2": 4157,
      "X_i": 4158,
      "[1-": 4159,
      "k}{(2\\pi": 4160,
      "li": 4161,
      "vac": 4162,
      "_{V": 4163,
      "}\\dots": 4164,
      "\\label{phi": 4165,
      "}(\\omega": 4166,
      "}(\\rho": 4167,
      "\\mu\\nu}": 4168,
      "}=-i": 4169,
      "}^{1}": 4170,
      "\\right)\\left(": 4171,
      "}_B": 4172,
      "}_R": 4173,
      "}^{\\,": 4174,
      "e^{-\\pi": 4175,
      "^{abc": 4176,
      "^{\\ast}": 4177,
      "\\sqrt{\\frac{2": 4178,
      "(0)=": 4179,
      "+\\;": 4180,
      ",~": 4181,
      ".6": 4182,
      "/r": 4183,
      "0,\\label{": 4184,
      "19": 4185,
      "1\\\\": 4186,
      "=x": 4187,
      "M_2": 4188,
      "Q_2": 4189,
      "RE": 4190,
      "WZ": 4191,
      "X^I": 4192,
      "[M": 4193,
      "[k": 4194,
      "]^2": 4195,
      "_Y": 4196,
      "d\\psi": 4197,
      "ee": 4198,
      "out": 4199,
      "term": 4200,
      "y_1": 4201,
      "|l": 4202,
      "}{\\pi": 4203,
      "\\label{Q": 4204,
      "\\label{ex": 4205,
      "_{\\varepsilon": 4206,
      "\\frac{{\\rm": 4207,
      "^{\\hat{": 4208,
      "\\cot": 4209,
      "~~.": 4210,
      "gene": 4211,
      "\\hbox": 4212,
      "}{2}\\,": 4213,
      "\\mbox{$": 4214,
      "{\\pi\\over": 4215,
      "\\prod_{k": 4216,
      "e^{\\beta": 4217,
      "\\hspace{2": 4218,
      "l(l": 4219,
      "tanh": 4220,
      "\\int_{S": 4221,
      "}({\\bf{q": 4222,
      "[\\phi]": 4223,
      "{\\scriptstyle": 4224,
      "2)}": 4225,
      "AN": 4226,
      "A_{0": 4227,
      "Sp": 4228,
      "[B": 4229,
      "\\raise": 4230,
      "a_{2}": 4231,
      "q},": 4232,
      "sign": 4233,
      "t,": 4234,
      "xy": 4235,
      "{h": 4236,
      "|^2)": 4237,
      "^{b}": 4238,
      "}(\\gamma": 4239,
      "}^{3}": 4240,
      "}^{i}": 4241,
      "}_{~": 4242,
      "_{1}=": 4243,
      "_{\\mu\\nu}+": 4244,
      "^2+i": 4245,
      "}\\circ": 4246,
      "_{ij}=": 4247,
      "(u)=": 4248,
      "(-1)^n": 4249,
      "e^{-2\\phi}": 4250,
      "}(z)=": 4251,
      ".00){\\line": 4252,
      "----": 4253,
      ")\\Gamma": 4254,
      "+\\Delta": 4255,
      ",V": 4256,
      "-J": 4257,
      "-m}": 4258,
      "E^2": 4259,
      "^\\perp": 4260,
      "a=": 4261,
      "b)}": 4262,
      "h)": 4263,
      "op}": 4264,
      "_{(2": 4265,
      "}\\simeq": 4266,
      "_{\\!": 4267,
      "_{\\mbox{": 4268,
      "^{\\kappa": 4269,
      ",\\:": 4270,
      "}^\\nu": 4271,
      ".\\label{4": 4272,
      "}{\\Gamma": 4273,
      "(z-z": 4274,
      "\\!-\\!": 4275,
      "}_{\\underline{": 4276,
      "_a,": 4277,
      "}{2m": 4278,
      "\\frac{\\partial^2": 4279,
      "\\bar{\\alpha": 4280,
      "^\\ell": 4281,
      "&&&&": 4282,
      "(\\eta)": 4283,
      "^{\\beta}": 4284,
      "{\\varphi}": 4285,
      "\\alpha_0": 4286,
      "'}{": 4287,
      "(\\,": 4288,
      "(-1,": 4289,
      "-\\tilde": 4290,
      "0\\right)": 4291,
      "A}=": 4292,
      "D_{\\mu}": 4293,
      "L}{\\partial": 4294,
      "N-1}": 4295,
      "T}}": 4296,
      "W^2": 4297,
      "\\cal": 4298,
      "^u": 4299,
      "b_1": 4300,
      "f(r)": 4301,
      "t\\right)": 4302,
      "upsilon": 4303,
      "{8": 4304,
      "}f": 4305,
      "^2}+": 4306,
      "\\label{bo": 4307,
      "_{\\Gamma": 4308,
      "_{\\frac{": 4309,
      "^{\\delta": 4310,
      ")}\\left(": 4311,
      "\\frac{1}{r": 4312,
      "}_{n}": 4313,
      "}_\\beta": 4314,
      "\\label{eq:b": 4315,
      "e^{-S": 4316,
      "dx^-": 4317,
      "}\\partial_{\\mu}": 4318,
      "_{abc": 4319,
      "{picture": 4320,
      "\\sqrt{\\alpha": 4321,
      "\\sum_j": 4322,
      ",m}": 4323,
      "-C": 4324,
      "[R": 4325,
      "dA": 4326,
      "q'": 4327,
      "q^{2}": 4328,
      "}&": 4329,
      "^2)^2": 4330,
      "}{D": 4331,
      "_{\\Delta": 4332,
      "_{\\left": 4333,
      "}(w": 4334,
      "\\partial^{\\mu}": 4335,
      "}_{I": 4336,
      "}_{s": 4337,
      "_{i_1": 4338,
      "_{i}=": 4339,
      "\\gamma^2": 4340,
      "\\omega_n": 4341,
      "\\epsilon^{\\mu": 4342,
      "\\epsilon_{ijk}": 4343,
      ".\\label{p": 4344,
      "\\label{eq:3": 4345,
      "\\Phi_0": 4346,
      "(u,v": 4347,
      "e^{\\lambda": 4348,
      "\\label{2.2": 4349,
      "=\\frac{i": 4350,
      "\\sum_{i=1}": 4351,
      "\\sum_{i=1}^N": 4352,
      "check": 4353,
      ",\\hspace{0.": 4354,
      "^{1/3}": 4355,
      "_{\\bot": 4356,
      "+J": 4357,
      ",i}": 4358,
      "=\\{": 4359,
      "MN": 4360,
      "M_1": 4361,
      "\\}_{": 4362,
      "geq": 4363,
      "u_0": 4364,
      "{j": 4365,
      "_{f}": 4366,
      "_{(1)}": 4367,
      "_{(2)}": 4368,
      "^{\\star": 4369,
      "})\\right]": 4370,
      ")={1\\over": 4371,
      "-1)^2": 4372,
      "}_q": 4373,
      "}_s": 4374,
      "\\sqrt{|": 4375,
      "_{0}^{\\infty": 4376,
      "\\Phi^2": 4377,
      "\\eta_{\\mu\\nu}": 4378,
      "+1\\right)": 4379,
      "^a,": 4380,
      "\\exp\\{": 4381,
      "}\\sum_{k": 4382,
      "{\\frac{1}{2}": 4383,
      "\\biggr]": 4384,
      "}{2}\\int": 4385,
      "\\right\\},": 4386,
      "\\sum_{n=0}^\\infty": 4387,
      "^{(k)}": 4388,
      "~~,~~": 4389,
      "{\\circle": 4390,
      "text{": 4391,
      ".6}": 4392,
      "19}": 4393,
      "28": 4394,
      ";\\": 4395,
      "H_2": 4396,
      "PS": 4397,
      "lu": 4398,
      "nti": 4399,
      "_{B}": 4400,
      "\\lbrace": 4401,
      "^{z": 4402,
      "\\frac{8": 4403,
      "\\,-\\,": 4404,
      "\\frac{1}{8": 4405,
      "{1+": 4406,
      "}^{\\bar": 4407,
      "\\rho_0": 4408,
      "(x)+": 4409,
      "(z)}": 4410,
      "\\hat{g": 4411,
      "\\prime}": 4412,
      "_1,...": 4413,
      "S_{B": 4414,
      "}\\,\\delta": 4415,
      "metric": 4416,
      "\\int_{-\\infty}^{\\infty}": 4417,
      "sym": 4418,
      "norm": 4419,
      "\\frac{\\sinh": 4420,
      ",3": 4421,
      ",\\end{array}": 4422,
      "/l": 4423,
      "1\\right)": 4424,
      "B'": 4425,
      "[\\sigma": 4426,
      "^g": 4427,
      "a_\\mu": 4428,
      "cy": 4429,
      "h_2": 4430,
      "hbox": 4431,
      "i})": 4432,
      "ln}": 4433,
      "mn": 4434,
      "mn}": 4435,
      "x_3": 4436,
      "z\\right)": 4437,
      "{w": 4438,
      "{\\,": 4439,
      "tag": 4440,
      "ary": 4441,
      "\\parallel": 4442,
      "}{s": 4443,
      "\\label{delta": 4444,
      "\\label{gen": 4445,
      "mass}": 4446,
      "um}": 4447,
      "}\\right)^{2": 4448,
      "\\right|^2": 4449,
      "-1/2": 4450,
      "\\frac{\\sqrt": 4451,
      "_{0}-": 4452,
      "-\\frac{m": 4453,
      "/2}\\,": 4454,
      "\\bar{\\eta": 4455,
      "\\bar{\\Psi": 4456,
      "act}": 4457,
      "_{cl": 4458,
      "ant": 4459,
      "(1,0)": 4460,
      "\\label{Eq": 4461,
      "(\\varphi)": 4462,
      "{\\makebox(0,0)": 4463,
      "\\pi)^": 4464,
      ",\\pi": 4465,
      ",H": 4466,
      ".8": 4467,
      "/N": 4468,
      "=\\alpha": 4469,
      "=p": 4470,
      "=\\eta": 4471,
      "AR": 4472,
      "A_-": 4473,
      "EN": 4474,
      "T_{\\mu\\nu": 4475,
      "X^0": 4476,
      "\\uparrow": 4477,
      "^F": 4478,
      "c_{1}": 4479,
      "c_n": 4480,
      "div": 4481,
      "flo": 4482,
      "n_i": 4483,
      "ob": 4484,
      "|=": 4485,
      "_{L}": 4486,
      "}\\mathbf{": 4487,
      "}{b": 4488,
      "\\label{9": 4489,
      "\\label{3}": 4490,
      "\\frac{f": 4491,
      "}(l": 4492,
      "(x')": 4493,
      "\\delta_{i": 4494,
      "}_r": 4495,
      "\\frac{\\tilde{": 4496,
      "\\tilde{\\Phi": 4497,
      "\\label{eq:f": 4498,
      "\\sqrt{2}}": 4499,
      "\\mbox{for}": 4500,
      "{\\pi}}": 4501,
      "_{N-1}": 4502,
      "ent": 4503,
      "e^{-ik": 4504,
      "tru": 4505,
      ")^{d": 4506,
      "ure}": 4507,
      "}\\!\\!": 4508,
      "^{(a)}": 4509,
      "d^{3}x": 4510,
      "\\sum_a": 4511,
      "+\\tau": 4512,
      "+\\frac{1}{2": 4513,
      "-8": 4514,
      "-\\Lambda": 4515,
      "-m^2": 4516,
      "=\\pi": 4517,
      "V_1": 4518,
      "X_1": 4519,
      "_Z": 4520,
      "ddot{": 4521,
      "ea": 4522,
      "k\\right)": 4523,
      "{J": 4524,
      "}S": 4525,
      "2},": 4526,
      "\\partial^{\\mu": 4527,
      "}_{a}": 4528,
      "\\delta(x": 4529,
      "\\sigma_i": 4530,
      "\\label{eq3": 4531,
      "\\frac{\\vec": 4532,
      "}^{\\frac{": 4533,
      "_{00}": 4534,
      "}{\\Lambda": 4535,
      "}(x-y)": 4536,
      "_{-}}": 4537,
      "\\tilde{x": 4538,
      "\\ln\\left(": 4539,
      "\\exp\\left\\{": 4540,
      "energ": 4541,
      "-m)": 4542,
      "SU(2)": 4543,
      "[\\xi|s": 4544,
      "\\alpha\\beta}": 4545,
      "(\\frac": 4546,
      ")\\equiv": 4547,
      "+D": 4548,
      "+)}": 4549,
      ",\\chi": 4550,
      "=R": 4551,
      "=-2": 4552,
      "R^2}": 4553,
      "X_2": 4554,
      "[T": 4555,
      "b'": 4556,
      "b_{n": 4557,
      "d\\tilde": 4558,
      "e}^{i": 4559,
      "j_\\mu": 4560,
      "p_3": 4561,
      "sec": 4562,
      "{{\\partial": 4563,
      "}g": 4564,
      "_{N}": 4565,
      "}{y": 4566,
      "\\label{N": 4567,
      "\\phi_n": 4568,
      "}^{3": 4569,
      ")=\\delta": 4570,
      "}+{\\cal": 4571,
      "\\,\\,,": 4572,
      "_{-})": 4573,
      "}\\;\\;\\;": 4574,
      "(s)}": 4575,
      "_{\\rho\\sigma": 4576,
      "dual": 4577,
      "&0\\cr": 4578,
      ",\\vec{\\sigma": 4579,
      "\\sum_{i}": 4580,
      "\\beta_1": 4581,
      "=(": 4582,
      "B_\\mu": 4583,
      "K_{1}": 4584,
      "[h": 4585,
      "[l": 4586,
      "\\tag": 4587,
      "a^2}": 4588,
      "dl": 4589,
      "i\\gamma": 4590,
      "j_2": 4591,
      "val": 4592,
      "~{\\rm": 4593,
      "}\\to": 4594,
      "^2)}": 4595,
      "mass": 4596,
      "de}": 4597,
      "}^{r": 4598,
      "}\\right)+": 4599,
      "\\varpi": 4600,
      "}+{1\\over": 4601,
      "(z),": 4602,
      "\\Delta}": 4603,
      "_1,\\ldots,": 4604,
      "ity}": 4605,
      "\\prod_{n": 4606,
      "\\dot{q": 4607,
      "\\alpha'}": 4608,
      ";x": 4609,
      "=\\omega": 4610,
      "CH": 4611,
      "S)": 4612,
      "Z=": 4613,
      "[S": 4614,
      "a^4": 4615,
      "e}}": 4616,
      "g'": 4617,
      "hbox{": 4618,
      "z,": 4619,
      "|\\rho": 4620,
      "}(\\vec": 4621,
      "deg": 4622,
      "\\int{": 4623,
      "_{\\mu})": 4624,
      "\\bar{\\phi": 4625,
      "}+g": 4626,
      "e^{a": 4627,
      "+1)}{": 4628,
      "\\hat{T": 4629,
      "spin": 4630,
      "\\cr0": 4631,
      "{\\mu}{\\nu": 4632,
      "=0,1,2,": 4633,
      "(D-1)": 4634,
      "}^{+\\infty": 4635,
      "{4\\over": 4636,
      "x,y": 4637,
      "[2mm]": 4638,
      "^{(j)}": 4639,
      "[\\xi|s]": 4640,
      "+C": 4641,
      ",{\\cal": 4642,
      ",\\omega": 4643,
      "-4}": 4644,
      "-1}{2}": 4645,
      "E_2": 4646,
      "M}_{": 4647,
      "[1+": 4648,
      "_l}": 4649,
      "b_n": 4650,
      "e_j": 4651,
      "g^{\\mu\\nu}": 4652,
      "k_0": 4653,
      "n!}": 4654,
      "su": 4655,
      "{W": 4656,
      "_{R}": 4657,
      "^{(\\": 4658,
      "\\label{ga": 4659,
      "inv": 4660,
      "2}\\left(": 4661,
      "}^{l": 4662,
      "(\\mathcal{": 4663,
      "\\\\\\delta": 4664,
      "\\delta^2": 4665,
      "^{(D": 4666,
      "}_p": 4667,
      "}+m": 4668,
      "\\vec{\\nabla": 4669,
      "{\\small": 4670,
      "^a)": 4671,
      "\\mbox{and}": 4672,
      "_{ij}}": 4673,
      "^{-1/2}\\": 4674,
      "cond": 4675,
      "cond}": 4676,
      "mbox{\\boldmath": 4677,
      "\\!\\!\\!/": 4678,
      "\\bullet": 4679,
      "(\\frac{1}{2}": 4680,
      "48": 4681,
      "G_{\\mu\\nu": 4682,
      "I_2": 4683,
      "Z}}": 4684,
      "c_0": 4685,
      "dg": 4686,
      "ex}": 4687,
      "l_1": 4688,
      "l_2": 4689,
      "q,": 4690,
      "ter": 4691,
      "}'": 4692,
      "\\label{}": 4693,
      "_{\\zeta": 4694,
      "^{\\mathrm{": 4695,
      "}(g)": 4696,
      "}^{I": 4697,
      "}^{p": 4698,
      "\\delta_1": 4699,
      "\\delta_{m": 4700,
      "}^m": 4701,
      ".\\label{b": 4702,
      "e^{-4": 4703,
      "}{\\tilde": 4704,
      "\\right]=": 4705,
      "\\dot\\alpha": 4706,
      "\\partial_y": 4707,
      "\\hat{C": 4708,
      "^{2k": 4709,
      "}\\right].": 4710,
      "}^{2}}": 4711,
      "\\frac{2}{3": 4712,
      "}\\sum_{i": 4713,
      "{\\lambda}}": 4714,
      "ute": 4715,
      ",t)=": 4716,
      "(M)": 4717,
      "}{\\sqrt{2}": 4718,
      "(C)": 4719,
      "~0~0": 4720,
      ",u)": 4721,
      "-2\\pi": 4722,
      "[3": 4723,
      "_r}": 4724,
      "a,": 4725,
      "b_i": 4726,
      "c_{2}": 4727,
      "cur": 4728,
      "j)": 4729,
      "non": 4730,
      "r^2}{": 4731,
      "s})": 4732,
      "|{\\rm": 4733,
      "|\\Omega": 4734,
      "~-~": 4735,
      "^{K": 4736,
      "}\\widetilde": 4737,
      "}\\widetilde{": 4738,
      "align": 4739,
      "}{R}": 4740,
      "\\label{7}": 4741,
      "\\frac{{\\cal": 4742,
      "erp)": 4743,
      "\\sup": 4744,
      "met}": 4745,
      "}(e": 4746,
      "length": 4747,
      "}_{m}": 4748,
      "(\\mbox{": 4749,
      "\\psi(x)": 4750,
      "}_l": 4751,
      "\\quad\\quad": 4752,
      "\\chi^2": 4753,
      "^*)": 4754,
      "\\Sigma}": 4755,
      "}^{(i)}": 4756,
      "(N)": 4757,
      "^{2}\\over": 4758,
      "^{MN": 4759,
      "\\begin{array}{lll}": 4760,
      "A_n": 4761,
      "L_{": 4762,
      "W=": 4763,
      "_U": 4764,
      "_\\Gamma": 4765,
      "c_i": 4766,
      "ff}": 4767,
      "x^": 4768,
      "x^3": 4769,
      "x^\\nu": 4770,
      "{1}{2}": 4771,
      "|{\\cal": 4772,
      "_{7": 4773,
      "}{8}": 4774,
      "\\label{ab": 4775,
      "\\frac{h": 4776,
      "}(f": 4777,
      "}(\\hat{": 4778,
      "\\partial_{x": 4779,
      "\\lambda_i": 4780,
      "^{2}-": 4781,
      "\\frac{\\xi": 4782,
      "}^r": 4783,
      "}^{\\gamma": 4784,
      ".\\label{3": 4785,
      "_{01}": 4786,
      "}{\\tau": 4787,
      "^{\\pi": 4788,
      "integ": 4789,
      "\\,\\,.": 4790,
      "\\partial_\\rho": 4791,
      "_{2m": 4792,
      "\\tilde{a": 4793,
      "\\frac{\\partial^2}{\\partial": 4794,
      "d^{d": 4795,
      "0&0&0&0&0&0&0&0&": 4796,
      "\\sqrt{\\pi}": 4797,
      "\\int\\!": 4798,
      "&$": 4799,
      "&-": 4800,
      "&\\displaystyle": 4801,
      "+\\sum": 4802,
      "+\\phi": 4803,
      "+\\eta": 4804,
      "30": 4805,
      "6}}": 4806,
      ";t": 4807,
      "A_{j": 4808,
      "A}_\\mu": 4809,
      "D_1": 4810,
      "E}}": 4811,
      "F'": 4812,
      "F=": 4813,
      "OT": 4814,
      "Re}": 4815,
      "V(r)": 4816,
      "\\}\\": 4817,
      "b_2": 4818,
      "d^{2}\\": 4819,
      "e_2": 4820,
      "nonumber": 4821,
      "p^+": 4822,
      "x^0": 4823,
      "{{d": 4824,
      "tabul": 4825,
      "}{A": 4826,
      "\\label{8}": 4827,
      "max": 4828,
      "\\frac{1}{4\\pi": 4829,
      "},{\\bf": 4830,
      "^{2}=": 4831,
      "}+O": 4832,
      "\\frac{\\dot{": 4833,
      ".\\label{d": 4834,
      "\\xi^2": 4835,
      "(x)\\,": 4836,
      "\\hat{H": 4837,
      "^2)+": 4838,
      "}{24": 4839,
      "dt\\,": 4840,
      "^{-1}\\right)": 4841,
      "d^2z": 4842,
      "&=&\\displaystyle": 4843,
      "{x}}": 4844,
      "{\\kappa}": 4845,
      "^{3/2}}": 4846,
      "^{(N)}": 4847,
      "+S": 4848,
      ",\\;\\;\\;": 4849,
      "-\\rho": 4850,
      "27": 4851,
      "CI": 4852,
      "C_{n": 4853,
      "F_{\\alpha": 4854,
      "L}_{\\": 4855,
      "R\\,": 4856,
      "\\jmath": 4857,
      "\\arctan": 4858,
      "h_{\\mu": 4859,
      "l}}": 4860,
      "se}": 4861,
      "vi": 4862,
      "{(2": 4863,
      "|B": 4864,
      "|^2}": 4865,
      "|\\chi": 4866,
      "\\label{2}": 4867,
      "\\frac{K": 4868,
      "^{\\phi": 4869,
      "am}": 4870,
      "}\\right)\\,": 4871,
      "\\psi)": 4872,
      "\\epsilon^{ij": 4873,
      "_{0}^{\\infty}": 4874,
      "}{\\epsilon": 4875,
      "}-\\frac{1}{2}": 4876,
      "}(x)}": 4877,
      "_{k})": 4878,
      "L}_0": 4879,
      "}{d\\tau": 4880,
      "}\\sum_{l": 4881,
      "{\\mathbf{": 4882,
      "\\cosh^2": 4883,
      "_{\\gamma}": 4884,
      "|m|": 4885,
      "ases": 4886,
      "\\Longrightarrow": 4887,
      "+\\int": 4888,
      ",~~": 4889,
      "/M": 4890,
      "0})": 4891,
      "25": 4892,
      "D}_{": 4893,
      "G^0": 4894,
      "N-1": 4895,
      "R_1": 4896,
      "U_1": 4897,
      "[\\psi": 4898,
      "_A}": 4899,
      "e_i": 4900,
      "em}": 4901,
      "rel": 4902,
      "r_-": 4903,
      "x_{1}": 4904,
      "{\\vartheta": 4905,
      "ral}": 4906,
      "}{6}": 4907,
      "}(h": 4908,
      "\\left(2": 4909,
      "}\\,{": 4910,
      "\\label{eq4": 4911,
      "),\\label{eq:": 4912,
      "}(x,x": 4913,
      "_{\\mu\\nu},": 4914,
      "\\bar{Q": 4915,
      "\\hat{H}": 4916,
      "(k^2)": 4917,
      "-\\frac{4": 4918,
      ")+2": 4919,
      "_{+}}": 4920,
      "\\dot{X": 4921,
      "\\label{en": 4922,
      "e^{2\\phi": 4923,
      "=0,1,": 4924,
      "\\hbar}": 4925,
      "d\\Omega^2": 4926,
      "(\\zeta)": 4927,
      "x},t)": 4928,
      "even": 4929,
      "+\\pi": 4930,
      "+Q": 4931,
      "-L": 4932,
      "-U": 4933,
      "V=": 4934,
      "[r": 4935,
      "\\ell}": 4936,
      "^\\star": 4937,
      "ep": 4938,
      "ey": 4939,
      "g_{\\rm": 4940,
      "i},": 4941,
      "t_0": 4942,
      "u_2": 4943,
      "{tabul": 4944,
      "|\\vec{": 4945,
      "{\\L": 4946,
      "^{{": 4947,
      "}{ds": 4948,
      "}{N}": 4949,
      "\\slash": 4950,
      "\\left(\\frac": 4951,
      "\\cap": 4952,
      "})\\": 4953,
      "}=g": 4954,
      "\\delta\\phi": 4955,
      "\\delta_{ij": 4956,
      "\\rho\\sigma": 4957,
      "}-g": 4958,
      "}-{1\\over": 4959,
      "}(x)+": 4960,
      "\\partial_\\beta": 4961,
      "\\tilde{g}": 4962,
      "_s^2": 4963,
      ")}(z": 4964,
      "\\begin{array}{cc}0": 4965,
      "acute": 4966,
      "-k)": 4967,
      "\\label{par": 4968,
      "(E)": 4969,
      "\\sum_{n=0}^{\\infty}": 4970,
      "ian}": 4971,
      "trans": 4972,
      "_{\\mbox{\\scriptsize": 4973,
      "harpo": 4974,
      "otherwi": 4975,
      "+K": 4976,
      "+\\frac{i": 4977,
      "-G": 4978,
      "-\\varepsilon": 4979,
      "F_2": 4980,
      "J_2": 4981,
      "M^2}": 4982,
      "P_1": 4983,
      "T^{": 4984,
      "[{\\bf": 4985,
      "ct}": 4986,
      "d\\alpha": 4987,
      "d^{10}": 4988,
      "e^{2}": 4989,
      "k}\\,": 4990,
      "v_i": 4991,
      "z_j": 4992,
      "{G": 4993,
      "|\\omega": 4994,
      "{\\imath": 4995,
      "\\pha": 4996,
      "}{5": 4997,
      "\\label{Z": 4998,
      "\\breve": 4999,
      "}(P": 5000,
      "^{-s": 5001,
      "})^{-1}": 5002,
      "}^{b}": 5003,
      ",\\Psi": 5004,
      "{\\partial^2": 5005,
      "xi}": 5006,
      "}+\\frac{1}{2}": 5007,
      "_\\mu)": 5008,
      "}{\\longrightarrow}": 5009,
      ",\\label{a": 5010,
      "\\bar{u": 5011,
      "^2+r^2": 5012,
      "}\\int_{-\\infty": 5013,
      "\\prod\\limits": 5014,
      "\\label{chi": 5015,
      "e^{\\frac": 5016,
      "\\label{scal": 5017,
      "_{(0)": 5018,
      "^{3}}": 5019,
      "_{II": 5020,
      "\\sum_{j=1}^{": 5021,
      "}^{ij": 5022,
      "\\prod_{i=1}^{": 5023,
      "gauge}": 5024,
      "^{(m)}": 5025,
      "0.00}}\\put": 5026,
      "\\phantom": 5027,
      "'')": 5028,
      "(-1": 5029,
      "+H": 5030,
      "+\\partial": 5031,
      ",Z": 5032,
      "-\\infty": 5033,
      "-z)": 5034,
      "1\\over": 5035,
      "A_k": 5036,
      "End": 5037,
      "L_n": 5038,
      "M_0": 5039,
      "d^n": 5040,
      "e_1": 5041,
      "lim": 5042,
      "t}=": 5043,
      "|\\vec": 5044,
      "|^2+": 5045,
      "}{a}": 5046,
      "}(0": 5047,
      "}(v": 5048,
      "}(s)": 5049,
      "theta}": 5050,
      "\\left[\\left(": 5051,
      "mathcal": 5052,
      "\\Phi_1": 5053,
      "\\!+\\!": 5054,
      "}{2}\\left(": 5055,
      "-1)!": 5056,
      "\\mbox{and": 5057,
      "^2}{4}": 5058,
      "+2i": 5059,
      "_{\\perp}": 5060,
      "\\,,\\,": 5061,
      "{\\rho}}": 5062,
      "}\\Big)": 5063,
      "-n)": 5064,
      "^{IJ": 5065,
      "}^{*}": 5066,
      "sol}": 5067,
      "\\begin{array}{ccccc}": 5068,
      "\\sum_{b": 5069,
      "(\\infty": 5070,
      "+L": 5071,
      "+m}": 5072,
      "+\\ldots": 5073,
      ",K": 5074,
      ",k}": 5075,
      "3},": 5076,
      "6)}": 5077,
      "D_0": 5078,
      "D_\\alpha": 5079,
      "F^a": 5080,
      "K^2": 5081,
      "[G": 5082,
      "^E": 5083,
      "_\\delta": 5084,
      "a},": 5085,
      "end{array": 5086,
      "q_3": 5087,
      "rot": 5088,
      "ton": 5089,
      "te}": 5090,
      "u_1": 5091,
      "|_{x": 5092,
      "\\label{action}": 5093,
      "_{\\pa": 5094,
      "\\frac{1": 5095,
      "^{\\;": 5096,
      "}(0,": 5097,
      "_0)}": 5098,
      "\\right)^{-1}": 5099,
      ",\\dot": 5100,
      ")=1": 5101,
      "}\\right)\\": 5102,
      "\\gamma^i": 5103,
      "}_1}": 5104,
      "^{\\mu},": 5105,
      "\\hat{\\Gamma": 5106,
      "A}_{\\mu": 5107,
      "\\mathcal{A": 5108,
      "(i,j": 5109,
      "(y)=": 5110,
      "tr}\\,": 5111,
      "(\\ln": 5112,
      "+\\rho": 5113,
      "-k}": 5114,
      "1]": 5115,
      "=M": 5116,
      "=N": 5117,
      "=\\sqrt{": 5118,
      "D_{i": 5119,
      "G)": 5120,
      "P_i": 5121,
      "P_n": 5122,
      "S_{n": 5123,
      "]-": 5124,
      "_N}": 5125,
      "f}{\\partial": 5126,
      "kl}": 5127,
      "t)}": 5128,
      "t_i": 5129,
      "x^{2}": 5130,
      "|A": 5131,
      "rightharpo": 5132,
      "\\left({\\cal": 5133,
      "\\left(\\begin{array}{ccc}": 5134,
      "_1)}": 5135,
      "psi}": 5136,
      "_{i}+": 5137,
      "_{i-1}": 5138,
      "}+\\frac{1}{": 5139,
      "\\tau_1": 5140,
      "}{\\gamma": 5141,
      "_{1/2}": 5142,
      ")^2\\over": 5143,
      "\\chi)": 5144,
      "_k,": 5145,
      "^i_j": 5146,
      "\\dot{\\phi": 5147,
      "_{-n}": 5148,
      "}\\partial_i": 5149,
      "^2}{3": 5150,
      "0.3": 5151,
      "(\\tau,": 5152,
      ")\\,=\\,": 5153,
      "^{++}": 5154,
      "_{3},": 5155,
      "\\label{e:": 5156,
      "\\sum_{i,j": 5157,
      "constan": 5158,
      "uper": 5159,
      "^{4}}": 5160,
      "charge": 5161,
      "\\left\\{\\begin{array}{ll}": 5162,
      "}{4\\pi}": 5163,
      "rightharpoonu": 5164,
      "\\beta_2": 5165,
      "!}}": 5166,
      "(\\pm": 5167,
      ",\\epsilon": 5168,
      "G_N": 5169,
      "H)": 5170,
      "U)": 5171,
      "X)": 5172,
      "_H}": 5173,
      "cla": 5174,
      "d\\bar": 5175,
      "e^{(": 5176,
      "ix": 5177,
      "p_{1}": 5178,
      "p^\\mu": 5179,
      "q_j": 5180,
      "{z}": 5181,
      "|f": 5182,
      "|\\eta": 5183,
      "_{8": 5184,
      "_{M}": 5185,
      "_{\\,": 5186,
      "\\frac{s": 5187,
      "\\frac{u": 5188,
      "^{\\omega": 5189,
      "^{-4": 5190,
      "^{-3}": 5191,
      "\\nu}=": 5192,
      ")=\\sum": 5193,
      "}\\right)}": 5194,
      "{\\partial\\over": 5195,
      "~~,\\label{": 5196,
      "-1}\\over": 5197,
      "}_D": 5198,
      "}^{\\sigma": 5199,
      "\\Phi)": 5200,
      "(z)+": 5201,
      "=-{1\\over": 5202,
      "(p^2)": 5203,
      "\\hat{G": 5204,
      "ccc}": 5205,
      "}\\;=\\;": 5206,
      "}\\right],": 5207,
      "_{34": 5208,
      "{\\sqrt{2}": 5209,
      "\\displaystyle{": 5210,
      "_{I}": 5211,
      "\\label{5.1": 5212,
      "rans": 5213,
      "{\\Delta}": 5214,
      "aaa": 5215,
      "\\int_{-\\infty}^\\infty": 5216,
      "\\hspace{0.5": 5217,
      "INE": 5218,
      ",\\hspace{1cm}": 5219,
      "rightharpoonup": 5220,
      "\\int_{\\partial": 5221,
      "+\\tilde": 5222,
      "-\\frac{\\pi": 5223,
      "7)": 5224,
      "=\\gamma": 5225,
      "E_1": 5226,
      "J_\\mu": 5227,
      "J^0": 5228,
      "V_{\\rm": 5229,
      "[4": 5230,
      "\\Im": 5231,
      "^y": 5232,
      "dV": 5233,
      "d^6": 5234,
      "es}": 5235,
      "j_1": 5236,
      "k\\over": 5237,
      "l_{1}": 5238,
      "p^2+": 5239,
      "pot}": 5240,
      "rel}": 5241,
      "t},": 5242,
      "w^2": 5243,
      "x}\\right)": 5244,
      "y_2": 5245,
      "|^2-": 5246,
      "_{|": 5247,
      "^{N}": 5248,
      "}{=": 5249,
      "}{12}": 5250,
      "\\label{mo": 5251,
      "\\bot": 5252,
      "}(N": 5253,
      "\\left(\\partial": 5254,
      "\\mu_{p": 5255,
      "(x_2)": 5256,
      "_{i_1}": 5257,
      "}+\\partial": 5258,
      "}^M": 5259,
      "}{\\eta": 5260,
      "(x).": 5261,
      "\\varphi)": 5262,
      "(z-w": 5263,
      "dx^{\\mu": 5264,
      "}{2},": 5265,
      "\\partial_m": 5266,
      "\\overline{\\eta": 5267,
      "1,1,": 5268,
      "e^{i\\omega": 5269,
      "_b)": 5270,
      "}\\sum_{m": 5271,
      "+i\\epsilon": 5272,
      "\\sum_{n=1}^{\\infty": 5273,
      "(2\\pi)": 5274,
      "(d-2)": 5275,
      "_N)": 5276,
      "\\label{4.2": 5277,
      "(4)": 5278,
      "}\\int_0^\\infty": 5279,
      "sgn": 5280,
      "+n}": 5281,
      "-{\\bf": 5282,
      "/R": 5283,
      "/T": 5284,
      "0;": 5285,
      "31}": 5286,
      "BRO": 5287,
      "CAN": 5288,
      "KEN": 5289,
      "L_2": 5290,
      "L}^{": 5291,
      "LINE": 5292,
      "M}=": 5293,
      "NOT": 5294,
      "OW": 5295,
      "S^{-1}": 5296,
      "X^\\nu": 5297,
      "[\\beta": 5298,
      "[\\rho": 5299,
      "]},": 5300,
      "ction}": 5301,
      "f^{abc}": 5302,
      "k_i": 5303,
      "p+1": 5304,
      "s.": 5305,
      "x^j": 5306,
      "{\\m": 5307,
      "}{k}": 5308,
      "}{(1+": 5309,
      "}{(4\\pi": 5310,
      "inst": 5311,
      "_{\\infty}": 5312,
      "eftrightarrow": 5313,
      "}(E": 5314,
      "\\phi_j": 5315,
      "}^{t": 5316,
      "}_{B": 5317,
      "\\delta_{": 5318,
      "\\theta\\,": 5319,
      "\\psi^{\\dagger": 5320,
      "\\gamma_1": 5321,
      "}+\\lambda": 5322,
      "=0\\,": 5323,
      "\\partial_\\tau": 5324,
      "}\\sp": 5325,
      "\\frac{dz": 5326,
      ")+i": 5327,
      "_{12})": 5328,
      "8\\pi}": 5329,
      "dz^2": 5330,
      "_{[\\mu": 5331,
      "{}~": 5332,
      "(B)": 5333,
      "\\int\\limits_0": 5334,
      "comp": 5335,
      "ING": 5336,
      "BEFO": 5337,
      "FOLL": 5338,
      "BROKEN": 5339,
      "CANNOT": 5340,
      "OWING": 5341,
      "BEFORE": 5342,
      "FOLLOWING": 5343,
      "/\\partial": 5344,
      "6,": 5345,
      ";k": 5346,
      ";q": 5347,
      "<0|": 5348,
      "=C": 5349,
      "=\\mu": 5350,
      "AB}": 5351,
      "O}}": 5352,
      "P_+": 5353,
      "ag}": 5354,
      "f(x": 5355,
      "i_2": 5356,
      "if}": 5357,
      "m})": 5358,
      "r_2": 5359,
      "r^2)": 5360,
      "son": 5361,
      "|Z": 5362,
      "}.\\label{": 5363,
      "_{s}": 5364,
      "_{z}": 5365,
      "}(L": 5366,
      "}(d": 5367,
      "}(\\Omega": 5368,
      "\\cases": 5369,
      "(\\Psi": 5370,
      ")=\\frac": 5371,
      "},t": 5372,
      "\\left[1": 5373,
      "\\epsilon_2": 5374,
      "\\epsilon_{\\mu": 5375,
      "\\right]\\": 5376,
      "_{\\mu\\nu\\lambda}": 5377,
      "(2l": 5378,
      "(t),": 5379,
      "gen}": 5380,
      "}\\stackrel{": 5381,
      "\\frac{dt": 5382,
      "\\rightarrow\\infty": 5383,
      "x}^2": 5384,
      "}\\end": 5385,
      "\\label{13}": 5386,
      "~,~~": 5387,
      "e^{-ip": 5388,
      ",k)": 5389,
      "}\\hat{\\nu": 5390,
      "\\int_{\\cal": 5391,
      "}\\begin{array}{c}": 5392,
      "0\\end{array}": 5393,
      "12}\\": 5394,
      "=\\frac{1}{2": 5395,
      "B^2": 5396,
      "Begin": 5397,
      "B_{\\mu\\nu": 5398,
      "CS}": 5399,
      "J_a": 5400,
      "O(": 5401,
      "P_2": 5402,
      "R_2": 5403,
      "V_i": 5404,
      "\\{\\": 5405,
      "bc}": 5406,
      "g_{ab": 5407,
      "n\\pi": 5408,
      "q^i": 5409,
      "u'": 5410,
      "x_n": 5411,
      "{dx": 5412,
      "\\frac{y": 5413,
      "}(\\Lambda": 5414,
      "\\over{": 5415,
      "ond": 5416,
      "^{-n": 5417,
      "\\partial_k": 5418,
      "\\frac{1}{z": 5419,
      "\\\\&&": 5420,
      "~~.\\label{": 5421,
      "-1/2}": 5422,
      "para": 5423,
      "(1-2": 5424,
      "(1+2": 5425,
      "\\left[1+": 5426,
      "\\epsilon^2": 5427,
      ",\\label{e": 5428,
      "\\hat{\\rm": 5429,
      "\\hat{\\psi": 5430,
      "\\bigl[": 5431,
      "{\\pi^2": 5432,
      "^2}{8": 5433,
      "_c)": 5434,
      "(i)": 5435,
      "\\;,\\;\\;": 5436,
      "\\int_{{\\cal": 5437,
      "{\\cal{L}}": 5438,
      "}\\oplus": 5439,
      "(h)": 5440,
      "}\\sinh": 5441,
      "}\\cosh": 5442,
      "\\rbrace": 5443,
      "\\sum^{\\infty": 5444,
      "\\alpha_j": 5445,
      "2N": 5446,
      "2g": 5447,
      ":&": 5448,
      "=A": 5449,
      "Ad": 5450,
      "CP": 5451,
      "CD}": 5452,
      "D}_": 5453,
      "H_{\\rm": 5454,
      "MAC": 5455,
      "Q}}": 5456,
      "R})": 5457,
      "S_i": 5458,
      "TCI": 5459,
      "U_0": 5460,
      "^n}": 5461,
      "^6}": 5462,
      "e_{a": 5463,
      "f(z)": 5464,
      "k_{1}": 5465,
      "u}}": 5466,
      "x^{2": 5467,
      "x})=": 5468,
      "^{8": 5469,
      "}{16\\pi": 5470,
      "\\frac{5": 5471,
      "\\frac{v": 5472,
      "\\delta(x-y)": 5473,
      "\\tilde{\\phi": 5474,
      "2}\\epsilon": 5475,
      "_{1}\\ldots": 5476,
      "\\bar{q": 5477,
      "(t,x": 5478,
      "\\mbox{with": 5479,
      "^{i},": 5480,
      "\\bar{\\lambda": 5481,
      "_\\alpha)": 5482,
      "(d-1)": 5483,
      "+\\frac{3": 5484,
      "^{mn}": 5485,
      "eff}}": 5486,
      "}(\\theta)": 5487,
      "{r}}": 5488,
      "1&0&": 5489,
      "^{1/4}": 5490,
      "const.": 5491,
      "x}-{\\bf": 5492,
      "phantom{": 5493,
      "\\scriptstyle": 5494,
      "CHAR": 5495,
      "EndExpansion": 5496,
      "BeginExpansion": 5497,
      "MACRO": 5498,
      "TCIMACRO": 5499,
      "(\\overline": 5500,
      ".7}": 5501,
      "2\\alpha": 5502,
      "2\\lambda": 5503,
      "45": 5504,
      "=\\phi": 5505,
      "M_P": 5506,
      "R_0": 5507,
      "[j": 5508,
      "[\\lambda": 5509,
      "j'": 5510,
      "mf": 5511,
      "p,": 5512,
      "p\\,": 5513,
      "q^": 5514,
      "y}}": 5515,
      "|\\beta": 5516,
      "})}": 5517,
      "igen": 5518,
      "}{(k": 5519,
      "\\label{4}": 5520,
      "\\label{6}": 5521,
      "2}+": 5522,
      "\\frac{4\\pi": 5523,
      "}(A)": 5524,
      "\\left(i": 5525,
      "\\left(\\matrix{": 5526,
      "\\mu})": 5527,
      "one}": 5528,
      "\\label{eq2": 5529,
      "_{nm": 5530,
      "_n,": 5531,
      "\\Omega^2": 5532,
      "\\mbox{if": 5533,
      "^*}": 5534,
      "\\prod_{a": 5535,
      "}{dt}": 5536,
      "\\label{11}": 5537,
      "{\\omega}": 5538,
      ",m)": 5539,
      "=1,\\dots": 5540,
      "-x)": 5541,
      "\\,\\,\\,\\,\\,": 5542,
      "\\int_{M": 5543,
      "+t": 5544,
      ",~~~": 5545,
      "/k": 5546,
      "72": 5547,
      "<j}": 5548,
      "=\\frac{\\partial": 5549,
      "=\\left\\{": 5550,
      ">>": 5551,
      "C_{": 5552,
      "C^a": 5553,
      "D_2": 5554,
      "E_{\\rm": 5555,
      "G^2": 5556,
      "J_{\\mu": 5557,
      "N_1": 5558,
      "W'": 5559,
      "X}}": 5560,
      "\\kern": 5561,
      "]{": 5562,
      "_\\pi": 5563,
      "_\\psi": 5564,
      "c^2}": 5565,
      "cr}": 5566,
      "dt}": 5567,
      "r^4": 5568,
      "x}=": 5569,
      "_{{": 5570,
      "_{_{\\rm": 5571,
      "}{v": 5572,
      "}{12": 5573,
      "}(D": 5574,
      "_0\\over": 5575,
      "\\partial_{i": 5576,
      "}_{q": 5577,
      "}_I": 5578,
      "\\omega_0": 5579,
      "\\tilde{\\gamma": 5580,
      "=0}=": 5581,
      "_{11": 5582,
      "\\vec{x})": 5583,
      "\\exp[": 5584,
      "_{ac": 5585,
      ").\\label{eq:": 5586,
      "ite": 5587,
      "e^{i\\pi": 5588,
      "e^{i\\theta": 5589,
      "(\\tau,\\sigma": 5590,
      ".10}": 5591,
      "act": 5592,
      "\\;\\;\\;\\;\\;\\;\\;\\;": 5593,
      "\\rbrack": 5594,
      "\\stackrel{\\rightharpoonup": 5595,
      "\\supset": 5596,
      "\\sqrt{\\pi": 5597,
      "\\alpha_n": 5598,
      "(m^2": 5599,
      "+\\psi": 5600,
      "-\\Gamma": 5601,
      "/\\Lambda": 5602,
      "0},": 5603,
      ";l": 5604,
      "A_a": 5605,
      "Ga": 5606,
      "H_i": 5607,
      "T(z)": 5608,
      "Y)": 5609,
      "[c": 5610,
      "[m": 5611,
      "d\\,": 5612,
      "g_{\\alpha": 5613,
      "id}": 5614,
      "r}-": 5615,
      "ssi": 5616,
      "ten": 5617,
      "y^{2}": 5618,
      "{{1": 5619,
      "|u": 5620,
      "{\\v": 5621,
      "{\\not": 5622,
      "^{^{\\prime": 5623,
      "\\label{al": 5624,
      "\\label{ap": 5625,
      "\\frac{P": 5626,
      "^{\\ell": 5627,
      "den": 5628,
      "\\cup": 5629,
      "}^{(a)}": 5630,
      "\\vee": 5631,
      "ad}": 5632,
      "_{ii": 5633,
      "root": 5634,
      "}\\,\\,\\,": 5635,
      "\\psi'": 5636,
      "\\gamma^a": 5637,
      "2}\\partial": 5638,
      ".\\label{5": 5639,
      "e^{3": 5640,
      "_{ji": 5641,
      ",\\label{f": 5642,
      "\\bar{C": 5643,
      "(k^2": 5644,
      "_{2j": 5645,
      "_{ij})": 5646,
      "^{-1}\\": 5647,
      "{\\eta}": 5648,
      "0\\\\0": 5649,
      "d\\theta^2": 5650,
      "rane": 5651,
      "(\\Phi)": 5652,
      "=1,2,3": 5653,
      "\\Leftrightarrow": 5654,
      "\\int_{\\Sigma}": 5655,
      "{\\mit": 5656,
      "'),": 5657,
      "+P": 5658,
      "+p)": 5659,
      "-n}": 5660,
      "0\\leq": 5661,
      "=d": 5662,
      "B}_{": 5663,
      "E_{n": 5664,
      "H'": 5665,
      "K)": 5666,
      "Vol": 5667,
      "X_\\mu": 5668,
      "X_j": 5669,
      "[u": 5670,
      "]]": 5671,
      "],\\label{": 5672,
      "a}=": 5673,
      "f^{-1}": 5674,
      "h^{-1}": 5675,
      "kin": 5676,
      "q\\,": 5677,
      "q^{-1}": 5678,
      "q^{2": 5679,
      "u_i": 5680,
      "|t": 5681,
      "\\label{x": 5682,
      "inv}": 5683,
      "mat": 5684,
      "muta": 5685,
      "}(w)": 5686,
      "\\left(p": 5687,
      "\\frac{1}{16": 5688,
      "_{\\mu}=": 5689,
      "(x_i": 5690,
      "}+\\delta": 5691,
      "}^{\\tau": 5692,
      "\\left[2": 5693,
      ".\\label{A": 5694,
      "^{-1}.": 5695,
      "}-\\partial": 5696,
      "_{\\alpha},": 5697,
      "-2m": 5698,
      "^a_i": 5699,
      "\\hat{R": 5700,
      "(k)=": 5701,
      "\\tilde{g": 5702,
      "(n_1": 5703,
      "}.\\label{eq:": 5704,
      "_m)": 5705,
      "(\\tau))": 5706,
      "}^{2}+": 5707,
      "(x,x'": 5708,
      "^2-4": 5709,
      "\\label{10": 5710,
      "}\\sum_{j": 5711,
      "'''": 5712,
      "{p}}": 5713,
      "\\not\\!": 5714,
      "\\sum_{n=0}^{\\infty": 5715,
      "\\mbox{\\boldmath$": 5716,
      "(\\sqrt{": 5717,
      ")}(x)": 5718,
      "+\\infty": 5719,
      "+6": 5720,
      "+\\kappa": 5721,
      ".8}": 5722,
      "0<": 5723,
      "2p": 5724,
      "35": 5725,
      ";z": 5726,
      "A^i": 5727,
      "B_i": 5728,
      "M})": 5729,
      "PQ": 5730,
      "P}_": 5731,
      "[\\mu": 5732,
      "ip": 5733,
      "k,": 5734,
      "p}{(2\\pi": 5735,
      "r_i": 5736,
      "wher": 5737,
      "y,": 5738,
      "^2\\,": 5739,
      "\\label{5}": 5740,
      "hift": 5741,
      "}(\\zeta": 5742,
      "\\nu)": 5743,
      "_0}}": 5744,
      "_2)=": 5745,
      "}^{4": 5746,
      "\\frac{\\dot": 5747,
      "\\frac{\\left": 5748,
      "}^R": 5749,
      "\\omega_i": 5750,
      "}{\\Delta": 5751,
      "\\{f": 5752,
      "dx^+": 5753,
      "dx^{\\nu": 5754,
      "(p,q": 5755,
      "dim}": 5756,
      "}\\partial_{\\nu": 5757,
      "\\exp(i": 5758,
      "_-}": 5759,
      "^n)": 5760,
      "foot": 5761,
      "olu": 5762,
      "(y)}": 5763,
      "^{kl": 5764,
      "\\sum_{k=1}^{": 5765,
      "mbox{\\scriptsize": 5766,
      "\\label{gl": 5767,
      "(z,\\bar{z})": 5768,
      "^{IJ}": 5769,
      "^{1/3": 5770,
      "15em": 5771,
      "note": 5772,
      "\\\\[3": 5773,
      "|k|": 5774,
      "}^{1/2}": 5775,
      "^{(I)}": 5776,
      "otential}": 5777,
      "''}": 5778,
      "({\\bar": 5779,
      "+{1": 5780,
      "+\\hat": 5781,
      "1\\leq": 5782,
      "A_{1}": 5783,
      "A_{2}": 5784,
      "A^{a": 5785,
      "B}=": 5786,
      "J^{\\mu": 5787,
      "L_{n": 5788,
      "Ma": 5789,
      "Q)": 5790,
      "W)": 5791,
      "_\\eta": 5792,
      "cr": 5793,
      "f_{1}": 5794,
      "it}": 5795,
      "j})": 5796,
      "p^2}": 5797,
      "x^{-": 5798,
      "x^4": 5799,
      "x^{\\mu}": 5800,
      "{6": 5801,
      "}T": 5802,
      "}{L}": 5803,
      "\\label{gamma": 5804,
      "\\label{ec": 5805,
      "^{\\left": 5806,
      "\\begin{array": 5807,
      "\\left(\\phi": 5808,
      "\\eq": 5809,
      "_0)=": 5810,
      "\\partial_{-": 5811,
      "\\phi_a": 5812,
      "}_{j}": 5813,
      ",\\Delta": 5814,
      "}\\,+\\,": 5815,
      "-1\\over": 5816,
      "\\frac{\\nu": 5817,
      "_{n,m": 5818,
      "lan": 5819,
      "}{\\left(": 5820,
      "e^{in": 5821,
      "\\right]\\,": 5822,
      ")^2]": 5823,
      "^{\\prime},": 5824,
      "\\bar{c": 5825,
      "(p-1)": 5826,
      "\\tilde{f": 5827,
      "_{ij}+": 5828,
      "dt^{2}": 5829,
      "_{++}": 5830,
      "\\label{10}": 5831,
      "\\to\\infty": 5832,
      "{\\mu}\\hat{\\nu": 5833,
      "\\int_0^{": 5834,
      ",z)=": 5835,
      "{\\epsilon}": 5836,
      "loop": 5837,
      "}\\prod_{i": 5838,
      "(x,y)=": 5839,
      "TCIMACRO{\\": 5840,
      "\\frac{\\bar": 5841,
      "\\alpha_3": 5842,
      "-{\\textstyle": 5843,
      "1),": 5844,
      "4\\,": 5845,
      "=2\\pi": 5846,
      "K'": 5847,
      "S^{": 5848,
      "S},": 5849,
      "S_F": 5850,
      "[e": 5851,
      "[\\theta": 5852,
      "^1+": 5853,
      "a^3": 5854,
      "e^2}": 5855,
      "g=": 5856,
      "iz": 5857,
      "k-1}": 5858,
      "om}": 5859,
      "v_0": 5860,
      "{I": 5861,
      "}\\}=": 5862,
      "^2\\theta": 5863,
      "}{h": 5864,
      "\\frac{C": 5865,
      "\\nu}+": 5866,
      "\\phi_k": 5867,
      "\\right),\\label{": 5868,
      "\\frac{1}{k": 5869,
      "\\frac{1}{N}": 5870,
      "}\\,\\left(": 5871,
      "\\gamma_{\\mu": 5872,
      "{1-": 5873,
      ".\\label{2": 5874,
      ".\\label{g": 5875,
      "_n^2": 5876,
      "}-\\delta": 5877,
      "(z-": 5878,
      "\\partial_\\sigma": 5879,
      "_{ij},": 5880,
      "_1,\\cdots": 5881,
      "\\bar{\\tau": 5882,
      "\\label{12}": 5883,
      "\\label{16}": 5884,
      "{\\lambda\\over": 5885,
      "\\bigg(": 5886,
      ")],": 5887,
      "condi": 5888,
      "(D-2": 5889,
      "^{2}\\theta": 5890,
      "F}_{\\mu\\nu": 5891,
      "\\label{tw": 5892,
      "\\label{du": 5893,
      ".5cm}": 5894,
      "^{p+1}": 5895,
      "}=\\left(\\begin{array}{cc}": 5896,
      "{}^*": 5897,
      "^{\\lambda}": 5898,
      "}(\\phi)": 5899,
      "grav": 5900,
      "^{(\\pm)}": 5901,
      "^{(r)}": 5902,
      "&\\": 5903,
      "'}=": 5904,
      "+...": 5905,
      "-I": 5906,
      "<1": 5907,
      "J^\\mu": 5908,
      "M=": 5909,
      "R'": 5910,
      "R}=": 5911,
      "S}_": 5912,
      "S}{\\delta": 5913,
      "W_1": 5914,
      "X^{i": 5915,
      "[P": 5916,
      "\\Re": 5917,
      "ch}": 5918,
      "e^{\\mu": 5919,
      "ib": 5920,
      "stackrel{": 5921,
      "tot": 5922,
      "|j": 5923,
      "^{A}": 5924,
      "}\\}}": 5925,
      "\\label{ad": 5926,
      "\\frac{6": 5927,
      "\\,d": 5928,
      "met": 5929,
      "}(\\hat": 5930,
      "}(\\mathbf{": 5931,
      ")},\\label{": 5932,
      "\\mu}=": 5933,
      "}).\\label{": 5934,
      "_0]": 5935,
      "}^{4}": 5936,
      "\\frac{1}{6": 5937,
      "(x^+": 5938,
      "\\psi_i": 5939,
      "\\varsigma": 5940,
      "}^B": 5941,
      "\\rho_2": 5942,
      "\\tau^2": 5943,
      "\\label{eq:a": 5944,
      "e^{-\\phi}": 5945,
      "\\rangle\\langle": 5946,
      "\\xi^\\mu": 5947,
      "\\Gamma}{\\delta": 5948,
      "\\chi_2": 5949,
      "_{24": 5950,
      "}{2m}": 5951,
      "\\mbox{tr}": 5952,
      "\\mathop": 5953,
      "\\exp(": 5954,
      "\\nabla_a": 5955,
      "(q^2": 5956,
      "}\\sum\\limits": 5957,
      "\\overline{z": 5958,
      "\\label{exp": 5959,
      "_f)": 5960,
      "_{cd": 5961,
      "\\label{an": 5962,
      "d\\tau^2": 5963,
      "}(t)=": 5964,
      "d^4x\\,": 5965,
      "(1,1)": 5966,
      "}\\put(1": 5967,
      "field": 5968,
      "{\\Large": 5969,
      "footnote": 5970,
      "+(": 5971,
      "+G": 5972,
      "+\\frac{2": 5973,
      ".9": 5974,
      "=j": 5975,
      "D^{-1}": 5976,
      "D(k": 5977,
      "D-2}": 5978,
      "F\\left(": 5979,
      "J_i": 5980,
      "J^-": 5981,
      "K_0": 5982,
      "M_{": 5983,
      "M^3": 5984,
      "Q_i": 5985,
      "R}_{": 5986,
      "V_2": 5987,
      "[F": 5988,
      "[\\chi": 5989,
      "]{$": 5990,
      "^o": 5991,
      "a_{i": 5992,
      "cdot": 5993,
      "e_{\\mu": 5994,
      "m},": 5995,
      "rec": 5996,
      "ser": 5997,
      "vac}": 5998,
      "{Z": 5999,
      "|}}": 6000,
      "}d": 6001,
      "{\\underline{": 6002,
      "^2}{2}": 6003,
      "\\label{st": 6004,
      "\\label{9}": 6005,
      "_1\\,": 6006,
      "_1^2+": 6007,
      "_0\\,": 6008,
      "\\lambda,": 6009,
      ",\\hskip": 6010,
      "\\\\1": 6011,
      "\\gamma^{\\mu": 6012,
      "\\frac{\\left(": 6013,
      "\\omega_2": 6014,
      "\\;\\;,": 6015,
      "}{\\xi": 6016,
      "\\Phi_2": 6017,
      "\\Phi^*": 6018,
      "\\eta^{\\mu": 6019,
      "}-1}": 6020,
      "\\xi_1": 6021,
      "_{j},": 6022,
      "(2m": 6023,
      "=-\\frac": 6024,
      "\\bar{a": 6025,
      "\\bigr]": 6026,
      "_{2n}": 6027,
      "}\\over{2": 6028,
      "varrho": 6029,
      "\\lim_{r": 6030,
      "(r,\\theta": 6031,
      "_R}": 6032,
      "Tr}\\;": 6033,
      "\\begin{array}{ccc": 6034,
      "}\\Bigr": 6035,
      "\\label{pp": 6036,
      "\\int_{C": 6037,
      "(0,1)": 6038,
      "}^{ij}": 6039,
      "local": 6040,
      "}\\vec{": 6041,
      "A,B": 6042,
      "(x,x')": 6043,
      "\\alpha,": 6044,
      "+T": 6045,
      "+{\\bf": 6046,
      "-\\frac12": 6047,
      "/m": 6048,
      "0=": 6049,
      ";\\alpha": 6050,
      "=P": 6051,
      "=z": 6052,
      "={1": 6053,
      "=1+": 6054,
      "=2,": 6055,
      "A^b": 6056,
      "B_n": 6057,
      "D}_\\mu": 6058,
      "FT": 6059,
      "K_{i": 6060,
      "N_2": 6061,
      "T})": 6062,
      "\\underbrace": 6063,
      "^0}": 6064,
      "ct": 6065,
      "d}}": 6066,
      "eigh": 6067,
      "h_{\\mu\\nu}": 6068,
      "i}=": 6069,
      "i\\partial": 6070,
      "ic}": 6071,
      "}\\ast": 6072,
      "}{{\\rm": 6073,
      "_{\\ast": 6074,
      "\\frac{e^{-": 6075,
      "}},\\label{": 6076,
      "\\left(\\frac{d": 6077,
      "^{-\\frac{1}{2}": 6078,
      "\\null": 6079,
      "\\partial_2": 6080,
      "\\frac{1}{g": 6081,
      "\\frac{1}{12}": 6082,
      "_i)=": 6083,
      "^{(\\lambda": 6084,
      "\\sigma_{1}": 6085,
      "\\psi,": 6086,
      "}^\\ast": 6087,
      "=0)": 6088,
      "\\label{eq:B": 6089,
      "}-m": 6090,
      "}-\\eta": 6091,
      "\\cdot\\cdot": 6092,
      "^2+4": 6093,
      "diff": 6094,
      "\\vec{k": 6095,
      "\\vec{k}": 6096,
      "\\vec{p}": 6097,
      "tota": 6098,
      "\\tilde{F": 6099,
      "_{m,n": 6100,
      "}\\over{\\partial": 6101,
      "_1}}": 6102,
      "_{\\nu\\rho": 6103,
      "\\bar{\\Omega": 6104,
      "_2})": 6105,
      "^1)": 6106,
      ".12}": 6107,
      "\\label{su": 6108,
      "\\label{11": 6109,
      "+i\\varepsilon": 6110,
      "^{*})": 6111,
      "d^2\\sigma": 6112,
      "\\displaystyle\\sum": 6113,
      "con}": 6114,
      "{\\theta}}": 6115,
      "{k\\over": 6116,
      "\\dots,": 6117,
      "ven}": 6118,
      "\\left\\{\\begin{array}{ll": 6119,
      "(G)": 6120,
      "\\frac14": 6121,
      "}_{\\pm}": 6122,
      "{\\frac{1}{2}}": 6123,
      "{\\hbar}": 6124,
      "e^{\\frac{i": 6125,
      "^{\\dot\\alpha": 6126,
      "\\alpha)}": 6127,
      "\\int_{x": 6128,
      "({\\tilde": 6129,
      ",f": 6130,
      ",1)": 6131,
      "-\\;": 6132,
      "-\\chi": 6133,
      "-\\Omega": 6134,
      "-\\hat": 6135,
      "60": 6136,
      ";g": 6137,
      "=\\varepsilon": 6138,
      "A_3": 6139,
      "H_{": 6140,
      "N})": 6141,
      "R^{2}": 6142,
      "V}_{": 6143,
      "X^2": 6144,
      "Z=\\int": 6145,
      "a_{j": 6146,
      "cs": 6147,
      "iel": 6148,
      "k\\,": 6149,
      "m_{2}": 6150,
      "p.": 6151,
      "s},": 6152,
      "us}": 6153,
      "y\\right)": 6154,
      "{m^2": 6155,
      "|v": 6156,
      "|}\\": 6157,
      "_{d}": 6158,
      "}{m}": 6159,
      "\\label{ho": 6160,
      "\\,a": 6161,
      ")}.\\label{": 6162,
      "^{-4}": 6163,
      "\\partial_{[": 6164,
      "}^{M": 6165,
      "}^{d": 6166,
      ",\\ell": 6167,
      "\\\\\\hline": 6168,
      "\\delta\\left(": 6169,
      "^{(J": 6170,
      "}\\right)=": 6171,
      "-1}\\right)": 6172,
      "}_5": 6173,
      "\\frac{\\zeta": 6174,
      "\\omega_1": 6175,
      "^2}\\left[": 6176,
      "\\label{eq:A": 6177,
      "}{\\psi": 6178,
      "\\Phi^i": 6179,
      "+1/2": 6180,
      "^4\\over": 6181,
      "\\Delta)": 6182,
      "(t)}{": 6183,
      "\\dot{\\xi": 6184,
      "(p,q)": 6185,
      "_{--": 6186,
      "_{2}\\right)": 6187,
      "\\tilde{Q": 6188,
      "_{+-": 6189,
      "(1-q": 6190,
      "_2}}": 6191,
      "_{\\pi}": 6192,
      "{\\phi}}": 6193,
      "{\\sqrt{2": 6194,
      "\\label{14}": 6195,
      "^{\\frac{d": 6196,
      "\\hspace{5": 6197,
      "{\\Phi}": 6198,
      "fix": 6199,
      "_{\\theta}": 6200,
      "_{f}}": 6201,
      "_{\\xi}": 6202,
      "~~~,~~~": 6203,
      "d^Dx": 6204,
      "|y|": 6205,
      "\\pi_i": 6206,
      "&\\vdots": 6207,
      "']": 6208,
      "'_1": 6209,
      "+\\left[": 6210,
      "+m^2": 6211,
      "-\\ln": 6212,
      "-\\ell": 6213,
      "2\\kappa": 6214,
      "30}": 6215,
      "=H": 6216,
      ">,": 6217,
      "J^2": 6218,
      "R_{": 6219,
      "T_{a": 6220,
      "V(\\phi)": 6221,
      "X^{": 6222,
      "Z_{N": 6223,
      "[\\Delta": 6224,
      "\\}+": 6225,
      "\\}=0": 6226,
      "_\\Omega": 6227,
      "_B}": 6228,
      "e^b": 6229,
      "i2": 6230,
      "k\\cdot": 6231,
      "m_": 6232,
      "p_{2}": 6233,
      "prod": 6234,
      "x_4": 6235,
      "y_0": 6236,
      "z_3": 6237,
      "|\\xi": 6238,
      "}a": 6239,
      "\\label{action": 6240,
      "_{\\mathcal{": 6241,
      "^{\\tilde{": 6242,
      "\\left(n": 6243,
      "\\in{\\bf": 6244,
      ")={\\cal": 6245,
      "}\\,,\\quad": 6246,
      "-1.": 6247,
      "\\psi^\\dagger": 6248,
      "}+4": 6249,
      "}+b": 6250,
      "eg}": 6251,
      "_{nm}": 6252,
      "\\rangle}": 6253,
      "_j]": 6254,
      "\\chi_1": 6255,
      "\\partial_\\lambda": 6256,
      "\\hat{y": 6257,
      "_{-2}": 6258,
      "diag}": 6259,
      "_{2i": 6260,
      "_{2k}": 6261,
      "\\kappa)": 6262,
      "+2)}": 6263,
      "(1-x)": 6264,
      "_{ab}=": 6265,
      "_{31}": 6266,
      "=\\int_0": 6267,
      "(\\partial_{\\mu": 6268,
      "e^{2\\phi}": 6269,
      "=1}^r": 6270,
      "\\int_0^T": 6271,
      "}^{\\mu\\nu}": 6272,
      "ord": 6273,
      "}\\end{array}\\right.": 6274,
      "\\longleftrightarrow": 6275,
      "{\\chi}": 6276,
      "\\alpha}}": 6277,
      "\\int_\\Sigma": 6278,
      "'},": 6279,
      "(\\cos": 6280,
      "+)": 6281,
      "+\\frac{1}{2}\\": 6282,
      ",C": 6283,
      "A_{\\alpha": 6284,
      "C^2": 6285,
      "D_\\nu": 6286,
      "H_{\\mu": 6287,
      "J_3": 6288,
      "M_{\\rm": 6289,
      "S^2": 6290,
      "S\\left(": 6291,
      "U'": 6292,
      "U_2": 6293,
      "V}{\\partial": 6294,
      "X^j": 6295,
      "[\\tilde": 6296,
      "\\text{": 6297,
      "^f": 6298,
      "be": 6299,
      "d\\Sigma": 6300,
      "e}^{\\": 6301,
      "ii": 6302,
      "p_n": 6303,
      "r}=": 6304,
      "ur}": 6305,
      "{\\!": 6306,
      "_{e}": 6307,
      "}{s}": 6308,
      "\\label{J": 6309,
      "\\label{th": 6310,
      "^{\\theta": 6311,
      "}),\\label{": 6312,
      "\\partial_{\\nu": 6313,
      "(\\hbar": 6314,
      "_{i,j": 6315,
      "\\delta_2": 6316,
      "^{2}-m": 6317,
      "nd}": 6318,
      "}+c": 6319,
      "}^L": 6320,
      "}^{\\star": 6321,
      "\\rho_1": 6322,
      "\\epsilon_1": 6323,
      "\\epsilon_{ij": 6324,
      "2}\\delta": 6325,
      "e^{-\\alpha": 6326,
      "2\\pi}\\int": 6327,
      "^i{": 6328,
      "\\hat{R}": 6329,
      "+1},": 6330,
      "\\bigtriangle": 6331,
      "_+^2": 6332,
      "}\\partial_j": 6333,
      "0.5": 6334,
      "+2k": 6335,
      "\\bar{\\gamma": 6336,
      "\\frac{1}{\\alpha": 6337,
      "\\frac{1}{\\lambda": 6338,
      "}^{2})": 6339,
      "^{+},": 6340,
      "(s)=": 6341,
      "_{l}}": 6342,
      "}^{(j": 6343,
      "\\label{18}": 6344,
      "\\,.\\label{eq:": 6345,
      "(2\\pi)^{": 6346,
      "~~~~~~~": 6347,
      "}\\bar{\\psi": 6348,
      "}{4}}": 6349,
      "sing": 6350,
      "%%%%": 6351,
      "^{cd": 6352,
      "x},t": 6353,
      "(U)": 6354,
      "\\llap": 6355,
      "unction": 6356,
      "footnotesize": 6357,
      "'}^2": 6358,
      "(\\frac{d": 6359,
      "({\\hat": 6360,
      "(\\overline{": 6361,
      ",l}": 6362,
      "-\\psi": 6363,
      "-\\tilde{": 6364,
      "00}": 6365,
      "1/2}": 6366,
      ";m": 6367,
      ">.": 6368,
      "I_3": 6369,
      "J^a": 6370,
      "L_{-1}": 6371,
      "N}=": 6372,
      "P_-": 6373,
      "R_{\\mu\\nu": 6374,
      "X^{\\mu}": 6375,
      "[V": 6376,
      "\\\\e": 6377,
      "f}}": 6378,
      "f\\left(": 6379,
      "f^{a": 6380,
      "h^{": 6381,
      "h_i": 6382,
      "min}": 6383,
      "n}=": 6384,
      "r,": 6385,
      "r_0^2": 6386,
      "x^{i": 6387,
      "{K": 6388,
      "{g^2": 6389,
      "|,": 6390,
      "|M": 6391,
      "|T": 6392,
      "|\\varphi": 6393,
      "|_{r": 6394,
      "}b": 6395,
      "\\label{beta": 6396,
      "}(\\Gamma": 6397,
      "\\mu_1": 6398,
      "}^{0}": 6399,
      "\\frac{1}{8}": 6400,
      "(\\Pi": 6401,
      ",\\Pi": 6402,
      "\\delta_{\\mu": 6403,
      "\\bar{\\partial}": 6404,
      "\\sigma'": 6405,
      "_{1}...": 6406,
      "\\xi^i": 6407,
      "_{kj": 6408,
      "\\hat{\\rho": 6409,
      "geb": 6410,
      "^{10": 6411,
      "\\lim_{\\epsilon": 6412,
      "(r-r": 6413,
      "\\label{ch": 6414,
      "^{+})": 6415,
      "_A)": 6416,
      "_{3/2}": 6417,
      "e^{\\phi}": 6418,
      "}\\frac{\\Gamma": 6419,
      "\\label{19}": 6420,
      "\\bigg)": 6421,
      "^{2}\\right]": 6422,
      "=1,...": 6423,
      "\\label{fin": 6424,
      "}\\Bigl": 6425,
      "(l)": 6426,
      "{\\xi}": 6427,
      "mod}": 6428,
      "}_{\\perp": 6429,
      "}(\\xi)": 6430,
      "}(X)": 6431,
      "quation": 6432,
      "_\\perp)": 6433,
      "floor": 6434,
      "\\sum_{I": 6435,
      "+8": 6436,
      ",5": 6437,
      "-{\\rm": 6438,
      "-\\bar{": 6439,
      ".9}": 6440,
      ":\\quad": 6441,
      "A},": 6442,
      "E=": 6443,
      "F_0": 6444,
      "G_4": 6445,
      "H_3": 6446,
      "I_0": 6447,
      "Q_\\alpha": 6448,
      "T_c": 6449,
      "V_3": 6450,
      "[b": 6451,
      "]}.": 6452,
      "c.}": 6453,
      "f_{": 6454,
      "i\\epsilon": 6455,
      "k}=": 6456,
      "m^2}{": 6457,
      "red": 6458,
      "uil": 6459,
      "v=": 6460,
      "x^{\\nu": 6461,
      "}G": 6462,
      "{\\footnotesize": 6463,
      "_{(n": 6464,
      "tive": 6465,
      "matt": 6466,
      "2}=": 6467,
      "\\frac{S": 6468,
      "}(b": 6469,
      "}(\\lambda)": 6470,
      "\\left(\\frac{\\partial": 6471,
      "one": 6472,
      "}=\\lambda": 6473,
      "\\phi=": 6474,
      "\\phi^4": 6475,
      "}^{(2)": 6476,
      "\\frac{1}{6}": 6477,
      "}_{M": 6478,
      "(\\Theta": 6479,
      "\\delta^4": 6480,
      "^{2}.": 6481,
      "\\psi_+": 6482,
      "\\frac{\\tilde": 6483,
      "(1/2": 6484,
      "_{n},": 6485,
      "=0\\,,": 6486,
      "\\hat{\\hat{": 6487,
      "\\bar{\\epsilon": 6488,
      "\\frac{1}{\\kappa": 6489,
      ")}{4": 6490,
      "_{rs}": 6491,
      "e^{\\gamma": 6492,
      "\\label{21}": 6493,
      "_R)": 6494,
      "_l)": 6495,
      "\\frac{i}{2}\\": 6496,
      "(\\gamma)": 6497,
      "+m)": 6498,
      "_{d-2}": 6499,
      "\\frac{1}{\\sqrt{2": 6500,
      "cm]": 6501,
      "(z,\\bar{z": 6502,
      "{n\\over": 6503,
      "fill": 6504,
      "}_{-}": 6505,
      "{m\\over": 6506,
      "\\sum_{\\ell": 6507,
      "^{D-2}": 6508,
      "bound}": 6509,
      "zero}": 6510,
      "valu": 6511,
      "uildr": 6512,
      "(e^{": 6513,
      "+\\sqrt{": 6514,
      "/\\pi": 6515,
      "1\\end{array}\\right)": 6516,
      "=\\pmatrix{": 6517,
      "><": 6518,
      "A_{a": 6519,
      "C'": 6520,
      "C_0": 6521,
      "C}_{": 6522,
      "C^{(": 6523,
      "D)": 6524,
      "D-1}": 6525,
      "H}_{\\": 6526,
      "L},": 6527,
      "R}^2": 6528,
      "T_{1}": 6529,
      "T^{a": 6530,
      "[t": 6531,
      "[\\partial": 6532,
      "a})": 6533,
      "b\\right)": 6534,
      "cor": 6535,
      "d^5": 6536,
      "e_a": 6537,
      "gro": 6538,
      "i\\over": 6539,
      "m_{1}": 6540,
      "rule": 6541,
      "wa": 6542,
      "x_{i": 6543,
      "z}-": 6544,
      "|E": 6545,
      "{\\jmath": 6546,
      "}\\kern": 6547,
      "}\\widehat{": 6548,
      "elf": 6549,
      "}{9": 6550,
      "\\label{qu": 6551,
      "mul": 6552,
      "\\frac{F": 6553,
      "\\frac{H": 6554,
      "}=-2": 6555,
      "}^{ab}": 6556,
      "\\vspace": 6557,
      "_{\\mu_1": 6558,
      "(x^2": 6559,
      "^{2},": 6560,
      "\\theta,": 6561,
      "\\psi^i": 6562,
      "\\omega'": 6563,
      "\\omega_k": 6564,
      "\\label{eq:S": 6565,
      "^{-1}\\left(": 6566,
      "\\Gamma_{11}": 6567,
      "+1}\\right)": 6568,
      "\\cdot\\!": 6569,
      "\\hat{p": 6570,
      "+1})": 6571,
      "\\tilde{p": 6572,
      "^{2N": 6573,
      "ity": 6574,
      "e^{i\\alpha": 6575,
      "ext}": 6576,
      "\\label{cur": 6577,
      "_{34}": 6578,
      "{\\delta}": 6579,
      "(2\\pi\\alpha": 6580,
      "(\\partial_i": 6581,
      "\\sum_{i=1}^{N": 6582,
      "\\hspace*": 6583,
      "textrm{": 6584,
      "^{\\frac{n": 6585,
      "\\;,\\;": 6586,
      "0\\\\0&": 6587,
      "^{\\rho}": 6588,
      "\\nonumber\\\\": 6589,
      "_{\\epsilon}": 6590,
      "ilton": 6591,
      "}\\dot{x": 6592,
      "ds^{2}=": 6593,
      "boundary": 6594,
      "}^{(1)}(": 6595,
      "rotect": 6596,
      "').": 6597,
      "({\\partial": 6598,
      "+2}\\": 6599,
      "-W": 6600,
      "01}": 6601,
      "=y": 6602,
      "F_{i": 6603,
      "G_2": 6604,
      "J^+": 6605,
      "M\\over": 6606,
      "P}_{\\": 6607,
      "W}{\\partial": 6608,
      "X_{1}": 6609,
      "X^+": 6610,
      "[\\eta": 6611,
      "\\f": 6612,
      "^5}": 6613,
      "b_{1}": 6614,
      "dT": 6615,
      "g(x)": 6616,
      "k^2+": 6617,
      "l}=": 6618,
      "m^2+": 6619,
      "neq": 6620,
      "pr": 6621,
      "r^3": 6622,
      "t})": 6623,
      "|\\": 6624,
      "|h": 6625,
      "{\\Big": 6626,
      "{\\vert": 6627,
      "}{G": 6628,
      "}{{": 6629,
      "}{{\\partial": 6630,
      "\\label{psi": 6631,
      "\\label{gauge": 6632,
      "eta}": 6633,
      "mu}": 6634,
      "\\,\\left[": 6635,
      "me}": 6636,
      "\\left(t": 6637,
      "\\partial_{\\alpha": 6638,
      "}^{}": 6639,
      "{\\pm": 6640,
      "\\lambda'": 6641,
      "_{i=1}": 6642,
      "}\\right)\\left(": 6643,
      "}\\,,\\qquad": 6644,
      "\\gamma_0": 6645,
      "\\frac{\\Omega": 6646,
      "}^J": 6647,
      "=0\\,.": 6648,
      "str}": 6649,
      "\\;\\;.": 6650,
      "_{\\alpha}=": 6651,
      "_{j}-": 6652,
      "^a(x)": 6653,
      "^i}": 6654,
      "(t,x)": 6655,
      "0,\\;": 6656,
      "_{a,b": 6657,
      "^2}{4\\pi": 6658,
      "_1,n_2": 6659,
      "_{+},": 6660,
      "\\label{22}": 6661,
      "\\dot{A": 6662,
      "\\label{e2": 6663,
      "~.\\end{array}": 6664,
      "=1,\\ldots": 6665,
      "\\frac{\\delta^2": 6666,
      "^{kl}": 6667,
      ",t')": 6668,
      "^{N-1}": 6669,
      "(L)": 6670,
      "\\hbox{$": 6671,
      "\\frac{d}{dt}": 6672,
      "(2n+1)": 6673,
      "[g]": 6674,
      "two": 6675,
      "D_m(k": 6676,
      "}({\\bf{q}})": 6677,
      "\\beta_i": 6678,
      "(\\cosh": 6679,
      ")\\delta": 6680,
      "++": 6681,
      "+R": 6682,
      "+z": 6683,
      "+r^2": 6684,
      ",U": 6685,
      ",1,": 6686,
      "-\\cos": 6687,
      "-\\varphi": 6688,
      "-{{": 6689,
      "-q)": 6690,
      "/\\alpha": 6691,
      "/\\lambda": 6692,
      ":\\": 6693,
      ";\\tau": 6694,
      "=e^{-": 6695,
      ">0,": 6696,
      "Ge": 6697,
      "L_{1}": 6698,
      "V(x)": 6699,
      "X^a": 6700,
      "Z)": 6701,
      "[0": 6702,
      "\\upsilon": 6703,
      "^S": 6704,
      "_\\chi": 6705,
      "a(t)": 6706,
      "b_{-": 6707,
      "d)": 6708,
      "d\\vec": 6709,
      "e'": 6710,
      "era": 6711,
      "e_0": 6712,
      "f^{(": 6713,
      "g_{i": 6714,
      "i\\delta": 6715,
      "ka": 6716,
      "m'": 6717,
      "mon": 6718,
      "oalign": 6719,
      "r_1": 6720,
      "uv": 6721,
      "v_1": 6722,
      "z^2}": 6723,
      "{7": 6724,
      "_{*": 6725,
      "^{c}": 6726,
      "^2\\left(": 6727,
      "^2},": 6728,
      "}{S": 6729,
      "\\label{nu": 6730,
      "\\frac{G": 6731,
      "\\frac{w": 6732,
      "\\frac{g^2": 6733,
      "}(B": 6734,
      "}(Q": 6735,
      "}(V": 6736,
      "\\left({1\\over": 6737,
      "\\;+\\;": 6738,
      "\\right).\\label{": 6739,
      "\\frac{1}{2\\pi}": 6740,
      "(x^-": 6741,
      "\\\\[2mm]": 6742,
      "\\theta^\\alpha": 6743,
      "-1}\\,": 6744,
      "\\frac{\\chi": 6745,
      "}^s": 6746,
      "mathrm": 6747,
      "Lambda}": 6748,
      "\\Phi_i": 6749,
      "\\eta_{\\mu": 6750,
      "_j,": 6751,
      "\\Gamma\\left(": 6752,
      "(z_1)": 6753,
      "+1/2}": 6754,
      "\\Omega}": 6755,
      "(k+1)": 6756,
      "diam": 6757,
      "\\tilde{E": 6758,
      "-i\\epsilon": 6759,
      "dt^{2}+": 6760,
      "(-)}": 6761,
      "A}_i": 6762,
      ".11}": 6763,
      "}^{(b)}": 6764,
      "_{(3)}": 6765,
      "^{n-2}": 6766,
      "\\label{15}": 6767,
      "\\label{17}": 6768,
      "\\sqrt{-G}": 6769,
      "e^{-2\\Phi": 6770,
      "sinh": 6771,
      "_{\\bar{z}}": 6772,
      "}(z,": 6773,
      "-q^{-1}": 6774,
      "Tr}\\left(": 6775,
      "{\\cal{G}}": 6776,
      "\\label{norm": 6777,
      "(P)": 6778,
      "{\\nu}": 6779,
      "const}": 6780,
      "{\\bf{q}})": 6781,
      "h.c.": 6782,
      "truec": 6783,
      "\\sum_{\\mu": 6784,
      "\\beta)}": 6785,
      "&2": 6786,
      "&0&0&": 6787,
      "+w": 6788,
      "+1}{2}": 6789,
      ",\\,\\,": 6790,
      "-\\sin": 6791,
      "9)": 6792,
      "=V": 6793,
      "=\\psi": 6794,
      "Det": 6795,
      "F_{0": 6796,
      "GH": 6797,
      "M^{2}": 6798,
      "P^-": 6799,
      "^X": 6800,
      "c\\,": 6801,
      "dP": 6802,
      "d\\chi": 6803,
      "e1}": 6804,
      "e_\\mu": 6805,
      "et}": 6806,
      "k_\\mu": 6807,
      "k_3": 6808,
      "nt}": 6809,
      "p^{\\mu": 6810,
      "rr": 6811,
      "t^2}": 6812,
      "ull": 6813,
      "v_{": 6814,
      "v_2": 6815,
      "x}\\,": 6816,
      "{{2": 6817,
      "{\\mid": 6818,
      "_{t}": 6819,
      "}\\underline{": 6820,
      "}{[": 6821,
      "\\label{or": 6822,
      "ham}": 6823,
      "^{\\tilde": 6824,
      "}}=-": 6825,
      "}(G": 6826,
      ")}]": 6827,
      "_1,\\dots": 6828,
      "^{--": 6829,
      "}=c": 6830,
      "\\phi^A": 6831,
      "}^{B": 6832,
      "}_{L": 6833,
      "\\delta^{ab}": 6834,
      "\\bar\\Psi": 6835,
      "}\\right)^2+": 6836,
      "}\\right)^{1/2}": 6837,
      "\\theta^a": 6838,
      "}+\\left(": 6839,
      "\\quad,\\quad": 6840,
      "(z,z": 6841,
      "^a_b": 6842,
      "\\hat{Q": 6843,
      "_1,n": 6844,
      "\\bar{\\Delta": 6845,
      "_{lm": 6846,
      "}{d\\lambda": 6847,
      "=\\frac{2\\pi": 6848,
      "~~~~&": 6849,
      "^{3/2}\\": 6850,
      "\\sum_{i=1}^n": 6851,
      ")].": 6852,
      "_{tt}": 6853,
      "}{3}}": 6854,
      "}\\biggl": 6855,
      "}\\biggr]": 6856,
      "d^d": 6857,
      "\\label{cond": 6858,
      "\\frac{\\sqrt{2}": 6859,
      "(Z)": 6860,
      "^{(s)}": 6861,
      "{picture}(": 6862,
      "otherwise": 6863,
      "_{\\parallel": 6864,
      "\\\\[3mm]": 6865,
      "(\\frac{\\pi": 6866,
      ")(": 6867,
      "+U": 6868,
      "+\\Gamma": 6869,
      "/\\hbar": 6870,
      "1;": 6871,
      "1-\\frac{": 6872,
      "33}": 6873,
      ";~~": 6874,
      "=t": 6875,
      "C_{i": 6876,
      "D_a": 6877,
      "P^+": 6878,
      "S_m": 6879,
      "X'": 6880,
      "Z_{\\;\\;": 6881,
      "[E": 6882,
      "[0,": 6883,
      "\\#": 6884,
      "au": 6885,
      "c})": 6886,
      "dU": 6887,
      "db": 6888,
      "k}{(2\\pi)^": 6889,
      "mp}": 6890,
      "ps": 6891,
      "p}+": 6892,
      "rt": 6893,
      "s}=": 6894,
      "{0": 6895,
      "{{\\rm": 6896,
      "}k": 6897,
      "^{S": 6898,
      "}{(": 6899,
      "}{n}": 6900,
      "ini": 6901,
      "2}{\\cal": 6902,
      "^{\\varepsilon": 6903,
      "^{\\mp": 6904,
      "}}^2": 6905,
      "}(C": 6906,
      "}(\\bar": 6907,
      "\\left(x\\right)": 6908,
      "\\;\\delta": 6909,
      "\\nu})": 6910,
      "}^{c}": 6911,
      "\\frac{1}{8\\pi": 6912,
      "-1/": 6913,
      "\\gamma_i": 6914,
      "\\gamma^1": 6915,
      "}+\\cdots": 6916,
      "}^\\beta": 6917,
      "\\tilde{\\alpha": 6918,
      "2}\\frac{": 6919,
      "\\label{eq:g": 6920,
      "\\right],\\label{": 6921,
      ")^2,": 6922,
      "}(x_1,": 6923,
      "(2j": 6924,
      "\\bar{q}": 6925,
      "\\Lambda_{": 6926,
      "zeta}": 6927,
      "\\hat{q": 6928,
      "(k-1)": 6929,
      "\\vec{q": 6930,
      "}\\frac{1}{2}": 6931,
      "0.2": 6932,
      "(-)^{": 6933,
      "_2},": 6934,
      "_{pq": 6935,
      "^{a_1}": 6936,
      "\\vert^2": 6937,
      "\\label{20}": 6938,
      "_{(0,": 6939,
      "\\to\\infty}": 6940,
      "=\\frac{3": 6941,
      "{\\frac{i": 6942,
      "\\frac{1}{2}\\epsilon": 6943,
      "S_{eff": 6944,
      "(2\\pi)^4": 6945,
      "\\sum_{i=1}^3": 6946,
      "(N_c": 6947,
      "{\\cdot": 6948,
      "\\left(\\frac{m": 6949,
      "(b)": 6950,
      "_{zz": 6951,
      "unit": 6952,
      "+3)": 6953,
      "{\\left[": 6954,
      "\\not=": 6955,
      "=-\\infty}^{\\infty}": 6956,
      "_{\\Lambda}": 6957,
      "}\\begin{array}{l": 6958,
      "_{\\dot\\alpha": 6959,
      "\\begin{array}{rl}": 6960,
      "}{\\sinh": 6961,
      "{\\circle*": 6962,
      "\\int_M": 6963,
      "\\beta}}": 6964,
      "'\\over": 6965,
      "({1\\over": 6966,
      "),\\quad": 6967,
      "+\\Lambda": 6968,
      "+\\Omega": 6969,
      "+\\varepsilon": 6970,
      "+\\dots": 6971,
      "+q)": 6972,
      "-g}": 6973,
      "/L": 6974,
      "7,": 6975,
      "=\\Lambda": 6976,
      "D}\\phi": 6977,
      "F})": 6978,
      "H_I": 6979,
      "I_{": 6980,
      "I_{n": 6981,
      "L}=-": 6982,
      "M}^2": 6983,
      "Q'": 6984,
      "T}=": 6985,
      "T}_{": 6986,
      "W_{": 6987,
      "X_{n": 6988,
      "Z_0": 6989,
      "_\\Phi": 6990,
      "_r)": 6991,
      "a^2)": 6992,
      "d\\hat": 6993,
      "g_{ab}": 6994,
      "i}\\int": 6995,
      "m\\,": 6996,
      "n},": 6997,
      "small": 6998,
      "t}-": 6999,
      "w'": 7000,
      "x^1": 7001,
      "y_i": 7002,
      "{}_{": 7003,
      "{x}": 7004,
      "\\label{U": 7005,
      "\\label{ra": 7006,
      "tic}": 7007,
      "ind": 7008,
      "_{\\it": 7009,
      "_{\\left(": 7010,
      "\\,\\partial": 7011,
      "}(F": 7012,
      "\\left(\\delta": 7013,
      "_1),": 7014,
      "\\phi_{": 7015,
      "}^{j}": 7016,
      "\\frac{1}{16\\pi": 7017,
      "\\lambda_n": 7018,
      "\\psi^2": 7019,
      "\\psi_L": 7020,
      "\\gamma^{\\mu}": 7021,
      "}_2}": 7022,
      "}+3": 7023,
      "\\epsilon_{ijk": 7024,
      ".\\label{B": 7025,
      "\\tau_3": 7026,
      "\\Phi'": 7027,
      "_{jl}": 7028,
      "-1},": 7029,
      "\\chi_0": 7030,
      "\\vec{B": 7031,
      "\\tilde{S": 7032,
      "\\mathrm": 7033,
      "-i\\pi": 7034,
      "ref": 7035,
      "_{p-1}": 7036,
      "_A,": 7037,
      "e^{\\varphi": 7038,
      "^{ab}\\partial": 7039,
      "}^{(\\pm": 7040,
      "\\frac{i}{2": 7041,
      "_{bc}": 7042,
      "=\\left(\\begin{array}{c}": 7043,
      "}\\cdot{\\bf": 7044,
      "}(k)=": 7045,
      "ular": 7046,
      "^{1})": 7047,
      "chi}": 7048,
      "_{1,1}": 7049,
      "\\label{rel": 7050,
      "}^{\\nu}": 7051,
      "\\int_{0}^{\\infty": 7052,
      "_{\\eta}": 7053,
      "quation}": 7054,
      "\\label{Eq:": 7055,
      "{tabular": 7056,
      "+E": 7057,
      ",\\ldots": 7058,
      "0\\,,": 7059,
      "=%": 7060,
      "=b": 7061,
      "=e": 7062,
      "A(x)": 7063,
      "G_{": 7064,
      "G_{\\mu\\nu}": 7065,
      "Q^a": 7066,
      "R,": 7067,
      "R_{21}": 7068,
      "S[": 7069,
      "S_2": 7070,
      "_9}": 7071,
      "a}+": 7072,
      "b_3": 7073,
      "equiv": 7074,
      "f_{n": 7075,
      "free": 7076,
      "i}\\,": 7077,
      "n_j": 7078,
      "s2}": 7079,
      "s)}": 7080,
      "x^2)": 7081,
      "x-y": 7082,
      "z'": 7083,
      "z_2)": 7084,
      "}~": 7085,
      "are": 7086,
      "}{E": 7087,
      "}{P": 7088,
      "\\label{o": 7089,
      "max}": 7090,
      "\\frac{-": 7091,
      "}(\\pi": 7092,
      ")}{\\sqrt{": 7093,
      "^{-{1\\over": 7094,
      "\\partial_{i}": 7095,
      "\\lambda_0": 7096,
      "}\\right).\\label{": 7097,
      "}\\,{\\rm": 7098,
      "}+\\frac": 7099,
      "}+e": 7100,
      "\\tau_0": 7101,
      "\\label{eq:def": 7102,
      "\\Phi^A": 7103,
      "}-\\frac{": 7104,
      "\\chi}": 7105,
      "\\noalign": 7106,
      "(p,": 7107,
      "\\hat{J": 7108,
      "^{2-": 7109,
      "_1,k": 7110,
      "dt'": 7111,
      "(\\tau)}": 7112,
      "{\\alpha'": 7113,
      "res}": 7114,
      "D}x": 7115,
      "]=2": 7116,
      "\\label{2.3": 7117,
      "=0,\\;": 7118,
      "\\label{3.3": 7119,
      "(D_\\mu": 7120,
      "}\\gamma^{\\mu": 7121,
      "}\\bigr)": 7122,
      ".20}": 7123,
      "dz\\,": 7124,
      "_{4})": 7125,
      "}(p)=": 7126,
      "_{D-2}": 7127,
      "%%TCIMACRO{\\": 7128,
      "=1,2,3,": 7129,
      "\\hline\\Gamma": 7130,
      "V_{eff": 7131,
      "string": 7132,
      "|c|c|c|c": 7133,
      "}(x,y)=": 7134,
      "field}": 7135,
      "_1\\dots\\mu": 7136,
      "\\sum_{\\sigma": 7137,
      "%\\label{eq:}": 7138,
      "&\\mbox{": 7139,
      "+|": 7140,
      "+\\chi": 7141,
      "+{\\textstyle": 7142,
      "0),": 7143,
      "1\\": 7144,
      "1cm": 7145,
      "75": 7146,
      ";t)": 7147,
      "<<": 7148,
      "=&": 7149,
      "C_3": 7150,
      "L_{2}": 7151,
      "M_p": 7152,
      "R^4": 7153,
      "^h": 7154,
      "_\\varepsilon": 7155,
      "a_{k": 7156,
      "a_4": 7157,
      "i\\sigma": 7158,
      "j^\\mu": 7159,
      "m,": 7160,
      "m_a": 7161,
      "pm": 7162,
      "v'": 7163,
      "z^{\\prime": 7164,
      "{r^2": 7165,
      "|\\Lambda": 7166,
      "_{C}": 7167,
      "}\\ell": 7168,
      "}\\mathrm{": 7169,
      "all}": 7170,
      "^2),": 7171,
      "\\frac{m^2": 7172,
      "\\,T": 7173,
      "^{\\;\\;": 7174,
      "^{-},": 7175,
      "})=-": 7176,
      "}={": 7177,
      "_2),": 7178,
      "\\right)\\right)": 7179,
      "_{\\mu}}": 7180,
      "(x^2)": 7181,
      "eqn}": 7182,
      "\\delta_{\\alpha": 7183,
      "^{2}}}": 7184,
      "^{2}\\left(": 7185,
      "}_\\pm": 7186,
      "}+1": 7187,
      "}^x": 7188,
      "_{1}},": 7189,
      "\\Phi^a": 7190,
      "(x)\\rangle": 7191,
      "\\Gamma^\\mu": 7192,
      "\\{X": 7193,
      "_{\\mu\\nu})": 7194,
      "_{\\mu\\nu\\rho}": 7195,
      "}_{\\omega": 7196,
      "_{2}=": 7197,
      "}\\stackrel": 7198,
      "(k,": 7199,
      "\\frac{dk": 7200,
      "\\overline{\\phi": 7201,
      "^{2/3}": 7202,
      "}\\partial_{\\nu}": 7203,
      "\\nabla_i": 7204,
      "(1-z)": 7205,
      "_{p}}": 7206,
      "_{r,s": 7207,
      "e^{\\sigma": 7208,
      "\\label{sta": 7209,
      "}^{(3": 7210,
      "\\label{23}": 7211,
      "(t))": 7212,
      "d^{d}": 7213,
      "d^{p+1}": 7214,
      "{\\gamma}}": 7215,
      "&&&": 7216,
      "^{(n)": 7217,
      "\\,\\,\\,\\,\\,\\,": 7218,
      "}{r^2}": 7219,
      "\\left\\{\\begin{array}{rcl": 7220,
      "(\\epsilon)": 7221,
      "wist": 7222,
      ",\\phi)": 7223,
      "(\\nu)": 7224,
      "^{\\prime\\prime}": 7225,
      "r_+^2": 7226,
      "\\hspace{0.3": 7227,
      "\\check{": 7228,
      "}{dx}": 7229,
      "^{(p)}": 7230,
      "}\\hspace{0.": 7231,
      "^{(l)}": 7232,
      "energy}": 7233,
      "uildrel": 7234,
      "truecm": 7235,
      "\\sqrt{\\lambda": 7236,
      "\\pi\\over": 7237,
      ")a": 7238,
      "+\\tilde{": 7239,
      ",F": 7240,
      "26}": 7241,
      "7)}": 7242,
      ";\\;\\;": 7243,
      "=E": 7244,
      "=\\lim": 7245,
      ">\\": 7246,
      "A]": 7247,
      "B_{\\mu\\nu}": 7248,
      "F\\wedge": 7249,
      "J_{1}": 7250,
      "L}}{\\partial": 7251,
      "M^2)": 7252,
      "Q_B": 7253,
      "T_{\\mu\\nu}": 7254,
      "X^{\\nu": 7255,
      "X}^{\\hat": 7256,
      "Z_{": 7257,
      "\\{1": 7258,
      "^P": 7259,
      "dd": 7260,
      "gf": 7261,
      "h'": 7262,
      "k_\\nu": 7263,
      "m_0^2": 7264,
      "n,": 7265,
      "pq}": 7266,
      "q^2}": 7267,
      "sup": 7268,
      "wh": 7269,
      "|\\over": 7270,
      "{\\o": 7271,
      "{\\ln": 7272,
      "^{6}": 7273,
      "^{''": 7274,
      "}{F": 7275,
      "\\label{X": 7276,
      "\\label{rho": 7277,
      "\\label{pa": 7278,
      "\\label{cc": 7279,
      "_{\\star": 7280,
      "\\frac{e^2": 7281,
      "\\frac{-1}{": 7282,
      "\\,p": 7283,
      "}(S": 7284,
      "\\partial^\\nu": 7285,
      "\\partial_{\\alpha}": 7286,
      "\\phi(x": 7287,
      "\\phi_3": 7288,
      "\\phi^j": 7289,
      "}^{s": 7290,
      "{\\big": 7291,
      "(\\not": 7292,
      "^{(q": 7293,
      "^{2}}\\right)": 7294,
      "\\theta_i": 7295,
      "\\psi_n": 7296,
      "\\gamma_a": 7297,
      "\\gamma_{\\mu}": 7298,
      "}+\\epsilon": 7299,
      "}^5": 7300,
      "}^{\\;\\;": 7301,
      "(1/2)": 7302,
      "\\epsilon_0": 7303,
      "_\\mu,": 7304,
      "}{\\theta": 7305,
      "}{\\cosh": 7306,
      "}{\\mathbf": 7307,
      "\\eta_1": 7308,
      "\\{q": 7309,
      "\\varphi'": 7310,
      "(z)}{": 7311,
      "\\hat{U": 7312,
      "\\hat{p}": 7313,
      "\\},\\": 7314,
      "^{1/2": 7315,
      "to}": 7316,
      "identi": 7317,
      "\\mathcal": 7318,
      "}\\partial_\\nu": 7319,
      "varian": 7320,
      "\\zeta)": 7321,
      "(q)=": 7322,
      "(1-\\alpha": 7323,
      "e^{\\Phi": 7324,
      "\\sum_{n}": 7325,
      "(2\\pi)^3": 7326,
      "d^2\\theta": 7327,
      "_{cl}": 7328,
      "F}_{\\mu": 7329,
      "}\\epsilon^{\\mu\\nu": 7330,
      "}{2}\\epsilon": 7331,
      "(\\beta)=": 7332,
      "-4)": 7333,
      "low": 7334,
      ",\\hspace{": 7335,
      "_{\\phi}": 7336,
      "^{\\rho\\sigma": 7337,
      "\\dagger}": 7338,
      "(\\chi)": 7339,
      "_{\\mu\\nu\\rho\\sigma}": 7340,
      "}\\over{d\\tilde": 7341,
      "_{(m)}": 7342,
      "\\hspace{0.5cm}": 7343,
      "\\begin{array}": 7344,
      "\\bigtriangleup": 7345,
      ",y)": 7346,
      "-\\nabla": 7347,
      "0}=": 7348,
      "0\\rangle": 7349,
      "E_j": 7350,
      "H}_{\\rm": 7351,
      "L})": 7352,
      "V)": 7353,
      "V^2": 7354,
      "\\\\c": 7355,
      "\\{\\phi": 7356,
      "c_{-": 7357,
      "df": 7358,
      "d\\zeta": 7359,
      "h_3": 7360,
      "h_{ij": 7361,
      "irac": 7362,
      "i\\lambda": 7363,
      "i\\omega": 7364,
      "j_3": 7365,
      "k_n": 7366,
      "l'": 7367,
      "p-1}": 7368,
      "q^j": 7369,
      "r}+": 7370,
      "stackrel": 7371,
      "x_{2}": 7372,
      "x_2)": 7373,
      "z)=": 7374,
      "z^n": 7375,
      "}h": 7376,
      "{\\underline": 7377,
      "arg": 7378,
      "}{C": 7379,
      "}{{\\cal": 7380,
      "}{(1-": 7381,
      "ma}": 7382,
      "\\frac{Z": 7383,
      "da}": 7384,
      "}(U": 7385,
      "\\left(r": 7386,
      "^{-\\frac{1}{2}}": 7387,
      "}=\\pm": 7388,
      "}=\\frac{1}{2": 7389,
      "let}": 7390,
      "{\\bigg": 7391,
      "(\\widetilde{": 7392,
      "(x'": 7393,
      "\\sigma_0": 7394,
      "ec}": 7395,
      "}_S": 7396,
      "}+n": 7397,
      "\\frac{\\ell": 7398,
      "{10.00}}\\put": 7399,
      "}^t": 7400,
      "^{\\mu}_{": 7401,
      "\\label{eq:L": 7402,
      "\\label{eq:p": 7403,
      "\\sqrt{h}": 7404,
      "}{\\tilde{": 7405,
      "\\min": 7406,
      "\\right]}": 7407,
      "\\xi_2": 7408,
      "_{1\\leq": 7409,
      "\\Gamma^m": 7410,
      "\\varphi^2": 7411,
      "\\varphi_i": 7412,
      ")^2.": 7413,
      "(2\\kappa": 7414,
      "\\bar{S": 7415,
      "\\Lambda^{2}": 7416,
      "(t)+": 7417,
      "(p'": 7418,
      "\\hat{P": 7419,
      "\\big[": 7420,
      "\\tilde{{\\cal": 7421,
      "-\\frac{N": 7422,
      "^2}{r^2}": 7423,
      "(a_1": 7424,
      "\\begin{array}{cl}": 7425,
      "(x,p": 7426,
      "{\\beta^2": 7427,
      "prop}": 7428,
      "tions}": 7429,
      "=\\frac{4": 7430,
      "\\dot{x}": 7431,
      "Tr}}": 7432,
      "(\\partial_{\\mu}": 7433,
      "\\frac{i}{\\hbar}": 7434,
      "d^3y": 7435,
      "_{d+1}": 7436,
      "\\frac{\\lambda}{4": 7437,
      "}(x,t)": 7438,
      "=\\sum\\limits": 7439,
      "cov": 7440,
      "(x_1,x_2": 7441,
      "_\\parallel": 7442,
      "\\sqrt{\\det": 7443,
      "%\\label{eqn:": 7444,
      "+\\Phi": 7445,
      "-\\Phi": 7446,
      "/8": 7447,
      "/a": 7448,
      "/n": 7449,
      "1}\\": 7450,
      "2s": 7451,
      "3})": 7452,
      "40": 7453,
      "90": 7454,
      "=U": 7455,
      "=\\frac{\\pi": 7456,
      "C_{\\alpha": 7457,
      "D^\\mu": 7458,
      "D_-": 7459,
      "F^{\\alpha": 7460,
      "F^{a": 7461,
      "F_{\\lambda": 7462,
      "H,": 7463,
      "H})": 7464,
      "J_{\\nu": 7465,
      "P_{n": 7466,
      "P_a": 7467,
      "R=": 7468,
      "V_{0": 7469,
      "V^{-1}": 7470,
      "Vert": 7471,
      "W}=": 7472,
      "X_{": 7473,
      "[W": 7474,
      "][": 7475,
      "^e": 7476,
      "^v": 7477,
      "as}": 7478,
      "cha": 7479,
      "eB": 7480,
      "iG": 7481,
      "m_{": 7482,
      "m_j": 7483,
      "p_{\\mu": 7484,
      "r_H": 7485,
      "t'": 7486,
      "wp": 7487,
      "x\\": 7488,
      "{k}": 7489,
      "{dt": 7490,
      "{{\\delta": 7491,
      "|P": 7492,
      "|W": 7493,
      "|w": 7494,
      "}_{\\alpha": 7495,
      "}\\\\{": 7496,
      "}{g^2": 7497,
      "\\label{y": 7498,
      "\\label{sigma": 7499,
      "\\label{metric}": 7500,
      "munu": 7501,
      "\\frac{(-1)": 7502,
      "\\,\\alpha": 7503,
      "\\,\\epsilon": 7504,
      "}(\\epsilon": 7505,
      "\\left(R": 7506,
      "\\left(z": 7507,
      ")}{\\delta": 7508,
      "^{-})": 7509,
      "\\nu}}": 7510,
      "\\lambda_3": 7511,
      ",\\\\{": 7512,
      "},Q": 7513,
      "\\sigma|": 7514,
      "^{2}}{2}": 7515,
      "-12": 7516,
      "{10}}\\put": 7517,
      "}^l": 7518,
      "\\rho\\sigma}": 7519,
      "(12": 7520,
      "2}\\b": 7521,
      "^{\\mu})": 7522,
      "2\\pi\\alpha": 7523,
      "}-\\frac": 7524,
      "^{\\perp": 7525,
      "os}": 7526,
      "}_{\\bf": 7527,
      "(2N": 7528,
      "s}.": 7529,
      "_{-+": 7530,
      "\\Psi_0": 7531,
      "^{1+": 7532,
      "\\big]": 7533,
      "\\vec{e": 7534,
      "\\vec{n": 7535,
      "_{2,": 7536,
      "\\frac{d^{2}": 7537,
      "-\\frac{k": 7538,
      "}\\int_{\\Sigma": 7539,
      "_1})": 7540,
      "(\\tau,\\vec{\\sigma": 7541,
      "_\\alpha,": 7542,
      "reen": 7543,
      "^{ac": 7544,
      ".14}": 7545,
      "^{1/2}}": 7546,
      "}(z)}": 7547,
      "=1.": 7548,
      "$}}\\put": 7549,
      "rane}": 7550,
      ",s)": 7551,
      "^{'}}": 7552,
      "{A}}": 7553,
      "atz}": 7554,
      "string}": 7555,
      "\\,{.}": 7556,
      "\\int_{0}^{1}": 7557,
      "====": 7558,
      "inste": 7559,
      "\\beta_0": 7560,
      ",0,": 7561,
      "-\\sum": 7562,
      ".\\\\": 7563,
      "1{2": 7564,
      ";\\lambda": 7565,
      "DE": 7566,
      "D}=": 7567,
      "F_{ij": 7568,
      "F_{ij}": 7569,
      "G_{n": 7570,
      "H_c": 7571,
      "P_{\\mu": 7572,
      "R},": 7573,
      "S_k": 7574,
      "T_3": 7575,
      "T_p": 7576,
      "U^\\dagger": 7577,
      "X^-": 7578,
      "_<": 7579,
      "ack": 7580,
      "b},": 7581,
      "cb": 7582,
      "d\\rho^2": 7583,
      "e^{\\pi": 7584,
      "f(": 7585,
      "f_j": 7586,
      "g^{": 7587,
      "g_n": 7588,
      "g_{2}": 7589,
      "hline": 7590,
      "m}=": 7591,
      "n_3": 7592,
      "p_a": 7593,
      "p\\cdot": 7594,
      "r_c": 7595,
      "t.": 7596,
      "w_i": 7597,
      "}{H": 7598,
      "}{K": 7599,
      "}{c}": 7600,
      "}{g}": 7601,
      "}{r^2": 7602,
      "\\label{O": 7603,
      "man": 7604,
      "\\sk": 7605,
      "\\,\\pi": 7606,
      "\\,\\phi": 7607,
      "}(\\delta": 7608,
      "\\left(M": 7609,
      "delta}": 7610,
      "\\nu^2": 7611,
      "_2)^2": 7612,
      "}^{(1)": 7613,
      ",\\mathbf{": 7614,
      "eq2}": 7615,
      ")=S": 7616,
      "^{2}}{2": 7617,
      "}_F": 7618,
      "}_J": 7619,
      "}+f": 7620,
      "}+k": 7621,
      "2}\\over": 7622,
      "_{n,l": 7623,
      "=0\\quad": 7624,
      ".\\label{t": 7625,
      "e^{-in": 7626,
      "e^{-\\lambda": 7627,
      "\\Gamma^{\\mu": 7628,
      "\\Gamma_\\mu": 7629,
      ")^2}}": 7630,
      "+1]": 7631,
      "}(x)\\,": 7632,
      "}\\propto": 7633,
      "dx^a": 7634,
      "_{2}\\left(": 7635,
      "a}_i": 7636,
      "dis": 7637,
      "\\vec{r": 7638,
      "\\lim_{x": 7639,
      "\\zeta}": 7640,
      "_\\alpha}": 7641,
      "rent": 7642,
      "}^{(N": 7643,
      "_{(i": 7644,
      "det}\\,": 7645,
      "_B)": 7646,
      "(d\\theta": 7647,
      "_{s}}": 7648,
      "\\cosh\\theta": 7649,
      "mode": 7650,
      "{\\tau}": 7651,
      "+\\frac{1}{2})": 7652,
      "=-\\infty}^\\infty": 7653,
      "=1}^{N-1}": 7654,
      "ermion": 7655,
      "|n|": 7656,
      "-\\frac{i}{2}": 7657,
      "\\left(1-\\frac{": 7658,
      "symp": 7659,
      "e^{ikx}": 7660,
      "_{\\bot}": 7661,
      "out}": 7662,
      "phys}": 7663,
      "\\alpha}=": 7664,
      "\\infty,": 7665,
      "%EndExpansion": 7666,
      "(e^{-": 7667,
      ")\\phi": 7668,
      "+2}}": 7669,
      ",s}": 7670,
      "-\\log": 7671,
      "-(": 7672,
      "-\\left[": 7673,
      "-\\frac{\\partial": 7674,
      "-{\\bar": 7675,
      "/5": 7676,
      "1$": 7677,
      "2\\theta": 7678,
      ";g)": 7679,
      "=D": 7680,
      "=s": 7681,
      "=\\tilde": 7682,
      "=\\xi": 7683,
      "=\\displaystyle": 7684,
      "A_{k": 7685,
      "A_\\alpha": 7686,
      "A_\\rho": 7687,
      "C^{-1}": 7688,
      "F}{\\partial": 7689,
      "F_4": 7690,
      "G=": 7691,
      "H_n": 7692,
      "K_i": 7693,
      "S'": 7694,
      "XY": 7695,
      "Z'": 7696,
      "Z_{12}": 7697,
      "[\\pi": 7698,
      "\\}_{\\": 7699,
      "_\\Delta": 7700,
      "d\\hat{": 7701,
      "fa": 7702,
      "f(z": 7703,
      "iq": 7704,
      "ov": 7705,
      "pp": 7706,
      "p\\right)": 7707,
      "prime": 7708,
      "p_\\nu": 7709,
      "q_I": 7710,
      "r_{+": 7711,
      "sm": 7712,
      "x+": 7713,
      "y'": 7714,
      "};": 7715,
      "}\\geq": 7716,
      "frac{\\partial": 7717,
      "\\label{var": 7718,
      "_{\\mp": 7719,
      "\\frac{(2": 7720,
      "erm}": 7721,
      "\\,V": 7722,
      "^{\\cal": 7723,
      "\\left(k": 7724,
      "thin": 7725,
      "\\mu_{": 7726,
      ",\\nonumber": 7727,
      "(x+": 7728,
      "(x_2": 7729,
      ")=i": 7730,
      "},\\;\\;": 7731,
      "\\bar\\partial": 7732,
      "\\bar\\lambda": 7733,
      "\\sigma^-": 7734,
      "}\\,{\\cal": 7735,
      "}\\,-\\,": 7736,
      "}_x": 7737,
      "\\label{eq5": 7738,
      "}+\\alpha": 7739,
      "}^\\pm": 7740,
      "\\rho^2}": 7741,
      "\\epsilon^{ij}": 7742,
      ".\\label{n": 7743,
      "\\label{eq:C": 7744,
      "}{\\langle": 7745,
      "2\\pi\\alpha'": 7746,
      "_{14": 7747,
      "\\langle\\psi": 7748,
      "\\hat{\\lambda": 7749,
      "\\big|": 7750,
      "\\tilde{R": 7751,
      "\\mbox{Tr": 7752,
      ").\\end{array}": 7753,
      "(\\tau_1": 7754,
      "(r^2": 7755,
      "_{rs": 7756,
      "(z))": 7757,
      "}^{(3)}": 7758,
      "~,~~~~": 7759,
      "\\label{eff": 7760,
      "(\\alpha\\cdot": 7761,
      "(d-2": 7762,
      "~.~": 7763,
      "\\dim": 7764,
      "\\sum_{k=0}^{": 7765,
      "_{d}}": 7766,
      "_{d-1}": 7767,
      "\\begin{array}{lcl}": 7768,
      "\\label{non": 7769,
      "^{d-2}": 7770,
      "d\\phi^2": 7771,
      "\\sum_{\\vec": 7772,
      "}(\\sigma)": 7773,
      "}(-{\\bf{q}})": 7774,
      "\\sum_{i=1}^{N}": 7775,
      "\\raisebox{": 7776,
      "\\sin\\alpha": 7777,
      ")^{n": 7778,
      "+5": 7779,
      "-l}": 7780,
      "-r)": 7781,
      "-\\frac{\\alpha": 7782,
      "0\\;": 7783,
      "2M": 7784,
      "27}": 7785,
      ":\\!": 7786,
      ";{\\bf": 7787,
      "<\\psi": 7788,
      "=\\sigma": 7789,
      "=\\rho": 7790,
      "A^\\nu": 7791,
      "B_{a": 7792,
      "F_{1}": 7793,
      "L_i": 7794,
      "M_{p": 7795,
      "N_i": 7796,
      "Q_0": 7797,
      "Y_1": 7798,
      "[A_\\mu": 7799,
      "]}}": 7800,
      "_6}": 7801,
      "_\\star": 7802,
      "a\\,": 7803,
      "a^{\\dag": 7804,
      "b_{j": 7805,
      "c'": 7806,
      "e_3": 7807,
      "f_k": 7808,
      "g.": 7809,
      "g_3": 7810,
      "j^{\\mu": 7811,
      "p_{\\mu}": 7812,
      "q_{1}": 7813,
      "q^{-2}": 7814,
      "s_i": 7815,
      "ty}": 7816,
      "u},": 7817,
      "v,": 7818,
      "z}+": 7819,
      "}}\\,": 7820,
      "},\\quad": 7821,
      "}e^{i": 7822,
      "~{\\cal": 7823,
      "^{in": 7824,
      "}\\>": 7825,
      "}{i": 7826,
      "\\frac{J": 7827,
      "}(K": 7828,
      "}(\\nabla": 7829,
      "}(1)": 7830,
      "\\left(\\,": 7831,
      "\\left(\\frac{2": 7832,
      "number": 7833,
      "_1\\nu": 7834,
      "_1}\\cdots": 7835,
      "})\\right)": 7836,
      "}=\\alpha": 7837,
      "\\right)\\;": 7838,
      "}_{b}": 7839,
      "\\lambda_a": 7840,
      ")=-\\frac{": 7841,
      "\\delta_{ab}": 7842,
      "},t)": 7843,
      "^{(1,": 7844,
      "\\label{eq6": 7845,
      "}+\\beta": 7846,
      "\\left[\\begin{array}{c}": 7847,
      "\\epsilon_i": 7848,
      ".\\label{S": 7849,
      "stre": 7850,
      "\\vec{\\phi": 7851,
      "_{1}}}": 7852,
      "\\rangle_0": 7853,
      "\\sqrt{N": 7854,
      "\\sqrt{3}}": 7855,
      "\\Phi,": 7856,
      "\\varphi_2": 7857,
      "r}^2": 7858,
      "}_{\\tau": 7859,
      "=-\\frac{1}{2}": 7860,
      "\\bar{{\\cal": 7861,
      "\\bar{g}": 7862,
      "\\Omega_0": 7863,
      "\\dot\\phi": 7864,
      "\\partial_u": 7865,
      "\\hat{e": 7866,
      "\\vec{n}": 7867,
      "\\tilde{H": 7868,
      "\\tilde{y": 7869,
      "^{2k}": 7870,
      "\\rightarrow\\infty}": 7871,
      "+2m": 7872,
      "\\frac{1}{\\pi}": 7873,
      "expansion": 7874,
      ")}{d": 7875,
      "^1)^2": 7876,
      "\\label{can": 7877,
      "\\label{sec": 7878,
      "_{(\\alpha": 7879,
      "^{(2)}=": 7880,
      "}=0\\": 7881,
      "}\\bigl": 7882,
      ")\\approx": 7883,
      "^{\\frac{2": 7884,
      "d\\tau\\,": 7885,
      "(x)=0": 7886,
      "\\mathbf{k}": 7887,
      "\\hspace{-0.": 7888,
      "dr^2+r^2": 7889,
      "}\\biggl(": 7890,
      ")=0\\": 7891,
      ".5cm": 7892,
      "\\left\\{\\begin{array}{l": 7893,
      "\\Biggr": 7894,
      "\\Biggr]": 7895,
      "^{cd}": 7896,
      "}_{mn": 7897,
      "}%BeginExpansion": 7898,
      "{\\leftrightarrow": 7899,
      "&0\\end{array}\\right)": 7900,
      "(\\psi)": 7901,
      "_{2n-1}": 7902,
      "}_{\\pi": 7903,
      "c.c.": 7904,
      "ds^{2}=-": 7905,
      "basi": 7906,
      "\\label{zer": 7907,
      "\\bar{\\theta}": 7908,
      "zero": 7909,
      "\\Longleftrightarrow": 7910,
      "\\alpha})": 7911,
      "\\int\\,": 7912,
      "\\int_{t": 7913,
      "%{\\cal": 7914,
      "(\\frac{1}{": 7915,
      "0\\,.": 7916,
      "1{": 7917,
      "3!": 7918,
      "33": 7919,
      "=h": 7920,
      "=l": 7921,
      "=v": 7922,
      "={\\bf": 7923,
      "=\\Omega": 7924,
      "={{": 7925,
      "A^c": 7926,
      "D\\phi": 7927,
      "D}^{": 7928,
      "Eq": 7929,
      "E_{": 7930,
      "F_\\mu": 7931,
      "G^{": 7932,
      "H^{(1)}": 7933,
      "J)": 7934,
      "K_2": 7935,
      "M}^{": 7936,
      "P^\\mu": 7937,
      "T_{2}": 7938,
      "W}_{": 7939,
      "[1,": 7940,
      "]~": 7941,
      "^\\theta": 7942,
      "_L}": 7943,
      "ak": 7944,
      "cdots": 7945,
      "g,": 7946,
      "g^{i": 7947,
      "g^{\\nu": 7948,
      "g^{ij": 7949,
      "h}}": 7950,
      "i,": 7951,
      "io": 7952,
      "n_a": 7953,
      "p^i": 7954,
      "ps}": 7955,
      "x)=": 7956,
      "}B": 7957,
      "~d": 7958,
      "{\\longrightarrow}": 7959,
      "_{X}": 7960,
      "^{h": 7961,
      "^{0,": 7962,
      "^{5}": 7963,
      "raint": 7964,
      "}{5}": 7965,
      "\\frac{9": 7966,
      "\\frac{|": 7967,
      "simp": 7968,
      "metr": 7969,
      "}(W": 7970,
      "\\left(\\eta": 7971,
      "\\left(\\frac{\\pi": 7972,
      "\\over\\delta": 7973,
      "\\mu_0": 7974,
      "\\nu},": 7975,
      "\\nu}-": 7976,
      "}=f": 7977,
      "}=\\epsilon": 7978,
      "}=\\eta": 7979,
      "\\partial_n": 7980,
      "\\partial_{-}": 7981,
      "\\right)\\,,": 7982,
      "}_{k}": 7983,
      "\\\\0&": 7984,
      "\\delta_{j": 7985,
      "}\\right),\\label{": 7986,
      "-16": 7987,
      "\\psi^*": 7988,
      "}+\\varepsilon": 7989,
      "\\frac{\\langle": 7990,
      "\\label{eq:d": 7991,
      "2\\pi^2}": 7992,
      "^{-1})^{": 7993,
      "\\Gamma(": 7994,
      "\\Gamma_{\\mu": 7995,
      "\\varphi_0": 7996,
      "}_{\\dot{": 7997,
      "0,1,": 7998,
      "\\hat{\\partial": 7999
    },
    "merges": [
      "{ \\",
      "_ {",
      "\\ l",
      "^ {",
      "r a",
      "} \\",
      "t a",
      "e l",
      "a l",
      "a r",
      "i g",
      "\\l a",
      "ra c",
      "\\ p",
      "f rac",
      "^ 2",
      "} {",
      "\\ frac",
      "el {",
      "\\la b",
      "\\lab el{",
      "t i",
      "i n",
      "f t",
      "m a",
      "_ {\\",
      "2 }",
      "e ta",
      "ig h",
      "r igh",
      "h a",
      "m u",
      "\\frac {",
      "h i",
      "e ft",
      "righ t",
      "e r",
      "\\l eft",
      "1 }",
      "\\ s",
      "\\ ,",
      "^ {\\",
      "\\ o",
      "\\ b",
      "a m",
      "s i",
      "} }",
      "p ha",
      "al pha",
      "ti al",
      "ar tial",
      "v er",
      "m e",
      "d a",
      "} (",
      "right )",
      "\\left (",
      "el ta",
      "b da",
      "n u",
      "t h",
      "\\o ver",
      "o t",
      "\\ ;",
      ") }",
      "am ma",
      "_ 1",
      "c al",
      "d ot",
      "\\ mu",
      "d e",
      "\\ e",
      "o n",
      "\\ in",
      "^{ -",
      "\\ c",
      "q u",
      "\\ alpha",
      "d elta",
      "1 }{",
      "\\p i",
      "\\ nu",
      "ig ma",
      "{\\ cal",
      "p si",
      "} )",
      "_ 0",
      "} =",
      "\\p artial",
      "g a",
      "l e",
      "me ga",
      "\\p hi",
      "t {",
      "_ 2",
      "} ^{",
      "\\ right)",
      "\\ v",
      "{\\ p",
      "th eta",
      "\\frac{ 1}{",
      "} _{",
      "r m",
      "a d",
      "{\\ b",
      "l on",
      "_{\\ mu",
      "ra y",
      "ar ray",
      "{ array",
      "ti l",
      "til de",
      "g amma",
      "psi lon",
      "qu ad",
      "m bda",
      "\\la mbda",
      "_ i",
      "( \\",
      ", \\",
      "( x",
      "h o",
      "_{ i",
      "u m",
      "\\in t",
      "q r",
      "r ho",
      "\\b eta",
      "e q",
      "\\ \\",
      ") =",
      "n g",
      "ng le",
      "\\ delta",
      "} ,",
      "\\b ar",
      "ta u",
      "r i",
      "^{ (",
      "\\s igma",
      "\\ P",
      "}\\ right)",
      "am bda",
      "\\s um",
      "r o",
      "\\ right",
      "^{ 2}",
      "n d",
      "{\\p artial",
      "e c",
      "~ ~",
      "p hi",
      "\\ theta",
      "}\\ ,",
      "- 1",
      "\\p si",
      "qr t{",
      "\\ gamma",
      "} _",
      "x i",
      "{\\b f",
      "\\v ar",
      "dot s",
      "\\label{ eq",
      "} +",
      "\\frac {\\",
      "{ 1",
      "} ^",
      "a b",
      "ha t",
      "p a",
      "G amma",
      "\\o mega",
      "{\\ rm",
      "ft y",
      "e g",
      "} ^{\\",
      "\\ rho",
      "( 1",
      "\\left [",
      "ri me",
      "3 }",
      "\\e psilon",
      "eg in",
      "ma th",
      "\\ tilde",
      "2 }\\",
      "a p",
      "_{ n",
      "^2 }",
      "= 0",
      "l in",
      "nd {array",
      "egin {array",
      "c }",
      ". \\label{",
      "ra ngle",
      "egin{array }{",
      "b o",
      "lin e",
      "4 }",
      "l a",
      "s t",
      "^{\\ mu",
      "L ambda",
      "\\ tau",
      "\\label{eq :",
      "ta r",
      "_ \\mu",
      "ha t{",
      "\\v ec",
      "D elta",
      "bo x",
      "_{ 1}",
      "e ^{-",
      "_ n",
      "\\ rangle",
      "\\; \\;",
      "e psilon",
      "\\s qrt{",
      "_{ 0",
      "} {\\",
      "\\e nd{array",
      "\\b egin{array}{",
      "2 \\pi",
      "\\P hi",
      "\\ eta",
      "^{- 1}",
      "} -",
      "e ^{",
      "frac {",
      "m }",
      "\\ m",
      "ro w",
      "O mega",
      "\\right ]",
      "_{\\ alpha",
      "\\ xi",
      "k ap",
      "kap pa",
      "(x )",
      "tar row",
      "_ j",
      "_ 3",
      "_{ 1",
      "\\ Gamma",
      "\\ quad",
      "q quad",
      "b ar",
      "\\ {",
      "^{\\ p",
      "\\var phi",
      "in t",
      ") ,",
      "righ tarrow",
      "{1 \\over",
      "i v",
      "( z",
      ") ^2",
      "= 1}",
      "\\ !",
      "i m",
      "_{ j",
      "\\in fty",
      "r }",
      "box {",
      "\\frac{1}{ 2}",
      "+ 1",
      "}( x",
      "- 1}",
      "\\c hi",
      "{\\ s",
      "^ 3",
      "_{\\mu \\nu",
      ". .",
      "da g",
      "o s",
      "l }",
      "- 2",
      "qu iv",
      "}\\ p",
      "^ 4",
      "d x",
      "} _{\\",
      "B ig",
      "0 }",
      "ti me",
      "_{ k",
      "\\ Delta",
      "^ a",
      "time s",
      "_ a",
      "}\\ right",
      "}{ 2}",
      "_ k",
      "\\la ngle",
      "l ambda",
      "_{ 2}",
      "( 2",
      "\\c dot",
      "^ i",
      ", \\label{",
      "x p",
      "o ver",
      "= -",
      "n }",
      "^{\\p rime",
      "\\, \\,",
      "\\bar {",
      "^ \\mu",
      "\\ n",
      "j }",
      "\\ Lambda",
      "\\ Omega",
      "( t",
      "0 ,",
      "\\ hat",
      "-1 )",
      "g e",
      "\\p m",
      "\\ dot",
      "/ 2}",
      "\\ w",
      "g er",
      "dag ger",
      "z eta",
      "\\partial _",
      "( p",
      "i }",
      "\\e quiv",
      "t }",
      "\\ hat{",
      "s }",
      "\\ h",
      "}\\ s",
      "^2 +",
      "\\ }",
      "_{ -",
      "a }",
      "( k",
      "\\end{array }",
      "\\P si",
      "^2 )",
      "qr t",
      "\\ qquad",
      "+ 1}",
      "ab la",
      "d i",
      "^{ 1",
      "\\b ig",
      "\\vec {",
      "t o",
      "y le",
      "st yle",
      "r )",
      "0 )",
      "y )",
      "_{ 2",
      "\\ kappa",
      "\\ Big",
      "}{ 2",
      "k }",
      "i de",
      "\\tilde {",
      "\\m box{",
      "\\frac{ d",
      "\\c dots",
      "\\l dots",
      "e d",
      "\\over line",
      "in fty",
      "_{ m",
      "p }",
      "\\frac {\\partial",
      "^{ 2",
      "_ +",
      "\\ math",
      "b eta",
      "\\ rightarrow",
      "c c",
      "}\\ over",
      "\\s in",
      "}\\p artial",
      "^{ i",
      "v ar",
      "0 &",
      "_{\\ rm",
      "S igma",
      "1 ,",
      "{\\p i",
      "- \\frac{",
      "^ +",
      "\\c os",
      "} {\\partial",
      "( n",
      "\\l n",
      "- i",
      "\\e xp",
      "\\p rime",
      "x }",
      "_{ a",
      ") +",
      "} \\left(",
      "^2 }{",
      "s p",
      ",\\ quad",
      "}\\ int",
      "P hi",
      "el l",
      "\\var epsilon",
      "/ 2",
      "tilde {",
      "c e",
      "_ 1}",
      "}\\ frac{",
      "^{\\ alpha",
      "} .",
      "^ *",
      "}\\ c",
      "_{\\ nu",
      "o mega",
      "ro d",
      "5 }",
      "}\\ ;",
      "{\\b ar",
      "0 .",
      "_ m",
      "\\s qrt",
      "_ 4",
      "_{i j",
      ") .",
      "g }",
      "_1 ,",
      "t ri",
      "_ -",
      "+ 2",
      "d }",
      "ed ge",
      "1 -",
      "i t",
      "6 }",
      "\\l im",
      "e }",
      "\\nu }",
      "\\c r",
      "e^{ i",
      "4 \\pi",
      "cal {",
      "d s",
      "\\bar {\\",
      "u nd",
      "d t",
      "\\ zeta",
      "(\\ tau",
      "1 +",
      "_{\\mu }",
      "_ \\alpha",
      "( -",
      "}\\ e",
      "\\n abla",
      "b f",
      ") \\,",
      "v ec",
      "s pa",
      "_{ +",
      "} ^2",
      "spa ce",
      "\\frac{ 1}",
      "di sp",
      "( q",
      "^ -",
      "(1 -",
      "la y",
      "disp lay",
      "_ c",
      "display style",
      "_ 2}",
      "( a",
      "N }",
      "{\\ alpha",
      "_{ ab",
      "s igma",
      "b }",
      "r e",
      "_ s",
      "^ 0",
      "e x",
      ") }(",
      "}\\right ]",
      "\\ :",
      "_{ p",
      "_{\\ p",
      "A }",
      ") }{",
      "f }",
      "ver t",
      "( r",
      "^{- 1",
      "\\left \\{",
      "^ n",
      "' }",
      "und er",
      "l eft",
      "8 }",
      "\\o times",
      "\\p rod",
      "}\\ delta",
      "^ \\",
      "m ^2",
      "{ 2",
      "t )",
      "D }",
      "1 2",
      "~~ ~",
      ".. .",
      "}^{ 2}",
      "=1} ^{",
      "^ 1",
      "\\ Sigma",
      "^ \\prime",
      "{\\p hi",
      "\\begin{array}{ c",
      "_ p",
      "^{ a",
      "^{( 1",
      "T h",
      "i d",
      "f o",
      "\\w edge",
      "(x ,",
      "\\w ide",
      "\\frac{ 2",
      "' )",
      "\\label{ c",
      "Th eta",
      "^{ +",
      "under line",
      "( u",
      "\\s im",
      "L }",
      "}(x )",
      "^2 -",
      ". 1",
      "_2 )",
      "+1 )",
      "_{\\mu\\nu }",
      "_ A",
      "_{ 3",
      "] =",
      "_{ A",
      "( s",
      "B }",
      "( \\lambda",
      "_{ r",
      "e ^{\\",
      "\\, ,",
      "{\\s qrt{",
      "_{ l",
      "_ b",
      "\\beta }",
      "{ d",
      "\\end{array }\\right)",
      "_ \\nu",
      "^{ ab",
      "( \\phi",
      "\\ vert",
      "}\\ frac",
      "}{ d",
      "^ j",
      "{\\b eta",
      "\\label{ s",
      "(z )",
      "}^{ (",
      "_ 5",
      "infty }",
      "_{i j}",
      "\\label{ 2",
      "rm {",
      "_{ (",
      "}\\ phi",
      "var phi",
      "p t",
      "\\frac{1}{ 2",
      "z )",
      "p ro",
      "^{ n",
      "\\label{ 1",
      "r ^2",
      "0 )}",
      "^{\\ dagger",
      "(t )",
      "\\ to",
      "_ R",
      "l l",
      "ti on",
      "M }",
      "\\ ell",
      "= \\frac{",
      "\\ times",
      "o g",
      "r c",
      "\\P i",
      "7 }",
      "}\\s um",
      "( {\\bf",
      ",\\ qquad",
      ", x",
      "\\, .",
      "\\! \\!",
      "}\\ b",
      "z }",
      "' '",
      "\\dot {",
      "{\\ frac{",
      "de t",
      "}= -",
      "+ i",
      "~ ,",
      "c k",
      "{\\ delta",
      "^{\\ nu",
      "\\frac{1}{ 2}\\",
      "^{( 2",
      ") )",
      "S _{",
      "{\\ math",
      "_ l",
      "T r",
      "^{ *",
      "{\\ hat",
      "a st",
      "\\sum _{n",
      "_1 )",
      "_{i }",
      "( \\sigma",
      "( 2\\pi",
      "0& 0&",
      "\\math cal{",
      "d ^2",
      "{\\ lambda",
      "}\\ psi",
      "it s",
      "o l",
      "{\\ tilde",
      "~~ ~~",
      "\\begin{array}{c c}",
      "2} }",
      "ma tri",
      "^ \\alpha",
      "= \\int",
      "R }",
      "\\big g",
      "( \\partial",
      "ex t",
      "\\ displaystyle",
      "\\overline {",
      "(1 +",
      "\\label{ e",
      "\\lim its",
      "dot {",
      ") -",
      "( m",
      "P si",
      "}\\ bar",
      "( \\alpha",
      "9 }",
      "e^{ 2",
      "{ {",
      "(\\ theta",
      "\\m id",
      "^{ 3",
      "^\\ dagger",
      "( g",
      "_ r",
      "\\l og",
      "\\sum _{i",
      "ta ck",
      "{\\ mu",
      "tack r",
      "( -1)",
      "^ b",
      "}) =",
      "_{0 }",
      "( r)",
      "q }",
      "_{ N",
      "_{\\ beta",
      "=0 ,",
      "_ B",
      "w ide",
      "( A",
      "\\frac{ i",
      "( d",
      "\\label{ 3",
      "bf {",
      "( i",
      "=1} ^",
      "\\h bar",
      "matri x",
      "\\h space",
      "}} =",
      "\\ Theta",
      "y }",
      "^ A",
      "_{ b",
      "e n",
      "^{\\mu \\nu",
      "e f",
      "\\left |",
      "n abla",
      "\\l eq",
      ") ]",
      "e^{- i",
      "^ \\nu",
      "_{1 2}",
      "ap pro",
      "c on",
      "a c",
      "| ^2",
      "\\;\\; \\;\\;",
      "( y",
      "appro x",
      "_ L",
      "^{(1 )}",
      "} }{",
      "ds ^2",
      "_ N",
      "\\begin{array}{ c}",
      "{\\s igma",
      "1 6",
      "( N",
      "~ .",
      "t ext",
      "& =",
      "d ^4",
      "{\\ psi",
      ") }}",
      "( y)",
      "( D",
      "\\begin{array}{ cc",
      "_{\\ lambda",
      "= \\left(",
      "_{ x",
      "^{ 2}\\",
      "^ k",
      "c ri",
      "_{ s",
      "_{ I",
      "- 2}",
      "p )",
      "u s",
      "^{\\mu }",
      "( X",
      "(\\ xi",
      "\\sqrt{ -",
      "s qrt{",
      "_ f",
      "}\\ gamma",
      "t r",
      "}{ 4",
      "s e",
      "H }",
      "_{ c",
      "(x -",
      ")} =",
      "cri pt",
      "l (",
      ") ^{",
      "}= 0",
      "\\partial _\\mu",
      "F }",
      "\\frac {\\pi",
      "_{ M",
      "( T",
      "- 3",
      "- m",
      "}_{ i",
      "}\\b ig",
      "d y",
      "\\int _0",
      "= 1,",
      ". 2",
      "T }",
      "\\right \\}",
      ") \\",
      "{\\ theta",
      "{\\ c",
      "\\frac{\\ delta",
      "{\\ vec",
      "&= &",
      "^{\\ frac{",
      "e^{- 2",
      "u t",
      "}} }",
      "+ \\frac{",
      "}} ,",
      "}^{\\ mu",
      "8 \\pi",
      "^ m",
      "2 ,",
      "_0 }",
      "d ^{",
      "\\left \\",
      "\\; ,",
      "g ^2",
      "\\alpha }",
      "x })",
      "\\s tackr",
      "{\\ Gamma",
      "\\label{ f",
      "C }",
      "^{1 /2}",
      "d z",
      "}\\ epsilon",
      "{\\ gamma",
      ", n",
      "_ I",
      "ta n",
      "\\left( \\frac{",
      "{ k",
      "( \\omega",
      "_0 )",
      "\\ dots",
      "h }",
      "S }",
      "{\\ rho",
      "\\right |",
      "\\label{ a",
      "var epsilon",
      "\\ g",
      "left (",
      "A _\\mu",
      "_2 ,",
      "_{\\ sigma",
      "_{\\ rho",
      "1 2}",
      "] }",
      "s in",
      "}\\ Big",
      "G }",
      "\\frac{\\partial }{\\partial",
      "on g",
      ". \\label{eq:",
      "1 )",
      "h bar",
      ": =",
      "- k",
      "\\label{ p",
      "}\\c dot",
      "underline {",
      "er p",
      "= \\,",
      "_{\\ bar",
      "}{\\ delta",
      "^{ k",
      "_ M",
      ") ^",
      "\\left .",
      "{\\ omega",
      ", m",
      "}( z",
      "}^{\\ infty}",
      "^ I",
      "m box{",
      "o r",
      "^{2} +",
      "- p",
      "d ^3",
      "}\\e nd{array",
      "( 0)",
      "_1 +",
      "}^{\\ p",
      ", k",
      "\\label{ 4",
      "}( k",
      "i rc",
      ",\\ theta",
      "\\sin h",
      "( \\mu",
      "_ x",
      "^{ A",
      "\\ approx",
      "}{ 2}\\",
      "}} )",
      ") }\\",
      "^{- 2}",
      "^{2} }",
      "- \\frac{1}{",
      "( 3",
      ")} ,",
      "\\mu }",
      "}^ a",
      "over line",
      "= 1",
      "(\\ rho",
      "u p",
      "_{\\p m",
      "\\cos h",
      "d \\tau",
      "_{ t",
      "{ p",
      "tion }",
      "- x",
      "\\ d",
      "= \\;",
      "e xp",
      "}{ 2\\pi",
      ",\\ \\",
      "p l",
      "^{ j",
      "\\s tar",
      "\\; .",
      "}\\e quiv",
      "v }",
      "}\\ hat{",
      "[ A",
      "}\\ hat",
      "\\lambda }",
      "& &",
      "^ 5",
      "(x )=",
      "{\\ eta",
      "}\\ Gamma",
      "= ~",
      "o m",
      "q )",
      ", t",
      "^{ 0",
      "matrix {",
      "\\sum _{k",
      "( \\beta",
      "}{ 3",
      "} ]",
      "^{i j",
      "text style",
      "- n",
      "! }",
      "( f",
      "^{( n",
      "b rac",
      "( w",
      "{ i",
      "c m}",
      "^{ m",
      ", j",
      "^{( 0)}",
      "^2 \\over",
      "^{\\p m",
      "~ =~",
      "P }",
      "}\\ Phi",
      "\\,\\, \\,\\,",
      "{\\ frac",
      "me q",
      "^{(2 )}",
      "k ^2",
      "(\\ gamma",
      "\\g eq",
      "( \\vec{",
      "ef f",
      "\\sum _{",
      "m box",
      "}\\ \\",
      "\\frac{ 3",
      "a ^2",
      ", p",
      "E }",
      "_{ 4",
      "\\;\\; \\;",
      "fo r",
      "\\math bf{",
      "\\n eq",
      "I }",
      "{ q",
      "_{\\alpha }",
      "_ q",
      "\\var theta",
      "\\int _{",
      "(\\ eta",
      "P i",
      "\\phi }",
      "( M",
      ", \\,",
      "}\\ eta",
      "\\sigma }",
      "_{ [",
      "_0 ^2",
      "}\\s igma",
      "}^{ a",
      "J }",
      "\\label{ b",
      "= 2",
      "( R",
      "0 \\\\",
      "u }",
      "}{ r",
      "+ m",
      "_{ B",
      "\\rho }",
      "( \\frac{",
      "\\hspace {",
      "pl us",
      "- q",
      "\\label{ t",
      "- 4",
      "T r}",
      "\\label{ d",
      "_i )",
      "_{ d",
      "{\\cal {",
      "m m",
      "( l",
      "\\end{array }\\right",
      "\\frac{1} {\\sqrt{",
      "^ \\infty",
      "_ H",
      "}( t",
      "}\\ theta",
      "1}{ 2}",
      "\\; =\\;",
      "^ c",
      "{ x",
      "h space",
      "\\infty }",
      "m b",
      "\\label{eq n",
      "( v",
      "_ \\beta",
      "_{ab }",
      "a n",
      "d r",
      "\\sum _{j",
      "}\\ rangle",
      "in }",
      "_ D",
      "o }",
      "| 0",
      ")= -",
      "d^4 x",
      "\\begin{array}{ l",
      "_{\\alpha \\beta",
      "}^{ +",
      "\\alpha '",
      "_{ R",
      "\\frac{1}{ 4}",
      "}\\ alpha",
      "k i",
      "u l",
      "a nd",
      "L }_{",
      "}) ,",
      "V }",
      "\\frac{1}{ 4",
      "_ \\pm",
      "}\\ ,\\",
      "}^{\\ infty",
      "( E",
      ", z",
      "{ 3",
      "^{ 4",
      "I I",
      "= \\",
      "\\right) ,",
      "_{ L",
      "}( p",
      "\\frac{\\ lambda",
      "^{ N",
      "( 0,",
      "}_{ 1}",
      "}\\big g",
      "{\\ Phi",
      "}^{ i",
      "}^ \\infty",
      "\\s i",
      "}_ \\mu",
      "=0 }^{",
      "^{\\ infty",
      "( L",
      "\\si meq",
      "^ T",
      "\\frac{ m",
      "}\\, ,",
      "\\frac{\\ alpha",
      "(p )",
      "_ t",
      "}\\frac {\\partial",
      "\\label{ 5",
      "}\\ quad",
      "c m",
      "\\right \\",
      ", b",
      "\\label{ n",
      ". }",
      "/ 2}\\",
      "(1 )}",
      "u )",
      "}} +",
      "_1 ^2",
      "- {1\\over",
      "1 0",
      "{\\ kappa",
      "\\right) .",
      "}_{ n",
      "\\label{eqn :",
      "}\\ o",
      "_{+ }",
      "}^{\\p rime",
      "_ F",
      "^{\\ infty}",
      "\\wide tilde{",
      "}{\\ sqrt{",
      "^{ b",
      "}( {\\bf",
      "=0 .",
      "s cript",
      "M ^2",
      "x ^2",
      "(1 ,",
      "K }",
      "}( \\theta",
      "( 4",
      "\\l ong",
      "\\label{ g",
      "}\\, .",
      "\\pi }",
      "_i ,",
      "_{1 1}",
      "^{\\ beta",
      ")= 0",
      "( {\\cal",
      "_{\\ gamma",
      "| }",
      "\\ldots ,",
      "( P",
      "_{ D",
      "{\\p i}",
      "\\right \\rangle",
      "o nu",
      "- \\frac{1}{2}",
      "( \\vec",
      "d \\theta",
      "u r",
      "}= \\frac{",
      "{\\ xi",
      "s um",
      "- z",
      "A _{\\mu",
      "R ^2",
      "}_ n",
      ". 5",
      "] ,",
      "}\\ varphi",
      "c h",
      "_{ q",
      "_{j }",
      "^ 6",
      "{\\ dot",
      "}^ i",
      "{\\ epsilon",
      "ra ll",
      "}( \\tau",
      "x )",
      "math rm{",
      "\\ det",
      "l o",
      "}\\ tilde",
      "{ }",
      "_{- \\infty",
      "S U",
      "\\wide tilde",
      "^ N",
      "d u",
      "_{n }",
      "+ n",
      "\\math rm{",
      "$ }",
      "m o",
      "\\m box",
      "}} .",
      "mb er",
      "^{\\mu \\nu}",
      "^{\\prime }",
      "_{\\nu }",
      "ol d",
      "c os",
      "_{ 5",
      "\\c irc",
      "^{ 1}",
      "}{ 1",
      "- s",
      "_0 ,",
      "(\\tau )",
      "\\bar{ z",
      "- a",
      "_i }",
      "v e",
      "^2 =",
      "\\label{ E",
      ". 3",
      "{\\ Lambda",
      "wide tilde",
      "\\stackr el{",
      "w }",
      ", \\label{eq:",
      "\\p erp",
      "ra n",
      "\\sqrt{ 2}",
      "}(x ,",
      ",\\ tau",
      "old math",
      "\\m p",
      "de f",
      "math cal{",
      "( C",
      "{\\ Delta",
      "\\right) ^2",
      "{ r",
      "_{ 3}",
      "(k )",
      "( b",
      "\\\\ 0",
      "w edge",
      "}_ j",
      "' ,",
      "{ 4",
      "_{\\ tau",
      "-2 )",
      "_ z",
      "_ \\lambda",
      "c hi",
      "_{1} ,",
      "\\bar{\\ psi",
      "[ \\phi",
      "_{ z",
      "{\\math cal",
      "{\\b egin{array}{",
      "( \\pi",
      "W }",
      "^{ d",
      "}\\frac{ 1}{",
      "{\\b oldmath",
      "}{ (2\\pi",
      ")} .",
      "% %",
      "r ]",
      "-1 ,",
      "/2 )",
      "(\\ Phi",
      "_ T",
      "}\\ omega",
      "}\\ xi",
      "\\left \\langle",
      "\\partial _i",
      "u n",
      "^{2} )",
      "onu mber",
      "+ }",
      "^ 4}",
      "{\\s qrt",
      "s ki",
      ", a",
      "s s",
      "}( z)",
      "_ C",
      "Q }",
      "}_ a",
      "(z ,",
      "+ k",
      "^ 3}",
      "d \\Omega",
      "g )",
      "}} {\\partial",
      "^{\\dagger }",
      "}) .",
      "}_{\\ rm",
      "( S",
      "{\\ varphi",
      "_{ S",
      "^{ p",
      "}\\bar {",
      "{\\ tau",
      "}\\ tilde{",
      "(u )",
      "\\int _{\\",
      "( c",
      "- t",
      "_ 6",
      "\\partial_ \\nu",
      "\\o int",
      "}) ^2",
      "{\\ overline",
      "{\\ textstyle",
      "}^{\\ dagger",
      "_{- }",
      "1 &",
      "}= \\left(",
      "( h",
      "^{ I",
      "_{0 }^{",
      "\\long rightarrow",
      "^{ab }",
      "( B",
      "a ngle",
      "{ n",
      "}\\p ut",
      "^{i j}",
      "}\\c hi",
      "p ^2",
      "( \\varphi",
      "\\ >",
      "\\, =\\,",
      "\\prod _{i",
      "d \\phi",
      "+ 2}",
      "f i",
      "ski p",
      "= \\frac{1}{",
      "}{ 4}",
      "}_{ -",
      "(2 )}",
      "tri angle",
      "\\left\\ {\\begin{array}{",
      "^ \\beta",
      "l [",
      "( F",
      "q ^2",
      "_{ C",
      "( j",
      ") \\right]",
      "e ^2",
      "{\\c hi",
      "^{\\ ast",
      "_{ g",
      "\\label{ A",
      ",\\ dots",
      "{ }^",
      "^{\\ rm",
      "\\Big g",
      "_2 ^2",
      "}\\right |",
      "| x",
      "-1 )}",
      "\\ }=",
      "\\frac 12",
      ", l",
      "^ \\pm",
      ", \\alpha",
      "- \\lambda",
      "_ d",
      "u b",
      "{ m",
      "}\\ !",
      "_{\\ theta",
      "( e",
      "^ M",
      "t r}",
      ", s",
      "}\\ Psi",
      "_ S",
      "}\\e xp",
      "\\sum _{\\",
      "o p",
      "\\sqrt {\\frac{",
      "Z }",
      "}\\right) ^2",
      "(1 )",
      "}{2} }",
      "\\pi ^2",
      "}) +",
      ". 0",
      "^ B",
      "_1 =",
      "_{1 ,",
      "\\end{array}\\right .",
      "{ z",
      "\\label{ r",
      "^{\\ dag",
      ",\\ hspace",
      "- g",
      "}_{ j",
      "}^{\\ alpha",
      "}_{\\ nu",
      "d^3 x",
      "( Q",
      "_ E",
      "\\right .",
      "^{1 /",
      ") ^2}",
      "m p",
      "_ g",
      "_{\\ phi",
      "\\sin ^2",
      "^{\\ rho",
      "( 0",
      "_ h",
      "}{ 3}",
      "( \\epsilon",
      "=1}^ N",
      "- y",
      "X i",
      "\\o plus",
      "}_{ a",
      "(x- y)",
      "w i",
      "}\\s qrt{",
[...]
