{
  "version": "1.0",
  "truncation": null,
  "padding": null,
  "added_tokens": [
    {
      "id": 0,
      "special": true,
      "content": "[PAD]",
      "single_word": false,
      "lstrip": false,
      "rstrip": false,
      "normalized": false
    },
    {
      "id": 1,
      "special": true,
      "content": "[UNK]",
      "single_word": false,
      "lstrip": false,
      "rstrip": false,
      "normalized": false
    },
    {
      "id": 2,
      "special": true,
      "content": "[SEP]",
      "single_word": false,
      "lstrip": false,
      "rstrip": false,
      "normalized": false
    },
    {
      "id": 3,
      "special": true,
      "content": "[CLS]",
      "single_word": false,
      "lstrip": false,
      "rstrip": false,
      "normalized": false
    },
    {
      "id": 4,
      "special": true,
      "content": "[MASK]",
      "single_word": false,
      "lstrip": false,
      "rstrip": false,
      "normalized": false
    },
    {
      "id": 11,
      "special": true,
      "content": "\\exists",
      "single_word": false,
      "lstrip": false,
      "rstrip": false,
      "normalized": false
    },
    {
      "id": 17,
      "special": true,
      "content": "\\|dots",
      "single_word": false,
      "lstrip": false,
      "rstrip": false,
      "normalized": false
    },
    {
      "id": 19,
      "special": true,
      "content": "\\binom",
      "single_word": false,
      "lstrip": false,
      "rstrip": false,
      "normalized": false
    },
    {
      "id": 20,
      "special": true,
      "content": "\\vec",
      "single_word": false,
      "lstrip": false,
      "rstrip": false,
      "normalized": false
    },
    {
      "id": 21,
      "special": true,
      "content": "\\nabla",
      "single_word": false,
      "lstrip": false,
      "rstrip": false,
      "normalized": false
    },
    {
      "id": 22,
      "special": true,
      "content": "\\to",
      "single_word": false,
      "lstrip": false,
      "rstrip": false,
      "normalized": false
    },
    {
      "id": 32,
      "special": true,
      "content": "\\frac",
      "single_word": false,
      "lstrip": false,
      "rstrip": false,
      "normalized": false
    },
    {
      "id": 37,
      "special": true,
      "content": "\\sqrt",
      "single_word": false,
      "lstrip": false,
      "rstrip": false,
      "normalized": false
    },
    {
      "id": 45,
      "special": true,
      "content": "\\sin",
      "single_word": false,
      "lstrip": false,
      "rstrip": false,
      "normalized": false
    },
    {
      "id": 50,
      "special": true,
      "content": "\\cos",
      "single_word": false,
      "lstrip": false,
      "rstrip": false,
      "normalized": false
    },
    {
      "id": 55,
      "special": true,
      "content": "\\sum",
      "single_word": false,
      "lstrip": false,
      "rstrip": false,
      "normalized": false
    },
    {
      "id": 56,
      "special": true,
      "content": "\\int",
      "single_word": false,
      "lstrip": false,
      "rstrip": false,
      "normalized": false
    },
    {
      "id": 57,
      "special": true,
      "content": "\\pi",
      "single_word": false,
      "lstrip": false,
      "rstrip": false,
      "normalized": false
    },
    {
      "id": 61,
      "special": true,
      "content": "\\alpha",
      "single_word": false,
      "lstrip": false,
      "rstrip": false,
      "normalized": false
    },
    {
      "id": 66,
      "special": true,
      "content": "\\beta",
      "single_word": false,
      "lstrip": false,
      "rstrip": false,
      "normalized": false
    },
    {
      "id": 106,
      "special": true,
      "content": "\\infty",
      "single_word": false,
      "lstrip": false,
      "rstrip": false,
      "normalized": false
    },
    {
      "id": 112,
      "special": true,
      "content": "\\log",
      "single_word": false,
      "lstrip": false,
      "rstrip": false,
      "normalized": false
    },
    {
      "id": 295,
      "special": true,
      "content": "\\forall",
      "single_word": false,
      "lstrip": false,
      "rstrip": false,
      "normalized": false
    }
  ],
  "normalizer": null,
  "pre_tokenizer": {
    "type": "Sequence",
    "pretokenizers": [
      {
        "type": "Split",
        "pattern": {
          "String": "(\\\\frac|\\\\sin|\\\\cos|\\\\sqrt|\\\\sum|\\\\forall|\\\\exists|\\\\log|\\\\pi|\\\\alpha|\\\\int|\\\\beta|\\\\\\|dots|\\\\infty|\\\\binom|\\\\vec|\\\\nabla|\\\\to|\\$[^\\$]+\\$|[^\\s{}_^\\\\$]+|[{}_^\\\\$])"
        },
        "behavior": "Isolated",
        "invert": false
      },
      {
        "type": "WhitespaceSplit"
      }
    ]
  },
  "post_processor": null,
  "decoder": null,
  "model": {
    "type": "Unigram",
    "unk_id": null,
    "vocab": [
      [
        "[PAD]",
        0.0
      ],
      [
        "[UNK]",
        0.0
      ],
      [
        "[SEP]",
        0.0
      ],
      [
        "[CLS]",
        0.0
      ],
      [
        "[MASK]",
        0.0
      ],
      [
        "\\frac",
        0.0
      ],
      [
        "\\sin",
        0.0
      ],
      [
        "\\cos",
        0.0
      ],
      [
        "\\sqrt",
        0.0
      ],
      [
        "\\sum",
        0.0
      ],
      [
        "\\forall",
        0.0
      ],
      [
        "\\exists",
        0.0
      ],
      [
        "\\log",
        0.0
      ],
      [
        "\\pi",
        0.0
      ],
      [
        "\\alpha",
        0.0
      ],
      [
        "\\int",
        0.0
      ],
      [
        "\\beta",
        0.0
      ],
      [
        "\\|dots",
        0.0
      ],
      [
        "\\infty",
        0.0
      ],
      [
        "\\binom",
        0.0
      ],
      [
        "\\vec",
        0.0
      ],
      [
        "\\nabla",
        0.0
      ],
      [
        "\\to",
        0.0
      ],
      [
        "}",
        -2.338437278788698
      ],
      [
        "{",
        -2.4613768446872992
      ],
      [
        "+",
        -2.8984194041215883
      ],
      [
        "-",
        -3.267197482587635
      ],
      [
        "=",
        -3.358955107786615
      ],
      [
        "x",
        -3.8038137389966273
      ],
      [
        "2",
        -3.891328876700186
      ],
      [
        "1",
        -3.9331754951825095
      ],
      [
        "\\mbox",
        -3.9524037481930794
      ],
      [
        "\\frac",
        -3.9825134593239016
      ],
      [
        ")",
        -4.096368035186116
      ],
      [
        "(",
        -4.113537325495954
      ],
      [
        "^",
        -4.158780539057662
      ],
      [
        "a",
        -4.506246685500079
      ],
      [
        "\\sqrt",
        -4.55721452729125
      ],
      [
        "3",
        -4.569104006841871
      ],
      [
        "y",
        -4.576998530222186
      ],
      [
        "b",
        -4.730859378902564
      ],
      [
        "d",
        -4.773568595534223
      ],
      [
        "\\times",
        -4.794392862001697
      ],
      [
        "z",
        -4.794663446744308
      ],
      [
        "_",
        -4.886319480232399
      ],
      [
        "\\sin",
        -4.903612274117942
      ],
      [
        "\\right",
        -4.935818267485201
      ],
      [
        "\\left",
        -4.936745701901714
      ],
      [
        "4",
        -4.949994192023691
      ],
      [
        "0",
        -5.068739760236843
      ],
      [
        "\\cos",
        -5.07367520547887
      ],
      [
        "n",
        -5.0859480572709215
      ],
      [
        "c",
        -5.112474521623622
      ],
      [
        "\\theta",
        -5.388291319495251
      ],
      [
        "i",
        -5.393879919649002
      ],
      [
        "\\sum",
        -5.401934041369816
      ],
      [
        "\\int",
        -5.432693738620102
      ],
      [
        "\\pi",
        -5.506553349499366
      ],
      [
        "k",
        -5.5135534270175235
      ],
      [
        "t",
        -5.604674937537035
      ],
      [
        "r",
        -5.615337565034705
      ],
      [
        "\\alpha",
        -5.636160289370841
      ],
      [
        "m",
        -5.662196043324436
      ],
      [
        "e",
        -5.663645456193852
      ],
      [
        "9",
        -5.70038396589202
      ],
      [
        "\\rightarrow",
        -5.744802941938253
      ],
      [
        "\\beta",
        -5.750720959715255
      ],
      [
        "\\tan",
        -5.7698880287244005
      ],
      [
        "1}",
        -5.808097324421989
      ],
      [
        "p",
        -5.850870381958939
      ],
      [
        "\\left(",
        -5.862520482656866
      ],
      [
        "5",
        -5.877526729958211
      ],
      [
        "f",
        -5.9151639381813945
      ],
      [
        "B",
        -5.938135195832242
      ],
      [
        "[",
        -5.949757772882952
      ],
      [
        "\\right)",
        -5.955151778644746
      ],
      [
        "\\leq",
        -5.991603705584712
      ],
      [
        "q",
        -6.0264959466938235
      ],
      [
        "C",
        -6.0458485143643905
      ],
      [
        "h",
        -6.057709818229167
      ],
      [
        "7",
        -6.077136281422217
      ],
      [
        "2}",
        -6.083076074781766
      ],
      [
        "8",
        -6.086205317037111
      ],
      [
        "6",
        -6.090048720998734
      ],
      [
        "\\",
        -6.09584655921325
      ],
      [
        "\\pm",
        -6.1484756098644215
      ],
      [
        "\\div",
        -6.164927269341814
      ],
      [
        "/",
        -6.1682641451405065
      ],
      [
        "]",
        -6.172705646589538
      ],
      [
        "X",
        -6.181828653371703
      ],
      [
        "A",
        -6.183855714250182
      ],
      [
        "j",
        -6.22875843336247
      ],
      [
        "u",
        -6.235150225344774
      ],
      [
        "\\geq",
        -6.240646619109017
      ],
      [
        "g",
        -6.262842007669702
      ],
      [
        "{2}",
        -6.34750492351176
      ],
      [
        "\\frac{",
        -6.348268516901057
      ],
      [
        "\\lim_{x",
        -6.352700718389077
      ],
      [
        "s",
        -6.363565927010612
      ],
      [
        "F",
        -6.417527616771666
      ],
      [
        "\\neq",
        -6.421802171575381
      ],
      [
        "v",
        -6.429125546227471
      ],
      [
        ",",
        -6.4832522250432785
      ],
      [
        "S",
        -6.489727057895689
      ],
      [
        "N",
        -6.509463871854632
      ],
      [
        "0}",
        -6.532457014913534
      ],
      [
        "\\infty",
        -6.541248439459166
      ],
      [
        "E",
        -6.541563141094293
      ],
      [
        "R",
        -6.554551669508375
      ],
      [
        "w",
        -6.5901887021557375
      ],
      [
        "^2",
        -6.592447877387869
      ],
      [
        "!}",
        -6.599876862656074
      ],
      [
        "\\log",
        -6.6163489604953405
      ],
      [
        "P",
        -6.636383073032358
      ],
      [
        "l",
        -6.655704398466247
      ],
      [
        "L",
        -6.6683040264898406
      ],
      [
        "H",
        -6.697406270455854
      ],
      [
        "Y",
        -6.713151718212198
      ],
      [
        "o",
        -6.737550641821583
      ],
      [
        "V",
        -6.740302534664019
      ],
      [
        "b^2",
        -6.742990634030001
      ],
      [
        "M",
        -6.756363197860149
      ],
      [
        "{3}",
        -6.762969355241414
      ],
      [
        "\\cdots",
        -6.782577251939482
      ],
      [
        "\\frac{1}{",
        -6.8088943370129345
      ],
      [
        "G",
        -6.837946072305325
      ],
      [
        "T",
        -6.839984712690096
      ],
      [
        "a^2",
        -6.911593044609062
      ],
      [
        "|",
        -6.933719010675011
      ],
      [
        "f(x)",
        -6.935609610171973
      ],
      [
        "\\gamma",
        -6.951764172225064
      ],
      [
        "\\infty}",
        -6.9913362312423
      ],
      [
        "I",
        -6.993967773251619
      ],
      [
        "x^{2}",
        -7.025558842170234
      ],
      [
        "\\phi",
        -7.035480468337726
      ],
      [
        "x_1",
        -7.036142764455689
      ],
      [
        "\\Bigg(",
        -7.047588879578964
      ],
      [
        "x^2",
        -7.056162563237145
      ],
      [
        "{1}",
        -7.067319384862881
      ],
      [
        "\\ldots",
        -7.071801972415714
      ],
      [
        "x}",
        -7.087409751537005
      ],
      [
        "{n}",
        -7.111363036273007
      ],
      [
        "\\log_",
        -7.126692723556059
      ],
      [
        "x_2",
        -7.153194011971253
      ],
      [
        "\\sigma",
        -7.167064855980975
      ],
      [
        "\\frac{\\sin",
        -7.227651496751099
      ],
      [
        "\\sqrt{",
        -7.240134324679107
      ],
      [
        "x_3",
        -7.248693944418481
      ],
      [
        ")^2",
        -7.253356988650541
      ],
      [
        "x_4",
        -7.258348895824851
      ],
      [
        "{\\sqrt",
        -7.260450596301273
      ],
      [
        "\\lt",
        -7.276786805577613
      ],
      [
        "y^2",
        -7.289711143118193
      ],
      [
        "(x)",
        -7.292675746491058
      ],
      [
        "\\Delta",
        -7.300716489979895
      ],
      [
        "(t)",
        -7.347891841257886
      ],
      [
        "\\frac{2",
        -7.364744901547422
      ],
      [
        "x_{i",
        -7.367034948277962
      ],
      [
        "\\mu",
        -7.380115152938135
      ],
      [
        "2ab",
        -7.380652228889031
      ],
      [
        "\\frac{1",
        -7.388531475351606
      ],
      [
        "x_{2}",
        -7.395489047091978
      ],
      [
        "\\lim",
        -7.395743203261521
      ],
      [
        "{2",
        -7.400145889324701
      ],
      [
        "\\Bigg)",
        -7.422776052063355
      ],
      [
        "dx",
        -7.434614182101377
      ],
      [
        "=0",
        -7.435885874134452
      ],
      [
        "-1",
        -7.442466863032572
      ],
      [
        "x_{1}",
        -7.444266253691588
      ],
      [
        "x^{3}",
        -7.452332707347774
      ],
      [
        "{1",
        -7.4684875005735485
      ],
      [
        "\\frac{1}{4}",
        -7.497923093698629
      ],
      [
        "x_",
        -7.553543172183405
      ],
      [
        "ts",
        -7.561597468567782
      ],
      [
        "{4}",
        -7.577053613933536
      ],
      [
        "c^2",
        -7.60221118750168
      ],
      [
        "x^3",
        -7.610402571422796
      ],
      [
        "1)",
        -7.619802835705789
      ],
      [
        "\\frac{1}{4}}",
        -7.621994877301282
      ],
      [
        "14",
        -7.624527327285638
      ],
      [
        "\\frac{1}{a}",
        -7.631717615847474
      ],
      [
        "\\sqrt{3",
        -7.631766495637258
      ],
      [
        "(1",
        -7.633452009251712
      ],
      [
        "y^{2}",
        -7.638310213940224
      ],
      [
        "y_",
        -7.654542509160214
      ],
      [
        "\\sum_{i=1}^",
        -7.659817671747383
      ],
      [
        "\\frac{1}{2",
        -7.677367181958112
      ],
      [
        "18",
        -7.679806481434075
      ],
      [
        "{3",
        -7.70639257209112
      ],
      [
        "\\frac{1}{2}",
        -7.709696368991057
      ],
      [
        "^{2}",
        -7.739806398037791
      ],
      [
        "\\frac{x",
        -7.746320209840597
      ],
      [
        "^3",
        -7.7640195925834465
      ],
      [
        "\\gt",
        -7.766653629355538
      ],
      [
        "3}",
        -7.768113146818421
      ],
      [
        "\\pi}",
        -7.788480950263019
      ],
      [
        "]_0^",
        -7.791216728537755
      ],
      [
        "4}",
        -7.79935000628004
      ],
      [
        "y^2}",
        -7.800024434379496
      ],
      [
        "\\frac{\\pi}{2}",
        -7.802837928994806
      ],
      [
        "a_0",
        -7.82508341849087
      ],
      [
        "\\sqrt{a^2",
        -7.834788283987032
      ],
      [
        "^n",
        -7.835230661040816
      ],
      [
        "b^{2}",
        -7.856877721710307
      ],
      [
        "\\frac{2}{3}",
        -7.857764292326596
      ],
      [
        "\\lambda",
        -7.865542889505727
      ],
      [
        "^{\\frac{n}{2}}",
        -7.875818138130597
      ],
      [
        "\\frac{1}{1",
        -7.878043612764091
      ],
      [
        "x^{i",
        -7.883472915024129
      ],
      [
        "\\in",
        -7.885093093193282
      ],
      [
        "C}",
        -7.886908713751038
      ],
      [
        "\\sqrt{1",
        -7.890698040005619
      ],
      [
        "\\sum_{i",
        -7.896181781893965
      ],
      [
        "\\log_{2}",
        -7.9008621416747244
      ],
      [
        "\\!",
        -7.90263609939878
      ],
      [
        "\\frac{B-A}{C}",
        -7.914633992680789
      ],
      [
        "!",
        -7.920695612533092
      ],
      [
        "8}",
        -7.92156930387203
      ],
      [
        "\\frac{a",
        -7.92526432866801
      ],
      [
        "c}",
        -7.9328337978497
      ],
      [
        "r_1",
        -7.937361825284848
      ],
      [
        "e^",
        -7.942341810095261
      ],
      [
        ")^2}",
        -7.943083380547586
      ],
      [
        "\\sin^2",
        -7.946798090451933
      ],
      [
        "2^",
        -7.956063314376646
      ],
      [
        "\\frac{2k",
        -7.956098420912649
      ],
      [
        "\\frac{1}{q_n",
        -7.956301390485045
      ],
      [
        "^{3}",
        -7.966498821539029
      ],
      [
        "a_n",
        -7.971816948069461
      ],
      [
        "\\sqrt{2",
        -7.972392634808603
      ],
      [
        "A_",
        -7.993691044757753
      ],
      [
        "\\int_{",
        -7.99583956758576
      ],
      [
        "))",
        -7.995975357405447
      ],
      [
        "\\log_2",
        -7.99725050246402
      ],
      [
        "\\sqrt{x",
        -7.998301181233032
      ],
      [
        "\\int_c^",
        -8.017544809309133
      ],
      [
        "x^{2",
        -8.017577163645706
      ],
      [
        "e^{x}",
        -8.022326483216812
      ],
      [
        "{e^t",
        -8.022424803700392
      ],
      [
        "}{1+t^2}",
        -8.024455890371874
      ],
      [
        "y_{1}",
        -8.029509485146662
      ],
      [
        "_1^2",
        -8.029997028453394
      ],
      [
        "(2",
        -8.03134432804891
      ],
      [
        "\\frac{1}{3",
        -8.033021530799102
      ],
      [
        "r_0",
        -8.035670973095918
      ],
      [
        "\\theta_0)",
        -8.037294812853727
      ],
      [
        "A}",
        -8.039649132739662
      ],
      [
        "\\beta}",
        -8.045921946549454
      ],
      [
        "}{\\sqrt{x^2",
        -8.066753645512843
      ],
      [
        "4}}}",
        -8.070045754737105
      ],
      [
        "10",
        -8.071853980018119
      ],
      [
        "^2}",
        -8.076843074179124
      ],
      [
        "_0",
        -8.080654406687312
      ],
      [
        "_{k",
        -8.081090723767753
      ],
      [
        "<",
        -8.096533839031142
      ],
      [
        "\\alpha_{n",
        -8.099010546453087
      ],
      [
        "r^2",
        -8.102732398024099
      ],
      [
        "\\frac{1}{4",
        -8.105780054905557
      ],
      [
        "y_0",
        -8.110815300650344
      ],
      [
        "x^{\\frac",
        -8.111544986278622
      ],
      [
        "{a}",
        -8.112079035120075
      ],
      [
        ")^",
        -8.125495151500058
      ],
      [
        "13",
        -8.127301512774391
      ],
      [
        "\\frac{a}{b}",
        -8.13332966409169
      ],
      [
        "\\frac{a}{",
        -8.138620227258057
      ],
      [
        "}{2}",
        -8.139118040896548
      ],
      [
        "b^x",
        -8.140102949230366
      ],
      [
        "\\frac{1}{3}",
        -8.149441106028744
      ],
      [
        "^m}",
        -8.15300486479617
      ],
      [
        "\\sqrt[x]{",
        -8.154122505304148
      ],
      [
        "_{3}",
        -8.155042296445771
      ],
      [
        "\\alpha}",
        -8.159812085270541
      ],
      [
        "(a",
        -8.16361724462397
      ],
      [
        "z}",
        -8.16700017847113
      ],
      [
        "z_{2}",
        -8.174313935751558
      ],
      [
        "{b}",
        -8.177318310778647
      ],
      [
        "\\alpha}{1",
        -8.179862254111045
      ],
      [
        "z^{2}}",
        -8.180819490766167
      ],
      [
        "{n",
        -8.182064614772543
      ],
      [
        "1}{x",
        -8.183092436966563
      ],
      [
        "a_i",
        -8.185178924224523
      ],
      [
        ")}",
        -8.189594411158401
      ],
      [
        "\\frac{j}{",
        -8.191229057605355
      ],
      [
        "\\tan^{2}",
        -8.193992420793974
      ],
      [
        "F_{n",
        -8.193992981477404
      ],
      [
        "x_0",
        -8.19423845426153
      ],
      [
        "\\sqrt{2}",
        -8.200705998599197
      ],
      [
        "R^2",
        -8.200914447563235
      ],
      [
        "\\frac{\\tan",
        -8.205485277529352
      ],
      [
        ")^{\\frac",
        -8.208931729634333
      ],
      [
        "(z)",
        -8.215681246197777
      ],
      [
        "\\Bigg)^",
        -8.220046442444426
      ],
      [
        "^z",
        -8.220103305929518
      ],
      [
        "\\ldots,",
        -8.221023721066235
      ],
      [
        "\\sqrt{4",
        -8.226034004032345
      ],
      [
        "\\forall",
        -8.228737512184201
      ],
      [
        "\\int_a^",
        -8.230630670651005
      ],
      [
        "\\alpha_{n}",
        -8.232145108346987
      ],
      [
        "i}}",
        -8.232877382706866
      ],
      [
        "^{n}",
        -8.237198613575536
      ],
      [
        "k}",
        -8.23932209989134
      ],
      [
        "_{1}",
        -8.247042967234913
      ],
      [
        "\\sqrt{4}}",
        -8.248028166565083
      ],
      [
        "x^x",
        -8.2497579718805
      ],
      [
        "\\frac{b}{",
        -8.252026494857507
      ],
      [
        "a}",
        -8.255992033914104
      ],
      [
        "{5}",
        -8.258873431157287
      ],
      [
        "\\lim_{n",
        -8.262995592377845
      ],
      [
        "e_",
        -8.27386391520626
      ],
      [
        "\\lim_{t",
        -8.274472558099397
      ],
      [
        "132",
        -8.276448566331451
      ],
      [
        "3}^",
        -8.279712587903443
      ],
      [
        "x_{i}",
        -8.290727087077268
      ],
      [
        "\\prime\\sin",
        -8.290760823141428
      ],
      [
        "\\int_0^",
        -8.301927673766523
      ],
      [
        "\\mathrm",
        -8.307580670225427
      ],
      [
        "a_{n-1}",
        -8.311776647671165
      ],
      [
        "+\\cdots",
        -8.319065659839675
      ],
      [
        "_2",
        -8.320470914909365
      ],
      [
        "(R",
        -8.328031529450126
      ],
      [
        "2)",
        -8.328538585724953
      ],
      [
        "^{-1}",
        -8.332980594635462
      ],
      [
        "}{1",
        -8.33487088845536
      ],
      [
        "\\sum_{k",
        -8.346019853013686
      ],
      [
        "\\int_0^{",
        -8.346352550893393
      ],
      [
        "n!",
        -8.355429308770276
      ],
      [
        "e^{-",
        -8.360270065067601
      ],
      [
        "z_",
        -8.362175023458837
      ],
      [
        "\\frac{c}{",
        -8.362432228773837
      ],
      [
        "x_i",
        -8.37263108693123
      ],
      [
        "y^4",
        -8.373122164787208
      ],
      [
        "_y^",
        -8.376335231190419
      ],
      [
        "\\right|",
        -8.380664666622927
      ],
      [
        "f_",
        -8.38905560318322
      ],
      [
        "b^3",
        -8.391193743561258
      ],
      [
        "_z^",
        -8.39263021042249
      ],
      [
        "\\left|",
        -8.397798275317395
      ],
      [
        "\\theta_i",
        -8.40202744359614
      ],
      [
        "a_j",
        -8.406297240634297
      ],
      [
        "4^{",
        -8.407085488483467
      ],
      [
        "i)",
        -8.41237706397865
      ],
      [
        "n}",
        -8.417903395551773
      ],
      [
        "\\prime",
        -8.426711480157909
      ],
      [
        "A^2",
        -8.427395058669049
      ],
      [
        "16",
        -8.430961660222536
      ],
      [
        "a_1",
        -8.43698629000669
      ],
      [
        "u_n",
        -8.44406024026097
      ],
      [
        "g_",
        -8.444779857206871
      ],
      [
        "78",
        -8.447380829567328
      ],
      [
        "$",
        -8.449536294822574
      ],
      [
        "x^n",
        -8.44999641061823
      ],
      [
        "-4ac",
        -8.452304628127527
      ],
      [
        "36",
        -8.452546771749544
      ],
      [
        "e^{i",
        -8.454726689287076
      ],
      [
        "x^{n-1}",
        -8.455930749209859
      ],
      [
        "a^x",
        -8.460468108700027
      ],
      [
        "^2c^2",
        -8.461612857222661
      ],
      [
        "z^{\\frac",
        -8.464856465222242
      ],
      [
        "\\frac{1}{1-",
        -8.470984111900727
      ],
      [
        "48",
        -8.473537925154709
      ],
      [
        "0,",
        -8.47392919819475
      ],
      [
        "\\theta}{",
        -8.474441063081038
      ],
      [
        "_k}}",
        -8.474479359947205
      ],
      [
        "e^{",
        -8.47469784132981
      ],
      [
        "1}^n",
        -8.47829031372976
      ],
      [
        "=1",
        -8.483513211796883
      ],
      [
        "{2}}",
        -8.492713154263651
      ],
      [
        "a^",
        -8.49294913480775
      ],
      [
        "a^{x+y}",
        -8.496971177023923
      ],
      [
        "abcd",
        -8.497550074800582
      ],
      [
        "(n-2)\\pi",
        -8.499463933499356
      ],
      [
        "c^2}}",
        -8.500412129278976
      ],
      [
        "^{x}",
        -8.504433870012427
      ],
      [
        "z_2^",
        -8.505903665154019
      ],
      [
        "x^\\prime",
        -8.50861203355603
      ],
      [
        "}^2",
        -8.509609803397858
      ],
      [
        "-27",
        -8.511976345766946
      ],
      [
        "(x",
        -8.516091212712974
      ],
      [
        "^{\\prime}",
        -8.517102445549895
      ],
      [
        "y^{\\frac",
        -8.517149355981738
      ],
      [
        "n^2",
        -8.518902381187981
      ],
      [
        "x)",
        -8.521963916515253
      ],
      [
        "{\\sqrt[x]{",
        -8.52207318688093
      ],
      [
        "x^j",
        -8.522109623091579
      ],
      [
        "(a+b",
        -8.530281991740939
      ],
      [
        "_{ij}",
        -8.530638957257784
      ],
      [
        "1}}",
        -8.53202348310706
      ],
      [
        "\\frac{x^{",
        -8.538827001578156
      ],
      [
        "X^2",
        -8.539004743347963
      ],
      [
        "_m",
        -8.541598042702365
      ],
      [
        "{2k}",
        -8.547822561544118
      ],
      [
        "\\sum_{i=0}^{n",
        -8.550026022729021
      ],
      [
        "P(x)",
        -8.553710030026672
      ],
      [
        "{a",
        -8.560236188664684
      ],
      [
        "\\theta_1",
        -8.576541905038248
      ],
      [
        "65",
        -8.579114388883676
      ],
      [
        "20",
        -8.581360831782861
      ],
      [
        "^{\\frac",
        -8.58230300167808
      ],
      [
        "\\frac{1}{\\sqrt{a",
        -8.58261414354893
      ],
      [
        "_{2}",
        -8.59401389440822
      ],
      [
        "\\frac{b",
        -8.599008921774056
      ],
      [
        ">",
        -8.600241907529503
      ],
      [
        ")(a-b",
        -8.605006168374285
      ],
      [
        "\\frac{n(n+1)}{2}",
        -8.605143704468148
      ],
      [
        "\\frac{3",
        -8.608056046136275
      ],
      [
        "{x^2",
        -8.612459198380055
      ],
      [
        "\\{",
        -8.616908602413787
      ],
      [
        "\\sin(",
        -8.617604042209162
      ],
      [
        "{x}",
        -8.617671108877254
      ],
      [
        "\\sum_{i=1}^n",
        -8.618504980282516
      ],
      [
        "f(",
        -8.62264601479534
      ],
      [
        "}{n}",
        -8.6240830662784
      ],
      [
        "{7}",
        -8.632820604440505
      ],
      [
        "ds",
        -8.63491188606049
      ],
      [
        "15",
        -8.635036455372543
      ],
      [
        "x^",
        -8.637814933907956
      ],
      [
        "1,",
        -8.64075416415098
      ],
      [
        "^2}{a^",
        -8.641144981253177
      ],
      [
        "}{2R",
        -8.642309063203868
      ],
      [
        "-4",
        -8.643975232045578
      ],
      [
        "}}{1-x",
        -8.64469569752945
      ],
      [
        "}{\\cos",
        -8.654520757427791
      ],
      [
        "_{n+1}}",
        -8.656640588016092
      ],
      [
        "d^2",
        -8.659590372173074
      ],
      [
        "\\frac{q}{2",
        -8.66409204445685
      ],
      [
        "}{q_n",
        -8.669532434416931
      ],
      [
        ".",
        -8.671301632075082
      ],
      [
        ",\\frac{2",
        -8.67772536318831
      ],
      [
        "{a+b}",
        -8.677945705399173
      ],
      [
        "(b)",
        -8.678533745709064
      ],
      [
        "\\frac{-b",
        -8.679445926043009
      ],
      [
        "{6}",
        -8.67944641677243
      ],
      [
        "b^2}}",
        -8.68469696517309
      ],
      [
        "\\Big",
        -8.689019383878955
      ],
      [
        "s^2",
        -8.69005723741865
      ],
      [
        "789",
        -8.695502482887887
      ],
      [
        "y_1",
        -8.70279980274456
      ],
      [
        "}}",
        -8.704757881864616
      ],
      [
        "x^4",
        -8.705920467366832
      ],
      [
        "\\lim_{",
        -8.709042444229123
      ],
      [
        "\\sqrt{b^2",
        -8.710721665985588
      ],
      [
        "{1}{",
        -8.711623299896653
      ],
      [
        "p_",
        -8.711851330833342
      ],
      [
        "\\sqrt{(",
        -8.711933623494964
      ],
      [
        "a_2",
        -8.71223953779607
      ],
      [
        "m}^{",
        -8.714534844866504
      ],
      [
        "a_3",
        -8.719276108129538
      ],
      [
        "\\sin(\\theta",
        -8.721961232339824
      ],
      [
        "\\frac{1}{2}\\pi",
        -8.724723954450612
      ],
      [
        "n]",
        -8.726512375889117
      ],
      [
        "z^2",
        -8.726935645706376
      ],
      [
        "\\sin\\theta",
        -8.728121422830696
      ],
      [
        "5}",
        -8.733310748490496
      ],
      [
        "_1,",
        -8.735079725511504
      ],
      [
        "(u",
        -8.735258045801947
      ],
      [
        "^{b",
        -8.741683000488418
      ],
      [
        "]^{",
        -8.745184936526977
      ],
      [
        "_i}}",
        -8.74660841687945
      ],
      [
        "_i",
        -8.759723927114326
      ],
      [
        "\\frac{1}{r^",
        -8.762091165332874
      ],
      [
        "12",
        -8.769623993648826
      ],
      [
        "^4",
        -8.77072999386087
      ],
      [
        "\\frac{1}{4}+",
        -8.775321246056457
      ],
      [
        "(\\theta_1",
        -8.78508631711576
      ],
      [
        "_2,",
        -8.790088507098488
      ],
      [
        "\\log_{",
        -8.794194052580533
      ],
      [
        "\\sqrt[",
        -8.80106048183308
      ],
      [
        "b)",
        -8.803484041398805
      ],
      [
        "g(x)",
        -8.808647624221095
      ],
      [
        "79",
        -8.809918154953827
      ],
      [
        "y^",
        -8.810411922136275
      ],
      [
        "\\cos^{2}",
        -8.811549989916259
      ],
      [
        "61",
        -8.814477680501808
      ],
      [
        "\\frac{d",
        -8.817029496521732
      ],
      [
        "}^{1",
        -8.819701992156691
      ],
      [
        "47",
        -8.820495192269297
      ],
      [
        "+\\cdots+n",
        -8.833862752370846
      ],
      [
        "45",
        -8.83680019572455
      ],
      [
        "-t^2",
        -8.839712109859368
      ],
      [
        "(X)",
        -8.843944437973587
      ],
      [
        "a_",
        -8.850478797650231
      ],
      [
        "70",
        -8.858047993011082
      ],
      [
        "-4ac}",
        -8.859802044475652
      ],
      [
        "88",
        -8.859853781798918
      ],
      [
        "125",
        -8.863882714561756
      ],
      [
        "-p)}",
        -8.867357038487707
      ],
      [
        "x^5",
        -8.870114313563018
      ],
      [
        "60",
        -8.874610272616055
      ],
      [
        "27",
        -8.875473961303683
      ],
      [
        "\\frac{y",
        -8.879887792975442
      ],
      [
        "17",
        -8.879900566022009
      ],
      [
        "\\lim_{z",
        -8.882558588496142
      ],
      [
        "{\\sqrt{a^2",
        -8.889695332262749
      ],
      [
        "19",
        -8.894226885480599
      ],
      [
        "95",
        -8.896982213024806
      ],
      [
        "96",
        -8.903329902950901
      ],
      [
        "t}",
        -8.904758217180705
      ],
      [
        "2^{",
        -8.905836100383324
      ],
      [
        "_k",
        -8.908215523350671
      ],
      [
        "dt",
        -8.915406296680036
      ],
      [
        "67",
        -8.917263799670273
      ],
      [
        "+\\infty}",
        -8.92345281671059
      ],
      [
        "a}}}}",
        -8.925649933141086
      ],
      [
        ")}{\\sin",
        -8.930456067203302
      ],
      [
        "f(z)",
        -8.936268366690198
      ],
      [
        "((",
        -8.937020821617589
      ],
      [
        "(0)",
        -8.94890133432161
      ],
      [
        "\\frac{u}{",
        -8.94952305163064
      ],
      [
        "(w",
        -8.951194453002195
      ],
      [
        "\\frac{1}{(",
        -8.951772093413625
      ],
      [
        "\\sum_a",
        -8.973213261029587
      ],
      [
        "1+2",
        -8.975492434344147
      ],
      [
        "166",
        -8.975950274292764
      ],
      [
        "85",
        -8.977956237587142
      ],
      [
        "+1",
        -8.980208277104245
      ],
      [
        "28",
        -8.985969617372536
      ],
      [
        "u-p",
        -8.992358548562354
      ],
      [
        "u_",
        -8.993599436771175
      ],
      [
        "{\\frac",
        -9.000488764172292
      ],
      [
        "\\}",
        -9.001765073195138
      ],
      [
        "e^{x",
        -9.002523781068517
      ],
      [
        "(12",
        -9.00938737748793
      ],
      [
        "n)",
        -9.011565176255218
      ],
      [
        "80",
        -9.01337197598588
      ],
      [
        "\\sqrt{b^",
        -9.01357634615018
      ],
      [
        "\\frac{1}{b}",
        -9.015781261765056
      ],
      [
        "(16",
        -9.017122531167349
      ],
      [
        "{2R",
        -9.017765880799336
      ],
      [
        "35",
        -9.023014928709834
      ],
      [
        "25",
        -9.02357821194603
      ],
      [
        "x_n",
        -9.031463127394474
      ],
      [
        "+a_1x",
        -9.031780220123728
      ],
      [
        "-2",
        -9.03649929089102
      ],
      [
        "(1-",
        -9.05009982203716
      ],
      [
        "(n-1)",
        -9.053427341405104
      ],
      [
        "(\\theta",
        -9.053658706927225
      ],
      [
        "56",
        -9.054111454551794
      ],
      [
        "10^",
        -9.057601933988549
      ],
      [
        "143",
        -9.06296906157102
      ],
      [
        "_n)",
        -9.063491366652316
      ],
      [
        "(18",
        -9.063805645475588
      ],
      [
        "t^2",
        -9.06384715445022
      ],
      [
        "\\frac{p_",
        -9.069053889668448
      ],
      [
        "_1",
        -9.071407828624707
      ],
      [
        "(r)",
        -9.072067094847766
      ],
      [
        "\\beta}{",
        -9.072540166734472
      ],
      [
        "173",
        -9.074312268614818
      ],
      [
        "0.0",
        -9.075481545978384
      ],
      [
        "z_1^",
        -9.08903939216696
      ],
      [
        "p_n",
        -9.092598081813556
      ],
      [
        "135",
        -9.093960128929703
      ],
      [
        "153",
        -9.101371008623754
      ],
      [
        "1}{2}",
        -9.102828410121528
      ],
      [
        "(a)",
        -9.1031558990607
      ],
      [
        "e_3",
        -9.105497468077129
      ],
      [
        "000",
        -9.106834158150722
      ],
      [
        "x^{",
        -9.10972392863722
      ],
      [
        "147",
        -9.111526578867329
      ],
      [
        "100",
        -9.112366888585967
      ],
      [
        "w}",
        -9.112777057083807
      ],
      [
        "2^2",
        -9.115323447356957
      ],
      [
        "9^",
        -9.117023973600569
      ],
      [
        "{3}}",
        -9.118206847952289
      ],
      [
        "77)",
        -9.119097997418276
      ],
      [
        "77",
        -9.119370642928066
      ],
      [
        "98",
        -9.12116143487321
      ],
      [
        "||",
        -9.12382476344645
      ],
      [
        "}\\Big",
        -9.126242906592909
      ],
      [
        "y)",
        -9.130421565074952
      ],
      [
        "6}",
        -9.130568716435729
      ],
      [
        "t)",
        -9.130774506536431
      ],
      [
        ")^{n",
        -9.132293434812862
      ],
      [
        "(1)",
        -9.132960961606814
      ],
      [
        "_4^5",
        -9.134446218970874
      ],
      [
        "\\sqrt{a",
        -9.137929443001124
      ],
      [
        "89",
        -9.14024765837766
      ],
      [
        "178",
        -9.143523913867348
      ],
      [
        "-1}",
        -9.1435666541214
      ],
      [
        "97",
        -9.14420504608298
      ],
      [
        "196",
        -9.145016913934835
      ],
      [
        "5)",
        -9.151075635096708
      ],
      [
        "138",
        -9.153244204125066
      ],
      [
        "((17",
        -9.156459848278027
      ],
      [
        "I_",
        -9.156784417688955
      ],
      [
        "_{n+1}",
        -9.157963719380003
      ],
      [
        "86",
        -9.163767082211765
      ],
      [
        "{1}{2}",
        -9.165465565371475
      ],
      [
        "\\sqrt{b}",
        -9.165611221865593
      ],
      [
        "76",
        -9.16773343543986
      ],
      [
        "187",
        -9.168997678165937
      ],
      [
        "72",
        -9.169167991852357
      ],
      [
        "58",
        -9.175123444963788
      ],
      [
        "{x",
        -9.175459470076238
      ],
      [
        "b}",
        -9.175692658735183
      ],
      [
        "151",
        -9.18418217049444
      ],
      [
        "\\right)^{n",
        -9.187923678346111
      ],
      [
        "(a-b)",
        -9.189988048875732
      ],
      [
        "{c}",
        -9.190673239080557
      ],
      [
        "ab}",
        -9.191940218056471
      ],
      [
        "62",
        -9.192856326078443
      ],
      [
        ".6",
        -9.198198547979564
      ],
      [
        "159",
        -9.199649512840905
      ],
      [
        "99",
        -9.199670147875084
      ],
      [
        "(8",
        -9.20209406829802
      ],
      [
        "a)",
        -9.206245570790106
      ],
      [
        "128",
        -9.210555710809102
      ],
      [
        "^2)",
        -9.210818600103742
      ],
      [
        "(n+1)",
        -9.212983418780986
      ],
      [
        "26",
        -9.213551632349128
      ],
      [
        "((12",
        -9.2157891328766
      ],
      [
        "{2a}",
        -9.218445859390451
      ],
      [
        "h_2",
        -9.219684572167123
      ],
      [
        "179",
        -9.220985415406872
      ],
      [
        "_2^2",
        -9.221457809331415
      ],
      [
        "168",
        -9.223072371838697
      ],
      [
        "x^{-1}",
        -9.223521469883831
      ],
      [
        "B}",
        -9.22547772769952
      ],
      [
        "140",
        -9.227277702674078
      ],
      [
        "z^",
        -9.227570433665663
      ],
      [
        "b}}",
        -9.231029690517396
      ],
      [
        "69",
        -9.23115168090676
      ],
      [
        "136",
        -9.232940873904822
      ],
      [
        "^0",
        -9.23305251703491
      ],
      [
        "46",
        -9.24103670319791
      ],
      [
        "0.4",
        -9.243918721631704
      ],
      [
        "169",
        -9.244347253699512
      ],
      [
        "{\\cos",
        -9.247184893772127
      ],
      [
        "0)",
        -9.252066672564991
      ],
      [
        "(y)",
        -9.258462022013614
      ],
      [
        "((7",
        -9.259747225672973
      ],
      [
        "\\right)^{",
        -9.268348874124325
      ],
      [
        "3\\times",
        -9.269289142187
      ],
      [
        "u_1",
        -9.272899698795351
      ],
      [
        "109",
        -9.275881649219212
      ],
      [
        "\\frac{1}{k",
        -9.276382146808489
      ],
      [
        "dy",
        -9.279247897593468
      ],
      [
        "C_",
        -9.27943893810952
      ],
      [
        "((11",
        -9.27959133924458
      ],
      [
        "84",
        -9.2809862288031
      ],
      [
        "\\frac{1}{\\sqrt{",
        -9.284949070885933
      ],
      [
        "z_1",
        -9.28606260059277
      ],
      [
        "X_1",
        -9.28628586779954
      ],
      [
        "75",
        -9.28977787110679
      ],
      [
        "z_2",
        -9.291698922071769
      ],
      [
        "{x^2}",
        -9.297959072355972
      ],
      [
        "(n)",
        -9.298309846270154
      ],
      [
        "189",
        -9.304767608861804
      ],
      [
        "21",
        -9.30809150104995
      ],
      [
        "3)",
        -9.308364314897291
      ],
      [
        ".7",
        -9.309481203222454
      ],
      [
        "{\\infty}",
        -9.309491077039574
      ],
      [
        "\\sqrt{5}",
        -9.309751174313163
      ],
      [
        "{9}",
        -9.31210847261727
      ],
      [
        "23)",
        -9.312547192823256
      ],
      [
        "_2^3",
        -9.312867572352149
      ],
      [
        "((4",
        -9.31299043285748
      ],
      [
        "^{\\infty}",
        -9.313341277697347
      ],
      [
        "(17",
        -9.315142761756755
      ],
      [
        "^k",
        -9.318225842887934
      ],
      [
        "u_2",
        -9.325527809593575
      ],
      [
        "\\sqrt{-1}",
        -9.329364964770258
      ],
      [
        "k_",
        -9.33024771473814
      ],
      [
        "\\sin(x)",
        -9.330253646654702
      ],
      [
        "y_i",
        -9.330517577838794
      ],
      [
        "c}}{2",
        -9.331383955886048
      ],
      [
        "6.",
        -9.333094359667914
      ],
      [
        "((9",
        -9.333234010065231
      ],
      [
        "\\l",
        -9.339954991857416
      ],
      [
        "83",
        -9.340835117260418
      ],
      [
        "\\frac{a}{\\sqrt{",
        -9.343437583644938
      ],
      [
        "59)",
        -9.349882426219176
      ],
      [
        "b_1",
        -9.351094004083755
      ],
      [
        "\\sum_i",
        -9.353894718423607
      ],
      [
        "55",
        -9.35439836328279
      ],
      [
        "(\\theta)",
        -9.356367779319871
      ],
      [
        "\\sqrt{3}",
        -9.35980968187147
      ],
      [
        "1.3",
        -9.361819591722504
      ],
      [
        "176",
        -9.36278207602077
      ],
      [
        "110",
        -9.366440830712191
      ],
      [
        "197",
        -9.3667981764528
      ],
      [
        "\\theta)",
        -9.369695870999308
      ],
      [
        "\\frac{3}{4}",
        -9.3742496231626
      ],
      [
        "}{",
        -9.374687113699062
      ],
      [
        "(3",
        -9.375048860820298
      ],
      [
        "5.",
        -9.375824532339324
      ],
      [
        "{8}",
        -9.380306417971376
      ],
      [
        "y_{",
        -9.381682768653638
      ],
      [
        "}{dt}",
        -9.386696010677207
      ],
      [
        "(s)",
        -9.390423588669725
      ],
      [
        "116",
        -9.391407963590751
      ],
      [
        "39",
        -9.392709786284358
      ],
      [
        "-\\frac{1}{2}",
        -9.393345640813578
      ],
      [
        "(4",
        -9.39466255257802
      ],
      [
        "((13",
        -9.39477565712367
      ],
      [
        "_0,",
        -9.394960399805758
      ],
      [
        "((5",
        -9.397595796435043
      ],
      [
        "38",
        -9.400554597685488
      ],
      [
        "194",
        -9.400705879211088
      ],
      [
        "149",
        -9.402498985695622
      ],
      [
        "33",
        -9.406613982943522
      ],
      [
        "\\sqrt{x}",
        -9.406978118085572
      ],
      [
        "181",
        -9.409678549039413
      ],
      [
        "(6",
        -9.417960765873575
      ],
      [
        "158",
        -9.422173327051226
      ],
      [
        "^\\prime",
        -9.42668895778792
      ],
      [
        "p)",
        -9.429835726648802
      ],
      [
        "x(t)",
        -9.434905455820347
      ],
      [
        "(n",
        -9.435622826299282
      ],
      [
        "C}{",
        -9.439434000523782
      ],
      [
        "(10",
        -9.442283424131974
      ],
      [
        "((18",
        -9.445844902180236
      ],
      [
        "157",
        -9.44688871648222
      ],
      [
        "2\\pi",
        -9.451455883827142
      ],
      [
        "6)",
        -9.452852985242805
      ],
      [
        "\\sqrt{\\sqrt{",
        -9.453333855455975
      ],
      [
        "50",
        -9.454895915614005
      ],
      [
        "139",
        -9.463806572198449
      ],
      [
        "49",
        -9.469398152464509
      ],
      [
        ".5",
        -9.470034648876952
      ],
      [
        "130",
        -9.472544749990323
      ],
      [
        "1^",
        -9.476214547367446
      ],
      [
        "(\\frac",
        -9.478991797912752
      ],
      [
        "}}}}}",
        -9.48074948743132
      ],
      [
        "+1)",
        -9.482001156546708
      ],
      [
        "59",
        -9.484344999530103
      ],
      [
        ")=0",
        -9.485083954702937
      ],
      [
        "\\sqrt{n}",
        -9.486105615937335
      ],
      [
        "\\theta}",
        -9.48658806719122
      ],
      [
        "z^{-1}",
        -9.487361368617028
      ],
      [
        "f_1",
        -9.488929849210436
      ],
      [
        "p_i",
        -9.49024778800542
      ],
      [
        "(11",
        -9.491262823833448
      ],
      [
        "P_",
        -9.493752449851852
      ],
      [
        "}{2a",
        -9.493984420408172
      ],
      [
        "{\\log_a",
        -9.497118050901893
      ],
      [
        "n_1",
        -9.49729967041278
      ],
      [
        "141",
        -9.497618678086525
      ],
      [
        "24",
        -9.498818752789209
      ],
      [
        "\\phi_",
        -9.499505395448464
      ],
      [
        "y}",
        -9.50120019150816
      ],
      [
        "64",
        -9.504304049690877
      ],
      [
        "\\cos^2",
        -9.50465475656177
      ],
      [
        "f_0",
        -9.50569846748686
      ],
      [
        "162",
        -9.505874098596744
      ],
      [
        "154",
        -9.507126590475256
      ],
      [
        "22)",
        -9.50773088268306
      ],
      [
        "\\sum_{k=1}^n",
        -9.50826852298708
      ],
      [
        "{15}",
        -9.51004385589889
      ],
      [
        "||^2",
        -9.51091727578857
      ],
      [
        "30",
        -9.512978792278105
      ],
      [
        "(14",
        -9.52034559481559
      ],
      [
        "54",
        -9.525933525003987
      ],
      [
        "126",
        -9.528525135425244
      ],
      [
        "v_n",
        -9.531860529667116
      ],
      [
        "((19",
        -9.531941471643531
      ],
      [
        "144",
        -9.534279427303526
      ],
      [
        "165",
        -9.534323070141498
      ],
      [
        "^5",
        -9.534461820012764
      ],
      [
        "e_1",
        -9.534671126431467
      ],
      [
        "e^{2",
        -9.534986997710048
      ],
      [
        "((16",
        -9.54162939761639
      ],
      [
        "R_",
        -9.543690382286467
      ],
      [
        "c_i",
        -9.54457260195898
      ],
      [
        "102",
        -9.546741406567737
      ],
      [
        "188",
        -9.550348800948337
      ],
      [
        "10^{",
        -9.551359032793018
      ],
      [
        "a+b",
        -9.552118193153207
      ],
      [
        "127",
        -9.553482573219892
      ],
      [
        "\\frac{1}{b",
        -9.557435225925136
      ],
      [
        "a_{n}",
        -9.558431547849803
      ],
      [
        "(\\alpha)",
        -9.558828293466064
      ],
      [
        "t_0",
        -9.559210286552863
      ],
      [
        "\\sqrt{3}}",
        -9.559700983600417
      ],
      [
        "a_k",
        -9.562228086235791
      ],
      [
        "170",
        -9.563904922313077
      ],
      [
        "{m}",
        -9.572073634289024
      ],
      [
        "111",
        -9.574179159216202
      ],
      [
        "\\left(\\frac{",
        -9.57714767744997
      ],
      [
        "_{ab}",
        -9.577594048941304
      ],
      [
        "(p)",
        -9.578140367918891
      ],
      [
        "dz",
        -9.581339672525832
      ],
      [
        "H_",
        -9.581876185597364
      ],
      [
        "(15",
        -9.583096361019894
      ],
      [
        "lim",
        -9.58875623793151
      ],
      [
        "133",
        -9.589930762573331
      ],
      [
        "\\mathrm{",
        -9.593623908267402
      ],
      [
        "brack",
        -9.594678670879976
      ],
      [
        "\\rbrack",
        -9.594722674744256
      ],
      [
        "[a]",
        -9.59600319520858
      ],
      [
        "x_k",
        -9.598569532402474
      ],
      [
        "\\cos(\\theta)",
        -9.601278727261509
      ],
      [
        "{y}",
        -9.60201097313421
      ],
      [
        "\\frac{x}{",
        -9.602194543468002
      ],
      [
        "\\frac{p}{q}",
        -9.602379599234832
      ],
      [
        "\\frac{\\pi}{3}",
        -9.602986193837989
      ],
      [
        "40",
        -9.60488097675264
      ],
      [
        "172",
        -9.605073292080167
      ],
      [
        "2^n",
        -9.605513765142216
      ],
      [
        "\\frac{-",
        -9.606107444941085
      ],
      [
        "\\cos\\theta",
        -9.609980923169008
      ],
      [
        "(5",
        -9.611810712292336
      ],
      [
        "(0,",
        -9.611923810730683
      ],
      [
        "190",
        -9.614765346167198
      ],
      [
        "3.1",
        -9.618192229957888
      ],
      [
        "0.5",
        -9.62210816582885
      ],
      [
        "b=",
        -9.625670810314686
      ],
      [
        "57",
        -9.62750753521892
      ],
      [
        "f_2",
        -9.627709893762855
      ],
      [
        "0.1",
        -9.627743103312104
      ],
      [
        "107",
        -9.628064658559111
      ],
      [
        "163",
        -9.629581689633843
      ],
      [
        "{5+\\sqrt{5}}",
        -9.630011616060262
      ],
      [
        "120)",
        -9.633647327653923
      ],
      [
        "\\frac{1}{n}",
        -9.635616458474354
      ],
      [
        "145",
        -9.637782283793529
      ],
      [
        "f(x_",
        -9.644035660634716
      ],
      [
        "X_",
        -9.647081040848988
      ],
      [
        "7}",
        -9.647758003115063
      ],
      [
        "119",
        -9.648476984564386
      ],
      [
        "137",
        -9.649038328372622
      ],
      [
        ".8",
        -9.652551058118249
      ],
      [
        "(u_n",
        -9.652882292189677
      ],
      [
        "171",
        -9.65315592192742
      ],
      [
        "(x^2",
        -9.65366956420372
      ],
      [
        "-\\infty",
        -9.658775918200591
      ],
      [
        "\\int_1^",
        -9.659693722088631
      ],
      [
        "{1}{\\sqrt{2}}",
        -9.66126927858638
      ],
      [
        "2}\\Big",
        -9.661702945537568
      ],
      [
        "a_4",
        -9.663156223635712
      ],
      [
        "i_2",
        -9.664639459556533
      ],
      [
        "e^{ix}",
        -9.66505336315075
      ],
      [
        "\\cos(x)",
        -9.665755889340115
      ],
      [
        "(X",
        -9.66821076898033
      ],
      [
        "148",
        -9.673515977855969
      ],
      [
        "z)",
        -9.675243574714065
      ],
      [
        "^{\\frac{1}{4}}",
        -9.678561006617835
      ],
      [
        "nx^n",
        -9.68013249373044
      ],
      [
        "34",
        -9.683524880521931
      ],
      [
        "1)^2",
        -9.688827853306702
      ],
      [
        "(2n+1)",
        -9.689473303157364
      ],
      [
        "z^{2}",
        -9.691870549313816
      ],
      [
        "104",
        -9.6941168663648
      ],
      [
        "10^{-",
        -9.697541124500717
      ],
      [
        "53",
        -9.698493048294646
      ],
      [
        "4)",
        -9.701996260421987
      ],
      [
        "v_",
        -9.703496944912198
      ],
      [
        "(37",
        -9.70521217912404
      ],
      [
        "c^{2}",
        -9.707810978087974
      ],
      [
        "(7",
        -9.708894051514903
      ],
      [
        "\\alpha^2",
        -9.709766661351358
      ],
      [
        "k_1",
        -9.71203491788576
      ],
      [
        "b_n",
        -9.712760060684538
      ],
      [
        "b,",
        -9.715178317622051
      ],
      [
        "37)",
        -9.715737961738684
      ],
      [
        "\\cos(a)",
        -9.719830609094428
      ],
      [
        "3^2",
        -9.724027573573457
      ],
      [
        "F_",
        -9.72411285586268
      ],
      [
        "y_4",
        -9.731149313176475
      ],
      [
        "63",
        -9.731284825936951
      ],
      [
        "183",
        -9.733352259053078
      ],
      [
        "(19",
        -9.733895154484808
      ],
      [
        "0))",
        -9.735487713347728
      ],
      [
        "{k",
        -9.746651464207218
      ],
      [
        "\\frac{5",
        -9.750893257154225
      ],
      [
        "t_1",
        -9.753113389557376
      ],
      [
        "X_2",
        -9.75315828121618
      ],
      [
        "u_{n+1}",
        -9.755074514686449
      ],
      [
        "v_1",
        -9.75636797832507
      ],
      [
        "99)",
        -9.757645346691495
      ],
      [
        "\\frac{4}{3}",
        -9.75898524363374
      ],
      [
        "9}",
        -9.759343538020206
      ],
      [
        "(a+b)",
        -9.761661245097088
      ],
      [
        "y_{n+1}",
        -9.762515146461975
      ],
      [
        "X_n",
        -9.76309399152134
      ],
      [
        "(p,",
        -9.76339149501158
      ],
      [
        "1}{4}",
        -9.763871064662196
      ],
      [
        "\\frac{p",
        -9.767347761860892
      ],
      [
        "y^2=",
        -9.76754937116621
      ],
      [
        "\\frac{4",
        -9.769078646699056
      ],
      [
        "x_j",
        -9.770190402490158
      ],
      [
        "193)",
        -9.772761799379431
      ],
      [
        "0.7",
        -9.775092496763172
      ],
      [
        "\\log_{a}",
        -9.775719172332453
      ],
      [
        "b_0",
        -9.777798673799149
      ],
      [
        "\\log_a",
        -9.778045260677189
      ],
      [
        "124)",
        -9.781519861633882
      ],
      [
        "n+1}",
        -9.783678682633774
      ],
      [
        "198)",
        -9.784558241163015
      ],
      [
        "\\sum_{k=1}^",
        -9.7863496525315
      ],
      [
        "i_1",
        -9.791994653942696
      ],
      [
        "_k)",
        -9.795426039037531
      ],
      [
        "\\frac{5}{",
        -9.80016598350334
      ],
      [
        "((8",
        -9.801734337333937
      ],
      [
        "\\frac{m",
        -9.80199942078136
      ],
      [
        "a^{2}",
        -9.803920166555312
      ],
      [
        "z_0}",
        -9.8069040094543
      ],
      [
        "186",
        -9.8069479507715
      ],
      [
        "a_{i}",
        -9.806978296203804
      ],
      [
        "67)",
        -9.807319527819452
      ],
      [
        "q_",
        -9.808333923819449
      ],
      [
        "6.2",
        -9.81196028354619
      ],
      [
        "e^{-i",
        -9.813800517694954
      ],
      [
        "c_2",
        -9.816867639392004
      ],
      [
        "}{\\sqrt{2}}",
        -9.81715406724241
      ],
      [
        "93",
        -9.817557084455157
      ],
      [
        "a_{k}",
        -9.81773474519512
      ],
      [
        "\\gamma_",
        -9.824778895928324
      ],
      [
        "135)",
        -9.826980938815275
      ],
      [
        "167",
        -9.827087917525985
      ],
      [
        "X^3",
        -9.827275241165108
      ],
      [
        "_n",
        -9.831133238348404
      ],
      [
        "q^2",
        -9.83148543598083
      ],
      [
        "(a,",
        -9.832398375847468
      ],
      [
        "90)",
        -9.836493905514818
      ],
      [
        "x^6",
        -9.84001614620923
      ],
      [
        "(22",
        -9.840769763256564
      ],
      [
        "44",
        -9.841116297370537
      ],
      [
        "=\\tan",
        -9.841880979880989
      ],
      [
        "(k)",
        -9.84373328974762
      ],
      [
        "d_1",
        -9.844467327432625
      ],
      [
        "\\frac{1}{x}",
        -9.844878921256536
      ],
      [
        "2x",
        -9.846315910278834
      ],
      [
        "sin",
        -9.846492609847168
      ],
      [
        "166)",
        -9.846759927335572
      ],
      [
        "{11}",
        -9.852762059003537
      ],
      [
        "x_2,",
        -9.85372621352817
      ],
      [
        "\\alpha_i",
        -9.854899731260216
      ],
      [
        "x^i",
        -9.855289316553115
      ],
      [
        "\\frac{7",
        -9.856973216506134
      ],
      [
        "^{n-1}",
        -9.857120119571931
      ],
      [
        "x^{n}",
        -9.85907422731898
      ],
      [
        "132)",
        -9.859836910224692
      ],
      [
        "{0}",
        -9.861633976887626
      ],
      [
        "z^3",
        -9.861925578504142
      ],
      [
        "a,",
        -9.864041976874056
      ],
      [
        "+\\beta_",
        -9.866578095577031
      ],
      [
        "30)",
        -9.86738257905042
      ],
      [
        "z_3",
        -9.87090251013576
      ],
      [
        "b)^2",
        -9.87157071712618
      ],
      [
        "{i",
        -9.87302363308341
      ],
      [
        "i}",
        -9.87324272920602
      ],
      [
        "-1)",
        -9.873617832230432
      ],
      [
        "_3",
        -9.877898236565796
      ],
      [
        "\\lim_{r",
        -9.87877990110512
      ],
      [
        "T_{",
        -9.87910916138026
      ],
      [
        "184",
        -9.880259361208678
      ],
      [
        "(1-x)",
        -9.882746442044736
      ],
      [
        "(\\alpha",
        -9.882754622234716
      ],
      [
        "118",
        -9.882946660783308
      ],
      [
        "-\\frac{",
        -9.883678926292744
      ],
      [
        "{5-\\sqrt{5}}",
        -9.884010860685844
      ],
      [
        "92",
        -9.88562196281716
      ],
      [
        "52",
        -9.887382300840448
      ],
      [
        "37",
        -9.887700873229834
      ],
      [
        "b^n",
        -9.889869270665445
      ],
      [
        "\\frac{-2",
        -9.890673445270558
      ],
      [
        "((15",
        -9.892416440037234
      ],
      [
        "16)",
        -9.89288336010532
      ],
      [
        "y=",
        -9.893426454363768
      ],
      [
        "((1",
        -9.894056197220603
      ],
      [
        "1.6",
        -9.895660588105128
      ],
      [
        "c^{2}}",
        -9.895816989536186
      ],
      [
        "_{n-1}",
        -9.895977940368969
      ],
      [
        "{k}",
        -9.896864539787044
      ],
      [
        "9)",
        -9.897609696290754
      ],
      [
        "122",
        -9.901625597904388
      ],
      [
        "_{4}",
        -9.903635156482636
      ],
      [
        "^{",
        -9.904420864439466
      ],
      [
        "u_0",
        -9.907778888393288
      ],
      [
        "134",
        -9.908586347184553
      ],
      [
        "(29",
        -9.90859168458604
      ],
      [
        "-\\frac{1}{",
        -9.90949243387737
      ],
      [
        "ab",
        -9.91453021687547
      ],
      [
        "\\frac{(",
        -9.914859144518651
      ],
      [
        "{\\log",
        -9.916922099228175
      ],
      [
        "dx^2",
        -9.917141528943562
      ],
      [
        "1^2",
        -9.920735818582171
      ],
      [
        "r(",
        -9.922866406079065
      ],
      [
        "{i}",
        -9.923085745217858
      ],
      [
        "y^3",
        -9.92364409833372
      ],
      [
        "2i\\pi",
        -9.92372037766908
      ],
      [
        "{16}",
        -9.924107665951226
      ],
      [
        "^{x",
        -9.924622245709458
      ],
      [
        "},",
        -9.92468582805952
      ],
      [
        "120",
        -9.92674388988056
      ],
      [
        "(24",
        -9.927693087320066
      ],
      [
        "ds^2",
        -9.927832917099032
      ],
      [
        "0.9",
        -9.928871257268934
      ],
      [
        "-\\frac",
        -9.935369211425185
      ],
      [
        "((14",
        -9.935480782699775
      ],
      [
        "\\sqrt{3}}{2}",
        -9.936289406473586
      ],
      [
        "\\frac{\\alpha",
        -9.93754586165096
      ],
      [
        "a_{k",
        -9.942131691695533
      ],
      [
        "y(t)",
        -9.94262609738916
      ],
      [
        "199",
        -9.943933141254808
      ],
      [
        "8.",
        -9.943992518418586
      ],
      [
        "(z",
        -9.945886823883178
      ],
      [
        "152",
        -9.946016451593698
      ],
      [
        "175",
        -9.946431450632645
      ],
      [
        "\\;",
        -9.946641445767318
      ],
      [
        "y^{\\prime}",
        -9.949002135040992
      ],
      [
        "9.",
        -9.950463616096863
      ],
      [
        "2xy",
        -9.95422903464413
      ],
      [
        "{-",
        -9.955855298457356
      ],
      [
        "^{(n)}",
        -9.958524089707751
      ],
      [
        "\\sqrt{5+2\\sqrt{",
        -9.961414918311617
      ],
      [
        "7.",
        -9.961585885544016
      ],
      [
        "[b]",
        -9.962576398814754
      ],
      [
        "\\phi)",
        -9.962606508436902
      ],
      [
        "\\sum_{j=1}^",
        -9.962619112293602
      ],
      [
        "S^{d",
        -9.9628404892151
      ],
      [
        "ax^2",
        -9.963666246511933
      ],
      [
        "v_{0}",
        -9.964209206694337
      ],
      [
        "S^{0",
        -9.964817214491312
      ],
      [
        "a_{n-2}",
        -9.96550010606954
      ],
      [
        "\\sqrt{a^{2}",
        -9.96576687935172
      ],
      [
        "a_5",
        -9.967085322929394
      ],
      [
        "d^{4}",
        -9.967509714384716
      ],
      [
        "E_",
        -9.96876426877242
      ],
      [
        "f(x)=",
        -9.968909272071
      ],
      [
        "9.8",
        -9.969284777440388
      ],
      [
        "115",
        -9.970435556925484
      ],
      [
        "87",
        -9.97223672235124
      ],
      [
        "4.8",
        -9.975526356431526
      ],
      [
        "164)",
        -9.97596583427352
      ],
      [
        "M_",
        -9.976002360762523
      ],
      [
        "114",
        -9.97622391034723
      ],
      [
        "\\frac{1}{x^",
        -9.976292978773431
      ],
      [
        "(x_1,",
        -9.976775394623074
      ],
      [
        "b_2",
        -9.976974447272248
      ],
      [
        "v,",
        -9.979786516540662
      ],
      [
        "f(b)",
        -9.981263756390652
      ],
      [
        "{2})",
        -9.98342004604907
      ],
      [
        "146)",
        -9.98599605986851
      ],
      [
        "x=",
        -9.986727952187191
      ],
      [
        "\\sqrt[x]",
        -9.988303452987502
      ],
      [
        "81)",
        -9.988445631344732
      ],
      [
        "x^2-y^2",
        -9.988951527842085
      ],
      [
        "192",
        -9.989877846950904
      ],
      [
        "E_0",
        -9.990311820819404
      ],
      [
        "A_{",
        -9.990468192457069
      ],
      [
        "\\frac{u",
        -9.993432586532643
      ],
      [
        "(-1)^n",
        -9.994252568889545
      ],
      [
        "31",
        -9.99519871595388
      ],
      [
        "113",
        -9.999307050377189
      ],
      [
        "^{-2}",
        -9.999503773468644
      ],
      [
        "{12}",
        -10.00084486624441
      ],
      [
        "+\\ldots",
        -10.002162449421318
      ],
      [
        "-p}",
        -10.002196751114932
      ],
      [
        "\\frac{d^2",
        -10.002198210110356
      ],
      [
        "\\frac{\\alpha}{2}",
        -10.00513008574159
      ],
      [
        "\\theta_",
        -10.005190919681551
      ],
      [
        "3.3",
        -10.005359722558897
      ],
      [
        "y_k",
        -10.005599985205707
      ],
      [
        "162)",
        -10.006092255382828
      ],
      [
        "(y",
        -10.00654494097824
      ],
      [
        "168)",
        -10.008225856284431
      ],
      [
        "x^2-",
        -10.008355747528713
      ],
      [
        "\\sin(\\theta)",
        -10.009118165959464
      ],
      [
        "{4}}",
        -10.014809206764944
      ],
      [
        "_1(t)",
        -10.01747340055421
      ],
      [
        "p^",
        -10.022179105064616
      ],
      [
        "a^3",
        -10.023823394907202
      ],
      [
        "\\frac{2}{n",
        -10.025222196527707
      ],
      [
        "43",
        -10.028459864868276
      ],
      [
        "+1}",
        -10.029094551062528
      ],
      [
        "55)",
        -10.030106634166184
      ],
      [
        "y_2",
        -10.031428028492863
      ],
      [
        "66",
        -10.031567016042192
      ],
      [
        "\\frac{z",
        -10.035774192329102
      ],
      [
        "29",
        -10.038947035361849
      ],
      [
        "\\sum_{",
        -10.039270457279205
      ],
      [
        "(13",
        -10.044529020117634
      ],
      [
        "a_1x",
        -10.04479627426769
      ],
      [
        "f(a)",
        -10.045973378074022
      ],
      [
        "\\sum_n",
        -10.047413890006698
      ],
      [
        "a}}{",
        -10.04745125332066
      ],
      [
        "97)",
        -10.048376232686785
      ],
      [
        "(-",
        -10.048603909622685
      ],
      [
        "198",
        -10.04890454436551
      ],
      [
        "(30",
        -10.049003212528527
      ],
      [
        "\\log_c",
        -10.05219767461986
      ],
      [
        "92)",
        -10.056959156620987
      ],
      [
        "=\\frac{",
        -10.05886070648652
      ],
      [
        "e_2",
        -10.059848465235472
      ],
      [
        "_{0}",
        -10.061956829553962
      ],
      [
        "a^n",
        -10.06360624955823
      ],
      [
        "155",
        -10.065792696692746
      ],
      [
        "^{n",
        -10.068095434573126
      ],
      [
        "\\frac{x^{2}",
        -10.069104270145504
      ],
      [
        "2}}{\\sqrt{",
        -10.069291460128644
      ],
      [
        "n_2",
        -10.070689145607242
      ],
      [
        "+\\cdots+",
        -10.071591551765543
      ],
      [
        "\\frac{\\sqrt{3}}{",
        -10.071944992820658
      ],
      [
        "\\int_",
        -10.072737112482056
      ],
      [
        "\\frac{x^2}{",
        -10.07391152204962
      ],
      [
        "a_{j",
        -10.074116350868811
      ],
      [
        "7.0",
        -10.075347734098566
      ],
      [
        "(n,",
        -10.077335051845903
      ],
      [
        ".1",
        -10.08137283394096
      ],
      [
        "c_n",
        -10.083861113452476
      ],
      [
        "(u)",
        -10.08751815379255
      ],
      [
        "x+y",
        -10.088476872148158
      ],
      [
        "y,",
        -10.09101013555279
      ],
      [
        "103",
        -10.095226326679056
      ],
      [
        "\\sqrt{6}",
        -10.09756020677496
      ],
      [
        "2k}",
        -10.098628501324406
      ],
      [
        "r)",
        -10.099291211319208
      ],
      [
        "\\frac{3}{",
        -10.09986359909882
      ],
      [
        "\\frac{x^",
        -10.103573113447508
      ],
      [
        "42",
        -10.108407660107812
      ],
      [
        "\\sqrt{u",
        -10.114555716330036
      ],
      [
        "b^",
        -10.11583613361432
      ],
      [
        "x_a",
        -10.11596051952583
      ],
      [
        "(f)",
        -10.120609521985092
      ],
      [
        "_1)",
        -10.12086335786734
      ],
      [
        "160",
        -10.122751739297238
      ],
      [
        "m_1",
        -10.123023486935232
      ],
      [
        "V_i",
        -10.124034508254946
      ],
      [
        "129",
        -10.12419862343152
      ],
      [
        "8)",
        -10.125499736713223
      ],
      [
        "x^{-",
        -10.125836441174862
      ],
      [
        "x^9",
        -10.125959771964329
      ],
      [
        "(90",
        -10.127729938333571
      ],
      [
        "h_1}",
        -10.129741725904292
      ],
      [
        "e_i",
        -10.132818325946896
      ],
      [
        "q)",
        -10.137422180759696
      ],
      [
        "{4",
        -10.137426630766909
      ],
      [
        "{\\pi}",
        -10.13790824120966
      ],
      [
        "150",
        -10.138593779610297
      ],
      [
        "ex",
        -10.14365557192367
      ],
      [
        "d^{2}",
        -10.150707188128568
      ],
      [
        "\\alpha,",
        -10.150858206742951
      ],
      [
        "\\sum_{n=1}^{",
        -10.152038116490642
      ],
      [
        "y\\prime",
        -10.153055202192226
      ],
      [
        "A^",
        -10.154377663809528
      ],
      [
        "f(x,y)",
        -10.155925844433618
      ],
      [
        "m}",
        -10.15944791709349
      ],
      [
        "\\frac{9",
        -10.159915254161335
      ],
      [
        "(x,y)",
        -10.164234852221275
      ],
      [
        "X_{",
        -10.166740312918794
      ],
      [
        "g(y)",
        -10.167005621178166
      ],
      [
        "\\sqrt{21}-",
        -10.168199308224809
      ],
      [
        "du",
        -10.16869872171619
      ],
      [
        "x_{i+1}",
        -10.169052518773372
      ],
      [
        "\\frac{p}{",
        -10.171625331622112
      ],
      [
        "(36",
        -10.173596570958177
      ],
      [
        "(0)}",
        -10.17448521533514
      ],
      [
        "b_{i",
        -10.175650871535543
      ],
      [
        "x^3+",
        -10.176363380137229
      ],
      [
        "f(y)",
        -10.177218441734494
      ],
      [
        "X^n",
        -10.179561977732488
      ],
      [
        "2}{x",
        -10.179565730264034
      ],
      [
        "101",
        -10.182285033795432
      ],
      [
        "131",
        -10.182902907072748
      ],
      [
        "36)",
        -10.18467166139322
      ],
      [
        "71",
        -10.189479755732537
      ],
      [
        "m^2",
        -10.190919168442944
      ],
      [
        "(100",
        -10.19183635696777
      ],
      [
        "88)",
        -10.194242268505938
      ],
      [
        "\\sqrt{\\pi}",
        -10.196066901948509
      ],
      [
        "{x}}",
        -10.19706266870775
      ],
      [
        "a}}",
        -10.204302999944227
      ],
      [
        "2.0",
        -10.2047768742955
      ],
      [
        "05",
        -10.20526243029163
      ],
      [
        "\\frac{V_",
        -10.20587993911434
      ],
      [
        "l_1",
        -10.207507637192364
      ],
      [
        "a+b+c",
        -10.209625193905715
      ],
      [
        "_{i}",
        -10.210802792921822
      ],
      [
        "2,",
        -10.210826538405076
      ],
      [
        "}}{1",
        -10.211175180950873
      ],
      [
        "^{\\frac{f}{2}}V_",
        -10.211362349239922
      ],
      [
        "^{\\frac{n-2}{n}}",
        -10.211368126435264
      ],
      [
        "pgcd(",
        -10.21137470750461
      ],
      [
        "\\sum_{r=1}^",
        -10.211393565622508
      ],
      [
        "x^{\\frac{1}{n}}",
        -10.21143658506013
      ],
      [
        "{v_1}^2",
        -10.211545753875315
      ],
      [
        "123",
        -10.211630732001636
      ],
      [
        "\\pi}{",
        -10.211808728946512
      ],
      [
        "z_4+z_",
        -10.21185707365022
      ],
      [
        "\\int_{a}^",
        -10.212370153206908
      ],
      [
        "\\sin\\alpha",
        -10.212601362475322
      ],
      [
        "(1-j)",
        -10.212832667364626
      ],
      [
        "|x|",
        -10.213561600615302
      ],
      [
        "\\sqrt[3]{",
        -10.21398403734573
      ],
      [
        "sp_{",
        -10.2139924485377
      ],
      [
        "_{min}",
        -10.214073391399166
      ],
      [
        "\\cos(nx)",
        -10.21414814679466
      ],
      [
        "1.0",
        -10.214697664084667
      ],
      [
        "\\frac{4}{4}",
        -10.215733628375768
      ],
      [
        "s^2,",
        -10.215987914479676
      ],
      [
        "4\\sqrt{3}",
        -10.216213924990692
      ],
      [
        "(n+3)",
        -10.216411527878789
      ],
      [
        "y_{i+1}",
        -10.216604859574158
      ],
      [
        "|=|",
        -10.216717458458348
      ],
      [
        "_{\\alpha}",
        -10.217182424596114
      ],
      [
        "3.",
        -10.218104059400185
      ],
      [
        "\\sqrt{-g}",
        -10.218837320058766
      ],
      [
        "\\int_{-",
        -10.21940862131848
      ],
      [
        "(a_1",
        -10.220322093610449
      ],
      [
        "}{4(k+",
        -10.220871343461988
      ],
      [
        "}{a}",
        -10.221390682763207
      ],
      [
        "2.9",
        -10.22272317035458
      ],
      [
        "\\cos^2(x)",
        -10.222996021096831
      ],
      [
        "ax+b",
        -10.224768701232158
      ],
      [
        "^{10}",
        -10.224924997422786
      ],
      [
        "w_i",
        -10.225695356934256
      ],
      [
        "X_t",
        -10.227296333075408
      ],
      [
        "p_1",
        -10.22736585822778
      ],
      [
        "n(n+1)",
        -10.227850134804006
      ],
      [
        "{10}",
        -10.227962536211544
      ],
      [
        "108)",
        -10.228279918773488
      ],
      [
        "S_n",
        -10.228362886735034
      ],
      [
        "\\sum_{n=0}^",
        -10.22865165650192
      ],
      [
        "1})",
        -10.230514875102212
      ],
      [
        "+1)}",
        -10.232157151882785
      ],
      [
        "0.8",
        -10.234155479065068
      ],
      [
        "9.0",
        -10.234553222688255
      ],
      [
        "H_i",
        -10.23484329060431
      ],
      [
        "d_{x",
        -10.237101103433073
      ],
      [
        "\\frac{8",
        -10.23764286947856
      ],
      [
        "^{p+1}",
        -10.238856029001688
      ],
      [
        "x,y",
        -10.239667772511998
      ],
      [
        "e^{i\\theta}",
        -10.239913721749865
      ],
      [
        "x+iy",
        -10.240220165885276
      ],
      [
        "|a|",
        -10.24037394951713
      ],
      [
        "u_1,",
        -10.24090332715307
      ],
      [
        "\\pi}{3}",
        -10.241281021877429
      ],
      [
        "4\\pi^2",
        -10.243119709612827
      ],
      [
        "\\sqrt{x^2",
        -10.245003115718012
      ],
      [
        "^{\\prime},",
        -10.24508859687172
      ],
      [
        "103)",
        -10.245245941016735
      ],
      [
        "\\sqrt{5}}{2}",
        -10.245654052168971
      ],
      [
        "\\sum_j",
        -10.246137184103734
      ],
      [
        "\\frac{1}{24}",
        -10.246296025479785
      ],
      [
        "n_a",
        -10.246705764091423
      ],
      [
        "2.4",
        -10.246808910924951
      ],
      [
        "x_{k+1}",
        -10.24797922210551
      ],
      [
        "\\sqrt{7}",
        -10.248845491518765
      ],
      [
        "^5+z_",
        -10.2489478274046
      ],
      [
        "^n)",
        -10.24944812629968
      ],
      [
        "175)",
        -10.251071110939316
      ],
      [
        "_n(x)",
        -10.25301196964906
      ],
      [
        "e_{",
        -10.253734461388476
      ],
      [
        "^{\\frac{1}{2}}",
        -10.254824452345424
      ],
      [
        "t_2",
        -10.25651879400332
      ],
      [
        "0.3",
        -10.25657921407695
      ],
      [
        "bt",
        -10.257731333437432
      ],
      [
        "113)",
        -10.258566322277986
      ],
      [
        "p(x)",
        -10.25924613507303
      ],
      [
        "(-x)",
        -10.260249040368883
      ],
      [
        "6,",
        -10.260648279797389
      ],
      [
        "180)",
        -10.26292227126602
      ],
      [
        "d_",
        -10.26419996720826
      ],
      [
        "(9",
        -10.265556470292111
      ],
      [
        "{x_b-x",
        -10.266091157234362
      ],
      [
        "117",
        -10.270556335896709
      ],
      [
        "((3",
        -10.2710946350133
      ],
      [
        "111)",
        -10.27124588735909
      ],
      [
        "(p+",
        -10.27321444957294
      ],
      [
        "^{ij}",
        -10.273369534977313
      ],
      [
        "f(t)",
        -10.274734280841226
      ],
      [
        "172)",
        -10.275856342793327
      ],
      [
        "\\sqrt{z_",
        -10.278455379942372
      ],
      [
        ".08",
        -10.278787200082215
      ],
      [
        "sqrt{2+\\sqrt{2}}",
        -10.27925847742003
      ],
      [
        "sum_{n=1}^\\infty",
        -10.280054422329831
      ],
      [
        "-0.9",
        -10.28041252086335
      ],
      [
        "-3",
        -10.280414231009887
      ],
      [
        "187)",
        -10.280872524793889
      ],
      [
        "10^{3",
        -10.281308576150485
      ],
      [
        "}{h_3",
        -10.28177163312649
      ],
      [
        "}{x",
        -10.281855842302235
      ],
      [
        "n^{2}",
        -10.282419028824602
      ],
      [
        "x^7",
        -10.283574637752528
      ],
      [
        "(\\pm",
        -10.284677950484646
      ],
      [
        "f_n",
        -10.286346957607666
      ],
      [
        "1.2",
        -10.286553205049046
      ],
      [
        "177)",
        -10.28862753901152
      ],
      [
        "n(u)",
        -10.289815801801131
      ],
      [
        "106",
        -10.290404071941577
      ],
      [
        "}{n+1}",
        -10.29080975245527
      ],
      [
        "\\right)^{n}",
        -10.29082235603655
      ],
      [
        "v_3",
        -10.29083578389092
      ],
      [
        "2})",
        -10.294362407140865
      ],
      [
        "9.2",
        -10.29499201369486
      ],
      [
        "y_i)",
        -10.295269166878947
      ],
      [
        "(64",
        -10.29662742302117
      ],
      [
        "126)",
        -10.299405638844451
      ],
      [
        "j^2",
        -10.300983823855836
      ],
      [
        "151)",
        -10.305990725616171
      ],
      [
        "(1/",
        -10.308475486615874
      ],
      [
        "\\beta_0",
        -10.308545172760446
      ],
      [
        "N_",
        -10.30912000777376
      ],
      [
        "uv",
        -10.309229569769435
      ],
      [
        "X=",
        -10.309298233096886
      ],
      [
        "6.9",
        -10.311535801537683
      ],
      [
        "k^2",
        -10.312244561895673
      ],
      [
        "}^{2}",
        -10.313256425651964
      ],
      [
        "s^3",
        -10.313508371264165
      ],
      [
        "_i,",
        -10.31477693300314
      ],
      [
        "\\pi}{2}",
        -10.315262045680312
      ],
      [
        "\\frac{\\sqrt{",
        -10.316469295135969
      ],
      [
        "\\lambda_",
        -10.318608653968267
      ],
      [
        "{9",
        -10.318854169452964
      ],
      [
        "p_2",
        -10.319133773206952
      ],
      [
        "_{n}",
        -10.319742286758254
      ],
      [
        "15)",
        -10.321100571445491
      ],
      [
        "51)",
        -10.32243790758737
      ],
      [
        "c_1",
        -10.32586354534607
      ],
      [
        "149)",
        -10.326641569196957
      ],
      [
        "((2",
        -10.330444906480036
      ],
      [
        "b_3",
        -10.33133717698698
      ],
      [
        "r,",
        -10.333133999578855
      ],
      [
        "{a_{k}",
        -10.333409242753692
      ],
      [
        "1000",
        -10.333736124370532
      ],
      [
        "11",
        -10.333965440393692
      ],
      [
        "c)",
        -10.335476856288244
      ],
      [
        "x^2+x+",
        -10.336750465013
      ],
      [
        "b_k",
        -10.340259573508725
      ],
      [
        "\\sqrt{5}}}",
        -10.34027167268771
      ],
      [
        "=\\cos^2",
        -10.341976229989676
      ],
      [
        "\\frac{1}{6}",
        -10.342378484406533
      ],
      [
        "81",
        -10.344192926594358
      ],
      [
        "^{-1})",
        -10.344790209676862
      ],
      [
        "e_j",
        -10.34563848874688
      ],
      [
        "16}",
        -10.348287178466954
      ],
      [
        "23",
        -10.349055429220025
      ],
      [
        "{d_1}",
        -10.349749101805733
      ],
      [
        "5^3",
        -10.349990049719086
      ],
      [
        "(X^",
        -10.35083718158515
      ],
      [
        "dB",
        -10.353433382794092
      ],
      [
        ")}{n",
        -10.353627830205564
      ],
      [
        "\\frac{2}{\\sqrt",
        -10.354855852371887
      ],
      [
        "dg",
        -10.356362827130102
      ],
      [
        "58)",
        -10.35677834466834
      ],
      [
        "^{-3}",
        -10.35716243292399
      ],
      [
        "\\frac{-1",
        -10.357704764369313
      ],
      [
        "(c)",
        -10.359645569530311
      ],
      [
        "(n-2)",
        -10.361261557203786
      ],
      [
        "174",
        -10.36613338931015
      ],
      [
        "{t}",
        -10.367533232540437
      ],
      [
        "(-1)^{",
        -10.367851626952408
      ],
      [
        "_x^",
        -10.369817238907364
      ],
      [
        "(j)",
        -10.370740836566217
      ],
      [
        "t_n",
        -10.374643500177612
      ],
      [
        "\\frac{k",
        -10.375366812558
      ],
      [
        "((10",
        -10.376011908390858
      ],
      [
        "b_",
        -10.376511828209743
      ],
      [
        "xy",
        -10.37771436838024
      ],
      [
        "360",
        -10.382848485655993
      ],
      [
        "14)",
        -10.383372240809482
      ],
      [
        "r^2}",
        -10.383970195913491
      ],
      [
        "}{\\sqrt{3}}",
        -10.384526839948148
      ],
      [
        "f_x",
        -10.385188673960974
      ],
      [
        "{ab}",
        -10.387268315544654
      ],
      [
        "e^{-x}",
        -10.387838529721837
      ],
      [
        "}s_{",
        -10.388441500317612
      ],
      [
        "{1},",
        -10.38850515926677
      ],
      [
        "-\\frac{5}{",
        -10.389620020693624
      ],
      [
        "m_2",
        -10.38962625544504
      ],
      [
        "\\frac{2}{",
        -10.390321535273234
      ],
      [
        "4x^2",
        -10.392276410998193
      ],
      [
        "146",
        -10.396394416634056
      ],
      [
        "\\int_{-\\infty}^{",
        -10.39833259146843
      ],
      [
        "S_1",
        -10.400003176718592
      ],
      [
        "-\\sqrt{3}",
        -10.400882638875125
      ],
      [
        "x^2+",
        -10.404402208489657
      ],
      [
        "x_o",
        -10.4052565663352
      ],
      [
        "}{2",
        -10.406869017554104
      ],
      [
        "_{6}",
        -10.4085635233306
      ],
      [
        "3},",
        -10.408946422179408
      ],
      [
        "[x]",
        -10.412135271690822
      ],
      [
        "(162",
        -10.414316387727489
      ],
      [
        "_2)",
        -10.41771995961022
      ],
      [
        "y(0)",
        -10.417771239106893
      ],
      [
        "^3+",
        -10.41804899685742
      ],
      [
        "2.7",
        -10.420398265845396
      ],
      [
        "185",
        -10.42263097770304
      ],
      [
        "p_c",
        -10.42272624471655
      ],
      [
        "{b",
        -10.42287245053626
      ],
      [
        "(A)",
        -10.425777167922847
      ],
      [
        "+w_",
        -10.42593377841435
      ],
      [
        "S_{",
        -10.429468137325957
      ],
      [
        "u(t)",
        -10.42949234403638
      ],
      [
        "_j",
        -10.429817675647628
      ],
      [
        "q_i",
        -10.430315648588488
      ],
      [
        "^{n+1}",
        -10.432054462139272
      ],
      [
        "82",
        -10.432705612151448
      ],
      [
        "{N}",
        -10.437161017337225
      ],
      [
        "B_",
        -10.440519838199464
      ],
      [
        "2^4",
        -10.440597787793632
      ],
      [
        "k^",
        -10.441465798354198
      ],
      [
        ",0)",
        -10.44296416702718
      ],
      [
        "\\frac{1-",
        -10.443024194915616
      ],
      [
        "0,3",
        -10.44395219843288
      ],
      [
        "3)^2",
        -10.444058786838724
      ],
      [
        "z}{",
        -10.444581808502386
      ],
      [
        "p}",
        -10.444745644339106
      ],
      [
        "\\frac{1}{\\sqrt",
        -10.447385902255697
      ],
      [
        "180",
        -10.448357398143482
      ],
      [
        "}{p}",
        -10.451695859825296
      ],
      [
        "L_0",
        -10.45211508247499
      ],
      [
        "B_n",
        -10.452788643538998
      ],
      [
        "d)",
        -10.455581554587352
      ],
      [
        "\\alpha_",
        -10.45609967767877
      ],
      [
        "3^3",
        -10.458970354646372
      ],
      [
        "9.9",
        -10.460795803140766
      ],
      [
        "+\\theta",
        -10.461557560910048
      ],
      [
        "d}",
        -10.462627444757944
      ],
      [
        "{x^2+y^2}",
        -10.46364831937215
      ],
      [
        "f^{-1}",
        -10.46583100424918
      ],
      [
        "=\\sqrt{",
        -10.467416754340968
      ],
      [
        "_{10}",
        -10.469607124509112
      ],
      [
        "\\beta_n",
        -10.47421689570005
      ],
      [
        "\\beta_{n+1}",
        -10.47544307432902
      ],
      [
        "+y",
        -10.475444416560537
      ],
      [
        "(r)}",
        -10.477691220742996
      ],
      [
        "x^{i}",
        -10.477793454815776
      ],
      [
        "(p",
        -10.478253509200018
      ],
      [
        ")=",
        -10.478399793330718
      ],
      [
        "_{abc}",
        -10.478426851346748
      ],
      [
        "e^u",
        -10.47901965487161
      ],
      [
        "_{max}",
        -10.47973036324809
      ],
      [
        "d_2",
        -10.481177707521654
      ],
      [
        "{14}",
        -10.48417821167378
      ],
      [
        ")^n",
        -10.48836570752946
      ],
      [
        "76)",
        -10.48885303945158
      ],
      [
        "{b}}",
        -10.489108328669191
      ],
      [
        "AB",
        -10.490880968050108
      ],
      [
        "\\frac{e^",
        -10.490884758227011
      ],
      [
        "2)(",
        -10.49227783813016
      ],
      [
        "x^{\\prime}",
        -10.49261384241706
      ],
      [
        "X(t)}",
        -10.49347523006049
      ],
      [
        "7)",
        -10.497258392682694
      ],
      [
        "x\\rightarrow",
        -10.50130880149328
      ],
      [
        "5}}",
        -10.502167346384606
      ],
      [
        "x^1",
        -10.502763993285216
      ],
      [
        "177",
        -10.50334397014156
      ],
      [
        "f)",
        -10.504716639003634
      ],
      [
        "\\frac{1}{8}",
        -10.504828812631244
      ],
      [
        "log",
        -10.50570837983314
      ],
      [
        "x_i^",
        -10.507200814411055
      ],
      [
        "(\\pi",
        -10.510186702669
      ],
      [
        "(s,",
        -10.511677830485729
      ],
      [
        "y_n",
        -10.51230033841685
      ],
      [
        "n-1",
        -10.512386764100818
      ],
      [
        "\\frac{3}{2}",
        -10.51524825828236
      ],
      [
        "x^{-1})",
        -10.51561338353472
      ],
      [
        "z^n",
        -10.518072568863673
      ],
      [
        "68",
        -10.518519772203424
      ],
      [
        "a_{i,j}",
        -10.522027477704828
      ],
      [
        "^{-\\frac",
        -10.523253213292003
      ],
      [
        "n_",
        -10.523510162425284
      ],
      [
        "(e_1",
        -10.523990873879775
      ],
      [
        "5-\\sqrt{5}}",
        -10.52400260061522
      ],
      [
        "\\sin^2(x)",
        -10.524032754401532
      ],
      [
        "^{(n-1)}",
        -10.52449859519583
      ],
      [
        "Y_",
        -10.525424214719482
      ],
      [
        "m_",
        -10.528786376073583
      ],
      [
        "div",
        -10.532950191848348
      ],
      [
        "d^n",
        -10.53532075963158
      ],
      [
        "2^{2^",
        -10.53579031264169
      ],
      [
        "_{k+1}",
        -10.536307700214316
      ],
      [
        "(x)}",
        -10.53677259726632
      ],
      [
        "u}",
        -10.537817883661472
      ],
      [
        "r^",
        -10.54078324077006
      ],
      [
        "{n^2}",
        -10.541427301585008
      ],
      [
        "_{eff}",
        -10.544680089599543
      ],
      [
        "{VV}_{min}(\\beta",
        -10.544695682570902
      ],
      [
        "e_\\mu^a(x)",
        -10.544695683721091
      ],
      [
        "\\frac{v^2}{r}",
        -10.544699304976987
      ],
      [
        "q(k+1)}",
        -10.54470043677055
      ],
      [
        "\\left(x-y\\right)",
        -10.544700523134836
      ],
      [
        "Cste",
        -10.544701799296837
      ],
      [
        "[\\phi^\\prime",
        -10.544703694047286
      ],
      [
        "^{\\frac{n-1}{n}}",
        -10.544711129143362
      ],
      [
        "\\frac{7}{16}+",
        -10.54472240067966
      ],
      [
        "_{3,4}",
        -10.544731215624056
      ],
      [
        "\\gamma_{\\alpha_",
        -10.544765458862807
      ],
      [
        "(a+b)^2=a^2+",
        -10.544780591374227
      ],
      [
        "f(z_0)",
        -10.54478203249458
      ],
      [
        "l_2}{l_",
        -10.544802545383138
      ],
      [
        "\\sqrt{a}\\sqrt{b}",
        -10.54480611719602
      ],
      [
        "{v_2}^2",
        -10.544886008468708
      ],
      [
        "d_{2,",
        -10.54489974180664
      ],
      [
        "\\sum_{k=0}^{n-1}",
        -10.544945521976109
      ],
      [
        "\\frac{1}{b-a}",
        -10.544986690711456
      ],
      [
        "f(z)=\\sum_{n=",
        -10.54500948199594
      ],
      [
        "_{vv}",
        -10.545027714671408
      ],
      [
        "^ix^i",
        -10.545051435058792
      ],
      [
        "\\frac{4}{",
        -10.545065038572936
      ],
      [
        "\\frac{1}{16},",
        -10.54506819557188
      ],
      [
        "((-1)^nn",
        -10.545072488887644
      ],
      [
        "R_\\mathrm{",
        -10.54516556502178
      ],
      [
        "\\frac{\\pi",
        -10.545411153795587
      ],
      [
        "\\frac{dy}{dx}",
        -10.545474931943826
      ],
      [
        "^s}+\\frac{1}{",
        -10.545475257567976
      ],
      [
        "\\{A,",
        -10.545575265070914
      ],
      [
        "\\frac{d}{dt}",
        -10.545639908526448
      ],
      [
        "(b",
        -10.545781433091568
      ],
      [
        "(1+i)",
        -10.5461366428745
      ],
      [
        "}-x^{1",
        -10.546183578142958
      ],
      [
        "\\sqrt{g}R",
        -10.546202277647463
      ],
      [
        "\\frac{9}{5}",
        -10.54628458380878
      ],
      [
        "\\sqrt{a^2-b^2}",
        -10.54628903772594
      ],
      [
        "x_1+x_2",
        -10.54644591358178
      ],
      [
        "a_ns_",
        -10.546521576132724
      ],
      [
        "\\cos(2x)",
        -10.546627928689093
      ],
      [
        "g^{ij}",
        -10.546720867818513
      ],
      [
        "}{\\sin",
        -10.546745101368971
      ],
      [
        "_{n-k}",
        -10.54715436232593
      ],
      [
        "F_{",
        -10.54773952302226
      ],
      [
        "+\\ldots+\\alpha_{",
        -10.5482495671413
      ],
      [
        "\\sum_{i=0}^{n-1}",
        -10.548544284303796
      ],
      [
        "z_3+z_",
        -10.548709478754803
      ],
      [
        "[x]{+}",
        -10.548997559390203
      ],
      [
        "e^{it}",
        -10.549270771181169
      ],
      [
        "a_4a_3",
        -10.54934186664658
      ],
      [
        "{d_4}",
        -10.54960794304252
      ],
      [
        "(-1)^{i}",
        -10.549696602180122
      ],
      [
        "n_x^2",
        -10.549729015694744
      ],
      [
        "\\sin(nx)",
        -10.54979703534149
      ],
      [
        "\\sqrt{17}",
        -10.55024079826292
      ],
      [
        "n_0}",
        -10.551190488751642
      ],
      [
        "[S]",
        -10.551256561784813
      ],
      [
        "\\frac{n}{",
        -10.55241264322431
      ],
      [
        "d_i^2",
        -10.552774054533964
      ],
      [
        "\\log(2)",
        -10.552894692639736
      ],
      [
        "L_t",
        -10.553121649529617
      ],
      [
        "y_{i-1}",
        -10.553962295060836
      ],
      [
        "w_{ij}",
        -10.553970397644012
      ],
      [
        "g_{\\alpha}",
        -10.55410980378858
      ],
      [
        "f(a_",
        -10.55420866505169
      ],
      [
        "n_y^2",
        -10.55433979674471
      ],
      [
        "P[x_",
        -10.554768646647348
      ],
      [
        "\\frac{c}{d}",
        -10.55558666996909
      ],
      [
        "X_7",
        -10.556433238598348
      ],
      [
        "8.8",
        -10.556551047186389
      ],
      [
        "\\frac{a}{4}",
        -10.5568850895605
      ],
      [
        "_i(x_i",
        -10.55702821696857
      ],
      [
        "\\frac{k_1",
        -10.55705691693316
      ],
      [
        "x^{11}",
        -10.55721910962641
      ],
      [
        "a_{1})",
        -10.557952173784852
      ],
      [
        "y^2=x^3-",
        -10.559107323143714
      ],
      [
        "\\frac{f",
        -10.559244700342845
      ],
      [
        "v_2",
        -10.55946671291951
      ],
      [
        "53)",
        -10.559946967185784
      ],
      [
        "b_\\mathrm{",
        -10.560813306475984
      ],
      [
        "+1)}{2}",
        -10.560953458046896
      ],
      [
        "1.1",
        -10.561302477200943
      ],
      [
        "^{(k)}",
        -10.562018690445129
      ],
      [
        "4^2",
        -10.562134261535345
      ],
      [
        "k)}(0)",
        -10.56242690276393
      ],
      [
        "4y^2)",
        -10.56294284623363
      ],
      [
        "3x",
        -10.563199873853357
      ],
      [
        "\\frac{\\phi}{2}",
        -10.564260350039255
      ],
      [
        "g(z)",
        -10.565074069884776
      ],
      [
        "}{v}=",
        -10.565208667624944
      ],
      [
        "(l)",
        -10.5656066531522
      ],
      [
        "x^{a+",
        -10.565962221595226
      ],
      [
        "+16",
        -10.566157205559248
      ],
      [
        "g(a)",
        -10.566291633974767
      ],
      [
        "a_6",
        -10.566367513294267
      ],
      [
        "L_1",
        -10.566398503174296
      ],
      [
        "}{9}}",
        -10.56705581305051
      ],
      [
        ",Y)",
        -10.568226794543898
      ],
      [
        "(G)",
        -10.568886695496207
      ],
      [
        "(2-1)",
        -10.5690484572672
      ],
      [
        "f(x_0)",
        -10.569376715748346
      ],
      [
        "a_{cb",
        -10.569400476512042
      ],
      [
        "a_n=",
        -10.56982812608027
      ],
      [
        "w^2",
        -10.570441137805096
      ],
      [
        "x^6-x^",
        -10.570442672334996
      ],
      [
        "f^{\\prime}",
        -10.57051075458505
      ],
      [
        "\\sqrt{21}",
        -10.571268338161293
      ],
      [
        "v_y",
        -10.572447459013484
      ],
      [
        "256^",
        -10.57310617198362
      ],
      [
        "+\\beta_3",
        -10.573183114084216
      ],
      [
        "-\\infty}",
        -10.574990682387275
      ],
      [
        "94)",
        -10.575300669840496
      ],
      [
        "\\sqrt{g}",
        -10.575306857974391
      ],
      [
        "C^1",
        -10.57560371019544
      ],
      [
        "\\}\\{",
        -10.575851983422934
      ],
      [
        "\\frac{x^3}{",
        -10.576253066700271
      ],
      [
        "^{-s}",
        -10.576359686141696
      ],
      [
        "0.6",
        -10.577050127854374
      ],
      [
        "v^2",
        -10.577390127355413
      ],
      [
        "f(x)dx",
        -10.5791902000057
      ],
      [
        "_4",
        -10.579515496926192
      ],
      [
        "999",
        -10.580822188645191
      ],
      [
        "_{i+1}",
        -10.58083510349199
      ],
      [
        "3)^3",
        -10.581134063871596
      ],
      [
        "{n+1}",
        -10.581526108372614
      ],
      [
        "1,0)",
        -10.581552147602116
      ],
      [
        "\\sin^2\\theta",
        -10.581779905404751
      ],
      [
        "(x,",
        -10.582327693820227
      ],
      [
        "\\cos(",
        -10.582691715555296
      ],
      [
        "\\cos(\\frac{\\pi}{",
        -10.582790313040876
      ],
      [
        "(\\beta)",
        -10.583571115732616
      ],
      [
        "-\\alpha",
        -10.584140026935676
      ],
      [
        "x_1x_2",
        -10.584337611156426
      ],
      [
        "\\sqrt{1-",
        -10.584646825543084
      ],
      [
        "c(r)",
        -10.584758274255012
      ],
      [
        "\\cos(\\pi",
        -10.586012765028093
      ],
      [
        "b^p",
        -10.586193429575212
      ],
      [
        "k_2,",
        -10.586559663313066
      ],
      [
        "\\frac{n\\pi}{4}",
        -10.586680661500996
      ],
      [
        "2^{n-1}",
        -10.58784435436966
      ],
      [
        "y+16",
        -10.588300346829376
      ],
      [
        "ac",
        -10.589928007630242
      ],
      [
        "(x+1)",
        -10.590999498905608
      ],
      [
        "1},",
        -10.591325068854728
      ],
      [
        "a_{n+1}",
        -10.593297966840996
      ],
      [
        "V_",
        -10.593391746963588
      ],
      [
        "185)",
        -10.598567888113395
      ],
      [
        "^{k-1}",
        -10.59895426338796
      ],
      [
        "S_2",
        -10.599416270531623
      ],
      [
        "86)",
        -10.5995989054605
      ],
      [
        "1.8",
        -10.600087514406198
      ],
      [
        "\\sum_{i=0}^{",
        -10.60085960007087
      ],
      [
        "X^",
        -10.601281667768085
      ],
      [
        "12)",
        -10.60135280209214
      ],
      [
        "w_",
        -10.602461786863955
      ],
      [
        "\\frac{9}{",
        -10.602730780375698
      ],
      [
        "8.9",
        -10.60355110546652
      ],
      [
        "f(x",
        -10.604422043400822
      ],
      [
        "\\alpha_{1}",
        -10.60499320299678
      ],
      [
        "e_{i_",
        -10.6059646759889
      ],
      [
        "31)",
        -10.608314157508724
      ],
      [
        "r=",
        -10.60917457162568
      ],
      [
        "u+v",
        -10.609322477057152
      ],
      [
        "^\\infty",
        -10.609450206532308
      ],
      [
        "{p_2}",
        -10.60954903030956
      ],
      [
        "^x",
        -10.61044549088449
      ],
      [
        "3x+4",
        -10.61327460237229
      ],
      [
        "l^2",
        -10.61399672004435
      ],
      [
        ")}{2}",
        -10.614476321169612
      ],
      [
        "^p",
        -10.61471300652074
      ],
      [
        "182",
        -10.615293578732423
      ],
      [
        "E,",
        -10.615355585527436
      ],
      [
        "107)",
        -10.616857696499896
      ],
      [
        "124",
        -10.616958259969914
      ],
      [
        "p_3",
        -10.617075754754016
      ],
      [
        "h(t)",
        -10.61839365141682
      ],
      [
        "{p_3}",
        -10.618511006207504
      ],
      [
        "(w)",
        -10.61932765460391
      ],
      [
        "49)",
        -10.620273019040225
      ],
      [
        "SS",
        -10.620977694794776
      ],
      [
        "f(a",
        -10.62181571908543
      ],
      [
        "6a^2",
        -10.623067153873462
      ],
      [
        "b<",
        -10.623609781357056
      ],
      [
        "96)",
        -10.62417559827869
      ],
      [
        "\\sqrt{13}",
        -10.625867233276225
      ],
      [
        "}{q}",
        -10.626357922073954
      ],
      [
        "v(x)",
        -10.626595469399092
      ],
      [
        "i,",
        -10.627058876111173
      ],
      [
        "1}{\\cos^2",
        -10.628075038420562
      ],
      [
        "t^3-",
        -10.628244330022362
      ],
      [
        "a^p",
        -10.630135373872555
      ],
      [
        "\\theta_2=",
        -10.6312793870187
      ],
      [
        "\\frac{1}",
        -10.631385366591523
      ],
      [
        "^0_{",
        -10.632468103088778
      ],
      [
        "^{\\prime}}",
        -10.632849435804893
      ],
      [
        "b^{-1}",
        -10.63329359416479
      ],
      [
        "z=r",
        -10.633598202962451
      ],
      [
        "z^{-1})^",
        -10.63409449596301
      ],
      [
        "(1+",
        -10.634614065768236
      ],
      [
        "(-1)^",
        -10.635143108974724
      ],
      [
        "^2}{2}",
        -10.635321399720391
      ],
      [
        "v_4",
        -10.6353429056517
      ],
      [
        "133)",
        -10.6358319556852
      ],
      [
        "a^2+b^2",
        -10.63643465454546
      ],
      [
        "dt^2",
        -10.63678306125468
      ],
      [
        "134)",
        -10.637760574856769
      ],
      [
        "df",
        -10.637873830458965
      ],
      [
        "x_2]",
        -10.637949401931271
      ],
      [
        "a^{p-",
        -10.638113563835002
      ],
      [
        "_{p",
        -10.638183482979262
      ],
      [
        "c^4",
        -10.638205154691205
      ],
      [
        "bi)",
        -10.638321258638571
      ],
      [
        "j,",
        -10.638886215975434
      ],
      [
        "P_1",
        -10.63963227932089
      ],
      [
        "d^3",
        -10.640526609570356
      ],
      [
        "10)",
        -10.640675178294806
      ],
      [
        "\\beta^2",
        -10.641019400169723
      ],
      [
        "{d_2}",
        -10.641399014988076
      ],
      [
        "\\theta}{2}",
        -10.64161507789404
      ],
      [
        "129)",
        -10.641738064042652
      ],
      [
        "\\right]",
        -10.641781426592836
      ],
      [
        "\\log(",
        -10.642148978167766
      ],
      [
        "e^{-n",
        -10.642242266422882
      ],
      [
        "e_9",
        -10.643582644281372
      ],
      [
        "s_j",
        -10.643830044969382
      ],
      [
        "{p_1}",
        -10.645198608309792
      ],
      [
        "{1}{2}(",
        -10.646458003947677
      ],
      [
        "72)",
        -10.647838548196628
      ],
      [
        "(X^3",
        -10.648858547248569
      ],
      [
        "\\sum_{i=1}^{",
        -10.649043028777292
      ],
      [
        "54)",
        -10.650077847808625
      ],
      [
        "c.",
        -10.650227966775686
      ],
      [
        "91)",
        -10.651964181140468
      ],
      [
        "_{n+1}=",
        -10.652201480680011
      ],
      [
        "\\frac{2\\pi",
        -10.65284210183666
      ],
      [
        "A^{-1}",
        -10.653071875329356
      ],
      [
        "9,",
        -10.655861920952482
      ],
      [
        "i^2",
        -10.65838037121168
      ],
      [
        "\\frac{\\theta}{2}",
        -10.658780201639654
      ],
      [
        "3.5",
        -10.659812661637782
      ],
      [
        "1.4",
        -10.660363773949692
      ],
      [
        "\\frac{1}{9}",
        -10.661380071171733
      ],
      [
        "t_3",
        -10.662569798908484
      ],
      [
        "r_2",
        -10.66261433478385
      ],
      [
        "(k",
        -10.663619188979249
      ],
      [
        "_0(t)",
        -10.6644195211602
      ],
      [
        "dx^1",
        -10.66505989769216
      ],
      [
        ".4",
        -10.665488705666895
      ],
      [
        "_{0}=",
        -10.66581071724104
      ],
      [
        "u(0)",
        -10.667741089654449
      ],
      [
        "k_i",
        -10.66843076069714
      ],
      [
        "(x+y)^2",
        -10.668575723204652
      ],
      [
        "w)",
        -10.66909823169762
      ],
      [
        "\\mu_",
        -10.669140855484972
      ],
      [
        "=(0,",
        -10.669570470415374
      ],
      [
        "122)",
        -10.669700776708266
      ],
      [
        "x_1,",
        -10.672401423093412
      ],
      [
        "a^{-1}",
        -10.67289077166635
      ],
      [
        "C_2",
        -10.673776800761352
      ],
      [
        "1.7",
        -10.674325817236232
      ],
      [
        "x^{4}",
        -10.67594418903479
      ],
      [
        "102)",
        -10.676128214054748
      ],
      [
        "7.1",
        -10.676176186804666
      ],
      [
        "x_5^",
        -10.67669905428022
      ],
      [
        "147)",
        -10.676881214556484
      ],
      [
        "131)",
        -10.67705195853975
      ],
      [
        "196)",
        -10.67761783018184
      ],
      [
        "}{dx}",
        -10.680641190824916
      ],
      [
        "n=3",
        -10.682740880092464
      ],
      [
        "2}}",
        -10.683287523329492
      ],
      [
        "{\\mu}",
        -10.683976097125967
      ],
      [
        "{d_",
        -10.685886549950952
      ],
      [
        "y=x",
        -10.68623742610812
      ],
      [
        "-16",
        -10.686572626395222
      ],
      [
        "}+\\frac{3",
        -10.686986025059014
      ],
      [
        "3x^2",
        -10.68814791674611
      ],
      [
        "\\beta_",
        -10.688426116910096
      ],
      [
        "2^3",
        -10.688859029433804
      ],
      [
        "{50}",
        -10.689012701232103
      ],
      [
        "A,",
        -10.689746119837016
      ],
      [
        "x(1-x)",
        -10.690936867825252
      ],
      [
        "+4c^2",
        -10.691693784912474
      ],
      [
        "f(u)",
        -10.692602078288154
      ],
      [
        "2}{5}",
        -10.692984249906058
      ],
      [
        "8,",
        -10.693570731356568
      ],
      [
        "\\alpha+\\beta",
        -10.69416422018298
      ],
      [
        "XY",
        -10.69454319373834
      ],
      [
        "a^4",
        -10.695131762138708
      ],
      [
        "(1+\\cos",
        -10.695809121809893
      ],
      [
        "\\sqrt{1+x",
        -10.695821390996157
      ],
      [
        "T_",
        -10.696656806778387
      ],
      [
        "\\sum_{k=1}^{n",
        -10.69732427154437
      ],
      [
        "d_{n}",
        -10.69782361799662
      ],
      [
        "110)",
        -10.700509363882382
      ],
      [
        "-2ab",
        -10.701790764482553
      ],
      [
        "18)",
        -10.707001689080291
      ],
      [
        "c^3",
        -10.707829724972818
      ],
      [
        "\\frac{\\beta}{",
        -10.70853076223656
      ],
      [
        "10^{6",
        -10.71021379066718
      ],
      [
        "p^{",
        -10.712842688709989
      ],
      [
        "z+d",
        -10.715129690876635
      ],
      [
        "(1-a",
        -10.715265895952502
      ],
      [
        "{p_n",
        -10.715691793160662
      ],
      [
        "f(z)=",
        -10.716134308663154
      ],
      [
        "\\frac{P_",
        -10.716511010416276
      ],
      [
        "4.4",
        -10.716571638129324
      ],
      [
        "y+c",
        -10.71707017954305
      ],
      [
        "y_5",
        -10.71772183010176
      ],
      [
        "(x_i",
        -10.718740432743264
      ],
      [
        "_j)",
        -10.721819718851687
      ],
      [
        "\\right)^{\\frac{",
        -10.722400468751138
      ],
      [
        "L_",
        -10.723534667215109
      ],
      [
        "\\frac{25",
        -10.723808497683104
      ],
      [
        "i}{2}",
        -10.724481451766328
      ],
      [
        "\\sin{\\theta}",
        -10.727137041667635
      ],
      [
        "}{180}",
        -10.727548483524386
      ],
      [
        "1}{",
        -10.72797091945017
      ],
      [
        "^{ab}",
        -10.728696002105805
      ],
      [
        "{n_1}",
        -10.729746166798392
      ],
      [
        "\\sum_",
        -10.730566731515632
      ],
      [
        "u_2=",
        -10.732136749310625
      ],
      [
        "a=b",
        -10.73371135744096
      ],
      [
        "}{5}",
        -10.733844447507751
      ],
      [
        "_n+i",
        -10.73391051973689
      ],
      [
        "3,",
        -10.736331798264148
      ],
      [
        "45)",
        -10.73644364456082
      ],
      [
        "}^2+x_{",
        -10.737245672050058
      ],
      [
        "d^4",
        -10.737256000037547
      ],
      [
        "-b",
        -10.73761975144206
      ],
      [
        "y(x)",
        -10.739583592117572
      ],
      [
        "\\frac1{",
        -10.740538783238971
      ],
      [
        "(a),",
        -10.74089307368261
      ],
      [
        "\\beta_5",
        -10.745683687012168
      ],
      [
        "a^b",
        -10.747883229713317
      ],
      [
        "=1}^",
        -10.748102422896752
      ],
      [
        "}{x^{2}",
        -10.749176085329642
      ],
      [
        "5x^2",
        -10.749243077987868
      ],
      [
        "\\frac{1}{8",
        -10.749612510048555
      ],
      [
        ",p)",
        -10.750539660327036
      ],
      [
        "R_2",
        -10.753360812725507
      ],
      [
        "4^5",
        -10.754923218176629
      ],
      [
        "x^2=",
        -10.756828138528997
      ],
      [
        "4}}\\left(\\frac{5",
        -10.757032914330477
      ],
      [
        "108",
        -10.757098120912474
      ],
      [
        "(k-1)",
        -10.763587250846172
      ],
      [
        "=\\frac",
        -10.765844089132552
      ],
      [
        "73",
        -10.76635547226468
      ],
      [
        "\\sqrt{-",
        -10.766387339540774
      ],
      [
        "}\\frac{f(x)}{",
        -10.766952087938115
      ],
      [
        "x,",
        -10.767037985820902
      ],
      [
        "_{13}",
        -10.76759641079014
      ],
      [
        "y(r)",
        -10.76963951217463
      ],
      [
        "26)",
        -10.770256760125587
      ],
      [
        "(y)=",
        -10.771110528495845
      ],
      [
        "(u)}{",
        -10.771197241967064
      ],
      [
        "1+",
        -10.771398919694011
      ],
      [
        "32",
        -10.77201703502504
      ],
      [
        ")^4",
        -10.776426155296216
      ],
      [
        "f(0)=",
        -10.7767369188549
      ],
      [
        "b}{c",
        -10.778048242885587
      ],
      [
        "w(",
        -10.778055966416652
      ],
      [
        "\\sqrt{2}}",
        -10.778197408433842
      ],
      [
        "^2}}",
        -10.77982952367194
      ],
      [
        "u_{n",
        -10.780036768813044
      ],
      [
        "(X-",
        -10.78066849648514
      ],
      [
        "k+1",
        -10.780674336812488
      ],
      [
        "+p_",
        -10.78141370667801
      ],
      [
        "7.7",
        -10.78241801884582
      ],
      [
        "ax",
        -10.782855227609751
      ],
      [
        "u_i",
        -10.783622622976925
      ],
      [
        "_{a}",
        -10.785452744712156
      ],
      [
        ",\\beta",
        -10.786709216995655
      ],
      [
        "\\beta^2}",
        -10.787843243996438
      ],
      [
        "(1+x)^{",
        -10.788359823667165
      ],
      [
        "{(",
        -10.78921842594288
      ],
      [
        "q)^2",
        -10.789651277557228
      ],
      [
        "n+1",
        -10.790562779594232
      ],
      [
        "_{n}(x)",
        -10.790609027449923
      ],
      [
        "22",
        -10.790836085196029
      ],
      [
        "5^{",
        -10.792249918355
      ],
      [
        "T)",
        -10.79494406087154
      ],
      [
        "32)",
        -10.795598105871871
      ],
      [
        "112",
        -10.796124368347751
      ],
      [
        "s_i",
        -10.798167822801208
      ],
      [
        "1-x^2",
        -10.798361742756722
      ],
      [
        "-b)",
        -10.798720607080597
      ],
      [
        "p_i=",
        -10.800083682060585
      ],
      [
        "{n-3}",
        -10.800570202751022
      ],
      [
        "0}^{\\infty}",
        -10.800616639480094
      ],
      [
        "z^{n",
        -10.801333493154292
      ],
      [
        "\\frac{1}{\\sqrt{1",
        -10.80147095008677
      ],
      [
        "\\sqrt{\\frac",
        -10.801658685080998
      ],
      [
        "=-\\tan",
        -10.802114515370851
      ],
      [
        "\\cos\\gamma",
        -10.802372818418547
      ],
      [
        "r=\\sqrt{x",
        -10.80458345517934
      ],
      [
        "\\sqrt{y}",
        -10.805884822588414
      ],
      [
        "c_{n+1}",
        -10.807565008354349
      ],
      [
        "x_{",
        -10.807898715294916
      ],
      [
        "{\\theta}",
        -10.80828911469968
      ],
      [
        "_1,\\ldots,",
        -10.81106956749975
      ],
      [
        "x^2+1",
        -10.811247361534033
      ],
      [
        "\\sqrt{3}}{4}",
        -10.81201780496824
      ],
      [
        "(x-b_1)(x-b_",
        -10.813341929190422
      ],
      [
        "{7}{",
        -10.81440246275701
      ],
      [
        "(A",
        -10.814955311278636
      ],
      [
        "-4}{2",
        -10.816055849562098
      ],
      [
        "10^{-1",
        -10.818379517750602
      ],
      [
        "(r_",
        -10.81949547554639
      ],
      [
        "60)",
        -10.820159039313928
      ],
      [
        "u_n=",
        -10.826958618115055
      ],
      [
        "^2+2",
        -10.82772183493284
      ],
      [
        "\\frac{n-1}{",
        -10.828488921588194
      ],
      [
        "n})",
        -10.828986850145418
      ],
      [
        "i=1",
        -10.829067615627396
      ],
      [
        "y_a",
        -10.830100789862014
      ],
      [
        "500",
        -10.83086561674362
      ],
      [
        "_A",
        -10.831661039824032
      ],
      [
        "(1-\\cos",
        -10.83260737705367
      ],
      [
        "x_5",
        -10.832699764328405
      ],
      [
        "(1,",
        -10.833712642941665
      ],
      [
        "35)",
        -10.83390539935356
      ],
      [
        "(0)=0",
        -10.833922094209674
      ],
      [
        "27)",
        -10.834742039573886
      ],
      [
        "00}",
        -10.83548920583832
      ],
      [
        "z^5",
        -10.836142580856942
      ],
      [
        "\\sqrt{21}-1",
        -10.836549604056971
      ],
      [
        "l_2",
        -10.836650229266988
      ],
      [
        "\\cos\\alpha",
        -10.837356357830366
      ],
      [
        "(a-b)^2",
        -10.842342660952614
      ],
      [
        "dy^2",
        -10.844266429223696
      ],
      [
        "\\theta_2",
        -10.845170227947296
      ],
      [
        "k,",
        -10.846769687453769
      ],
      [
        "0,1",
        -10.848655223000216
      ],
      [
        "(k,",
        -10.85055264373548
      ],
      [
        "+c)",
        -10.851165598414184
      ],
      [
        "P^",
        -10.855130441865215
      ],
      [
        "2.2",
        -10.855175444076137
      ],
      [
        "(t_",
        -10.855680634299596
      ],
      [
        "\\theta_0}",
        -10.856279914789804
      ],
      [
        "i})",
        -10.857425969151024
      ],
      [
        "^{p-",
        -10.858605970081486
      ],
      [
        "+2\\sqrt",
        -10.859728838896494
      ],
      [
        "N)",
        -10.85998496500432
      ],
      [
        "(1+\\sqrt",
        -10.860152687637065
      ],
      [
        "(f_1",
        -10.861702444604909
      ],
      [
        "}\\times\\sqrt{2}}",
        -10.862186549857576
      ],
      [
        "t_",
        -10.862445720475442
      ],
      [
        "p_0",
        -10.865757550076529
      ],
      [
        "n(n",
        -10.86598946459821
      ],
      [
        "t_0}",
        -10.86648091947348
      ],
      [
        "_{b}",
        -10.86728278245162
      ],
      [
        "+\\ldots+",
        -10.86748271784138
      ],
      [
        "0}^{2}",
        -10.867899716527305
      ],
      [
        "2(k+n-2)}+\\frac{",
        -10.867994856934509
      ],
      [
        "{d",
        -10.868270800131134
      ],
      [
        "p_X(x)",
        -10.869768875708589
      ],
      [
        "x_n=",
        -10.870979755284797
      ],
      [
        "^y",
        -10.871304040731292
      ],
      [
        "(q)",
        -10.871596960532091
      ],
      [
        "\\frac{a}{b",
        -10.872539755485487
      ],
      [
        "a=\\frac{",
        -10.873269173059336
      ],
      [
        "\\frac{p\\pi}{",
        -10.875097682283815
      ],
      [
        "^2+",
        -10.877042382309916
      ],
      [
        "(x-b)",
        -10.87760801109633
      ],
      [
        "\\frac{h_3",
        -10.877935967498024
      ],
      [
        "|x+y|",
        -10.878285194052594
      ],
      [
        "\\alpha)",
        -10.87973960262391
      ],
      [
        "_0+b",
        -10.881217518955912
      ],
      [
        ")^{2}",
        -10.881500042269511
      ],
      [
        "p^2}",
        -10.881843138422266
      ],
      [
        "=\\int",
        -10.883328943713614
      ],
      [
        "n,",
        -10.884112622411172
      ],
      [
        "\\sin(t)",
        -10.88742114739066
      ],
      [
        "=-1",
        -10.888175328222786
      ],
      [
        "X^4",
        -10.888752915743083
      ],
      [
        "245",
        -10.889496306929232
      ],
      [
        "x_p",
        -10.890103192546151
      ],
      [
        "_{14}",
        -10.890540053364484
      ],
      [
        "\\frac{m}{2}",
        -10.890574909295085
      ],
      [
        "6^3",
        -10.892949061047062
      ],
      [
        "_3)",
        -10.89407099959446
      ],
      [
        "{y}}",
        -10.895658123407264
      ],
      [
        "(c",
        -10.895854685885372
      ],
      [
        "100)",
        -10.897749791953403
      ],
      [
        "\\left[",
        -10.898800000402847
      ],
      [
        "\\frac{n",
        -10.902072933458816
      ],
      [
        "dx=",
        -10.904925934674724
      ],
      [
        "Y^",
        -10.905413153049585
      ],
      [
        "0,0",
        -10.906187730433016
      ],
      [
        "}{8}",
        -10.90666174398477
      ],
      [
        "F_y",
        -10.907364570233533
      ],
      [
        "{2i}",
        -10.911109416365244
      ],
      [
        "=2\\sin",
        -10.912176746603649
      ],
      [
        "720",
        -10.914160971383271
      ],
      [
        "_i)",
        -10.91580405394054
      ],
      [
        ")^{2}}",
        -10.91642076195414
      ],
      [
        "y^n",
        -10.917171489413052
      ],
      [
        "k}}",
        -10.917438166352635
      ],
      [
        "_i^2",
        -10.91755546510463
      ],
      [
        "{4}{3}\\pi",
        -10.918262778585714
      ],
      [
        "\\ldots)",
        -10.918733869782065
      ],
      [
        "n+3",
        -10.920268147999431
      ],
      [
        "(m",
        -10.920842106936751
      ],
      [
        "1}{10}",
        -10.921425254499518
      ],
      [
        "51",
        -10.92176970908734
      ],
      [
        "^{4}",
        -10.922466809659529
      ],
      [
        "{-g}",
        -10.925203162962832
      ],
      [
        "u_{",
        -10.92599263053259
      ],
      [
        "{V",
        -10.929033620710044
      ],
      [
        "_1^2+x_2^2+x_3^2",
        -10.929657135021364
      ],
      [
        "p+1}",
        -10.930204851110894
      ],
      [
        "x^3-1)",
        -10.930222463262933
      ],
      [
        "bc)",
        -10.93271788009305
      ],
      [
        "-4}",
        -10.933242062976165
      ],
      [
        "0+0",
        -10.93325167855817
      ],
      [
        "}{q",
        -10.934168031656313
      ],
      [
        "8.3",
        -10.934678579796625
      ],
      [
        "p=",
        -10.937840368046777
      ],
      [
        "d_n",
        -10.93810283583372
      ],
      [
        "tv",
        -10.938342760743168
      ],
      [
        "^{i}",
        -10.93886507459116
      ],
      [
        "m+1}",
        -10.939723480319682
      ],
      [
        "dX",
        -10.939893781103294
      ],
      [
        "o(",
        -10.9416709333599
      ],
      [
        "(-1",
        -10.94194491639622
      ],
      [
        "^{(1)}",
        -10.943474331101228
      ],
      [
        "f(X",
        -10.94355448066952
      ],
      [
        "\\mathrm{e}",
        -10.94666208255257
      ],
      [
        "\\p",
        -10.947680108215382
      ],
      [
        "-32",
        -10.947726502857815
      ],
      [
        "100}",
        -10.948065133521654
      ],
      [
        "^{i",
        -10.948104454066538
      ],
      [
        "h^{a",
        -10.951280766047464
      ],
      [
        "(i)",
        -10.951912122397196
      ],
      [
        "c_1=",
        -10.959890255717662
      ],
      [
        "4x",
        -10.96054030682563
      ],
      [
        ")^3",
        -10.960593725025454
      ],
      [
        "1+2+",
        -10.962122758093743
      ],
      [
        "{1}{\\sqrt{2}}(",
        -10.962661544604122
      ],
      [
        "_{1})",
        -10.962784085809211
      ],
      [
        "\\frac{dx}{",
        -10.963489084406463
      ],
      [
        "-6",
        -10.96390773063327
      ],
      [
        "{9}{",
        -10.964642999635318
      ],
      [
        "a^{",
        -10.965779272347032
      ],
      [
        "{\\sin",
        -10.965872816092428
      ],
      [
        "b_i",
        -10.967122103989675
      ],
      [
        "\\frac{1}{x-",
        -10.96753429019316
      ],
      [
        "40)",
        -10.968521222330155
      ],
      [
        "}{45}",
        -10.968682514048208
      ],
      [
        "\\sqrt{\\frac{",
        -10.968996580835633
      ],
      [
        "^{2}}",
        -10.970268619691474
      ],
      [
        "X_i",
        -10.970384036269856
      ],
      [
        "1)(x",
        -10.97196365828733
      ],
      [
        "2^{4",
        -10.972222358893076
      ],
      [
        "1,1",
        -10.973089202037642
      ],
      [
        "\\infty}\\frac{",
        -10.973372392399911
      ],
      [
        "\\frac{2n\\pi",
        -10.973389342091348
      ],
      [
        "(u,v)",
        -10.974569202415704
      ],
      [
        "+\\infty",
        -10.975034998763334
      ],
      [
        "\\sqrt{7}}",
        -10.978032231557515
      ],
      [
        "(1+\\sqrt{",
        -10.978764658281746
      ],
      [
        "309",
        -10.980513095960236
      ],
      [
        "_{in}",
        -10.980731074968306
      ],
      [
        "((6",
        -10.980826956719293
      ],
      [
        "{1}{2}\\theta_{",
        -10.98315600127063
      ],
      [
        "f(0)",
        -10.985691793657276
      ],
      [
        "(q",
        -10.985737638653164
      ],
      [
        "n(n+",
        -10.98620328547336
      ],
      [
        "\\frac{\\pi}{6}",
        -10.987251284568616
      ],
      [
        "857",
        -10.987650567875995
      ],
      [
        "-72",
        -10.988550434204912
      ],
      [
        "^{(i)}",
        -10.98893867337691
      ],
      [
        "2n",
        -10.989687951649724
      ],
      [
        "F_x",
        -10.99142209888267
      ],
      [
        "x(t),",
        -10.99157093235604
      ],
      [
        "T_0",
        -10.99468429299984
      ],
      [
        "{18}",
        -10.99477784482512
      ],
      [
        "2bx",
        -10.996982176593184
      ],
      [
        "\\frac{d}{dx}",
        -10.997240290217468
      ],
      [
        "142",
        -10.998071056366602
      ],
      [
        "}{L}",
        -11.002041823799912
      ],
      [
        "\\sum_{j",
        -11.0040922838259
      ],
      [
        "c^{\\frac{1}{n}}",
        -11.004936335903864
      ],
      [
        "(f,",
        -11.00607212113938
      ],
      [
        "{w}",
        -11.006951488968468
      ],
      [
        "$1",
        -11.011171017613613
      ],
      [
        "x\\neq",
        -11.01234716066275
      ],
      [
        "\\sqrt{\\frac{2}{",
        -11.013024781936124
      ],
      [
        "^{n+1}}",
        -11.01351082162194
      ],
      [
        "{p}{q}}",
        -11.013935198258023
      ],
      [
        "m_a",
        -11.014488615927934
      ],
      [
        "q_2",
        -11.014605543835902
      ],
      [
        "dp",
        -11.015257961516957
      ],
      [
        "x=1",
        -11.01534047579204
      ],
      [
        "}{4}",
        -11.015471418514924
      ],
      [
        "(x,y,",
        -11.01620864214441
      ],
      [
        "n=1",
        -11.016750335662556
      ],
      [
        "F^",
        -11.018873175963028
      ],
      [
        "-8",
        -11.01963932772886
      ],
      [
        "-1)^3",
        -11.020357849649129
      ],
      [
        "\\cos(n",
        -11.02241309926871
      ],
      [
        "+\\sqrt{2})",
        -11.02278292304258
      ],
      [
        "00",
        -11.023535379121098
      ],
      [
        "}{9},\\frac",
        -11.023606461453817
      ],
      [
        "_{j}",
        -11.024461203185387
      ],
      [
        "(x-",
        -11.024570313842156
      ],
      [
        "b_g",
        -11.02664664405652
      ],
      [
        "E_1",
        -11.026650502566564
      ],
      [
        "(n+1)(n+2)",
        -11.029260229037796
      ],
      [
        "u_{n_0}",
        -11.03391812550852
      ],
      [
        "n=\\sum_{i=1}^",
        -11.034321770419329
      ],
      [
        "a-b",
        -11.035031892290531
      ],
      [
        "16^{",
        -11.035307309545644
      ],
      [
        "R_1",
        -11.035558209855395
      ],
      [
        "x_{2",
        -11.035646913844817
      ],
      [
        "\\sqrt{b",
        -11.03679329280899
      ],
      [
        "k)=",
        -11.037131983271324
      ],
      [
        "(Y)",
        -11.037242689036908
      ],
      [
        "\\frac{L}{",
        -11.039187314906156
      ],
      [
        "[3]",
        -11.04281033681506
      ],
      [
        "8}{9}",
        -11.043866128070498
      ],
      [
        "^a_{bc}",
        -11.044170615580668
      ],
      [
        "ga)^{4}}{",
        -11.0446748437342
      ],
      [
        "F_y=F_{aya^{-1}}",
        -11.044695682531906
      ],
      [
        "_{t_k}^{t_{k+1}}",
        -11.044695682532328
      ],
      [
        "\\cos(|x|)-1}{|x|",
        -11.04469568253273
      ],
      [
        "O",
        -11.044695682571865
      ],
      [
        "'",
        -11.044695682571865
      ],
      [
        "e^0_{RI}(v^0_R)",
        -11.044695682571865
      ],
      [
        "a^{op}b^{op}=",
        -11.04469568257465
      ],
      [
        "[x^{(4)}]",
        -11.044695682672142
      ],
      [
        "s}c_n(f,s)",
        -11.04469568307445
      ],
      [
        "+\\ldots+C_ny_n",
        -11.044695683520066
      ],
      [
        "(n_1,n_2)",
        -11.044695685194675
      ],
      [
        "p_n(v-u)}",
        -11.044695686808316
      ],
      [
        "\\mathrm{card}(",
        -11.044695686901868
      ],
      [
        "3.0000000",
        -11.04469568782854
      ],
      [
        "^{\\alpha^{k}}-1",
        -11.04469568932934
      ],
      [
        "sqrt{6+\\sqrt{6+\\",
        -11.04469569678214
      ],
      [
        "(p_3+p_4)",
        -11.044695697381492
      ],
      [
        "z_j^{l_",
        -11.044695698869852
      ],
      [
        "(x_a,y_a",
        -11.044695700986187
      ],
      [
        "a_1+27a_3^",
        -11.044695702714208
      ],
      [
        "C^{(q)}_{",
        -11.044695704456412
      ],
      [
        "X^{6789}",
        -11.044695719346777
      ],
      [
        "a,b,c,",
        -11.044695736717976
      ],
      [
        "u^3+v^3",
        -11.044695817301232
      ],
      [
        "(c+2\\sqrt{2}d)",
        -11.044695832761844
      ],
      [
        "P[X]=",
        -11.04469583802344
      ],
      [
        "L_t(dx^\\mu",
        -11.044695848240282
      ],
      [
        "\\frac{d_2}{d_2",
        -11.044695853503132
      ],
      [
        "ka_{i,j}+a_{i,j}",
        -11.04469585683903
      ],
      [
        "z_i^{l_",
        -11.04469588654962
      ],
      [
        "\\frac{a\\pi}{g}}",
        -11.044695922749687
      ],
      [
        "\\frac{n_2}{n_1}",
        -11.044695928715498
      ],
      [
        "^{calc}",
        -11.044696070102756
      ],
      [
        "q_{23}^2)",
        -11.044696172957073
      ],
      [
        "h_{fr}",
        -11.044696280017773
      ],
      [
        "\\frac{2^m5^ka}{",
        -11.044696329445834
      ],
      [
        "-q_{12}^2",
        -11.04469642812544
      ],
      [
        "a_1+\\ldots+a_n}{",
        -11.044696708274955
      ],
      [
        "(n+4r)",
        -11.0446968236404
      ],
      [
        "C_1y_1+C_2y_2",
        -11.044697105344085
      ],
      [
        "2}{x_1}\\right)^2",
        -11.044697192335398
      ],
      [
        "\\sqrt{1517}}{",
        -11.044697414506128
      ],
      [
        "(n-3)}{2}",
        -11.04469757580775
      ],
      [
        "(1+t)^n",
        -11.04469798480306
      ],
      [
        "d_{fr}",
        -11.044698799298088
      ],
      [
        "\\frac{n(n-1)}{2}",
        -11.044699817430033
      ],
      [
        "(x+kp)",
        -11.044699857221172
      ],
      [
        "(2a+b+1)",
        -11.044701207291746
      ],
      [
        "(p^2-q^2)",
        -11.044702169886484
      ],
      [
        "f(x,y_{0}",
        -11.044702671269294
      ],
      [
        "(d+1+n)",
        -11.04470291862382
      ],
      [
        "c_1+c_2",
        -11.044705711379866
      ],
      [
        "(x(xx))",
        -11.044707253445557
      ],
      [
        "d_{tc}",
        -11.044707904234196
      ],
      [
        "dx_1dx_2",
        -11.04470818626525
      ],
      [
        "(r_1-r_",
        -11.044709012290028
      ],
      [
        "0.6617",
        -11.044709862359708
      ],
      [
        "(x_1+b_1",
        -11.04470998875385
      ],
      [
        "-20,6}",
        -11.044712027933803
      ],
      [
        "dB\\left(V",
        -11.044712051155368
      ],
      [
        "{x-10}{1",
        -11.044712361994169
      ],
      [
        "f(b_k)",
        -11.044714331564649
      ],
      [
        "(t))(z-z_",
        -11.044715230210093
      ],
      [
        "-\\frac{4}{16}",
        -11.044719038747145
      ],
      [
        "dx^2_{q+",
        -11.044724850653305
      ],
      [
        "(x_2-x_1)",
        -11.044727465977154
      ],
      [
        "Y_1^{(n)}",
        -11.044729820110522
      ],
      [
        "S_{eff}^",
        -11.044736085727973
      ],
      [
        "n+1)=\\phi(",
        -11.044737267006075
      ],
      [
        "0x^0+k",
        -11.044739070021611
      ],
      [
        "L_{k,",
        -11.044740178194868
      ],
      [
        "\\sqrt{-g_{(",
        -11.044740818852633
      ],
      [
        "(m+1)}{m+",
        -11.044742075315783
      ],
      [
        "d_{q2}",
        -11.044745499123314
      ],
      [
        "\\frac{Y}{Y}",
        -11.04474848705728
      ],
      [
        "E(X)^2",
        -11.04475008086694
      ],
      [
        "[g(x)]",
        -11.044751381539497
      ],
      [
        "a^2}-\\frac{z^2}{",
        -11.04475323496272
      ],
      [
        "e.I",
        -11.044754863687842
      ],
      [
        "\\frac{3k}{k+2}",
        -11.044758026207344
      ],
      [
        "n_1+\\ldots+n_",
        -11.04475962094085
      ],
      [
        "a(v^2)",
        -11.044763300680929
      ],
      [
        "365,2",
        -11.044768706527776
      ],
      [
        "i,j,k",
        -11.044768774117816
      ],
      [
        "(x_1+y_1",
        -11.044769874574094
      ],
      [
        "-16}=\\sqrt{",
        -11.04477814079412
      ],
      [
        "a_{n}=n^{-",
        -11.044779168200511
      ],
      [
        "f^3_2",
        -11.044781114773604
      ],
      [
        "|z_1|^2",
        -11.04478780955905
      ],
      [
        "[ab]",
        -11.04478882195231
      ],
      [
        "\\sqrt{1-e^2}",
        -11.044791051385133
      ],
      [
        "(y_2-y_1)",
        -11.044793347445138
      ],
      [
        "1}+iX_{2",
        -11.044798482159315
      ],
      [
        "y_2y_3",
        -11.044798803786088
      ],
      [
        "^2-225a_",
        -11.044810394288822
      ],
      [
        "v_1v_2",
        -11.04481129635263
      ],
      [
        "\\!\\mathrm{m}^",
        -11.044820288474716
      ],
      [
        "[a(a+b)",
        -11.04482363919056
      ],
      [
        "x^ie_i",
        -11.044824145055246
      ],
      [
        "L_0+L_",
        -11.044830140464892
      ],
      [
        "-2ab\\cos\\gamma",
        -11.044836223413984
      ],
      [
        "8z^7",
        -11.0448366253544
      ],
      [
        "_1}p_2^{",
        -11.044843011829077
      ],
      [
        "e^{i(n-",
        -11.044867398426886
      ],
      [
        "+x^3+x^5=",
        -11.044882667084524
      ],
      [
        "ax^2+bx+c",
        -11.044907926353462
      ],
      [
        ",\\ldots,f_p",
        -11.0449088907769
      ],
      [
        "-\\frac{992",
        -11.04491857754052
      ],
      [
        "{{\\mbox{f}",
        -11.04492572889153
      ],
      [
        "(x-b_2)^3",
        -11.04492712686748
      ],
      [
        "f(1.99",
        -11.044931582191964
      ],
      [
        "f_{bc",
        -11.04494026115364
      ],
      [
        "z^{k+1}",
        -11.044946542208764
      ],
      [
        "(ba)^",
        -11.044979448033803
      ],
      [
        "(s)=\\frac{1}{1+",
        -11.045020439066269
      ],
      [
        "y=f(x,",
        -11.045020777869496
      ],
      [
        "\\frac{dA}{dt}",
        -11.04502205491319
      ],
      [
        ")=(t,",
        -11.045031793281796
      ],
      [
        "\\tan^{3}(x)",
        -11.045035405194088
      ],
      [
        "y_1-a_1",
        -11.04504126270139
      ],
      [
        "L_{1,",
        -11.045057876860044
      ],
      [
        "f(x)=\\sum_{k=1}^",
        -11.045079096652188
      ],
      [
        "i,q_i}",
        -11.045118644270996
      ],
      [
        "})^{2}+(x^{",
        -11.045137867667698
      ],
      [
        "\\sqrt{zw}",
        -11.04513885950594
      ],
      [
        "x_0^2+x_1^",
        -11.045146057275682
      ],
      [
        "(n+4)",
        -11.045172985037803
      ],
      [
        "a_0=",
        -11.045175032506954
      ],
      [
        "^ay^a",
        -11.045193309543794
      ],
      [
        "(6+6)",
        -11.045198585566515
      ],
      [
        "\\frac{4}{24}",
        -11.04522585396558
      ],
      [
        "\\frac{b-a}{n}",
        -11.045231073269264
      ],
      [
        "a^a_{bc}=",
        -11.045231799373235
      ],
      [
        "-\\frac{n}{2}",
        -11.045241832361556
      ],
      [
        "8cz^3",
        -11.04528226797189
      ],
      [
        "\\theta_{d-1}",
        -11.04529314018644
      ],
      [
        "B_{23}",
        -11.045309625153378
      ],
      [
        "r_{0}-",
        -11.045318151373742
      ],
      [
        "n_1+n_2",
        -11.045321347726231
      ],
      [
        "24c^2z",
        -11.045330237823348
      ],
      [
        "|\\frac{\\cos(",
        -11.045338743713438
      ],
      [
        "(z-z_0)",
        -11.045354398410089
      ],
      [
        "aa+bb",
        -11.045354634861935
      ],
      [
        "(z)<y",
        -11.045403264337605
      ],
      [
        "n(k+n",
        -11.045438605625398
      ],
      [
        "\\int\\frac{1}{y}",
        -11.04544006006766
      ],
      [
        "v_{\\phi}",
        -11.045449197941371
      ],
      [
        "\\pi_1(X",
        -11.045470688526738
      ],
      [
        "T/2}",
        -11.045490946866924
      ],
      [
        "4^2+4^",
        -11.04549533465237
      ],
      [
        "\\sqrt[b]{x",
        -11.045500904127294
      ],
      [
        "[A]",
        -11.045610256655614
      ],
      [
        "\\frac{n^2}{2}",
        -11.045634338482191
      ],
      [
        "(q-1)",
        -11.045647002626463
      ],
      [
        "(z-a)^n",
        -11.045659186720837
      ],
      [
        ".B_",
        -11.045664045461002
      ],
      [
        "_{N+1}",
        -11.045702785510768
      ],
      [
        "u_{n+p",
        -11.045720739080643
      ],
      [
        "q_{13}^2",
        -11.045791224953136
      ],
      [
        "g(x_0)",
        -11.04582993166009
      ],
      [
        "{|a_{n+1}",
        -11.04589193790992
      ],
      [
        "p/q",
        -11.045918814028058
      ],
      [
        "\\frac{L}{R_",
        -11.045961952160502
      ],
      [
        "i)(X-",
        -11.045985923730672
      ],
      [
        "1,0,0",
        -11.046057307201382
      ],
      [
        "(b-a)",
        -11.046058379457383
      ],
      [
        "b_1+b_",
        -11.046098401485766
      ],
      [
        "(n+2)^2",
        -11.04613288652204
      ],
      [
        "f(ab^{-1}",
        -11.046139396978951
      ],
      [
        "\\mathrm{C}^{\\",
        -11.046151640542227
      ],
      [
        "(x+3)",
        -11.046151687283189
      ],
      [
        "_{i,n}",
        -11.04616998742757
      ],
      [
        "1}y_{i+1}+\\ldots",
        -11.0461941860276
      ],
      [
        "b_1^{-1}",
        -11.04626893613344
      ],
      [
        "\\sin(x+y)",
        -11.04628932788565
      ],
      [
        "\\frac{d}{d",
        -11.046335948823508
      ],
      [
        "H=H_",
        -11.046376278704315
      ],
      [
        "+7+7+",
        -11.046406881973317
      ],
      [
        "q^d-1",
        -11.046490465470631
      ],
      [
        "u_{n+2}",
        -11.04655402782794
      ],
      [
        "R_t-",
        -11.046562554642026
      ],
      [
        "2,91",
        -11.046572367472027
      ],
      [
        "rall",
        -11.046590429284516
      ],
      [
        "d_{1,",
        -11.046656887895926
      ],
      [
        "x^0x^1x^2x^3x^",
        -11.046660334882892
      ],
      [
        "(j+1)",
        -11.046679663297008
      ],
      [
        "}{3}}+G_{-",
        -11.046689494584236
      ],
      [
        "2||y_",
        -11.046722948642186
      ],
      [
        "{20}x^2",
        -11.046769619745088
      ],
      [
        "+h)-f(",
        -11.046827859258812
      ],
      [
        "1{24}x^",
        -11.046827861472403
      ],
      [
        "S_{xx}",
        -11.046897987296536
      ],
      [
        "135a_6",
        -11.046912675498438
      ],
      [
        "k_{i}}",
        -11.046925382612317
      ],
      [
        "x_1x_2x_3",
        -11.046934624589928
      ],
      [
        "1+1=2",
        -11.046940424380166
      ],
      [
        "2b-96",
        -11.047060404643284
      ],
      [
        "r_{2}-",
        -11.04706119871119
      ],
      [
        "10^{-5}",
        -11.047072822908492
      ],
      [
        "(a-d)",
        -11.047191161388245
      ],
      [
        "\\int_{0}^{1}",
        -11.047389921450302
      ],
      [
        "f_{x_1",
        -11.047428156861349
      ],
      [
        "(x-2)",
        -11.04743568787108
      ],
      [
        "f(v,",
        -11.047440991030555
      ],
      [
        "\\cos\\frac{(a_{0}",
        -11.047446385293576
      ],
      [
        "z=x+i",
        -11.047465045344182
      ],
      [
        "(a-x)",
        -11.04747318895516
      ],
      [
        "(x^2+y^2)",
        -11.047474433975086
      ],
      [
        "_k=t_",
        -11.047539324181514
      ],
      [
        "\\frac{2\\pi}{3}",
        -11.047626739896934
      ],
      [
        "GMr^2",
        -11.047633645429762
      ],
      [
        "\\!\\mathrm{N",
        -11.047666158997083
      ],
      [
        "-p}{\\sqrt{",
        -11.047669546833667
      ],
      [
        "n_z^2",
        -11.047777482686277
      ],
      [
        "\\frac{\\pi^2}{",
        -11.04792439304704
      ],
      [
        "C_{xx}",
        -11.047954836310012
      ],
      [
        "a_{ii}",
        -11.04796821761932
      ],
      [
        "g(z)=z",
        -11.048013054569354
      ],
      [
        "{\\sqrt{2+{\\sqrt{",
        -11.048030902470789
      ],
      [
        "||x||",
        -11.04803165212958
      ],
      [
        "^2+y^2+z^2",
        -11.048110962796482
      ],
      [
        "\\sqrt{b^2-4ac}",
        -11.048159206401502
      ],
      [
        "p(1-p)",
        -11.048217687721555
      ],
      [
        "{1}{P}",
        -11.048223317872903
      ],
      [
        "(p_1,",
        -11.048305348853368
      ],
      [
        "125a_5",
        -11.048367931149404
      ],
      [
        "x_j^p",
        -11.048463832332118
      ],
      [
        "a_{n-1}s_",
        -11.048568157769465
      ],
      [
        "d_{i,j}",
        -11.048575462619214
      ],
      [
        "^2}{2g",
        -11.048625887957511
      ],
      [
        "a_1^{-1}",
        -11.04868425835432
      ],
      [
        "x)-1}{x",
        -11.048758522472108
      ],
      [
        "a_3a_2",
        -11.048812867608486
      ],
      [
        "{1}{E}",
        -11.048901958533149
      ],
      [
        "a^2-2ab",
        -11.04892252098432
      ],
      [
        "^{n-1-i}\\",
        -11.048929178410814
      ],
      [
        "E,F",
        -11.048988691044546
      ],
      [
        "r\\sin\\theta_1",
        -11.048998543821384
      ],
      [
        "(x+2)^3",
        -11.049066729086844
      ],
      [
        "(t-1)",
        -11.049128994844551
      ],
      [
        "k.y(",
        -11.049307535433137
      ],
      [
        "h_",
        -11.049335349440076
      ],
      [
        ")^{-1}",
        -11.049379859168678
      ],
      [
        "\\frac{P}{",
        -11.049386412291827
      ],
      [
        "(n+\\alpha)",
        -11.04963586011954
      ],
      [
        "Y=\\frac{1}{1",
        -11.0496945158576
      ],
      [
        "}{(z-1)",
        -11.049701552852447
      ],
      [
        "(\\alpha_0",
        -11.049755346945007
      ],
      [
        "(d_2-",
        -11.04993126857094
      ],
      [
        "q_a^2",
        -11.050130010186129
      ],
      [
        "+c^4_",
        -11.05013765192855
      ],
      [
        "t^2}",
        -11.05014789797738
      ],
      [
        "x_2(y)",
        -11.05018636068515
      ],
      [
        "\\sin(2\\alpha)",
        -11.050350506773569
      ],
      [
        "b_{k-1}",
        -11.050376224644111
      ],
      [
        "\\frac{7}{6",
        -11.050420156774276
      ],
      [
        "\\sqrt{2}^{\\sqrt",
        -11.050422810956183
      ],
      [
        "T_N",
        -11.050584158867505
      ],
      [
        "f(x_2)",
        -11.05070235670136
      ],
      [
        "u=1-",
        -11.05098218851176
      ],
      [
        "}+\\mathrm{gh}_{",
        -11.051074221513478
      ],
      [
        "\\frac{E}{",
        -11.0511577539727
      ],
      [
        "(r,\\theta",
        -11.051166109030843
      ],
      [
        "f(e_i",
        -11.051198867721936
      ],
      [
        "s_1,\\ldots,s_n",
        -11.051309531468414
      ],
      [
        "b+c}{2}",
        -11.051623306307084
      ],
      [
        "\\phi(n)",
        -11.051913379097464
      ],
      [
        "i_{1}=",
        -11.051955482216568
      ],
      [
        "(a+b+c)",
        -11.052019793678385
      ],
      [
        "p_1^{",
        -11.052070606281095
      ],
      [
        "dx_6",
        -11.052126268252248
      ],
      [
        "(x_1,\\ldots,x_",
        -11.052199995813254
      ],
      [
        "(y-y",
        -11.05225399270253
      ],
      [
        "f}{2R}",
        -11.05227746018052
      ],
      [
        "d_{",
        -11.052395635269349
      ],
      [
        "P(",
        -11.052448740451355
      ],
      [
        "j}",
        -11.05245740109174
      ],
      [
        "_i,p_i",
        -11.052510147936616
      ],
      [
        "5}+3r^{\\",
        -11.05265645149855
      ],
      [
        "\\frac{n}{p",
        -11.05276535011622
      ],
      [
        "{1}{8}",
        -11.053043503712852
      ],
      [
        "-\\frac{1}{4}\\tan",
        -11.053056018565933
      ],
      [
        "\\frac{L}{2}",
        -11.053087475706295
      ],
      [
        "{v_i}{",
        -11.053168157912204
      ],
      [
        "\\mathrm{m}",
        -11.053170960385744
      ],
      [
        "h_{z",
        -11.053196710532209
      ],
      [
        "}{1-r}",
        -11.05331872133408
      ],
      [
        "=-t_2",
        -11.053353723281536
      ],
      [
        "dx^u",
        -11.053487094032375
      ],
      [
        "A^T",
        -11.053601219573236
      ],
      [
        "m_{0}(",
        -11.053737846793435
      ],
      [
        "(1+1+1)",
        -11.053802241720158
      ],
      [
        "^{12}",
        -11.053906984846195
      ],
      [
        "(B",
        -11.054108015666507
      ],
      [
        "t_{b",
        -11.054567087131677
      ],
      [
        "_{t-1}",
        -11.05457677111548
      ],
      [
        "(1+f_",
        -11.054578136724436
      ],
      [
        "^2-2cd",
        -11.054699700508843
      ],
      [
        "u_{n-1})",
        -11.054735606220548
      ],
      [
        "\\mbox{M}_",
        -11.054843829848537
      ],
      [
        "p=\\frac",
        -11.054920987415716
      ],
      [
        "x^8+x^",
        -11.054963767943834
      ],
      [
        "^2d",
        -11.055002469460174
      ],
      [
        "3n^2+",
        -11.055034761754088
      ],
      [
        "p_1+p_2",
        -11.05513188084958
      ],
      [
        "a_{n+2}",
        -11.055169820636902
      ],
      [
        "(x_b)",
        -11.055215556657444
      ],
      [
        "5\\sqrt{7}-",
        -11.055308943963938
      ],
      [
        "g(u)",
        -11.055355941836211
      ],
      [
        "(x+y)-",
        -11.05535733290429
      ],
      [
        "h(X_",
        -11.055359631132252
      ],
      [
        "a^{(1)}",
        -11.0554567942024
      ],
      [
        "f^{(n)}",
        -11.05557232013631
      ],
      [
        "+3=18",
        -11.055598744730505
      ],
      [
        "5625",
        -11.055600467149608
      ],
      [
        "u_{n-2}",
        -11.055722488466968
      ],
      [
        "}{dx^2}",
        -11.055781560611642
      ],
      [
        "1}{n}V(X)",
        -11.055793552968026
      ],
      [
        "3}{15",
        -11.055800966957989
      ],
      [
        "2k+1",
        -11.055833015581024
      ],
      [
        "1x10^",
        -11.055935317411606
      ],
      [
        "9469",
        -11.05594977543931
      ],
      [
        "_{700}",
        -11.055973832997305
      ],
      [
        "e^{\\frac",
        -11.056082834095765
      ],
      [
        "\\infty}^{\\infty}",
        -11.056194188263134
      ],
      [
        "(a_i)",
        -11.056269978434768
      ],
      [
        "m_{n}(",
        -11.05637846124718
      ],
      [
        "(t)-t\\right)dt=",
        -11.056379387367835
      ],
      [
        "r=\\sqrt{y",
        -11.056459832657849
      ],
      [
        "2^{m",
        -11.057102883232258
      ],
      [
        "{\\sum{\\mbox{",
        -11.05713957235369
      ],
      [
        "[4]",
        -11.057172359143568
      ],
      [
        "f^{-1}(x)",
        -11.057179789590563
      ],
      [
        "ds^2=d",
        -11.057454268924149
      ],
      [
        "[c_1",
        -11.057580052035076
      ],
      [
        "8y^3",
        -11.057745397694092
      ],
      [
        "{l+1}",
        -11.05788126456801
      ],
      [
        "\\cos(\\beta)",
        -11.058112754886226
      ],
      [
        "_{uu}",
        -11.058173638995491
      ],
      [
        "box",
        -11.05845913201703
      ],
      [
        "a_2x^2",
        -11.058528103317842
      ],
      [
        "\\sin(2n",
        -11.058690260570357
      ],
      [
        "V_j",
        -11.058742777534851
      ],
      [
        "X^7",
        -11.058800831593834
      ],
      [
        "sum_{i=1}^sl_i^2",
        -11.058896361463049
      ],
      [
        "V_0}",
        -11.058905545003867
      ],
      [
        "z_2+z_",
        -11.05897409113501
      ],
      [
        "(s(X)",
        -11.05900921059937
      ],
      [
        "2x10^",
        -11.059204035174828
      ],
      [
        "\\sin(a)",
        -11.059409943882976
      ],
      [
        "2)}",
        -11.059493190956324
      ],
      [
        "x^4+x^2",
        -11.059620829639863
      ],
      [
        "\\frac{\\alpha^2}{",
        -11.05973125566621
      ],
      [
        "^4+b_1",
        -11.059803767897842
      ],
      [
        "(z-z_",
        -11.060108783551376
      ],
      [
        "\\frac{1}{5",
        -11.06018209923796
      ],
      [
        "\\tan(x)-",
        -11.060248292434803
      ],
      [
        ")^2+(x^",
        -11.060519995567844
      ],
      [
        "c}}",
        -11.06065317543524
      ],
      [
        "x_1(y)",
        -11.060684997795478
      ],
      [
        "(h,",
        -11.060710861302558
      ],
      [
        "n(n+1)(n+2)",
        -11.06071346368521
      ],
      [
        "p_{k}",
        -11.060766007109857
      ],
      [
        "/N)",
        -11.060872622184664
      ],
      [
        "_{i=s+1}^rl_i^2",
        -11.060937179765313
      ],
      [
        "\\infty}u_n",
        -11.06113150754763
      ],
      [
        "n=2^",
        -11.061182389940274
      ],
      [
        "\\frac{a}{c}",
        -11.061235928180418
      ],
      [
        "-675",
        -11.06146733481987
      ],
      [
        "-\\sqrt{2(2",
        -11.06155446186924
      ],
      [
        "^{-1}\\beta)^{",
        -11.061624988767022
      ],
      [
        "7}{38",
        -11.061720524463004
      ],
      [
        "(a+b+1)",
        -11.061734665847435
      ],
      [
        "49.4",
        -11.06191120760629
      ],
      [
        "{7}{9}",
        -11.062142817287649
      ],
      [
        ".G",
        -11.062235064236944
      ],
      [
        "\\frac{1}{25}",
        -11.062413696682151
      ],
      [
        "_n=\\frac{1}{n}",
        -11.062786572233785
      ],
      [
        "_n-q_{n+2}",
        -11.062995381929133
      ],
      [
        "k)x}",
        -11.06304303220131
      ],
      [
        "\\frac{y^2}{",
        -11.063264049421864
      ],
      [
        "V.",
        -11.06344974347703
      ],
      [
        "\\mathrm{M}_",
        -11.063554742781106
      ],
      [
        "\\gamma^{5}",
        -11.063895679232331
      ],
      [
        "=f(x_i",
        -11.06393275129815
      ],
      [
        "}{dt^2}=",
        -11.064006996268535
      ],
      [
        "1)(",
        -11.064102195021668
      ],
      [
        "(x^{11})=",
        -11.06436367116824
      ],
      [
        "(3x)=",
        -11.064453591367773
      ],
      [
        "E[X",
        -11.064544742651265
      ],
      [
        "{xy}C",
        -11.06476397977744
      ],
      [
        "10^{-p",
        -11.064868273092168
      ],
      [
        "SSA",
        -11.064940704484812
      ],
      [
        "-56",
        -11.065152302368418
      ],
      [
        "f(p)",
        -11.065240482560926
      ],
      [
        "6+6",
        -11.0654020443039
      ],
      [
        "_1^3=",
        -11.0654254763825
      ],
      [
        "{v^2}{",
        -11.066073903033043
      ],
      [
        "\\cos[(n-",
        -11.066118744005374
      ],
      [
        "L(S)",
        -11.066305005517606
      ],
      [
        "_p(x)=",
        -11.06707698493778
      ],
      [
        "0,id",
        -11.06711246795491
      ],
      [
        "h(\\theta)",
        -11.06724686956611
      ],
      [
        "\\tan^{2}(x)",
        -11.067483359308566
      ],
      [
        "}{4x^2}",
        -11.068068188891322
      ],
      [
        "y}e_",
        -11.06837654200664
      ],
      [
        "(v_x",
        -11.06848060398858
      ],
      [
        "(0,y)",
        -11.068627638448245
      ],
      [
        "h(x)=",
        -11.06871067678105
      ],
      [
        ")^2(x-b_3)^",
        -11.068751909371448
      ],
      [
        "L_m",
        -11.068979269779138
      ],
      [
        "q_j",
        -11.06913298237679
      ],
      [
        "X_8",
        -11.069399509118025
      ],
      [
        "10^{20",
        -11.069455643652317
      ],
      [
        "b-c)",
        -11.069484070048574
      ],
      [
        "\\frac{e}{f}",
        -11.06975468332809
      ],
      [
        "(x)=\\frac{1}{",
        -11.07021420805482
      ],
      [
        "\\theta_1,\\ldots,",
        -11.070388109705943
      ],
      [
        "8.0",
        -11.0703937197059
      ],
      [
        "e_{(x",
        -11.070506254259165
      ],
      [
        "\\gamma^0",
        -11.07070143056243
      ],
      [
        "q(x)=x_1",
        -11.070706148747242
      ],
      [
        "\\frac{v^2}{c^2}}",
        -11.07151891153624
      ],
      [
        "2)(x-b_3)(x-b_4)",
        -11.071579463134416
      ],
      [
        "(y-y_0)",
        -11.071742658995564
      ],
      [
        "x,y,z,t",
        -11.071861281095362
      ],
      [
        "a^L_",
        -11.072121218638358
      ],
      [
        "\\frac{1+\\sqrt",
        -11.072382223381435
      ],
      [
        "_i=d",
        -11.072426810146691
      ],
      [
        "a^{b^",
        -11.072932354499905
      ],
      [
        "+8-8",
        -11.073400098534368
      ],
      [
        "{{\\cdots+",
        -11.073483147318935
      ],
      [
        "a}{\\sin",
        -11.073601938659856
      ],
      [
        "y_7",
        -11.073949840106184
      ],
      [
        "5a_4+",
        -11.074096813278832
      ],
      [
        "(xx)",
        -11.07460814587609
      ],
      [
        "x_ip_i^",
        -11.07460916209268
      ],
      [
        "(5,",
        -11.074739479528365
      ],
      [
        "_1+\\frac{1}{3}",
        -11.074779505099883
      ],
      [
        "{|a_n|}",
        -11.07537117065536
      ],
      [
        "n_{2}}{",
        -11.0759393867137
      ],
      [
        "u(b)",
        -11.07594872564264
      ],
      [
        "\\mbox{S}^",
        -11.07617926726552
      ],
      [
        "-x^8",
        -11.07697995494882
      ],
      [
        "(nx)",
        -11.076996081936716
      ],
      [
        "\\sum_p",
        -11.07703985567046
      ],
      [
        "{jl}",
        -11.0771382278037
      ],
      [
        "_2,\\ldots,",
        -11.077437535153084
      ],
      [
        "0.05",
        -11.077489470720243
      ],
      [
        "\\frac{T_",
        -11.077583528079932
      ],
      [
        "p_{i}",
        -11.077842462932564
      ],
      [
        "{\\sqrt{3}+1}",
        -11.07789969916798
      ],
      [
        "\\frac{1}{3!}",
        -11.077970625709575
      ],
      [
        "p(X)=",
        -11.078138661665982
      ],
      [
        "\\mbox{T}^",
        -11.078365488263492
      ],
      [
        "f(u_",
        -11.078625547289413
      ],
      [
        "|z_2|^2",
        -11.078803887891969
      ],
      [
        "2^{6",
        -11.078873312658953
      ],
      [
        "y^{",
        -11.07897900513655
      ],
      [
        "-227",
        -11.07940498144032
      ],
      [
        "g(b)",
        -11.07945508695538
      ],
      [
        "y-y_0",
        -11.079707660033936
      ],
      [
        "37.0",
        -11.079783875761294
      ],
      [
        "u^2",
        -11.080191751580356
      ],
      [
        "i\\sqrt{n}",
        -11.080832840326847
      ],
      [
        "6.0",
        -11.081223641926943
      ],
      [
        "{\\alpha}",
        -11.081460074982802
      ],
      [
        "7,7",
        -11.08155833987126
      ],
      [
        "(x_{i}",
        -11.08176032485223
      ],
      [
        "p^{\\alpha",
        -11.081763036452024
      ],
      [
        "e^{u",
        -11.081774791301283
      ],
      [
        "X^{-1}",
        -11.08185491088341
      ],
      [
        "(z_n)",
        -11.081977845634857
      ],
      [
        "\\frac{y_2",
        -11.082621043275225
      ],
      [
        "6049",
        -11.082890260258392
      ],
      [
        "5^5",
        -11.083027959422026
      ],
      [
        "x^5+x",
        -11.08358323097585
      ],
      [
        "\\mu_0",
        -11.08407201396243
      ],
      [
        "}\\neq\\sum{",
        -11.084072974181788
      ],
      [
        "u_{n_0}-",
        -11.084233561453054
      ],
      [
        "(n+1)^2",
        -11.084461240679746
      ],
      [
        "^1_0",
        -11.084621185407958
      ],
      [
        "A.",
        -11.084704140665568
      ],
      [
        "^{\\prime}(t)",
        -11.08473437244446
      ],
      [
        "(p_1",
        -11.08500277301366
      ],
      [
        "17})",
        -11.085439549868152
      ],
      [
        "\\sqrt{f}",
        -11.085702774150924
      ],
      [
        "^2y+a",
        -11.085872120149665
      ],
      [
        "c-j",
        -11.086016272664786
      ],
      [
        "c^{\\frac{1}{n}}|",
        -11.086057632602156
      ],
      [
        "g(X)",
        -11.086477995411014
      ],
      [
        "f^{(",
        -11.086709199366902
      ],
      [
        "2^{2^{",
        -11.086802794943177
      ],
      [
        "_{12}=",
        -11.087114456358446
      ],
      [
        "\\right)^",
        -11.087255055067228
      ],
      [
        "t-s",
        -11.087623319586625
      ],
      [
        "f(x_{n-",
        -11.087861943431529
      ],
      [
        "(73)",
        -11.0879277833614
      ],
      [
        "307",
        -11.088117447679997
      ],
      [
        "3N-",
        -11.08814735585598
      ],
      [
        "\\sqrt{21})x",
        -11.088218593637784
      ],
      [
        "29)",
        -11.088692827950965
      ],
      [
        "8-9",
        -11.088858705287342
      ],
      [
        "t^3-t",
        -11.08944433410216
      ],
      [
        ")\\;",
        -11.08978606819675
      ],
      [
        "n^2-n",
        -11.090233104976162
      ],
      [
        "\\sqrt{3})",
        -11.090727342681385
      ],
      [
        "t})^2}",
        -11.091026766959365
      ],
      [
        "3^6",
        -11.09130067278518
      ],
      [
        "x_2x_3",
        -11.091772009226611
      ],
      [
        "41",
        -11.091786398918597
      ],
      [
        "4_a",
        -11.091806101090608
      ],
      [
        "z)/z",
        -11.091901423551132
      ],
      [
        "3.1.",
        -11.092155315409087
      ],
      [
        "{p-1}",
        -11.092346825765617
      ],
      [
        "m_{ij}",
        -11.09315786136693
      ],
      [
        "2)(9",
        -11.093280939783144
      ],
      [
        "(1-p)",
        -11.093624929219276
      ],
      [
        "\\mathrm{P_",
        -11.093706915705845
      ],
      [
        "a_g",
        -11.093752261450833
      ],
      [
        "5,0.",
        -11.09387735862069
      ],
      [
        "v_y^2",
        -11.094040773642702
      ],
      [
        "3}{4}x",
        -11.0941754525519
      ],
      [
        "h^{-1}",
        -11.094306623131931
      ],
      [
        "10a_5a_",
        -11.094420106996138
      ],
      [
        "Y^a",
        -11.094424791404029
      ],
      [
        "0.77",
        -11.094768334231688
      ],
      [
        ",\\ldots,\\alpha_{",
        -11.09489380773106
      ],
      [
        "[\\cos(",
        -11.095202340508814
      ],
      [
        "{60}",
        -11.09522412100835
      ],
      [
        "{A_{max}-A",
        -11.09544739688298
      ],
      [
        "\\frac{dv}{",
        -11.095785530202988
      ],
      [
        "707",
        -11.09584927678938
      ],
      [
        "\\left(x\\right)",
        -11.095960997502113
      ],
      [
        "\\frac{a}{p",
        -11.09601982039172
      ],
      [
        "\\pi/14)\\",
        -11.09636843501693
      ],
      [
        "_n=o(",
        -11.096461472939616
      ],
      [
        "e^v",
        -11.096576827829342
      ],
      [
        "B_1",
        -11.09709937683735
      ],
      [
        "b^{p-",
        -11.097408398750757
      ],
      [
        "/3,",
        -11.09759357818196
      ],
      [
        "1.9",
        -11.097733149733806
      ],
      [
        "x_{LL}",
        -11.09824047532872
      ],
      [
        "\\alpha_{x",
        -11.09846279667427
      ],
      [
        "-\\beta_",
        -11.098718112268898
      ],
      [
        "i\\sin(x)",
        -11.09913231439113
      ],
      [
        "frac{d}{dx}f(x)=",
        -11.099238293376535
      ],
      [
        "}}}}",
        -11.099287019749378
      ],
      [
        "\\beta_{2}",
        -11.099582330823829
      ],
      [
        "g_n",
        -11.100003394709754
      ],
      [
        "{f_2}{",
        -11.100167084387929
      ],
      [
        "a_1\\ldots",
        -11.100305988289865
      ],
      [
        "a^{n-1}",
        -11.10087278661689
      ],
      [
        "X^6",
        -11.100888946769498
      ],
      [
        "T^2}",
        -11.101014442688944
      ],
      [
        "_{ik}",
        -11.101489606150515
      ],
      [
        "=b-a",
        -11.101545939604067
      ],
      [
        "\\frac{p}{1-",
        -11.101708931655782
      ],
      [
        "{1}+1_{2}+1_{3}+",
        -11.10180566234099
      ],
      [
        "d_x",
        -11.101926730776256
      ],
      [
        "}s^{",
        -11.102371214938064
      ],
      [
        "}{k+2}",
        -11.102444806385469
      ],
      [
        "3a_1a_2a_",
        -11.102672466313416
      ],
      [
        "4\\times4+4",
        -11.10274700987581
      ],
      [
        "X_6",
        -11.10397852655621
      ],
      [
        "4_b",
        -11.10407611934668
      ],
      [
        "+a^{2}}",
        -11.104076311476463
      ],
      [
        "r_b",
        -11.10416381104707
      ],
      [
        "h(y)",
        -11.104289889025289
      ],
      [
        "T_{m",
        -11.10464777476929
      ],
      [
        "a}{b}",
        -11.105437010054882
      ],
      [
        "alpha_{2}",
        -11.10548943915522
      ],
      [
        "{100}",
        -11.10585046428398
      ],
      [
        "\\alpha-2}",
        -11.106887887706764
      ],
      [
        "\\{I",
        -11.107096093153118
      ],
      [
        "M_2}",
        -11.107140683774738
      ],
      [
        "\\sqrt{n_",
        -11.107805690279488
      ],
      [
        "{\\prime}",
        -11.107939996998445
      ],
      [
        "h^{b",
        -11.108000564191943
      ],
      [
        "ax^4+",
        -11.10866593699847
      ],
      [
        "\\theta(p",
        -11.108780215660571
      ],
      [
        "(-a)\\times",
        -11.10881398941716
      ],
      [
        "k_2}{2}}",
        -11.108919547552606
      ],
      [
        "T(x)",
        -11.108942298861406
      ],
      [
        "\\frac{y}{",
        -11.109051529427012
      ],
      [
        "e^{-w",
        -11.10916355342459
      ],
      [
        "\\!\\mathrm{",
        -11.110104333047651
      ],
      [
        "\\log_cb",
        -11.110465637487682
      ],
      [
        "f^3_3",
        -11.110506089027789
      ],
      [
        "{1}{2}\\theta_{1",
        -11.110771999360365
      ],
      [
        "{g_2^3",
        -11.110943076560662
      ],
      [
        "n+1)",
        -11.111462725387378
      ],
      [
        "f^{(i",
        -11.11151248325782
      ],
      [
        "r(\\theta)",
        -11.111548493208243
      ],
      [
        "h(a)",
        -11.111665957961533
      ],
      [
        "0,12",
        -11.11219420460518
      ],
      [
        "H_3",
        -11.112716443058313
      ],
      [
        "5757",
        -11.113312955303282
      ],
      [
        "(\\cos(x)",
        -11.113729285164574
      ],
      [
        "d^2x",
        -11.114521276815994
      ],
      [
        "\\mbox{T}_",
        -11.11557503460824
      ],
      [
        "f_o(",
        -11.115705203026788
      ],
      [
        "v}",
        -11.115757728766036
      ],
      [
        "{moy}",
        -11.11584165855838
      ],
      [
        "-90",
        -11.1160761215777
      ],
      [
        "bc",
        -11.11616836280653
      ],
      [
        "+\\alpha_{i",
        -11.116937056272
      ],
      [
        "a(p)",
        -11.117307417849329
      ],
      [
        "X_0^",
        -11.11732153226625
      ],
      [
        "\\frac{1}{2\\pi}",
        -11.11824886138708
      ],
      [
        ")=a\\sin(",
        -11.118301208615677
      ],
      [
        ",\\theta_",
        -11.11835251572345
      ],
      [
        "e^{\\frac{-",
        -11.118587172864707
      ],
      [
        "B)",
        -11.118695932780518
      ],
      [
        "w_1",
        -11.119011465250692
      ],
      [
        "e^{X}",
        -11.11925478548536
      ],
      [
        "\\sqrt{a}}",
        -11.119920359211015
      ],
      [
        "(u,v)=",
        -11.120364428052213
      ],
      [
        "(r)=",
        -11.120752456397646
      ],
      [
        "^{n_",
        -11.120908024033174
      ],
      [
        "6,8",
        -11.121627632676317
      ],
      [
        "r_a",
        -11.12180803648025
      ],
      [
        "{d-1}",
        -11.121845083459377
      ],
      [
        "}{2}+\\frac{1}{2}",
        -11.121901575469094
      ],
      [
        "R_3",
        -11.12198121118502
      ],
      [
        "\\frac{(-1)^n}",
        -11.122276604961607
      ],
      [
        "x}{x",
        -11.122678710495492
      ],
      [
        "1-\\sqrt{1",
        -11.122887785633491
      ],
      [
        "(1-x)^",
        -11.122973692747331
      ],
      [
        "_n(f)",
        -11.123387745178745
      ],
      [
        "w^2=",
        -11.123654891277964
      ],
      [
        "-x",
        -11.124179136559516
      ],
      [
        "w_k",
        -11.124237587198788
      ],
      [
        "l+1)",
        -11.124505443407664
      ],
      [
        "(-1)^{a",
        -11.124636474970794
      ],
      [
        "o_i",
        -11.124651250260431
      ],
      [
        "=x_0",
        -11.124783510249094
      ],
      [
        "u_{xx",
        -11.124962597468029
      ],
      [
        "k_B",
        -11.124965034219528
      ],
      [
        "6x^3",
        -11.125085323046894
      ],
      [
        "f_{i}",
        -11.125211540907076
      ],
      [
        "+z^2)",
        -11.12530616193092
      ],
      [
        ",j}",
        -11.12572488422598
      ],
      [
        "q.",
        -11.126207214213972
      ],
      [
        "x^{4",
        -11.126224502320929
      ],
      [
        "2,7",
        -11.12631408788041
      ],
      [
        "z-z_0",
        -11.127761571813934
      ],
      [
        "\\sqrt{2})}",
        -11.128116360062045
      ],
      [
        "\\sqrt{3}}{3",
        -11.129500329842546
      ],
      [
        "^2a_2",
        -11.129716190635648
      ],
      [
        "\\frac{2n\\pi}{",
        -11.13096046183933
      ],
      [
        "=f(",
        -11.13146909560467
      ],
      [
        "{P_{v",
        -11.131806884201772
      ],
      [
        "_g^{-1}",
        -11.132933503284873
      ],
      [
        "(-5)",
        -11.132943217808307
      ],
      [
        "5}{5",
        -11.133198777933725
      ],
      [
        "b_0)",
        -11.13415568539471
      ],
      [
        "530",
        -11.134262210900156
      ],
      [
        "f(u",
        -11.134341935475389
      ],
      [
        "{G}",
        -11.13443081625188
      ],
      [
        "(w)=",
        -11.134738340298576
      ],
      [
        "(b,",
        -11.134744388188269
      ],
      [
        "\\frac{G_{",
        -11.135354612071731
      ],
      [
        "g(v,",
        -11.135726899868498
      ],
      [
        "{x_{i+1}}",
        -11.136249044496132
      ],
      [
        "x_7^2",
        -11.13628808217414
      ],
      [
        "{i}}",
        -11.136746231920933
      ],
      [
        "a_1b_",
        -11.1368284246163
      ],
      [
        "{56}",
        -11.13704407828849
      ],
      [
        "+b_",
        -11.137140700513417
      ],
      [
        "a\\times",
        -11.137317401945896
      ],
      [
        "+1^3",
        -11.138203402632715
      ],
      [
        "8.2",
        -11.1382293150176
      ],
      [
        "(73",
        -11.138818686227182
      ],
      [
        "68)",
        -11.138869876107057
      ],
      [
        "y^{2}-4",
        -11.13994228746758
      ],
      [
        "r=\\sqrt{",
        -11.140209731532495
      ],
      [
        "\\pm\\sqrt{3}",
        -11.140242825049985
      ],
      [
        "\\sum_{n=1}^{10",
        -11.1403679733664
      ],
      [
        "09.",
        -11.140851095743528
      ],
      [
        "_{-n}",
        -11.141481158264728
      ],
      [
        "191)",
        -11.14175234205648
      ],
      [
        "\\sqrt{h}",
        -11.141799065649522
      ],
      [
        "+y^3+",
        -11.141950817938
      ],
      [
        "VT",
        -11.142280506024315
      ],
      [
        "EI",
        -11.142520684327856
      ],
      [
        "86.",
        -11.143519319154976
      ],
      [
        "\\sqrt{1-x",
        -11.143695113928349
      ],
      [
        "(c_n",
        -11.14378995474778
      ],
      [
        "{\\sqrt{2}}",
        -11.143940294878552
      ],
      [
        "^{m+1}",
        -11.144405005132976
      ],
      [
        "\\sum_b",
        -11.144446455559269
      ],
      [
        "1{n-1}",
        -11.14459722464372
      ],
      [
        "b_2)",
        -11.1447065166742
      ],
      [
        "S_{n-",
        -11.144879322432038
      ],
      [
        "=\\frac{a",
        -11.144927859975436
      ],
      [
        "\\mbox{C}",
        -11.145430058103242
      ],
      [
        "^j",
        -11.146718042831033
      ],
      [
        "1.5",
        -11.146773622459984
      ],
      [
        "\\frac{e^{-",
        -11.14682413700615
      ],
      [
        "1-t^n}{",
        -11.147601863933774
      ],
      [
        "_i=\\sin",
        -11.147966894925547
      ],
      [
        "x_1^2+",
        -11.14815229390058
      ],
      [
        "f(1)",
        -11.149078625874273
      ],
      [
        "a(u)",
        -11.15143425603639
      ],
      [
        "(Y)(",
        -11.151496581514348
      ],
      [
        "k-1)}{",
        -11.15168131340827
      ],
      [
        "10.6",
        -11.151843655607196
      ],
      [
        "{m_1}",
        -11.152522990975458
      ],
      [
        "\\log_{a}x",
        -11.153856394114344
      ],
      [
        "u_{p",
        -11.15391823732292
      ],
      [
        "x+1}{x",
        -11.154047979991264
      ],
      [
        "\\sin(\\pi",
        -11.15482222959336
      ],
      [
        "a+c",
        -11.15490214982377
      ],
      [
        "y(t))",
        -11.155167555184889
      ],
      [
        "\\sum_{b",
        -11.15603666596307
      ],
      [
        "(T)",
        -11.156267832745206
      ],
      [
        "\\mathrm{e}^{",
        -11.156275165881324
      ],
      [
        "39)",
        -11.156314047523171
      ],
      [
        "x+",
        -11.15646584600672
      ],
      [
        "=\\frac{1}{2}(",
        -11.1571666481038
      ],
      [
        "38}}",
        -11.157195295012174
      ],
      [
        "^{m-1}",
        -11.15769245572239
      ],
      [
        "\\pi)",
        -11.158652227597168
      ],
      [
        "_1,\\ldots,\\pi_g",
        -11.159000836755514
      ],
      [
        "(x(t),",
        -11.159011304816282
      ],
      [
        "^{\\mu}",
        -11.159314963522156
      ],
      [
        "98)",
        -11.159935782531669
      ],
      [
        "E(",
        -11.160085759702168
      ],
      [
        "b^2}",
        -11.16013289665514
      ],
      [
        "117)",
        -11.160184188804042
      ],
      [
        "e^a",
        -11.16022467509233
      ],
      [
        "n_c",
        -11.16047469007466
      ],
      [
        "x_s(t)",
        -11.160714732573831
      ],
      [
        "\\sin(a+b)",
        -11.161095714677082
      ],
      [
        "(-5)^2",
        -11.161353182837903
      ],
      [
        "^{\\alpha_{",
        -11.161494538047773
      ],
      [
        "_{x_i}",
        -11.162150729114783
      ],
      [
        "v_z",
        -11.162230323729238
      ],
      [
        "+\\beta_2",
        -11.162512815379293
      ],
      [
        "2^{17",
        -11.162730240171836
      ],
      [
        ".R",
        -11.162983129751945
      ],
      [
        "(a_2",
        -11.163035858532416
      ],
      [
        "x_i=",
        -11.163294882165678
      ],
      [
        "=-\\frac{",
        -11.163482239662589
      ],
      [
        "_k=\\frac{",
        -11.163791623491752
      ],
      [
        "142)",
        -11.164131259274331
      ],
      [
        "v_p(",
        -11.164328023748634
      ],
      [
        "\\log_c(",
        -11.16463817607907
      ],
      [
        "\\tan^2",
        -11.165379404055656
      ],
      [
        "\\right)\\left(",
        -11.165767037137126
      ],
      [
        "i_",
        -11.166056525050044
      ],
      [
        "p_1=",
        -11.16643163250791
      ],
      [
        "x^{2j+2}",
        -11.16644682234007
      ],
      [
        "r^2\\sin",
        -11.166592713750292
      ],
      [
        "T_{f",
        -11.16671055057641
      ],
      [
        "A^a",
        -11.166899548839856
      ],
      [
        "s_k",
        -11.167488064290074
      ],
      [
        "83)",
        -11.167654350112322
      ],
      [
        "\\sin(\\theta_",
        -11.168223906340334
      ],
      [
        "z_0",
        -11.168568871646723
      ],
      [
        ",y)",
        -11.168734824710452
      ],
      [
        "m^{3}}{",
        -11.169161289717414
      ],
      [
        "91",
        -11.17028005339802
      ],
      [
        "=\\sum_{k=",
        -11.170402695249502
      ],
      [
        "\\pi_0",
        -11.170503072487374
      ],
      [
        "\\cos(\\theta_0)",
        -11.171781782157906
      ],
      [
        "-b^n",
        -11.172160330667475
      ],
      [
        "1-\\sin^2(x)",
        -11.172193773775538
      ],
      [
        "5x^4",
        -11.172383031098237
      ],
      [
        "^{tv",
        -11.17239936510032
      ],
      [
        "}t^4}",
        -11.172748852863828
      ],
      [
        "f_{o}",
        -11.173073671831414
      ],
      [
        "\\frac{a_n",
        -11.173232604242555
      ],
      [
        "x||",
        -11.173390590560848
      ],
      [
        "})^2+(y^{+",
        -11.17449283111486
      ],
      [
        "}{2\\sin\\theta}",
        -11.174550327805356
      ],
      [
        "i-1}",
        -11.174919347454184
      ],
      [
        "\\theta,",
        -11.17560038306264
      ],
      [
        "(t)-a",
        -11.175887242960265
      ],
      [
        "C_{",
        -11.17590768619548
      ],
      [
        "f(y)=",
        -11.17698310820372
      ],
      [
        ".2",
        -11.177244521038512
      ],
      [
        "a_{ij}",
        -11.178662353453346
      ],
      [
        "\\frac{1}{g}",
        -11.178688118710197
      ],
      [
        "\\frac{\\pi}{",
        -11.178844373434258
      ],
      [
        "y^4=(x-b_1)^",
        -11.179142728608657
      ],
      [
        "\\frac{1}{1+",
        -11.179335394402102
      ],
      [
        "(y,z)",
        -11.179791307117272
      ],
      [
        "R,",
        -11.179825218183415
      ],
      [
        "Y,",
        -11.179837516239488
      ],
      [
        "\\beta_1",
        -11.181261977256527
      ],
      [
        "+(-x)",
        -11.18130759618277
      ],
      [
        "46)",
        -11.181711226853682
      ],
      [
        "\\mbox{V}}",
        -11.182362691842876
      ],
      [
        "\\frac{\\sqrt",
        -11.182671816280738
      ],
      [
        "PE",
        -11.185025447444875
      ],
      [
        "2+\\ldots",
        -11.185667886843436
      ],
      [
        "\\right)}",
        -11.18727830544821
      ],
      [
        "}{n^s}",
        -11.187993840327538
      ],
      [
        "-\\frac{t}{",
        -11.188342480092352
      ],
      [
        "{20}",
        -11.188451111378653
      ],
      [
        "}{16}",
        -11.188451149205628
      ],
      [
        "Y=X",
        -11.188864675068231
      ],
      [
        "-\\frac{1}{3},",
        -11.189636413917617
      ],
      [
        "(y_1",
        -11.19029390559593
      ],
      [
        "C_p",
        -11.19049575097856
      ],
      [
        "94",
        -11.191207918652934
      ],
      [
        "I_{1_{m",
        -11.191442185448947
      ],
      [
        "1/4}",
        -11.19203082687783
      ],
      [
        "[0,",
        -11.192167242178948
      ],
      [
        "}+(-1)^{",
        -11.192438919089716
      ],
      [
        "(3x^3-",
        -11.1925614552151
      ],
      [
        "c-a",
        -11.192676732864902
      ],
      [
        "f(x,y)=",
        -11.193344809511432
      ],
      [
        "8.6",
        -11.196056410830623
      ],
      [
        "g_1",
        -11.19760118562924
      ],
      [
        "p_y",
        -11.198514926165842
      ],
      [
        ".9",
        -11.198576117089315
      ],
      [
        "}^{a}",
        -11.198855047423228
      ],
      [
        "^2-2",
        -11.199037911122796
      ],
      [
        "a_1\\",
        -11.19918652851627
      ],
      [
        "{u\\",
        -11.200897877175624
      ],
      [
        "N_0",
        -11.201128380229315
      ],
      [
        "(\\alpha_{1},\\",
        -11.202297309755156
      ],
      [
        "2}{3}",
        -11.202362842643437
      ],
      [
        "-\\left(\\frac{",
        -11.202858435000834
      ],
      [
        "4})}",
        -11.203072044699606
      ],
      [
        "-1)^i",
        -11.203160266795686
      ],
      [
        "\\sigma_p",
        -11.203250405582663
      ],
      [
        "a_{-g",
        -11.20357741024505
      ],
      [
        "(y_3",
        -11.203701820633404
      ],
      [
        "2\\sqrt{7}",
        -11.204738704279231
      ],
      [
        "r-2}",
        -11.204807552109036
      ],
      [
        "||y",
        -11.20530433750216
      ],
      [
        "u^{\\prime}",
        -11.205345724984909
      ],
      [
        "f^{",
        -11.205880718836152
      ],
      [
        "3}{9",
        -11.207602275036775
      ],
      [
        "\\phi(p",
        -11.208088384863554
      ],
      [
        "f(x_{0}",
        -11.208354596298795
      ],
      [
        "s,x)",
        -11.208398580704683
      ],
      [
        "{(x",
        -11.20955056285639
      ],
      [
        "10}",
        -11.2106398927882
      ],
      [
        "_{y",
        -11.21082147048741
      ],
      [
        "y=x^2",
        -11.211562914846125
      ],
      [
        "(106",
        -11.21164009702882
      ],
      [
        "n^{\\log_",
        -11.211693039326915
      ],
      [
        "(k_n",
        -11.211894924933365
      ],
      [
        "\\frac{n^2",
        -11.212271363214665
      ],
      [
        "(x^{+",
        -11.212999685458298
      ],
      [
        "+b_4",
        -11.213197091728947
      ],
      [
        "{ds}",
        -11.213462885078735
      ],
      [
        "m_i",
        -11.213496441951012
      ],
      [
        "_{abc}=",
        -11.21372455694376
      ],
      [
        "\\sin^2\\theta_",
        -11.216206659259624
      ],
      [
        "i]",
        -11.21622047182229
      ],
      [
        "n_{a",
        -11.216241362941924
      ],
      [
        "t^{\\prime}",
        -11.216457935985256
      ],
      [
        "}{T}",
        -11.216567293265356
      ],
      [
        "k_n",
        -11.217077441328078
      ],
      [
        "a^2+a",
        -11.217106807593066
      ],
      [
        "|x",
        -11.21716430271234
      ],
      [
        "397",
        -11.218282865166923
      ],
      [
        "65)",
        -11.218388765512334
      ],
      [
        "^{s-1}",
        -11.218842848908055
      ],
      [
        "\\beta(t",
        -11.218994904949714
      ],
      [
        "\\sqrt{17})x^{",
        -11.219661898967832
      ],
      [
        "VA",
        -11.219758698244862
      ],
      [
        "x+2)",
        -11.220520610646558
      ],
      [
        ")x^2+",
        -11.220832118128316
      ],
      [
        "155)",
        -11.22131063649617
      ],
      [
        "y_p",
        -11.221572850407997
      ],
      [
        "7^2",
        -11.222766376574524
      ],
      [
        "3x^3",
        -11.222901057506716
      ],
      [
        "3}{4}",
        -11.22293004207304
      ],
      [
        "M_1",
        -11.224484740694946
      ],
      [
        "abc",
        -11.22531019527328
      ],
      [
        "a=a_0+a_1+",
        -11.225392806766449
      ],
      [
        "=|z",
        -11.225599624409805
      ],
      [
        "X,",
        -11.226591795199326
      ],
      [
        "c_k",
        -11.22699271620174
      ],
      [
        "\\sigma_{",
        -11.228731371751795
      ],
      [
        "^{n-k}",
        -11.22886864696578
      ],
      [
        "186)",
        -11.229034737891984
      ],
      [
        ")}_{xx}",
        -11.229276029116116
      ],
      [
        "^{+\\infty}",
        -11.22930428656665
      ],
      [
        "{j}",
        -11.229312037699312
      ],
      [
        "40}",
        -11.23105653380605
      ],
      [
        "S^3",
        -11.231485847574843
      ],
      [
        "^2+r^2",
        -11.231540643823775
      ],
      [
        "\\frac{t}{",
        -11.23183143950082
      ],
      [
        "g(y)=",
        -11.23252289176338
      ],
      [
        "k=f(",
        -11.232645783764434
      ],
      [
        "}}}",
        -11.23331076471405
      ],
      [
        "C_1",
        -11.233597667417143
      ],
      [
        "\\beta_{1}",
        -11.233969842817752
      ],
      [
        "=\\frac{n}{",
        -11.234246602356569
      ],
      [
        "-1/2)",
        -11.234565542837124
      ],
      [
        "-137",
        -11.234889257238114
      ],
      [
        "553",
        -11.235335141176051
      ],
      [
        "1(1)",
        -11.235520428236203
      ],
      [
        "2},+\\frac{1}{2},",
        -11.236379325588526
      ],
      [
        "}{2\\pi}",
        -11.23646007098872
      ],
      [
        "_2]",
        -11.236605821684575
      ],
      [
        "2)^2",
        -11.23725568549452
      ],
      [
        "f^{-1}(",
        -11.237565213907748
      ],
      [
        "\\frac{x-x_",
        -11.23833418802016
      ],
      [
        "_{2}=",
        -11.238405091039514
      ],
      [
        "f(a)}",
        -11.240099995805114
      ],
      [
        "^2+ab+",
        -11.24016301160198
      ],
      [
        ")=f(n",
        -11.240394001242176
      ],
      [
        "o(x^",
        -11.240565181810322
      ],
      [
        "n(x)",
        -11.241931719057082
      ],
      [
        "^{-1}=",
        -11.24201257637945
      ],
      [
        "}{3}+\\frac{",
        -11.242484404411158
      ],
      [
        "dr^2",
        -11.242589469836336
      ],
      [
        "}{T_",
        -11.243663382305236
      ],
      [
        "\\frac{l",
        -11.243772920046876
      ],
      [
        "_2+\\ldots",
        -11.244226530430112
      ],
      [
        "_{c}",
        -11.244338785514389
      ],
      [
        "X_0",
        -11.245083926703286
      ],
      [
        "C^{(",
        -11.245335969332045
      ],
      [
        "-\\sqrt{-1}",
        -11.245359922577036
      ],
      [
        "9.4",
        -11.245991508012544
      ],
      [
        "\\gamma_{1",
        -11.246138918413184
      ],
      [
        "X_{n+",
        -11.24662739192508
      ],
      [
        "9.7",
        -11.2470110443634
      ],
      [
        "(\\alpha+\\beta)",
        -11.247328867128427
      ],
      [
        "\\sqrt{n})",
        -11.247525300722357
      ],
      [
        "e^t}",
        -11.248187605513207
      ],
      [
        "h}",
        -11.248631095699812
      ],
      [
        "sat",
        -11.24922197300448
      ],
      [
        "\\frac{v}{",
        -11.249242428571629
      ],
      [
        "k=",
        -11.249373489161805
      ],
      [
        "z=",
        -11.24994179327547
      ],
      [
        "4-x^2",
        -11.250184820256662
      ],
      [
        "d^2x=",
        -11.250198510195112
      ],
      [
        "183)",
        -11.250598258937332
      ],
      [
        "286",
        -11.250887668078274
      ],
      [
        "=2",
        -11.251024399035613
      ],
      [
        "\\frac{\\sqrt{5}",
        -11.251538082036262
      ],
      [
        "-2)}",
        -11.252046569589291
      ],
      [
        "-8x",
        -11.252481426211034
      ],
      [
        "}}3^{-\\frac{",
        -11.25266616450397
      ],
      [
        "\\beta)",
        -11.25300390493232
      ],
      [
        "sqrt{2-\\sqrt{2}}",
        -11.253047147169315
      ],
      [
        "\\frac{m}{2}}",
        -11.253280195587475
      ],
      [
        "145)",
        -11.254090702217669
      ],
      [
        "\\sin(z)",
        -11.254227613544968
      ],
      [
        "o_t",
        -11.254938240869349
      ],
      [
        "p_X(x)}",
        -11.255660109816793
      ],
      [
        "Y_{",
        -11.256161452348724
      ],
      [
        "_{m-2}",
        -11.257267675072914
      ],
      [
        "_{",
        -11.258208560915088
      ],
      [
        "\\theta^2",
        -11.258356641268112
      ],
      [
        "\\frac{h_3^2",
        -11.25838435946402
      ],
      [
        "\\phi_2",
        -11.259195065207296
      ],
      [
        "\\frac{15",
        -11.261473533784123
      ],
      [
        "144)",
        -11.263387544723743
      ],
      [
        "_a}",
        -11.263930104810465
      ],
      [
        "(a+b)=",
        -11.266193521777122
      ],
      [
        "P_{n",
        -11.26697321470248
      ],
      [
        "2^{-\\frac{1",
        -11.26801191400987
      ],
      [
        "^i",
        -11.268960752259932
      ],
      [
        "\\phi_n",
        -11.269296527935884
      ],
      [
        "154)",
        -11.270412686341372
      ],
      [
        "{dx}",
        -11.270484463410051
      ],
      [
        "g(g",
        -11.270557981986276
      ],
      [
        "{7}+2\\sqrt{7}}",
        -11.270736107607274
      ],
      [
        "\\alpha^",
        -11.27135648708858
      ],
      [
        "_2B_",
        -11.271534676971095
      ],
      [
        "4x^3",
        -11.27173990858121
      ],
      [
        "n^3",
        -11.272348072284654
      ],
      [
        "/2)",
        -11.272658613661791
      ],
      [
        ",7",
        -11.27366897372976
      ],
      [
        "^{18}",
        -11.275935009965172
      ],
      [
        "2]",
        -11.2766409318107
      ],
      [
        "c-b)",
        -11.276756183420838
      ],
      [
        "^{\\prime}-x",
        -11.277058982600993
      ],
      [
        "\\frac{f_",
        -11.27721555079398
      ],
      [
        "191",
        -11.277511085757988
      ],
      [
        "s^2}{",
        -11.278802400084215
      ],
      [
        "580",
        -11.279305885893605
      ],
      [
        "-144",
        -11.279353390743374
      ],
      [
        ",z)",
        -11.279510240819365
      ],
      [
        "5,",
        -11.280166197545327
      ],
      [
        "\\mathrm{R",
        -11.28057075430726
      ],
      [
        "(x,y,z",
        -11.281452582295069
      ],
      [
        "^n+\\ldots",
        -11.281498891232175
      ],
      [
        "k+2",
        -11.282500664668174
      ],
      [
        "r_",
        -11.283091036113564
      ],
      [
        ",\\ldots,X_",
        -11.28319493743872
      ],
      [
        "\\theta_k",
        -11.2835197084215
      ],
      [
        "+x_4^",
        -11.283852720929112
      ],
      [
        "10^{-2",
        -11.284110856744794
      ],
      [
        "3)}",
        -11.284214406157192
      ],
      [
        "137)",
        -11.284458385923251
      ],
      [
        "254",
        -11.285958292176527
      ],
      [
        "{5}}",
        -11.28688014887998
      ],
      [
        "^2-n",
        -11.287847513876748
      ],
      [
        "250",
        -11.288049450762252
      ],
      [
        "-\\cos^2",
        -11.288461568512217
      ],
      [
        "75)",
        -11.288975683118496
      ],
      [
        "90",
        -11.289543012700271
      ],
      [
        "{13}",
        -11.289575051285858
      ],
      [
        "A_2",
        -11.29040803789345
      ],
      [
        "1-",
        -11.290633834263042
      ],
      [
        "x_8",
        -11.290743335426203
      ],
      [
        "1}{4}x}",
        -11.291180731406882
      ],
      [
        "z_n",
        -11.292768676035758
      ],
      [
        "(\\frac{1}{8}",
        -11.292982025113094
      ],
      [
        "y^2)",
        -11.29322207669366
      ],
      [
        "_{k}=",
        -11.293630839948216
      ],
      [
        "19}",
        -11.293908117993585
      ],
      [
        "o(x^{2n+",
        -11.29449083899059
      ],
      [
        "197)",
        -11.294516916542651
      ],
      [
        "+y_8",
        -11.29519330752315
      ],
      [
        "{n-1}",
        -11.29525324546746
      ],
      [
        "\\frac{w}{",
        -11.295519662240098
      ],
      [
        "1+\\alpha+\\beta)",
        -11.295677935607069
      ],
      [
        "\\frac{2}{\\beta",
        -11.295970424414715
      ],
      [
        "ot",
        -11.296191200446197
      ],
      [
        "89.",
        -11.296929071240132
      ],
      [
        "{l_2}",
        -11.296948912202655
      ],
      [
        "-h(",
        -11.297002346340156
      ],
      [
        "y=z",
        -11.297199621165696
      ],
      [
        "(d",
        -11.297314512924585
      ],
      [
        "\\sqrt{3})x^",
        -11.297792015060088
      ],
      [
        "p^2+",
        -11.298675126350735
      ],
      [
        "{v^2-{v_v}^2}",
        -11.298965867624892
      ],
      [
        "^2}{b^2}",
        -11.29945463594198
      ],
      [
        "a_n/",
        -11.299473419279938
      ],
      [
        "_6^2+",
        -11.299754216294724
      ],
      [
        "(z)=\\frac{",
        -11.30338008526857
      ],
      [
        "5.0",
        -11.3034111873432
      ],
      [
        "p_{1}",
        -11.303850870030438
      ],
      [
        "\\frac{10}{",
        -11.304547258293942
      ],
      [
        "c-i",
        -11.305047633494937
      ],
      [
        "p.",
        -11.305256959646629
      ],
      [
        "_{2}}=\\frac{",
        -11.30600564675586
      ],
      [
        "{\\sqrt{1-Ar^2}}",
        -11.306161755034545
      ],
      [
        "\\frac{a}{2}",
        -11.306394739765018
      ],
      [
        "{2},",
        -11.3075260826453
      ],
      [
        "{\\sqrt{5}}}",
        -11.309627353567592
      ],
      [
        "\\sqrt{9}",
        -11.31119551139844
      ],
      [
        "}{1-",
        -11.311464660170804
      ],
      [
        "\\frac{2u",
        -11.312854723581978
      ],
      [
        "37.",
        -11.313074739816564
      ],
      [
        "x_8^2",
        -11.3131243849857
      ],
      [
        "792",
        -11.313568259914344
      ],
      [
        "_n}",
        -11.31401041475904
      ],
      [
        "-1]",
        -11.31475896860158
      ],
      [
        "z_4",
        -11.31484632702387
      ],
      [
        "(z-2",
        -11.314862356008412
      ],
      [
        "12}",
        -11.315094381108112
      ],
      [
        "k_2",
        -11.316607132334871
      ],
      [
        "x^2+y^2+",
        -11.317458273337763
      ],
      [
        "x^2-2",
        -11.318173277462552
      ],
      [
        "x^3-x",
        -11.318610569325788
      ],
      [
        "k=k",
        -11.319687682676571
      ],
      [
        "f(\\alpha",
        -11.320135570278696
      ],
      [
        "\\frac{n-1}{2",
        -11.32068961371984
      ],
      [
        "+8z",
        -11.320732380400017
      ],
      [
        "-B)",
[...]
