{"version":"1.0","truncation":null,"padding":null,"added_tokens":[{"id":0,"special":true,"content":"<s>","single_word":false,"lstrip":false,"rstrip":false,"normalized":false},{"id":1,"special":true,"content":"</s>","single_word":false,"lstrip":false,"rstrip":false,"normalized":false},{"id":2,"special":true,"content":"<pad>","single_word":false,"lstrip":false,"rstrip":false,"normalized":false},{"id":3,"special":true,"content":"<unk>","single_word":false,"lstrip":false,"rstrip":false,"normalized":false}],"normalizer":null,"pre_tokenizer":{"type":"Split","pattern":{"String":"([{}_^\\\\])"},"behavior":"Isolated","invert":false},"post_processor":null,"decoder":null,"model":{"type":"BPE","dropout":null,"unk_token":null,"continuing_subword_prefix":null,"end_of_word_suffix":null,"fuse_unk":false,"vocab":{"<s>":0,"</s>":1,"<pad>":2,"<unk>":3,"\t":4,"\n":5,"\r":6," ":7,"!":8,"$":9,"(":10,")":11,"+":12,",":13,"-":14,".":15,"/":16,"0":17,"1":18,"2":19,"3":20,"4":21,"5":22,"6":23,"7":24,"8":25,"9":26,"<":27,"=":28,">":29,"A":30,"B":31,"C":32,"D":33,"E":34,"F":35,"G":36,"H":37,"I":38,"L":39,"M":40,"N":41,"P":42,"R":43,"S":44,"T":45,"V":46,"X":47,"Y":48,"[":49,"\\":50,"]":51,"^":52,"_":53,"a":54,"b":55,"c":56,"d":57,"e":58,"f":59,"g":60,"h":61,"i":62,"j":63,"k":64,"l":65,"m":66,"n":67,"o":68,"p":69,"q":70,"r":71,"s":72,"t":73,"u":74,"v":75,"w":76,"x":77,"y":78,"z":79,"{":80,"|":81,"}":82,"{ ":83," }":84," { ":85,"\r\n":86," \\":87," } }":88,"mb":89,"ox":90,"mbox":91,"mbox { ":92,"ac":93,"fr":94,"frac":95,"t ":96,"\\mbox { ":97,"$\r\n":98," +":99," }\r\n":100,"ig":101," ^":102," =":103,"\\s":104," \\frac":105,"}{":106,"\\frac":107,"qr":108,"qrt":109,"le":110," -":111,"rig":112,"righ":113,"lef":114," } }\r\n":115," \\righ":116," + ":117," { \\mbox { ":118,"left ":119," \\right ":120," \\frac{":121," ^ ":122," } { ":123,"}$\r\n":124," \\s":125,"left (":126," \\right )":127,"in":128,"\\sqrt":129,"^2":130," = ":131," \\mbox { ":132,"um":133,"\\frac { ":134,"{ \\mbox { ":135," \\left (":136," _":137,"1}{":138,"ta":139,"^{":140," x":141,"_{":142," ^ { ":143," ^ 2":144,"\\p":145,"\\sqrt { ":146," d":147," } } }\r\n":148,"Big":149,"\\sum":150,"\\frac{":151," \\frac{1}{":152," \\sqrt":153," - ":154," \\frac { ":155,"{ -":156,"1}":157,"eta":158,"Bigg":159,")$\r\n":160,"\\c":161,"\\in":162," } } { ":163,"\\pi":164,"ts":165," \\right )\r\n":166,"do":167,"dots":168,"ma":169,"_n":170," _ { ":171,"th":172," \\sum":173," \\Bigg":174," \\sqrt { ":175,"\\cdots":176,"_1":177," \\p":178,"_i":179," = \\frac{":180,"theta":181,"0$\r\n":182,"os":183," } ^ { ":184," \\left ( ":185," a":186,"$\\frac{":187,"al":188,"}{2":189," _ { \\mbox { ":190,"\\left (":191,"im":192,"_{i":193,"left [":194," \\right ]":195,"\\int ":196,"ime":197,"n-":198,"(x":199,"\\sin":200,"x_":201," + 1":202,"]{":203,"\\sqrt[":204," \\Bigg)":205,"ha":206,"pha":207," \\g":208,"alpha":209," + \\sqrt { ":210,"n}":211,"}\\":212," \\in":213,"^3":214," \\l":215,"}}":216," } \\right )":217,"a^":218,"\\left [":219," } } ^ { ":220,"_{i=":221," z":222," ^ 3":223," \\pi":224," r":225,"4}":226,"\\sum { ":227,") = ":228,"b^2":229,"x^{":230," -4":231,"$\\":232," } +":233," \\left ( x":234,"( \\frac{1}{":235,"beta":236,"cos":237,"q_n":238,"x]{":239," \\cos":240," } } _ { \\mbox { ":241,"\\sqrt[x]{":242,"{ \\cdots":243,"+\\cdots":244,"_2":245,"n+":246," \\theta":247," ^ { \\mbox { ":248," \\left ( x \\right )":249,"am":250," } -":251," = \\frac{1}{":252,"amma":253,"$y":254,"mu":255," } { 3":256,"(a":257,"}}{":258," \\left ( \\frac { ":259,"\\sum _ { ":260,"1-":261,"rime":262," } d":263,"igma":264," } { \\sqrt { ":265,"\\prime":266,"{ - ":267,"1 + \\sqrt { ":268," } \\right )\r\n":269," + \\frac { ":270," (":271,"$P":272,")}":273,"2 }\r\n":274,"_0":275," \\sin":276,"\\int":277,"n-1}":278,"De":279,"\\beta":280,"lta":281," = 0$\r\n":282," \\sqrt{":283,"_{i=1}":284,"Delta":285,"1\r\n":286,"\\alpha":287,"+b":288,"\\theta":289,"a^2":290,"eq":291,"} ":292," + a":293,"^{n}":294,"^{\\prime":295,"$\\frac{1}{":296,"$S":297,"-b":298," } } _ { ":299," - \\frac{":300," + c":301,"tan":302,"{ - \\mbox { ":303,"\\pi}{":304," \\sum { ":305," \\right ]\r\n":306," \\left ( \\frac { \\pi":307,"ab":308," \\pi r":309,"1$\r\n":310,"2k":311,"^2$\r\n":312," -4ac":313," b":314,"\\l":315,"_ { ":316,"\\frac { \\mbox { ":317,"leq":318," \\frac{2k":319," \\frac{1}{q_n":320,"(x)":321,"}\\Big":322,"4} \\Bigg)":323,"( \\frac{1}{4} \\Bigg)":324," \\frac{2k\\pi}{":325," {":326,"x ^ 2":327,"}}$\r\n":328," } _ { ":329," } ^ { \\mbox { ":330,"\\sigma":331," + y":332,"\\sqrt { \\mbox { ":333,"-p":334,"\\mu":335,"rm":336," } } { \\mbox { ":337,"\\cos":338,"math":339," \\pm":340,"mathrm":341," c":342,"e ^ { ":343,"x } { ":344," \\leq":345," + b":346," ^ 2 - ":347,"+\\cdots+":348," \\pm \\sqrt{":349,"$f":350,"\\g":351,"time":352,"u-p":353," + 3":354,"\\frac { x_":355," } \\right ) =":356,"times":357,"1)":358,"ft":359," } { \\mbox { ":360,"fty":361,"5\r\n":362,"||":363," } ":364,", ":365,"0}":366,"9\r\n":367,"i }\r\n":368," } _ { \\mbox { ":369," \\alpha":370," } } } }\r\n":371," } } d":372,"^{\\prime}":373,")=":374,"0\r\n":375,"\\tan":376,"^n":377," } } { 2":378," \\geq":379," \\left ( \\frac { \\pi } { ":380,"\\gamma":381,"4}$\r\n":382,"left":383," \\sum { \\mbox { ":384," h":385,"(n-":386,"_j":387,"a}{":388,"z ^ 2":389," } + ":390," } \\mbox { ":391," } \\pi r":392," + \\mbox { ":393," ^ x":394,"\\frac { { ":395," \\left ( \\mbox { ":396,"\\sqrt { { ":397," } + \\mbox { ":398," } { 3 } \\pi r":399," k":400,"$(":401,"$1":402,"13":403,"2)":404,"^k":405,"b + c":406,"c^2":407," - \\mbox { ":408," } { 2 }\r\n":409,"_{n+":410," ^ 2 h":411,"$x":412,"$|":413,"18":414,"4\r\n":415,"_0$\r\n":416,"x_1":417,"{ { ":418," = \\sum":419," = \\cos":420,"^2 +":421,"^2}{":422," = a":423,"\\frac { 1":424,"\\sqrt { 1 + \\sqrt { ":425," d x":426," \\frac { 1":427,"\\int e ^ { ":428," \\lt ":429,"\\sum _ { { ":430,"$S =":431," } \\right ) = \\frac { 1":432,"- b":433,"0.":434,"27":435,"4 a":436,"^4":437,"^j":438,"a + \\frac { ":439,"b ^ 2 - ":440,"f } }\r\n":441,"m ":442,"{ { \\mbox { ":443,"\\frac { - b":444," a }\r\n":445," c } } { 2":446,"times ":447,"a}{b":448,"_{n+1}":449,"4 a c } } { 2":450,"b ^ 2 - 4 a c } } { 2":451,"b ^ 2 - 4 a c } } { 2 a }\r\n":452,"$u":453,"$a^":454,"+y":455,"cd":456,"n}$\r\n":457,"p_n":458,"x+y":459," } \\left ( ":460," + \\frac{":461," } { x_":462," } { \\frac { x_":463,"1}{2":464,"_{n-1}":465," \\sum_{i=1}":466," = \\frac{2":467,"\\left ( ":468,"\\sin \\left ( x \\right )":469,"mathrm d":470,"$E":471,"$n":472,"$\\sum":473,"( \\sum_{i=1}":474,"3}$\r\n":475,"a}":476,"b^3":477,"d -4ac":478,"d^2}{":479,"i)":480,"og":481,"r^2$\r\n":482,"xa^":483,"y = a":484," } - ":485," } \\right ]":486," } } } { ":487," +18":488,"}{a":489," -27":490," \\right ) }\r\n":491,"^{x+y":492," x ":493,"\\sum { \\mbox { ":494," - (n-":495,"\\pi \\Bigg)":496," \\Bigg( \\sum_{i=1}":497,"_i - (n-":498,"$\\frac{b^2":499,"}{2}":500,"(x) = ":501," + 14":502,"^3 +18":503,"a^4}$\r\n":504," ^ 3 + 14":505," -4b^3":506," \\theta_i - (n-":507,"(a-b":508,"a^2d^2}{":509,"^{n} \\theta_i - (n-":510,"abcd":511," \\left ( \\frac { \\pi } { 4":512,"2)\\pi \\Bigg)":513,"c^2 -4b^3":514,"$S = \\Bigg( \\sum_{i=1}":515,"$a^xa^":516,"d -4ac^3 +18":517,"y = a^{x+y":518," -27a^2d^2}{":519,"$\\frac{b^2c^2 -4b^3":520,"^{n} \\theta_i - (n-2)\\pi \\Bigg)":521,"abcd -27a^2d^2}{":522,"$S = \\Bigg( \\sum_{i=1}^{n} \\theta_i - (n-2)\\pi \\Bigg)":523,"$a^xa^y = a^{x+y":524,"d -4ac^3 +18abcd -27a^2d^2}{":525,"$\\frac{b^2c^2 -4b^3d -4ac^3 +18abcd -27a^2d^2}{":526,"$S = \\Bigg( \\sum_{i=1}^{n} \\theta_i - (n-2)\\pi \\Bigg)r^2$\r\n":527,"$a^xa^y = a^{x+y}$\r\n":528,"$\\frac{b^2c^2 -4b^3d -4ac^3 +18abcd -27a^2d^2}{a^4}$\r\n":529,"$L":530,"$a^2":531,"(y":532,"(n+":533,"+2":534,"a}}{":535,"i)$\r\n":536,"t }\r\n":537,"x}$\r\n":538,"| \\leq":539,"} \\lt ":540," + \\frac{1}{":541," \\frac {":542," + i":543," + b^2":544,"^2}$\r\n":545," = (a":546," x - \\frac{":547," x^j":548,"\\sqrt { { \\mbox { ":549," a_j":550,"}{2}$\r\n":551," + 1 = 0$\r\n":552," \\int":553,"_{i=0}":554," z ^ 2":555,"$y^4":556,"$P(x)":557,"+bi)":558,"^{n} a_j":559," + y + 1 = 0$\r\n":560," = \\sum_{i=0}":561,"$\\sum_{i=1}":562,"}{a+b":563,"(a-bi)$\r\n":564,"$a^2 + b^2":565," = (a+bi)":566," x^j$\r\n":567,"$y^4 + y + 1 = 0$\r\n":568,"$P(x) = \\sum_{i=0}":569,"^{n} a_j x^j$\r\n":570,"$a^2 + b^2 = (a+bi)":571,"$P(x) = \\sum_{i=0}^{n} a_j x^j$\r\n":572,"$a^2 + b^2 = (a+bi)(a-bi)$\r\n":573,"! -":574,"$T":575,"$\\sqrt[":576,"$\\sqrt[x]{":577,"+\\":578,"6\r\n":579,"7\r\n":580,"a}$\r\n":581,"a_n":582,"a_1":583,"a_i":584,"b_i":585,"b}\\Big":586,"b}}$\r\n":587,"n]{":588,"q_{n+1}":589,"x + a":590,"x^n":591,"}{q_n":592,"right":593," \\frac{x^{":594," \\right ) ^ ":595," \\right ) = ":596,"\\frac{a}{b":597,"\\frac{1}{2":598,"1} = \\cos":599,"Bigg( \\frac{1}{4} \\Bigg)":600," \\Bigg( \\frac{1}{4} \\Bigg)":601," = \\frac{\\sqrt[x]{":602," \\gamma":603,"n} + i":604," \\int ":605,"^3+\\cdots":606," \\lt":607,"}} = \\frac{1}{":608,"}} = \\frac{\\sqrt[x]{":609,"4}+\\":610,"x^{n-1}":611,"x^{b_i":612,"( \\frac{1}{a}":613,"\\sqrt[x]{b}}$\r\n":614,"{ \\cdots +":615," = \\frac{1}{3}$\r\n":616,"}}{1-":617,"1-x}$\r\n":618,")} = \\frac{2":619," \\sin \\frac{2k\\pi}{":620,"} | \\leq":621," + a_{n-1}":622,"$\\frac{1}{\\frac{1}{2":623,"$\\frac{1}{4}+\\":624,"ab}{a+b":625," \\frac{1}{q_n^2}$\r\n":626," \\frac{1}{q_nq_{n+1}":627,"}\\Big( \\frac{1}{a}":628," \\frac{2k\\pi}{n} + i":629,"^k \\frac{x^{":630,"$x = \\frac{":631,"$| x - \\frac{":632,"^2 + \\Bigg( \\frac{1}{4} \\Bigg)":633,"p_n}{q_n":634,"$n! -":635,"a}}{\\sqrt[x]{b}}$\r\n":636,"} \\lt  \\frac{1}{q_n^2}$\r\n":637," + \\frac{1}{b}\\Big":638,"$\\sum_{i=1}^k \\frac{x^{":639,"$\\sqrt[n]{":640,"$\\sqrt[x]{\\frac{a}{b":641,"a_i}}{1-":642,"1} = \\cos \\frac{2k\\pi}{n} + i":643,"Bigg( \\frac{1}{4} \\Bigg)^2 + \\Bigg( \\frac{1}{4} \\Bigg)":644,"^3+\\cdots = \\frac{1}{3}$\r\n":645,"}} = \\frac{1}{1-x}$\r\n":646,"}} = \\frac{\\sqrt[x]{a}}{\\sqrt[x]{b}}$\r\n":647,"x^{b_i}} = \\frac{1}{1-x}$\r\n":648,")} = \\frac{2ab}{a+b":649," \\sin \\frac{2k\\pi}{n}$\r\n":650,"} | \\leq \\frac{1}{q_nq_{n+1}":651,"$\\frac{1}{\\frac{1}{2}\\Big( \\frac{1}{a}":652,"$\\frac{1}{4}+\\Bigg( \\frac{1}{4} \\Bigg)^2 + \\Bigg( \\frac{1}{4} \\Bigg)":653,"$| x - \\frac{p_n}{q_n":654,"$n! -1$\r\n":655," + \\frac{1}{b}\\Big)} = \\frac{2ab}{a+b":656,"$\\sum_{i=1}^k \\frac{x^{a_i}}{1-":657,"$\\sqrt[n]{1} = \\cos \\frac{2k\\pi}{n} + i":658,"$\\sqrt[x]{\\frac{a}{b}} = \\frac{\\sqrt[x]{a}}{\\sqrt[x]{b}}$\r\n":659,"} | \\leq \\frac{1}{q_nq_{n+1}} \\lt  \\frac{1}{q_n^2}$\r\n":660,"$\\frac{1}{\\frac{1}{2}\\Big( \\frac{1}{a} + \\frac{1}{b}\\Big)} = \\frac{2ab}{a+b":661,"$\\frac{1}{4}+\\Bigg( \\frac{1}{4} \\Bigg)^2 + \\Bigg( \\frac{1}{4} \\Bigg)^3+\\cdots = \\frac{1}{3}$\r\n":662,"$| x - \\frac{p_n}{q_n} | \\leq \\frac{1}{q_nq_{n+1}} \\lt  \\frac{1}{q_n^2}$\r\n":663,"$\\sum_{i=1}^k \\frac{x^{a_i}}{1-x^{b_i}} = \\frac{1}{1-x}$\r\n":664,"$\\sqrt[n]{1} = \\cos \\frac{2k\\pi}{n} + i \\sin \\frac{2k\\pi}{n}$\r\n":665,"$\\frac{1}{\\frac{1}{2}\\Big( \\frac{1}{a} + \\frac{1}{b}\\Big)} = \\frac{2ab}{a+b}$\r\n":666,"(X":667,"2\r\n":668,"c } } }\r\n":669,"hi":670,"j }\r\n":671,"}}{2":672," } } } ^ { ":673,"\\sqrt{":674," ^ 2 (":675,"\\infty":676," = \\frac{n":677," \\left ( 2":678," \\in ":679,"b^2 -4ac":680,"$y^2":681,"Delta ":682,"-b \\pm \\sqrt{":683,"\\log":684,"+\\cdots+a_1":685,"$f(x) = ":686,"1)}{2}$\r\n":687,"a_nx^n":688,"x + a_0$\r\n":689,"x^{n-1}+\\cdots+a_1":690," + a_{n-1}x^{n-1}+\\cdots+a_1":691,"$x = \\frac{-b \\pm \\sqrt{":692,"}}{2a}$\r\n":693," ^ 2 ( x ":694,"b^2 -4ac}}{2a}$\r\n":695,"$f(x) = a_nx^n":696," + a_{n-1}x^{n-1}+\\cdots+a_1x + a_0$\r\n":697,"$x = \\frac{-b \\pm \\sqrt{b^2 -4ac}}{2a}$\r\n":698,"$f(x) = a_nx^n + a_{n-1}x^{n-1}+\\cdots+a_1x + a_0$\r\n":699,"(t":700,"(u-p":701,"d } }\r\n":702,"h } }\r\n":703,"n = \\frac{n":704,"q}{2":705,"u}{2}":706," } \\right ]\r\n":707," \\left [":708," } } ^ { \\mbox { ":709," = 1":710,"Bigg(y":711," \\Bigg) + \\frac{":712,"}\\Bigg(y":713,")} \\Bigg) + \\frac{":714," - \\frac{q}{2":715,"+\\cdots+n = \\frac{n":716," \\pm \\sqrt{u-p":717,"left(":718,"$1+2":719,"\\sin \\left ( x \\right ) + 1":720,"(n+1)}{2}$\r\n":721,"$y^2 \\pm \\sqrt{u-p":722,"(u-p)} \\Bigg) + \\frac{":723,"u}{2} = 0$\r\n":724,"}\\Bigg(y - \\frac{q}{2":725,"+\\cdots+n = \\frac{n(n+1)}{2}$\r\n":726,"$1+2+\\cdots+n = \\frac{n(n+1)}{2}$\r\n":727,"$y^2 \\pm \\sqrt{u-p}\\Bigg(y - \\frac{q}{2":728,"(u-p)} \\Bigg) + \\frac{u}{2} = 0$\r\n":729,"$y^2 \\pm \\sqrt{u-p}\\Bigg(y - \\frac{q}{2(u-p)} \\Bigg) + \\frac{u}{2} = 0$\r\n":730,"$A":731,"1 + ":732,"1}$\r\n":733,"2}":734,"3\r\n":735,"6.":736,"8.":737,"u } }\r\n":738," { -":739,"^{-":740,"{ - { ":741,"$H":742,"$I":743,"2.":744,"P } }\r\n":745,"\\right":746,"amb":747,"da":748,"d + ":749," + \\cos":750,"{ \\mbox { z":751," \\sqrt { \\beta":752," \\left ( n":753,"\\left ( \\mbox { ":754,"\\int _ { ":755," \\gt":756," \\infty":757," \\ldots":758,"\\left [ \\mbox { ":759,"{ \\cdots -":760," } - \\mbox { ":761,"ambda":762,"$M":763,"2 } }\r\n":764,"2 \\alpha":765,"4 + b":766,"4 } { 3 } \\pi r":767,"7.":768,"H }\r\n":769,"a x":770,"a + \\sqrt { ":771,"a ^ x":772,"c } { 2 }\r\n":773,"f }\r\n":774,"j } }\r\n":775,"o }\r\n":776," } x":777,"\\mbox { j }\r\n":778," + \\pi r":779," = \\mbox { ":780," - \\frac { ":781," ^ 4 + b":782," } { d + ":783," = 0\r\n":784," = z ^ 2":785,"\\frac { b + c":786,"\\frac { 4 } { 3 } \\pi r":787," x + c":788," ^ 2\r\n":789," ^ 2 = z ^ 2":790,"{ - { \\mbox { ":791,"\\pi r":792," + \\sqrt { b ^ 2 - 4 a c } } { 2 a }\r\n":793,"\\left [ ":794," ^ 3\r\n":795," ^ 3 d x":796," \\left ( x \\right ) ^ 2":797," + \\frac { c } { 2 }\r\n":798,"x ^ 2 + y":799,"x ^ 2 } x":800," + b ^ x":801," + 3 \\sqrt { \\beta":802,"z ^ 2 } }\r\n":803," } { 3 } \\pi r ^ 2 h":804,"13 + \\pi r":805,"\\frac { 1 } { 3 } \\pi r ^ 2 h":806,"\\sqrt { 1 + \\sqrt { 1 + ":807,"\\int e ^ { x ^ 2 } x":808,"\\frac { - b + \\sqrt { b ^ 2 - 4 a c } } { 2 a }\r\n":809,"2 \\alpha + 3 \\sqrt { \\beta":810,"a x ^ 4 + b":811,"a + \\sqrt { \\frac { b + c":812,"a ^ x + b ^ x":813," } { d + f } }\r\n":814,"\\frac { 4 } { 3 } \\pi r ^ 3\r\n":815," x + c = 0\r\n":816," ^ 2 = z ^ 2\r\n":817," ^ 3 d x\r\n":818,"x ^ 2 + y ^ 2 = z ^ 2\r\n":819,"13 + \\pi r ^ 2\r\n":820,"\\frac { 1 } { 3 } \\pi r ^ 2 h\r\n":821,"\\sqrt { 1 + \\sqrt { 1 + z ^ 2 } }\r\n":822,"\\int e ^ { x ^ 2 } x ^ 3 d x\r\n":823,"2 \\alpha + 3 \\sqrt { \\beta }\r\n":824,"a x ^ 4 + b x + c = 0\r\n":825,"a + \\sqrt { \\frac { b + c } { d + f } }\r\n":826,"a ^ x + b ^ x + \\frac { c } { 2 }\r\n":827,"1 \\right ) ^ ":828,"2 \\left ( 2":829,"3.":830,"3 } } { ":831,"5 \\right ) = ":832,"8\r\n":833,"9.":834,"A } }\r\n":835,"N } }\r\n":836,"N \\left (":837,"V_":838,"X } }\r\n":839,"\\Delta":840,"fo":841,"f \\left ( ":842,"m + 3":843,"n \\sin":844,"n = 1":845,"ral":846,"t$\r\n":847,"v } }\r\n":848,"x } } } }\r\n":849,"y }\r\n":850,"z \\right )\r\n":851,"{ { - \\mbox { ":852," } ^ ":853," } \\frac { ":854," \\times ":855," \\mathrm d":856," } } \\right )\r\n":857," = \\frac {":858," \\frac { \\mbox { ":859," ^ 5 \\right ) = ":860,"\\frac { x } { ":861,"\\frac { \\pi r":862," _m ":863," _2 \\left ( 2":864," x \\right )\r\n":865,"\\sqrt { b + c":866,"\\sum _m ":867," - 1 \\right ) ^ ":868," } } { 2 }\r\n":869,"_1,":870,"\\sin \\left ( \\frac { \\pi":871,"\\sin \\left ( \\frac { \\pi } { 4":872,"x_2":873," \\gt ":874," } { 3 }\r\n":875," } { 3 } \\right ) = \\frac { 1":876,"\\sum _ { n = 1":877," } { \\sqrt { 2 } }\r\n":878,"\\beta +":879,"\\theta }\r\n":880,"mathrm{":881," ^ 2 h } { 3 }\r\n":882," } \\right ) = \\frac { 1 } { \\sqrt { 2 } }\r\n":883,"a + \\frac { \\sqrt { b + c":884,"\\log _2 \\left ( 2":885," \\left ( n x \\right )\r\n":886,"N \\left ( - 1 \\right ) ^ ":887,"foral":888,"f \\left ( m + 3":889,"n \\sin \\left ( n x \\right )\r\n":890," } ^ N \\left ( - 1 \\right ) ^ ":891," ^ 5 \\right ) = 5\r\n":892,"\\frac { \\pi r ^ 2 h } { 3 }\r\n":893,"\\sum _m f \\left ( m + 3":894,"\\sin \\left ( \\frac { \\pi } { 3 } \\right ) = \\frac { 1":895,"\\sin \\left ( \\frac { \\pi } { 4 } \\right ) = \\frac { 1 } { \\sqrt { 2 } }\r\n":896,"\\sum _ { n = 1 } ^ N \\left ( - 1 \\right ) ^ ":897,"a + \\frac { \\sqrt { b + c } } { 2 }\r\n":898,"\\log _2 \\left ( 2 ^ 5 \\right ) = 5\r\n":899,"forall":900,"\\sum _m f \\left ( m + 3 \\right )\r\n":901,"\\sin \\left ( \\frac { \\pi } { 3 } \\right ) = \\frac { 1 } { 2 }\r\n":902,"\\sum _ { n = 1 } ^ N \\left ( - 1 \\right ) ^ n \\sin \\left ( n x \\right )\r\n":903,"$q":904,"- z ^ 2":905,"00":906,"1.":907,"2 k":908,"2 } { \\frac { x_":909,"3 } { x_":910,"4 } } }\r\n":911,"4 } { x_":912,"78":913,"B }\r\n":914,"X }\r\n":915,"\\times ":916,"]$\r\n":917,"_h } }\r\n":918,"a ^ { ":919,"b ^ { ":920,"b - \\frac { ":921,"c ^ ":922,"er":923,"e_ { ":924,"f_ { ":925,"f } \\left ( ":926,"g_h } }\r\n":927,"k ^ 3 + 14":928,"n }\r\n":929,"neq":930,"v }\r\n":931,"{ \\sqrt { ":932,"{ { - ":933,"{ \\sqrt { \\mbox { ":934," \\beta":935," \\tan":936," } } } } }\r\n":937," } } \\right ]\r\n":938,"\\mbox { i }\r\n":939,"\\mbox { t }\r\n":940,"\\frac {":941," } { \\sin \\left ( x \\right ) + 1":942," } { \\theta }\r\n":943," \\sigma":944,"\\frac { \\frac { ":945,"\\frac { x_1":946,"\\frac { \\beta +":947,"{ \\mbox { u":948," \\sqrt { \\mbox { ":949," } } { { ":950," } } { x_1":951,"\\pi\r\n":952," \\right ] }\r\n":953," + 178":954," } } ^ { { \\mbox { ":955," z = \\mbox { ":956,"\\sum _ { { \\mbox { ":957," } d z = \\mbox { ":958,"1 + \\sqrt { 1 + \\sqrt { ":959,"x } { c } } }\r\n":960,"x } { b - \\frac { ":961," ^ 2 - 13":962,"\\frac { x_4 } { x_":963," k ^ 2 - 13":964,"\\frac { 1 } { \\sin \\left ( x \\right ) + 1":965,"\\sqrt { 1 + \\sqrt { 1 + \\sqrt { 1 + \\sqrt { ":966,"\\int e ^ { - z ^ 2":967,"a + \\frac { x } { b - \\frac { ":968," } { \\frac { x_2 } { \\frac { x_":969," \\int \\mbox { ":970," \\gamma } { \\theta }\r\n":971,"3 } } { x_2":972," } \\frac { z":973,"\\frac { x } { a + \\frac { x } { b - \\frac { ":974,"2 k + 178":975,"3 } { x_4 } } }\r\n":976,"a ^ { b ^ { ":977,"c ^ d } }\r\n":978,"erf } \\left ( ":979,"e_ { f_ { ":980,"k ^ 3 + 14 k ^ 2 - 13":981,"\\frac { \\frac { \\frac { x_4 } { x_":982,"\\frac { x_1 } { \\frac { x_2 } { \\frac { x_":983,"\\frac { \\beta + \\gamma } { \\theta }\r\n":984," } } { x_1 }\r\n":985," } d z = \\mbox { erf } \\left ( ":986,"\\frac { 1 } { \\sin \\left ( x \\right ) + 1 }\r\n":987,"\\sqrt { 1 + \\sqrt { 1 + \\sqrt { 1 + \\sqrt { x } } } }\r\n":988,"\\int e ^ { - z ^ 2 } d z = \\mbox { erf } \\left ( ":989,"3 } } { x_2 } } { x_1 }\r\n":990,"\\frac { x } { a + \\frac { x } { b - \\frac { x } { c } } }\r\n":991,"2 k + 1789\r\n":992,"a ^ { b ^ { c ^ d } }\r\n":993,"e_ { f_ { g_h } }\r\n":994,"k ^ 3 + 14 k ^ 2 - 132 k + 1789\r\n":995,"\\frac { \\frac { \\frac { x_4 } { x_3 } } { x_2 } } { x_1 }\r\n":996,"\\frac { x_1 } { \\frac { x_2 } { \\frac { x_3 } { x_4 } } }\r\n":997,"\\int e ^ { - z ^ 2 } d z = \\mbox { erf } \\left ( z \\right )\r\n":998," ,":999,"$G":1000,"$d":1001,"$v":1002,"$\\sigma":1003,"(A":1004,"(v":1005,"0 } ^ { ":1006,"5.":1007,"V }\r\n":1008,"\\mbox":1009,"hi }\r\n":1010,"m } } }\r\n":1011,"t\r\n":1012,"z }\r\n":1013,"z ^ 3 + 14":1014,"}=":1015," } \\geq":1016," - \\sqrt { ":1017,"{ \\mbox { t":1018,"\\phi":1019," } ^ { { ":1020,"\\left ( { ":1021,"\\int ^":1022,"\\int x ^ 2":1023,"\\left [ { ":1024," z\r\n":1025,"_2$\r\n":1026," } { \\sqrt { z ^ 3 + 14":1027,"\\ldots":1028,"e ^ { \\int x ^ 2":1029," } } d z\r\n":1030," d x }\r\n":1031,"\\frac { - b - \\sqrt { ":1032,"\\infty } \\frac { z":1033,"\\int _ { 0 } ^ { ":1034,"\\mbox{":1035," } { \\sqrt { z ^ 3 + 14 } } d z\r\n":1036,"e ^ { \\int x ^ 2 d x }\r\n":1037,"\\frac { - b - \\sqrt { b ^ 2 - 4 a c } } { 2 a }\r\n":1038,"\\infty } \\frac { z } { \\sqrt { z ^ 3 + 14 } } d z\r\n":1039,"\\int _ { 0 } ^ { \\infty } \\frac { z } { \\sqrt { z ^ 3 + 14 } } d z\r\n":1040," 1":1041," e":1042," y":1043,"$C":1044,"$R":1045,"$V":1046,"$p":1047,"$s":1048,"(1":1049,"(z":1050,")}$\r\n":1051,") + \\cos":1052,"2 z":1053,"3}":1054,"3 }\r\n":1055,"3 z ^ 2":1056,"4 z":1057,"=\\frac{":1058,"C$\r\n":1059,"P }\r\n":1060,"R }\r\n":1061,"S } }\r\n":1062,"[X":1063,"\\left(":1064,"_A":1065,"g } }\r\n":1066,"l } }\r\n":1067,"}^{":1068,"})$\r\n":1069," } =":1070," } \\left (":1071," \\Delta":1072," } } -":1073,"\\mbox { t":1074," + { ":1075,"}{d":1076," \\right":1077," = 1\r\n":1078,"\\frac { 2 z":1079,"\\frac { 3 z ^ 2":1080,"{ \\mbox { y":1081,"\\sqrt { \\frac { 2 z":1082," } } { { \\mbox { ":1083,"_{ij":1084,"\\sin ^ 2 ( x ":1085," \\lambda":1086," } \\right ) = 1\r\n":1087," ^ 3 } { \\sqrt { ":1088,"\\sum { { ":1089,") = 1\r\n":1090,"$\\Delta ":1091,"{ \\cdots + ":1092,"{ \\cdots - ":1093," } - { ":1094," } { \\sqrt { 4 z":1095,"\\tan \\left ( \\frac { \\pi } { 4":1096,"{ \\cdots + { ":1097," ^ 2 ( x ) = 1\r\n":1098,") + \\cos ^ 2 ( x ) = 1\r\n":1099,"\\frac { 3 z ^ 2 } { \\sqrt { 4 z":1100,"\\sqrt { \\frac { 2 z ^ 3 } { \\sqrt { ":1101,"\\sin ^ 2 ( x ) + \\cos ^ 2 ( x ) = 1\r\n":1102,"\\tan \\left ( \\frac { \\pi } { 4 } \\right ) = 1\r\n":1103,"\\frac { 3 z ^ 2 } { \\sqrt { 4 z } } } } }\r\n":1104,"\\sqrt { \\frac { 2 z ^ 3 } { \\sqrt { \\frac { 3 z ^ 2 } { \\sqrt { 4 z } } } } }\r\n":1105," 2":1106," B":1107," R":1108," T":1109," s":1110,"$B":1111,"$N":1112,"$a":1113,"(u":1114,")}{":1115,")^2":1116,"10":1117,"2 } \\right ) =":1118,"C } }\r\n":1119,"E }\r\n":1120,"L }\r\n":1121,"M$\r\n":1122,"M } }\r\n":1123,"T_{":1124,"e }\r\n":1125,"g }\r\n":1126,"h }\r\n":1127,"i } }\r\n":1128,"k }\r\n":1129,"l }\r\n":1130,"p }\r\n":1131,"q } }\r\n":1132,"u }\r\n":1133,"x } }\r\n":1134,"z } } }\r\n":1135,"{ \\sin":1136,"{ \\beta":1137," } = ":1138," } \\left ( \\mbox { ":1139," } } } { \\mbox { ":1140,"\\mbox { f }\r\n":1141,"}{q":1142," - { ":1143,"{ \\mbox { g":1144," \\left ( \\theta":1145," } } { 3 }\r\n":1146," \\sum _ { ":1147," \\phi":1148,"\\left ( { \\mbox { ":1149," } \\right ) d":1150,"$\\mu":1151," } + { ":1152," \\theta\r\n":1153,"\\theta } { ":1154,"\\sigma\r\n":1155,"||^2":1156,"\\tan \\left ( \\frac { \\pi } { ":1157," } \\right ] }\r\n":1158," \\infty\r\n":1159," \\ldots, ":1160,"2 } \\right ) = \\infty\r\n":1161,"\\tan \\left ( \\frac { \\pi } { 2 } \\right ) = \\infty\r\n":1162," t":1163,"$2":1164,"$e":1165,"$g":1166,"$r":1167,"(0":1168,"(p":1169,"(\\alpha":1170,"-\\frac{":1171,"..":1172,"0 }\r\n":1173,"0 \\right ) = ":1174,"17":1175,"1 + \\frac { ":1176,"2 ":1177,"2 } \\right ) d":1178,"4.":1179,"5 }\r\n":1180,"B } }\r\n":1181,"G } }\r\n":1182,"L } }\r\n":1183,"N }\r\n":1184,"T$\r\n":1185,"V } }\r\n":1186,"Y\r\n":1187,"Y }\r\n":1188,"\\mathrm d":1189,"_3":1190,"_k":1191,"_t":1192,"a ^ 2":1193,"b }\r\n":1194,"c }\r\n":1195,"c } }\r\n":1196,"i\r\n":1197,"i } } }\r\n":1198,"k } } }\r\n":1199,"m\r\n":1200,"m }\r\n":1201,"m } }\r\n":1202,"ow":1203,"o } }\r\n":1204,"p\r\n":1205,"q\r\n":1206,"q d":1207,"rr":1208,"t } }\r\n":1209,"y } }\r\n":1210,"z\r\n":1211,"}+":1212,"{ Y":1213,"{ a":1214,"{ m":1215," } \\leq":1216," } \\lt":1217," \\mu":1218," } } } } { ":1219," ^ \\pi":1220,"\\frac { \\sqrt { ":1221,"{ \\mbox { C":1222,"tarr":1223,"_{n":1224,"\\phi }\r\n":1225,"\\sqrt { a ^ 2":1226,"_1 = ":1227," \\left ( 0 \\right ) = ":1228,"\\left ( \\sin":1229,"\\int _0":1230,"(x)$\r\n":1231," + 1 + b":1232," } \\right ) }\r\n":1233,"\\left [ { \\mbox { ":1234,"$\\forall":1235," \\cos \\left ( \\frac { ":1236," \\cos \\left ( x \\right ) ^ 2":1237,"\\mu\r\n":1238,"\\cos \\left ( 0 \\right ) = ":1239," + 3 \\cos \\left ( x \\right ) ^ 2":1240,"times (":1241," \\right ) ^ 4\r\n":1242," \\in E":1243," \\left ( x \\right ) ^ 2 + 3 \\cos \\left ( x \\right ) ^ 2":1244,"_1, \\ldots, ":1245,"}{dt":1246,"\\theta } { 2 } \\right ) d":1247,"1 + \\frac { \\sqrt { a ^ 2":1248," ^ \\pi \\cos \\left ( \\frac { ":1249,"tarrow":1250,"\\left ( \\sin \\left ( x \\right ) ^ 2 + 3 \\cos \\left ( x \\right ) ^ 2":1251,"\\int _0 ^ \\pi \\cos \\left ( \\frac { ":1252," + 1 + b } } { 3 }\r\n":1253,"\\cos \\left ( 0 \\right ) = 1\r\n":1254,"\\theta } { 2 } \\right ) d \\theta\r\n":1255,"1 + \\frac { \\sqrt { a ^ 2 + 1 + b } } { 3 }\r\n":1256,"\\left ( \\sin \\left ( x \\right ) ^ 2 + 3 \\cos \\left ( x \\right ) ^ 2 \\right ) ^ 4\r\n":1257,"\\int _0 ^ \\pi \\cos \\left ( \\frac { \\theta } { 2 } \\right ) d \\theta\r\n":1258," <":1259," j":1260," v":1261,"$0":1262,"$F":1263,"${":1264,"$\\int":1265,"$||":1266,"(-":1267,"(b":1268,"(\\theta":1269,", x":1270,"1 + \\cos":1271,"2}$\r\n":1272,"6 }\r\n":1273,"7 }\r\n":1274,"=X":1275,"A,":1276,"E } }\r\n":1277,"F }\r\n":1278,"G }\r\n":1279,"H } }\r\n":1280,"I } }\r\n":1281,"N\r\n":1282,"R } }\r\n":1283,"S_{":1284,"X } } }\r\n":1285,"_N":1286,"_d":1287,"_p":1288,"_1}":1289,"d }\r\n":1290,"e } }\r\n":1291,"f(x)":1292,"g\r\n":1293,"m}$\r\n":1294,"n } } }\r\n":1295,"o } } }\r\n":1296,"p}$\r\n":1297,"q } }":1298,"r}":1299,"r } }\r\n":1300,"s\r\n":1301,"s }\r\n":1302,"s^2":1303,"u$\r\n":1304,"w }\r\n":1305,"x$\r\n":1306,"x } } }\r\n":1307,"} = ":1308,"{ 8":1309,"{ d":1310,"{ n":1311,"{ { -":1312,"{ \\left ( \\mbox { ":1313," }{ ":1314," } = \\cos":1315," } \\gt":1316," \\left(":1317," \\mathrm{":1318," \\forall":1319,"\\mbox { I":1320,"\\mbox { H }\r\n":1321,"\\mbox { y }\r\n":1322,"\\mbox { v }\r\n":1323,"\\mbox { s }\r\n":1324," + \\tan":1325,"}{3}":1326,"qrt ":1327," \\rightarrow":1328," + 2":1329," } { { ":1330," } { \\cos":1331," \\right ) } } { 2":1332,"\\frac { \\sin \\left ( x \\right )":1333,"{ \\mbox { F":1334,"{ \\mbox { L":1335,"{ \\mbox { d":1336,"{ \\mbox { e":1337,"{ \\mbox { i":1338,"{ \\mbox { k":1339,"{ \\mbox { q":1340," x\r\n":1341," ^ 2 \\left ( \\theta":1342," \\frac { \\sin \\left ( x \\right ) + 1":1343,"_n$\r\n":1344,"_i$\r\n":1345," } ^ { { \\mbox { ":1346," } } ^ { { ":1347," ^ 3 \\left ( x \\right )":1348,"$\\Delta":1349,"$\\left":1350," \\left ( x \\right )\r\n":1351," \\theta \\right )\r\n":1352," \\left ( x \\right ) } } d":1353," \\left ( x \\right ) } =":1354," } - { \\mbox { ":1355," } { \\sqrt { \\cos":1356,"\\int { ":1357,"\\int \\frac { \\sin \\left ( x \\right ) + 1":1358,"\\alpha\r\n":1359," } } _ { { ":1360,"\\lambda":1361,"\\cos ":1362,"{ \\cdots + { \\mbox { ":1363," \\left ( 2 \\theta \\right )\r\n":1364,"(t)":1365," \\left [ \\mbox { ":1366," { - \\mbox { ":1367,"\\right)$\r\n":1368," \\tan \\left ( x \\right )\r\n":1369,"\\int ^ { ":1370,"\\frac { \\sqrt { 1 + \\cos":1371," } = \\cos \\left ( 2 \\theta \\right )\r\n":1372," + \\tan \\left ( x \\right ) } } d":1373," } { \\cos \\left ( x \\right ) } =":1374," \\right ) } } { 2 } = \\cos \\left ( 2 \\theta \\right )\r\n":1375,"\\frac { \\sin \\left ( x \\right ) } { \\cos \\left ( x \\right ) } =":1376," ^ 2 \\left ( \\theta \\right ) } } { 2 } = \\cos \\left ( 2 \\theta \\right )\r\n":1377," ^ 3 \\left ( x \\right ) + \\tan \\left ( x \\right ) } } d":1378," } { \\sqrt { \\cos ^ 3 \\left ( x \\right ) + \\tan \\left ( x \\right ) } } d":1379,"\\int \\frac { \\sin \\left ( x \\right ) + 1 } { \\sqrt { \\cos ^ 3 \\left ( x \\right ) + \\tan \\left ( x \\right ) } } d":1380,"\\frac { \\sqrt { 1 + \\cos ^ 2 \\left ( \\theta \\right ) } } { 2 } = \\cos \\left ( 2 \\theta \\right )\r\n":1381,"\\frac { \\sin \\left ( x \\right ) } { \\cos \\left ( x \\right ) } = \\tan \\left ( x \\right )\r\n":1382,"\\int \\frac { \\sin \\left ( x \\right ) + 1 } { \\sqrt { \\cos ^ 3 \\left ( x \\right ) + \\tan \\left ( x \\right ) } } d x\r\n":1383," C":1384," E":1385," P":1386," f":1387,"!$\r\n":1388,"$c":1389,"$t":1390,"$w":1391,"(2":1392,"(R":1393,"(k":1394,"(n":1395,"(r":1396,"(w":1397,") - ":1398,"+1":1399,"+\\frac{":1400,"+1}":1401,"0}$\r\n":1402,"1 }\r\n":1403,"2} ":1404,"4 }\r\n":1405,"56":1406,"A }\r\n":1407,"B } + ":1408,"E } } }\r\n":1409,"G$\r\n":1410,"L}{":1411,"L } } }\r\n":1412,"M }\r\n":1413,"M } } }\r\n":1414,"R\r\n":1415,"S } }":1416,"S }\r\n":1417,"S } } }\r\n":1418,"S } } { ":1419,"T }\r\n":1420,"V } } }\r\n":1421,"\\Delta ":1422,"\\mathrm{":1423,"\\neq":1424,"^\\prime":1425,"_B":1426,"_m":1427,"_v":1428,"a|":1429,"a\r\n":1430,"e } } }\r\n":1431,"e}^{":1432,"gamma":1433,"l } } { \\mbox { ":1434,"m } }":1435,"m^2":1436,"n } }\r\n":1437,"p } } }\r\n":1438,"p}{q":1439,"q$\r\n":1440,"q }\r\n":1441,"r }\r\n":1442,"r } } _ { \\mbox { ":1443,"s } }\r\n":1444,"t}$\r\n":1445,"t^2":1446,"t } } }\r\n":1447,"x\r\n":1448,"{\\mbox{":1449,"}\r\n":1450,"{ 1":1451,"{ b":1452,"{ f":1453,"{ y":1454,"{ z":1455,"{ \\sum { ":1456,"{ \\alpha":1457,"{ \\frac { \\mbox { ":1458,"{ \\Delta":1459," }$\r\n":1460," } \\sum { ":1461," \\}$\r\n":1462," \\Delta ":1463," \\times (":1464," } } \\right ]":1465," } } + { ":1466,"\\mbox { i":1467,"\\mbox { n }\r\n":1468,"\\mbox { z }\r\n":1469,"\\mbox { R }\r\n":1470,"\\mbox { b }\r\n":1471," + { \\mbox { ":1472,"\\sqrt ":1473,"}{1-":1474," + A":1475," \\right ) } ^ { \\mbox { ":1476," = u":1477,"{ \\mbox { G":1478,"{ \\mbox { N":1479,"{ \\mbox { P":1480,"{ \\mbox { R":1481,"{ \\mbox { X":1482,"{ \\mbox { a":1483,"{ \\mbox { j":1484,"{ \\mbox { m":1485,"{ \\mbox { o":1486,"{ \\mbox { v":1487,"_{n}":1488,"\\frac{d":1489,"{ - \\sum { ":1490,"{ - \\sum _ { ":1491,"_1, ":1492,"_i}{":1493,"_i^2":1494,"\\left ( { -":1495,"}\\right":1496,"}\\neq":1497,"\\left [ \\sum { \\mbox { ":1498,"$\\l":1499,"$\\gamma":1500,"{ \\cdots + \\mbox { ":1501,"_2,":1502,"_0}$\r\n":1503,"\\int { \\mbox { ":1504,"^{\\prime}}":1505,"\\lt":1506,"(x)=":1507," \\leq ":1508,"$f(":1509,"||y":1510,"^{\\prime},":1511,"\\tan ":1512,"\\tan \\mbox { ":1513," \\geq ":1514," \\geq \\mbox { ":1515,"left(x":1516,"\\sqrt{3":1517,"\\infty}":1518,"(t)$\r\n":1519,"(t) = ":1520,"^{-1}":1521," \\sigma }\r\n":1522,"\\int ^ { \\mbox { ":1523,"$\\left|":1524," .":1525," 6":1526," >":1527," A":1528," M":1529," N":1530," X":1531," Y":1532," i":1533," w":1534," $\r\n":1535," ) = ":1536,"$4":1537,"$i":1538,"$k":1539,"$m":1540,"$\\frac {":1541,"(E":1542,"(G":1543,"(P":1544,"(S":1545,"(f":1546,"(s":1547,"({":1548,"(1-":1549,"))$\r\n":1550,") = \\frac{1}{":1551,"))=":1552,"+4":1553,"+q":1554,"+v":1555,"+w":1556,"+1)":1557,"+1}$\r\n":1558,"+\\ldots":1559,",1":1560,"-v":1561,"-1)":1562,"-1}$\r\n":1563,"-\\mbox{":1564,"0 } }\r\n":1565,"1/":1566,"1{":1567,"1)}":1568,"2$\r\n":1569,"2 \\right )\r\n":1570,"20\r\n":1571,"36":1572,"5X":1573,"6$\r\n":1574,"6 \\right )\r\n":1575,"7 } }\r\n":1576,"8 + ":1577,"9 }\r\n":1578,"<y":1579,"=1":1580,"=\\sum":1581,"=0$\r\n":1582,"=1$\r\n":1583,"A}":1584,"A } }":1585,"A } } }\r\n":1586,"B_":1587,"B } { ":1588,"B } { \\mbox { ":1589,"Cs":1590,"F } }\r\n":1591,"F } d":1592,"H } { ":1593,"LL":1594,"L } } { ":1595,"L_1":1596,"L } \\right )\r\n":1597,"M } { ":1598,"M_{":1599,"M)$\r\n":1600,"N } } }\r\n":1601,"P[":1602,"P\r\n":1603,"P } _ { ":1604,"R}{":1605,"R } } }\r\n":1606,"S$\r\n":1607,"T\r\n":1608,"T } }\r\n":1609,"T } } }\r\n":1610,"V$\r\n":1611,"V_{":1612,"V(X":1613,"X\r\n":1614,"X_2":1615,"\\times":1616,"_4":1617,"_r":1618,"a } }":1619,"a }\r\n":1620,"a } }\r\n":1621,"b\r\n":1622,"b } } }\r\n":1623,"c}$\r\n":1624,"di":1625,"ex":1626,"e\r\n":1627,"e^{":1628,"f\r\n":1629,"g } }":1630,"g}$\r\n":1631,"g = ":1632,"h\r\n":1633,"h } } { \\mbox { ":1634,"is":1635,"j}":1636,"j\r\n":1637,"j } } { \\mbox { ":1638,"l } \\right )\r\n":1639,"mo":1640,"n } { ":1641,"p_{":1642,"q}$\r\n":1643,"q } } }\r\n":1644,"r } { ":1645,"r } } }\r\n":1646,"s}":1647,"s } }":1648,"te":1649,"t)$\r\n":1650,"v } }":1651,"w } }\r\n":1652,"x }\r\n":1653,"x||^2":1654,"y_i":1655,"z } }\r\n":1656,"z } } ^ { ":1657,"{A,":1658,"}-":1659,"} = \\frac{":1660,"} \\right":1661,"{ 3":1662,"{ S":1663,"{ g":1664,"{ p":1665,"{ q":1666,"{ u":1667,"{ x":1668,"{ \\frac { ":1669,"{ \\sigma":1670,"{ \\mu":1671,"{ 8.":1672,"{ \\left [ \\mbox { ":1673,"{ 7.":1674," } \\int ":1675," \\!$\r\n":1676," } } + ":1677," } } \\left (":1678," } } - ":1679,"\\mbox { E":1680,"\\mbox { o":1681,"\\mbox { e }\r\n":1682,"\\mbox { h }\r\n":1683,"\\mbox { k }\r\n":1684,"\\mbox { p }\r\n":1685,"\\mbox { m }\r\n":1686,"\\mbox { G }\r\n":1687," + \\alpha":1688," = -":1689," = \\sqrt{":1690,"}{k":1691,"\\frac 1":1692," - { \\mbox { ":1693," - x":1694," + x":1695," + z":1696," } { \\sum { ":1697,"^2)":1698,"^2)$\r\n":1699," = R":1700," = n":1701," = w":1702," \\mbox { u } }\r\n":1703," \\mbox { m } } }\r\n":1704,"\\frac { r } { ":1705,"{ \\mbox { A":1706,"{ \\mbox { V":1707,"{ \\mbox { Y":1708,"{ \\mbox { c":1709,"{ \\mbox { l":1710,"{ \\mbox { p":1711,"{ \\mbox { w":1712,"{ \\mbox { x":1713,"^{\\gamma":1714,"^{(n-":1715,"_{N":1716,"_{k":1717,"_{v":1718,"\\frac{\\alpha":1719,"{ - \\int ":1720,"{ - \\int \\mbox { ":1721,"{ - \\sigma }\r\n":1722," } } { \\frac { ":1723,"_n = ":1724,"_n)$\r\n":1725," \\phi }\r\n":1726," a ,":1727,"$\\frac{d":1728,"\\left ( \\sqrt { ":1729,"im_{":1730,"n-1}$\r\n":1731,"\\sin(\\theta":1732,"x_k":1733,"}}\r\n":1734,"}}}\r\n":1735," } \\right ) } ^ { ":1736," \\pi }\r\n":1737,") = 0$\r\n":1738,"$\\mathrm d":1739,"$\\ex":1740," } + \\left ( ":1741," } + \\sum { ":1742," } } _ { \\mbox { j } }\r\n":1743," } } _ { \\mbox { m } } }\r\n":1744," } - \\sqrt { ":1745," } - \\sum { ":1746," } dV }\r\n":1747,"{ - I":1748," \\sin \\theta":1749,"\\int \\mbox { ":1750,"\\alpha_0":1751,"} M":1752,"^{\\prime}\\":1753,"{ - \\mbox { h":1754,"\\mu }\r\n":1755,"\\cos { ":1756," c^2":1757,"\\gt":1758,", R":1759,"^{\\prime} = ":1760,"^{\\prime})$\r\n":1761,")=\\frac{":1762,"\\gamma\r\n":1763," \\sum { \\mbox { H":1764,"_j$\r\n":1765," } + \\mbox { R } } }\r\n":1766,"$(p":1767,"$10":1768,"0.7\r\n":1769,"\\left ( 2 \\right )\r\n":1770,"$E = ":1771," } } } { \\sqrt { \\mbox { ":1772,"\\sqrt { { \\mbox { V":1773,"$T_{":1774,"\\sqrt{2}":1775," \\in [":1776,"^{-1}$\r\n":1777,"$I_{":1778,"{ \\mbox { z } } ^ { ":1779," } - \\mbox { X } } }\r\n":1780,"3.1\r\n":1781," \\mathrm dx":1782,"0000":1783,"\\ldots,":1784," e^{":1785,"$C_":1786,"(z)$\r\n":1787,"[X]":1788," } \\left ( { ":1789," } } - { \\mbox { ":1790,"{ \\sin } ^ { ":1791,"{ \\sin } ^ { \\mbox { ":1792," \\phi } }\r\n":1793," \\in E$\r\n":1794,"$\\int_{":1795," f(x":1796,"(r)$\r\n":1797,"$\\lim_{":1798,"Cste":1799,"M_{u":1800,"ists":1801,"\\frac 1{":1802,"^{(n-1)}":1803,"$\\exists":1804," )":1805," 0":1806," 4":1807," F":1808," L":1809," o":1810," q":1811," u":1812," )$\r\n":1813," 0$\r\n":1814," 5\r\n":1815," ||":1816," m ":1817," M$\r\n":1818,"$-":1819,"$l":1820,"$z":1821,"$V_":1822,"$\\phi":1823,"$\\sqrt ":1824,"(B":1825,"(F":1826,"(L":1827,"(T":1828,"(\\frac{":1829,"( r":1830,"( x ":1831,"),":1832,") + ":1833,")^{":1834,")\\times ":1835,")<y":1836,"+C":1837,"+i":1838,"+m":1839,"+o":1840,"+1$\r\n":1841,"+\\infty}":1842,",2":1843,",9":1844,",F":1845,",H":1846,",b":1847,",s":1848,",v":1849,", a":1850,"- ":1851,"-1":1852,"-2":1853,"-3":1854,"-4":1855,"-a":1856,"-u":1857,"-y":1858,"-z":1859,"-1}":1860,".I":1861,".s":1862,".{":1863,".\\Delta ":1864,".B_":1865,"0, x":1866,"1+":1867,"1,":1868,"1 -":1869,"1_{":1870,"1 \\times ":1871,"110":1872,"20":1873,"2^{":1874,"2)$\r\n":1875,"22\r\n":1876,"33":1877,"3 } }\r\n":1878,"31\r\n":1879,"33\r\n":1880,"48":1881,"4 } }\r\n":1882,"4 } -":1883,"4+2":1884,"45 }\r\n":1885,"5 ":1886,"5 - ":1887,"64":1888,"6 -":1889,"6 } }\r\n":1890,"6} ":1891,"75":1892,"85":1893,"8 } }\r\n":1894,"8 \\right )\r\n":1895,"83\r\n":1896,"95":1897,"9 d":1898,"=S":1899,"=f":1900,"=1}":1901,"=0}":1902,"A } } { ":1903,"A } } _ { \\mbox { ":1904,"A + \\mbox { ":1905,"A}{dt":1906,"B$\r\n":1907,"B } } }\r\n":1908,"B } } ^ { ":1909,"B \\times ":1910,"B\\left(":1911,"C } }":1912,"C }\r\n":1913,"C^2":1914,"C_{":1915,"C_1":1916,"C } \\right )\r\n":1917,"C - \\mbox { ":1918,"E\r\n":1919,"E_{":1920,"E - ":1921,"E } } _ { \\mbox { ":1922,"E } { \\mbox { ":1923,"E } } } }\r\n":1924,"E(X":1925,"F \\mbox { ":1926,"F } } }\r\n":1927,"F } \\mbox { ":1928,"F } } } { ":1929,"F } } } ^ { ":1930,"G}$\r\n":1931,"G } } }\r\n":1932,"G } \\right )\r\n":1933,"H\r\n":1934,"H } } _ { \\mbox { ":1935,"I_":1936,"I\r\n":1937,"I } { ":1938,"I } } }\r\n":1939,"L } }":1940,"L$\r\n":1941,"L } { ":1942,"L } d":1943,"L } } { \\mbox { ":1944,"L } + ":1945,"L } + \\mbox { ":1946,"L - \\mbox { ":1947,"M } }":1948,"M_1":1949,"M_2":1950,"M - \\mbox { ":1951,"Nk":1952,"N + ":1953,"N } } ^ { ":1954,"N } } _ { \\mbox { ":1955,"N } \\right )\r\n":1956,"N } } \\right )\r\n":1957,"P}{":1958,"P } } }\r\n":1959,"P } \\mbox { ":1960,"P - \\mbox { ":1961,"P^\\prime":1962,"P_{v":1963,"R}":1964,"R$\r\n":1965,"R}$\r\n":1966,"S d":1967,"S_1":1968,"S } } _ { ":1969,"T/":1970,"T}":1971,"T}$\r\n":1972,"T } } _ { \\mbox { ":1973,"T } ":1974,"T } - ":1975,"T } } - { \\mbox { ":1976,"V\r\n":1977,"V = ":1978,"V } } { \\mbox { ":1979,"V } \\right ]\r\n":1980,"X_1":1981,"X_t":1982,"X_n$\r\n":1983,"Y } }":1984,"Y } }\r\n":1985,"Y } } \\right )\r\n":1986,"[i":1987,"\\}":1988,"\\righ":1989,"\\}$\r\n":1990,"\\leq":1991,"\\ 1":1992,"\\times (":1993,"\\left(x":1994,"^5":1995,"^i":1996,"^t":1997,"^m ":1998,"^\\infty":1999,"_L":2000,"_c":2001,"_f":2002,"_o":2003,"_u":2004,"_y":2005,"_ { \\mbox { ":2006,"_m ":2007,"ar":2008,"at":2009,"a } } ^ { ":2010,"a (":2011,"b$\r\n":2012,"b } }\r\n":2013,"b_1":2014,"b } } ^ { ":2015,"b } d":2016,"b} ":2017,"b } _ { \\mbox { ":2018,"b^{-1}":2019,"ce":2020,"c\r\n":2021,"c + ":2022,"c}}$\r\n":2023,"car":2024,"d}":2025,"d } }":2026,"d}$\r\n":2027,"d } } }\r\n":2028,"d } } } { \\mbox { ":2029,"e } } _ { \\mbox { ":2030,"e } d":2031,"e } _ { ":2032,"f(a":2033,"f(x) = ":2034,"f(p":2035,"g}":2036,"g } } }\r\n":2037,"g } } ^ { ":2038,"g(y":2039,"h } ":2040,"h } + \\mbox { ":2041,"h } - ":2042,"h } } } { \\mbox { ":2043,"h } } \\right ]":2044,"h } - \\mbox { X } } }\r\n":2045,"ir":2046,"i$\r\n":2047,"i - ":2048,"i\\theta":2049,"i } { \\mbox { ":2050,"i } _ { \\mbox { ":2051,"ij}":2052,"j } } }\r\n":2053,"jt }\r\n":2054,"j } } \\right )\r\n":2055,"j } } } { \\mbox { ":2056,"k } }":2057,"k } }\r\n":2058,"k - ":2059,"k}}{":2060,"k } { \\mbox { ":2061,"l$\r\n":2062,"l } \\left ( \\mbox { ":2063,"l - { ":2064,"l_i^2":2065,"m = ":2066,"m_{":2067,"m } } } }\r\n":2068,"m+m":2069,"nP":2070,"n\r\n":2071,"n$\r\n":2072,"n } } d":2073,"n^{\\prime}}":2074,"o\r\n":2075,"o$\r\n":2076,"o \\left (":2077,"o } } ^ { ":2078,"o } \\right ]\r\n":2079,"p/":2080,"p}":2081,"p } }":2082,"p } }\r\n":2083,"p } } { ":2084,"p^{-":2085,"q } _ { ":2086,"q \\left ( \\mbox { ":2087,"r } }":2088,"r^2":2089,"r } } { ":2090,"r } ^ { \\mbox { ":2091,"s } } }\r\n":2092,"s } } { ":2093,"s } } _ { \\mbox { ":2094,"s } } \\right ]\r\n":2095,"t } _ { \\mbox { ":2096,"u\r\n":2097,"u } }":2098,"u + ":2099,"u_2$\r\n":2100,"u(0":2101,"u}{3}":2102,"v$\r\n":2103,"v^2$\r\n":2104,"v } } } }\r\n":2105,"v^2}{":2106,"v}{3}":2107,"v 6":2108,"v \\sin \\theta":2109,"w } \\right )\r\n":2110,"w } } d":2111,"w - \\mbox { ":2112,"w } \\left ( ":2113,"w_{ij":2114,"x}":2115,"x)$\r\n":2116,"x } _ { ":2117,"x \\rightarrow":2118,"y\r\n":2119,"y } } }\r\n":2120,"y_n":2121,"z|":2122,"z } }":2123,"z$\r\n":2124,"z } { ":2125,"z d":2126,"z - ":2127,"z)$\r\n":2128,"z } d":2129,"z } _ { ":2130,"{0":2131,"{v":2132,"{y":2133,"{{":2134,"|$\r\n":2135,"|a|":2136,"|z|":2137,"})":2138,"} -":2139,"}^2":2140,"{ 0":2141,"{ 2":2142,"{ 5":2143,"{ B":2144,"{ M":2145,"{ T":2146,"{ V":2147,"{ j":2148,"{ k":2149,"{ v":2150,"{ t ":2151,"{ \\int ":2152,"{ \\theta":2153,"{ \\gamma":2154,"{ 3.":2155,"{ \\left [ \\sum { \\mbox { ":2156,"{ \\sqrt { { \\mbox { V":2157,"{ l - { ":2158," } \\lt ":2159," } \\gt ":2160," \\neq":2161," \\di":2162," \\{A,":2163," } } } d":2164," } } \\lt":2165,"t +":2166,"t =":2167,"t d":2168,"\\mbox { g":2169,"\\mbox { h":2170,"\\mbox { n":2171,"\\mbox { o }\r\n":2172,"\\mbox { V }\r\n":2173,"\\mbox { P }\r\n":2174,"\\mbox { E }\r\n":2175,"\\mbox { L }\r\n":2176,"\\mbox { g }\r\n":2177,"\\mbox { u }\r\n":2178,"\\mbox { Y }\r\n":2179,"\\mbox { d }\r\n":2180,"\\mbox { w }\r\n":2181,"\\mbox { A }\r\n":2182,"\\mbox { S }\r\n":2183,"\\mbox { q }\r\n":2184,"\\mbox { a }\r\n":2185,"\\mbox { l } \\left ( \\mbox { ":2186," + \\sum { \\mbox { ":2187," + \\ldots":2188," + \\frac { \\mbox { ":2189," = \\":2190," = { \\mbox { ":2191," = \\sum { \\mbox { ":2192," \\frac1{":2193,"}{3":2194,"}{L":2195,"}{V":2196,"}{\\gamma":2197,"}{4}$\r\n":2198,"}{V_":2199,"}{\\sqrt{3":2200," - \\frac{1}{":2201," - \\sum { ":2202," - \\sum { \\mbox { ":2203," -x||^2":2204," - \\phi } }\r\n":2205," + n } } }\r\n":2206," + ||y":2207," + Cste":2208," { \\mbox { g":2209," \\frac{\\alpha":2210," \\frac{a}{b":2211," \\frac{L}{":2212," ^ {":2213," } { { - ":2214," } { { - \\mbox { ":2215," \\right ) d":2216,"\\sqrt17":2217,"^2\\frac{":2218,"^2}=":2219," = (":2220," = 2":2221," = A":2222," = I":2223," = c":2224," = m^2":2225," \\mbox { R } }\r\n":2226,"\\frac { N":2227,"\\frac { R":2228,"\\frac { \\phi":2229,"\\frac { M } { ":2230,"\\frac { z } { ":2231,"{ \\mbox { E":2232,"{ \\mbox { M":2233,"{ \\mbox { f":2234,"{ \\mbox { h":2235,"{ \\mbox { r":2236,"{ \\mbox { r } } _ { \\mbox { ":2237,"{ \\mbox { b } } ^ { ":2238,"1}{E":2239,"1}{P":2240,"1}{n}":2241,"^{2":2242,"^{4":2243,"^{x_":2244,"^{+\\infty}":2245,"^{b} ":2246,"^{ij}":2247," x$\r\n":2248,"_{-":2249,"_{j":2250,"_{s":2251,"_{2}":2252,"_{LL":2253,"\\sqrt { \\alpha":2254,"\\sqrt { \\frac { \\mbox { ":2255,"\\sqrt { H }\r\n":2256,"\\sqrt { y }\r\n":2257,"\\sqrt { { \\cdots + ":2258," d }\r\n":2259,"\\sum{\\mbox{":2260,"\\frac{2":2261," - q } }\r\n":2262," - F }\r\n":2263,"{ - \\frac { ":2264,"{ - \\sqrt { ":2265,"{ - r":2266,"{ - \\sum { \\mbox { ":2267," } } { \\sqrt { ":2268," } } { c }\r\n":2269,"\\pi } ^ { ":2270,"max":2271,"_1+":2272,"_1-":2273,"_1=":2274,"_1)$\r\n":2275,"_1(x)":2276,"_i-":2277,"_i)}{":2278," } ^ { d":2279," } ^ { \\sqrt { ":2280," } ^ { { - ":2281," } ^ { \\alpha":2282," \\left ( p":2283," a$\r\n":2284,"$\\frac{V_":2285,"$\\frac{m+m":2286,"}{2}\\right":2287,"\\left ( \\sum { ":2288,"\\left ( \\int ":2289,"\\left ( \\left [":2290,"_{i+1}":2291," \\right ] \\right )\r\n":2292,"\\int 9 d":2293,"\\int _ { \\mbox { ":2294,"(x_i":2295,"\\sin } ^ { ":2296,"x_0, x":2297,"^3}$\r\n":2298," \\log":2299,"}}}{":2300," } \\right ) \\right )\r\n":2301," } \\right ) } ^ { \\mbox { ":2302,"\\left [ \\sum { ":2303,"\\left [ { -":2304,"\\left [ \\frac { \\mbox { ":2305," } } ^ { X } }\r\n":2306," } } ^ { g } }\r\n":2307," z }\r\n":2308,"4}(-":2309,"\\sum { \\sqrt { ":2310,"\\sum { n }\r\n":2311,"\\sum { { \\mbox { y":2312,"\\sum { d }\r\n":2313,"\\sum { M }\r\n":2314,"\\sum { \\mu }\r\n":2315,") = p":2316,"$\\mathrm{":2317," } + { \\mbox { ":2318," } + \\frac { ":2319," } + \\frac { \\mbox { ":2320," } + \\sqrt { \\mbox { ":2321," } } _ { \\mbox { z":2322," } } _ { \\mbox { I } }\r\n":2323," } } _ { \\mbox { n } }\r\n":2324,"_2(":2325,"_2]$\r\n":2326,"n+1}":2327,"n+1)":2328,"n+n^{\\prime}}":2329," \\theta }\r\n":2330," } - \\frac { ":2331," } - \\left ( ":2332," } - \\gamma":2333," } - \\lambda":2334," } - \\left ( \\theta":2335," = \\frac{1}{2} ":2336," = \\frac{1}{4}(-":2337,"(a)=":2338,"}}{n+n^{\\prime}}":2339," } dz\r\n":2340," } ds\r\n":2341,"{ - H }\r\n":2342,"{ - u }\r\n":2343," ( \\cos":2344," ( a ,":2345," (\\alpha_0":2346,"$P(X":2347,"_0)$\r\n":2348,"_0, ":2349,"_0^{x_":2350,"\\int_{":2351,"\\int { - \\mbox { ":2352,"\\beta\r\n":2353," \\sqrt{17":2354,"\\alpha } }\r\n":2355,"\\alpha}$\r\n":2356,"} {":2357," + a(p":2358,"^{\\prime}$\r\n":2359,"^{\\prime}}{n+n^{\\prime}}":2360,"$S_{":2361,"$S_n":2362,"$S_2":2363," } } _ { \\sigma":2364," } } _ { \\phi }\r\n":2365," - \\frac{L}{":2366,"{ - \\mbox { H":2367,"{ - \\mbox { i } }\r\n":2368,"{ - \\mbox { t } }\r\n":2369," b ,":2370,"\\frac { \\mbox { Y":2371,"\\frac { \\mbox { y":2372,"\\frac { \\mbox { p } } { ":2373,"\\frac { \\mbox { s } } { ":2374," } _ { { \\mbox { C":2375," } ^ { \\mbox { k } }":2376,"\\sigma } }\r\n":2377,"\\sqrt { \\mbox { A } }\r\n":2378,"\\sqrt { \\mbox { v } }\r\n":2379,"\\sqrt { \\mbox { j } } } { \\mbox { ":2380,"\\mu}$\r\n":2381," } } { \\mbox { f } }\r\n":2382,"\\cos \\frac { ":2383,"\\cos } ^ { ":2384,"$f^{\\prime}\\":2385,"1)\\times ":2386,"||$\r\n":2387," } H }\r\n":2388,", F":2389," \\alpha\r\n":2390,"^{\\prime} = \\frac{":2391,")=0$\r\n":2392,"^n$\r\n":2393,"\\gamma }\r\n":2394," \\sum { \\mbox { i } } }\r\n":2395," \\sum { \\mbox { j } } }\r\n":2396," } + l } }\r\n":2397," } \\mbox { m } }":2398," + \\mbox { e } }\r\n":2399," + \\mbox { o } } }\r\n":2400," + \\mbox { r } } }\r\n":2401,"\\frac { { { - ":2402,"\\sqrt { { o":2403,"\\sqrt { { { - ":2404,"\\sqrt { { \\mu":2405,"\\sqrt { { 8 + ":2406," } + \\mbox { s } } \\right ]\r\n":2407,"$(A":2408,"$(S":2409,"$(v":2410,"^k$\r\n":2411,"c^2 \\Delta ":2412," - \\mbox { Y":2413,"{ { \\left ( ":2414,"\\sum _ { { u":2415,"\\sum _ { { g = ":2416,"$S = \\frac1{":2417,"0.0":2418,"0.1":2419,"0.6\r\n":2420,"0.8\r\n":2421,"{ { \\mbox { P":2422,"{ { \\mbox { T":2423,"{ { \\mbox { r } } _ { \\mbox { ":2424,"$u_n":2425,"p_n(v":2426," } \\left ( b":2427,"1}{2}":2428,"\\left ( 6 \\right )\r\n":2429,"$n = \\frac{":2430,"a}^{b} ":2431," } \\right ] } ^ { ":2432," } \\right ] } ^ { { ":2433," } } } { \\left [ ":2434,"\\sum { \\mbox { u } }\r\n":2435,"\\sum { \\mbox { P } }\r\n":2436,"\\sum { \\mbox { E } }\r\n":2437,"$Li":2438,"(n+k":2439,"\\sqrt { { \\mbox { X":2440,"\\sqrt { { \\mbox { n":2441,"\\sqrt { { \\mbox { h } - \\mbox { X } } }\r\n":2442," \\int { \\mbox { ":2443," \\int S d":2444," \\lt \\sum { ":2445," \\lt \\int":2446,"(X,":2447,"(X)$\r\n":2448," } } } ^ { \\sum { ":2449," \\in S$\r\n":2450,"\\log \\mbox { ":2451," } } ^ { \\mbox { V } }\r\n":2452," } } ^ { \\mbox { c } }\r\n":2453,"1 + 2":2454,"6.2 }\r\n":2455,"6.4\r\n":2456,"6.7\r\n":2457,"8.4\r\n":2458," { - { \\mbox { ":2459,"^{-n}":2460,"$H_":2461,"2.9":2462,"2.9\r\n":2463,"2.6\r\n":2464,"2.8\r\n":2465,"\\right|":2466,"{ \\mbox { z } } _ { \\mbox { ":2467," \\gt \\mbox { ":2468," \\infty}":2469,"\\left [ \\mbox { h":2470,"{ \\cdots - { ":2471,"{ \\cdots - \\sqrt { \\mbox { ":2472," } - \\mbox { M } } }\r\n":2473,"7.1\r\n":2474,"{ - { \\mbox { c":2475,"3.3\r\n":2476,"9.4":2477,"V_s":2478,"{ { - \\mbox { T } } - { \\mbox { ":2479," \\times l":2480," \\mathrm dx$\r\n":2481," = \\frac {P":2482," \\gt p":2483,"1.3\r\n":2484,"{ \\sqrt { \\mbox { F } } } ^ { ":2485," \\beta d":2486," \\beta } } { \\mbox { ":2487,"{ \\mbox { u } } ^ { ":2488,"{ \\mbox { u } } _ { ":2489," } } ^ { { \\mbox { P":2490," } } ^ { { \\mbox { h } + \\mbox { ":2491,"\\sum _ { { \\mbox { n":2492," \\int \\mbox { E":2493,"5.7 }\r\n":2494," } \\geq \\mbox { ":2495," } \\geq \\sum { ":2496,"{ \\mbox { t } } _ { ":2497,"{ \\mbox { t } \\int ":2498,"\\left ( { A + \\mbox { ":2499,"\\left [ { t +":2500," 1 - \\frac{L}{":2501,"$V = ":2502,"$sp_{":2503,"(1/":2504,"(1)$\r\n":2505,"(z)=":2506,"(z)<y":2507," \\Delta\r\n":2508,"\\mbox { tX }\r\n":2509," \\right)$\r\n":2510,"_{ij}$\r\n":2511," \\lambda }\r\n":2512," \\lambda \\right )\r\n":2513,"$\\Delta H":2514,"$N = ":2515,"T_{m":2516,"(0, R":2517,"(\\alpha+":2518,"....":2519,"_k$\r\n":2520,"_t)":2521,"{ Y + \\mbox { e } }\r\n":2522,"{ a } ^ { ":2523,"{ m } _ { \\mbox { ":2524," } } } } { \\left [":2525," \\in E, ":2526," j\r\n":2527," v} M":2528,"(b)":2529,"A, \\forall":2530,"q } } } ^ { \\mbox { ":2531,"{ n } ^ { { - ":2532," \\left( 1 - \\frac{L}{":2533,"\\mbox { I }\r\n":2534," \\rightarrow \\infty}":2535," + 256":2536,"{ \\mbox { e } + \\left ( ":2537,"{ \\mbox { i } } _ { \\mbox { m } } }\r\n":2538,"\\cos 2\r\n":2539," C } \\right )\r\n":2540,"$w_k":2541,"(R)$\r\n":2542,"(k,":2543,"+1)$\r\n":2544,"\\mathrm{e}^{":2545,"_m$\r\n":2546,"m^2c":2547,"t^2 -":2548,"\\mbox { iz":2549,"}{1-\\alpha}$\r\n":2550,"{ \\mbox { X } ":2551,"_2,\\ldots,":2552," \\geq H":2553,"\\sqrt{34+2":2554,"\\int ^ { \\mbox { H":2555," . R":2556," > t":2557,"(G)$\r\n":2558,"(S)":2559,"(s)$\r\n":2560,"=10$\r\n":2561,"A } } j\r\n":2562,"P[x_0, x":2563,"moy":2564,"z } } ^ { \\sqrt { \\mbox { j } } } { \\mbox { ":2565,"{ 7.7":2566,"\\frac{\\alpha}{2}\\right":2567,"{ \\sin } ^ { \\mbox { A } } j\r\n":2568,"$\\lim_{x \\rightarrow":2569,"M_{u v} M":2570," L }{ ":2571,"$\\sqrt [":2572,".\\Delta t$\r\n":2573,"1 - \\sqrt{17":2574,"B\\left(V":2575,"E(X)^2":2576,"\\ 1110":2577,"_u = ":2578,"card}":2579,"f(x) = l$\r\n":2580,"h } } \\right ] \\lt \\sum { ":2581,"|a|}":2582,"|z|\\mathrm{e}^{":2583,"} - \\frac {":2584,"{ \\left [ \\sum { \\mbox { h } } \\right ] \\lt \\sum { ":2585,"{ \\sqrt { { \\mbox { V } + ":2586," \\div 6":2587," \\frac{\\alpha \\pi":2588," \\frac{a}{b}$\r\n":2589,"\\frac { M } { { \\mbox { u } } ^ { ":2590,"\\frac { z } { { \\mbox { i } } _ { \\mbox { m } } }\r\n":2591,"1}{n}V(X":2592,"\\sqrt { \\alpha }\r\n":2593,"\\sqrt { { \\cdots + u } }\r\n":2594," } ^ { \\alpha } ":2595,"$\\frac{m+m^{\\prime}}{n+n^{\\prime}}":2596," } - \\gamma } }\r\n":2597," } - \\lambda } }\r\n":2598," } - \\left ( \\theta \\right ) }\r\n":2599," = \\frac{1}{2} k":2600," = \\frac{1}{4}(-1 - \\sqrt{17":2601,"$f^{\\prime}\\left(x":2602,"c^2 \\Delta t^2 -":2603,"\\sum _ { { g = z } } ^ { \\sqrt { \\mbox { j } } } { \\mbox { ":2604,"$S = \\frac1{\\frac {":2605,"p_n(v-u":2606,"{ { - \\mbox { T } } - { \\mbox { T } - ":2607," } } ^ { { \\mbox { h } + \\mbox { c } } }\r\n":2608,"{ n } ^ { { - k } }\r\n":2609," \\left( 1 - \\frac{L}{R":2610,"\\sqrt{34+2\\sqrt17":2611,"|z|\\mathrm{e}^{i\\theta":2612,"\t\\sum":2613," /":2614," G":2615," S":2616," [":2617," l":2618," n":2619," p":2620," 2 }\r\n":2621," 1$\r\n":2622," , ":2623," )=":2624," 0.":2625," p_n":2626," 8.":2627," 8\r\n":2628," t$\r\n":2629," y }\r\n":2630," X }\r\n":2631," ]$\r\n":2632," n }\r\n":2633," C$\r\n":2634," S } }\r\n":2635," g }\r\n":2636," i } }\r\n":2637," p }\r\n":2638," u }\r\n":2639," G } }\r\n":2640," m } }\r\n":2641," p\r\n":2642," q d":2643," F }\r\n":2644," S_{":2645," u$\r\n":2646," q$\r\n":2647," 7 } }\r\n":2648," g = ":2649," ....":2650," A, \\forall":2651,"$X":2652,"$[":2653,"$b":2654,"$j":2655,"$o":2656,"${ ":2657,"$\\frac":2658,"$\\p":2659,"$\\pi":2660,"$ a":2661,"$\\int ":2662,"$\\sin":2663,"$\\cos":2664,"$a_n":2665,"$a_1":2666,"$\\sqrt{":2667,"$[X":2668,"$x_k":2669,"$t =":2670,"(N":2671,"(d":2672,"(g":2673,"(\\sqrt{":2674,"( R":2675,"( T":2676,"(s^2":2677,"( E":2678,"(V_{":2679,"((T":2680,"( ( a ,":2681,"(T_{m":2682,").":2683,")L":2684,")^":2685,")t":2686,") =":2687,") = \\frac{":2688,") (":2689,") \\sin":2690,")+b":2691,") + c":2692,") \\lt ":2693,") \\times ":2694,") \\gt ":2695,")]$\r\n":2696,") e":2697,")(-":2698,")\\right)$\r\n":2699,") \\times (":2700,") $\r\n":2701,")-v":2702,")}}\r\n":2703,") )":2704,")P^\\prime":2705,")\\righ":2706,")p^{-":2707,")^n$\r\n":2708,") \\geq H":2709,") \\left( 1 - \\frac{L}{R":2710,"+5":2711,"+8":2712,"+B":2713,"+a":2714,"+c":2715,"+f":2716,"+\\p":2717,"+a^":2718,"+a}$\r\n":2719,"+\\sqrt{":2720,"+V(X":2721,"+X_n$\r\n":2722,"+{y":2723,",A":2724,",B":2725,",P":2726,",S":2727,",T":2728,",a":2729,",c":2730,",q":2731,",t":2732,",w":2733,",y":2734,", r":2735,",\\mu":2736,",n}$\r\n":2737,",x}$\r\n":2738,", \\infty":2739,", \\ldots":2740,",m}$\r\n":2741,",s^2":2742,", \\forall":2743,",t)$\r\n":2744,",y_i":2745,",75":2746,",\\frac{2":2747,",(d":2748,"-B":2749,"-N":2750,"-V":2751,"-d":2752,"-g":2753,"-i":2754,"-s":2755,"-x":2756,"- \\mbox { ":2757,"- \\sqrt { ":2758,"-\\beta":2759,"-\\alpha":2760,"-1$\r\n":2761,"-\\mu":2762,"-2)":2763,"-\\sqrt{":2764,"-2}":2765,"-\\left(":2766,"-10":2767,"-u$\r\n":2768,"-c}$\r\n":2769,"-\\frac 1{":2770,"-k}}{":2771,"-n$\r\n":2772,"-n+1}":2773,"-1 + 2":2774,".A":2775,".G":2776,".L":2777,".d":2778,".k":2779,".q":2780,".u":2781,".a^":2782,".\\beta":2783,".(v":2784,".M$\r\n":2785,". \\}$\r\n":2786,".\\frac{d":2787,".R}{":2788,".f(p":2789,"/2":2790,"/8":2791,"/F":2792,"/H":2793,"/N":2794,"/c":2795,"/\\log":2796,"/(1":2797,"/ R":2798,"/M$\r\n":2799,"/T$\r\n":2800,"/(R":2801,"/2$\r\n":2802,"/v^2$\r\n":2803,"0^":2804,"0 = ":2805,"0_{":2806,"0 \\right )\r\n":2807,"00$\r\n":2808,"0 a":2809,"0 } \\right )\r\n":2810,"01$\r\n":2811,"00}":2812,"02\r\n":2813,"0 s":2814,"0 } \\lt":2815,"0 \\times (":2816,"0,1":2817,"06 \\right )\r\n":2818,"0 - x":2819,"0 4":2820,"0,2":2821,"0 \\theta }\r\n":2822,"08.4\r\n":2823,"11":2824,"12":2825,"16":2826,"1f":2827,"1p":2828,"1q":2829,"1 } }\r\n":2830,"1 { \\mbox { ":2831,"1 d":2832,"1)$\r\n":2833,"1 } } { ":2834,"11\r\n":2835,"1 - \\frac{":2836,"1 \\right ]\r\n":2837,"15\r\n":2838,"10}":2839,"1 \\sum { \\mbox { ":2840,"118":2841,"1 + \\frac{":2842,"1 \\right ) }\r\n":2843,"100":2844,"1_2$\r\n":2845,"1T$\r\n":2846,"1 }{ ":2847,"156":2848,"1(G":2849,"1 } } } d":2850,"1 } { { - \\mbox { ":2851,"1 7 } }\r\n":2852,"24":2853,"25":2854,"2H":2855,"2a":2856,"2e":2857,"2i":2858,"2n":2859,"2s":2860,"2{":2861,"2 -":2862,"2 \\mbox { ":2863,"2 - ":2864,"2 } } ^ { ":2865,"2-p":2866,"2 + \\mbox { ":2867,"2 - \\mbox { ":2868,"2n}$\r\n":2869,"2 } } } { ":2870,"23\r\n":2871,"2 \\right ] }\r\n":2872,"2q$\r\n":2873,"2s}":2874,"2,9":2875,"295":2876,"2 = \\sum { \\mbox { ":2877,"2^n$\r\n":2878,"2(N":2879,"2-s":2880,"3]":2881,"3d":2882,"3 { ":2883,"3$\r\n":2884,"3 -":2885,"3 \\right )\r\n":2886,"3 } -":2887,"3 } \\right )\r\n":2888,"3 \\sqrt{":2889,"30\r\n":2890,"33}$\r\n":2891,"3 \\right ) }\r\n":2892,"36\r\n":2893,"37.":2894,"39.":2895,"3 s":2896,"3 E":2897,"3,1":2898,"32$\r\n":2899,"3\\times":2900,"35 - ":2901,"3}{4}$\r\n":2902,"36.4\r\n":2903,"31.3\r\n":2904,"30 \\times (":2905,"44":2906,"45":2907,"47":2908,"4 { ":2909,"4 { \\mbox { ":2910,"4 x":2911,"4 - ":2912,"4)$\r\n":2913,"4 \\pi":2914,"4 \\right ]\r\n":2915,"4||":2916,"40}":2917,"4 } } } }\r\n":2918,"40\r\n":2919,"44\r\n":2920,"427":2921,"4 = \\mbox { ":2922,"4 \\gt ":2923,"41.":2924,"4 \\Delta":2925,"4 } + { ":2926,"417":2927,"4({":2928,"4 \\pi }\r\n":2929,"4 } } \\lt":2930,"4}{4}$\r\n":2931,"4 \\div 6":2932,"5t":2933,"5$\r\n":2934,"5 } }\r\n":2935,"5 \\right )\r\n":2936,"5}}{":2937,"5 b":2938,"55\r\n":2939,"5 + { ":2940,"5=X":2941,"5u$\r\n":2942,"5 } } ^ { { ":2943,"5 C":2944,"50 4":2945,"5417":2946,"6 } }":2947,"6 } { ":2948,"6 \\mbox { ":2949,"6 \\pi":2950,"6 } { \\sqrt { ":2951,"6 \\sum { ":2952,"6 \\right ]\r\n":2953,"69\r\n":2954,"66\r\n":2955,"62\r\n":2956,"6 \\gt ":2957,"60 }\r\n":2958,"6=X":2959,"6) - ":2960,"6 .":2961,"6,1":2962,"6-1":2963,"606 \\right )\r\n":2964,"7 } { ":2965,"7 \\right )":2966,"7 } } }\r\n":2967,"7 } } ^ { ":2968,"75\r\n":2969,"79\r\n":2970,"76\r\n":2971,"77\r\n":2972,"72\r\n":2973,"76.":2974,"700":2975,"7 } \\geq":2976,"7 } { { ":2977,"7 } \\right ] } ^ { { ":2978,"77.1\r\n":2979,"73.3\r\n":2980,"7 X }\r\n":2981,"700}":2982,"76 } { \\sqrt { ":2983,"8k":2984,"8 }\r\n":2985,"8 } d":2986,"8 \\sum { ":2987,"80\r\n":2988,"87\r\n":2989,"8\\pi r":2990,"8 } } { { ":2991,"8 R":2992,"8s^2":2993,"8 + { \\mbox { ":2994,"8 6":2995,"8 } { { - \\mbox { ":2996,"8 } H }\r\n":2997,"80.1":2998,"82.8\r\n":2999,"8 u }\r\n":3000,"9 } }\r\n":3001,"9 \\mbox { ":3002,"9 - ":3003,"9a^2":3004,"9 \\right ]\r\n":3005,"9}}$\r\n":3006,"9 + \\mbox { ":3007,"96\r\n":3008,"9 } } ^ { { \\mbox { ":3009,"94.":3010,"9 \\geq \\mbox { ":3011,"9 \\mbox { u } }\r\n":3012,"9 } } { \\frac { ":3013,"9 } \\geq \\sum { ":3014,"94 \\pi }\r\n":3015,"96 \\mbox { ":3016,"975\r\n":3017,"<x":3018,"<\\gamma":3019,"<B$\r\n":3020,"< 1$\r\n":3021,"=E":3022,"=F":3023,"=N":3024,"=R":3025,"=a":3026,"=c":3027,"=d":3028,"=k":3029,"=m":3030,"=n":3031,"=p":3032,"=s":3033,"=u":3034,"=v":3035,"=x^{":3036,"=\\int":3037,"=\\theta":3038,"= \\mathrm d":3039,"=[X":3040,"= 2":3041,"=10":3042,"=M$\r\n":3043,"=(\\alpha":3044,"=x$\r\n":3045,"=\\tan ":3046,"= 0$\r\n":3047,"=2^{":3048,"=L$\r\n":3049,"=|z|\\mathrm{e}^{i\\theta":3050,"= 0.":3051,"=-\\sqrt{":3052,"=0 a":3053,"=2q$\r\n":3054,"=4({":3055,">B":3056,">0$\r\n":3057,">\\gamma":3058,"AE":3059,"AI":3060,"A|":3061,"A\r\n":3062,"A } { ":3063,"A = ":3064,"A - ":3065,"A)$\r\n":3066,"A } } ^ { ":3067,"A) = ":3068,"A } +":3069,"A } \\right )\r\n":3070,"A } _ { ":3071,"A - \\mbox { ":3072,"A \\right ) }\r\n":3073,"A } } } } }\r\n":3074,"A}^{":3075,"A } } { { \\mbox { ":3076,"A B":3077,"Ac }\r\n":3078,"A_n$\r\n":3079,"A^\\prime":3080,"A}\\right":3081,"A } dV }\r\n":3082,"A(F":3083,"A } } _ { \\sigma":3084,"A } \\mbox { m } }":3085,"A_2,\\ldots,":3086,"A.k":3087,"BT":3088,"B\r\n":3089,"B}$\r\n":3090,"B \\right )":3091,"B^2":3092,"B } } _ { \\mbox { ":3093,"B } d":3094,"B } } _ { ":3095,"B^n":3096,"B } + \\mbox { ":3097,"B } } } ^ { ":3098,"Bc }\r\n":3099,"B}{dt":3100,"B, x":3101,"B(R":3102,"B } } - ":3103,"B } dV }\r\n":3104,"BC^2":3105,"B\\}":3106,"B } } { c }\r\n":3107,"B_1)$\r\n":3108,"B } } ^ { \\mbox { V } }\r\n":3109,"B } } } } { \\left [":3110,"B) \\times ":3111,"B-\\beta":3112,"CN":3113,"CV":3114,"C\r\n":3115,"C}{":3116,"C}$\r\n":3117,"C d":3118,"C } } { ":3119,"C } \\right )":3120,"C) = ":3121,"C = 0$\r\n":3122,"C \\sqrt{":3123,"C } } _ { ":3124,"C } ^ { \\mbox { ":3125,"Ci }\r\n":3126,"C } _ { \\mbox { ":3127,"C = \\frac{2":3128,"C \\gt ":3129,"C_A":3130,"C}{q":3131,"C - { ":3132,"C } \\right ] }\r\n":3133,"C } } } } { ":3134,"C } \\gt":3135,"C_{n}":3136,"C ) = ":3137,"C } + \\mbox { R } } }\r\n":3138,"C } ^ { d":3139,"C } ds\r\n":3140,"C } - \\lambda } }\r\n":3141,"E_":3142,"E } }":3143,"E } { ":3144,"E \\right )":3145,"E \\right )\r\n":3146,"E } \\right )":3147,"E_2":3148,"E } \\right )\r\n":3149,"E_0":3150,"E } } { \\mbox { ":3151,"E } ":3152,"E \\geq":3153,"E_j":3154,"E } + ":3155,"E } } } { ":3156,"E } } \\right ]\r\n":3157,"E } } { { ":3158,"E[X":3159,"E_{ij":3160,"E } \\right ] }\r\n":3161,"E } } + ":3162,"E}{k":3163,"E } } { \\frac { ":3164,"E_k$\r\n":3165,"E = \\frac{1}{2} k":3166,"E m } }\r\n":3167,"E) + c":3168,"E=u":3169,"F_":3170,"Ff":3171,"F}":3172,"F } }":3173,"F \\right )":3174,"F \\left (":3175,"F d":3176,"F } ^ { ":3177,"F } \\right )":3178,"F } } ^ { ":3179,"F } } _ { \\mbox { ":3180,"F } \\right )\r\n":3181,"F } _ { ":3182,"F } } { \\mbox { ":3183,"F \\lt ":3184,"F \\right ) }\r\n":3185,"F } ^ { { ":3186,"F_2$\r\n":3187,"F } - { ":3188,"F }{ ":3189,"FG$\r\n":3190,"F } } - ":3191,"F}}\r\n":3192,"F } } _ { \\mbox { j } }\r\n":3193,"F x$\r\n":3194,"F } \\geq \\mbox { ":3195,"G\r\n":3196,"G } }":3197,"G + ":3198,"G - ":3199,"G(x":3200,"G } +":3201,"G } d":3202,"G } } _ { ":3203,"G } \\mbox { ":3204,"G } - ":3205,"G } \\right ]\r\n":3206,"G } - \\mbox { ":3207,"G\\times ":3208,"G } } { { ":3209,"G(\\theta":3210,"G } { { ":3211,"G } \\sum { ":3212,"G M":3213,"G-1)":3214,"Gjt }\r\n":3215,"Gz)$\r\n":3216,"G } \\right ) } ^ { \\mbox { ":3217,"G } } ^ { g } }\r\n":3218,"G } \\right ] } ^ { ":3219,"G } } } ^ { \\sum { ":3220,"Hi":3221,"H$\r\n":3222,"H)$\r\n":3223,"H_i":3224,"H } { \\sqrt { ":3225,"H \\sin":3226,"H } _ { ":3227,"H } ^ { \\mbox { ":3228,"H } } { \\mbox { ":3229,"H } \\mbox { ":3230,"H } - ":3231,"H } } { { \\mbox { ":3232,"H } = ":3233,"H } \\right ] }\r\n":3234,"H}\\neq":3235,"H_0}$\r\n":3236,"H\\}":3237,"H - q } }\r\n":3238,"H,A":3239,"H=\\tan ":3240,"I$\r\n":3241,"I }\r\n":3242,"I}$\r\n":3243,"I } d":3244,"I } \\right )\r\n":3245,"I \\right ]\r\n":3246,"I } _ { ":3247,"I \\geq":3248,"I } + \\mbox { ":3249,"I } } \\right ]\r\n":3250,"IC$\r\n":3251,"I } - { ":3252,"I_n$\r\n":3253,"I_B":3254,"I\\times":3255,"I, R":3256,"I } } } { \\sqrt { \\mbox { ":3257,"I\\sqrt{2}":3258,"I - \\phi } }\r\n":3259,"I - q } }\r\n":3260,"I } } } { \\left [ ":3261,"LM":3262,"L\r\n":3263,"L \\frac{":3264,"L)$\r\n":3265,"L } ^ { ":3266,"L}\\":3267,"L_2":3268,"L } } _ { ":3269,"L}}$\r\n":3270,"L } { \\mbox { ":3271,"L \\left ( \\mbox { ":3272,"L } } } { ":3273,"L}{2}":3274,"L + \\frac{1}{":3275,"L } } \\right )\r\n":3276,"L_1,":3277,"L } } -":3278,"L_t":3279,"L } } _ { { ":3280,"L }$\r\n":3281,"LG}$\r\n":3282,"L } \\right ] } ^ { ":3283,"L_m$\r\n":3284,"M\r\n":3285,"M}{":3286,"M \\mbox { ":3287,"M } } { ":3288,"M \\right )\r\n":3289,"M } ^ { ":3290,"M } } ^ { ":3291,"M } d":3292,"M_0":3293,"M } } _ { ":3294,"M } ":3295,"M } \\left (":3296,"M_3":3297,"M } \\leq":3298,"M } } } } { ":3299,"M))=":3300,"M f(x":3301,"M)=0$\r\n":3302,"M } } ^ { { \\mbox { P":3303,"Ni":3304,"N } }":3305,"N$\r\n":3306,"N}$\r\n":3307,"N } } { ":3308,"N_i":3309,"N \\sum { ":3310,"N } \\mbox { ":3311,"N \\left ( \\mbox { ":3312,"N } \\right ]":3313,"N } } } ^ { ":3314,"N = \\frac{n":3315,"Ny }\r\n":3316,"N_A":3317,"N } = ":3318,"N } } ^ { { ":3319,"N_0}$\r\n":3320,"N } } + ":3321,"N M$\r\n":3322,"N}{L":3323,"N_k$\r\n":3324,"N) =":3325,"N-k}}{":3326,"P }":3327,"P } { ":3328,"P = ":3329,"P - ":3330,"P_i":3331,"P a":3332,"P } +":3333,"P } } _ { \\mbox { ":3334,"P_0":3335,"P \\right ]\r\n":3336,"P } _ { \\mbox { ":3337,"P_{n+1}":3338,"P } \\left ( ":3339,"P \\right ) }\r\n":3340,"P_3":3341,"P(t)":3342,"P_v":3343,"Pr }\r\n":3344,"P_{n}":3345,"P_i}{":3346,"P = -":3347,"P\\frac{\\alpha":3348,"P - \\phi } }\r\n":3349,"P \\right ) d":3350,"P_1-":3351,"PA)$\r\n":3352,"RS":3353,"Re":3354,"R } }":3355,"R \\right )":3356,"R \\mbox { ":3357,"R^{":3358,"R d":3359,"R } ^ { ":3360,"R } } _ { \\mbox { ":3361,"R = 0$\r\n":3362,"R^2$\r\n":3363,"R } ^ { \\mbox { ":3364,"R } } } }\r\n":3365,"R + \\mbox { ":3366,"R \\left ( \\mbox { ":3367,"R } + \\mbox { ":3368,"R } } } { ":3369,"R } } } ^ { ":3370,"R=\\frac{":3371,"RC$\r\n":3372,"R c^2":3373,"R^{-1}$\r\n":3374,"R } \\left ( { ":3375,"R(X)$\r\n":3376,"R \\geq H":3377,"RC}$\r\n":3378,"Si":3379,"S}$\r\n":3380,"S \\mbox { ":3381,"S - ":3382,"S \\right )\r\n":3383,"S } d":3384,"S \\sqrt{":3385,"S } ^ { \\mbox { ":3386,"S } + ":3387,"S_{n-1}":3388,"S \\right ) }\r\n":3389,"S}{a+b":3390,"S } } ^ { \\mbox { ":3391,"S } } { { ":3392,"S_2$\r\n":3393,"S } } -":3394,"Sh }\r\n":3395,"S } } } } { ":3396,"S } \\right ) }\r\n":3397,"S_1}":3398,"S_0}$\r\n":3399,"SA}":3400,"S = R":3401,"S+1$\r\n":3402,"S } \\gt ":3403,"S \\mathrm dx$\r\n":3404,"To":3405,"T +":3406,"T d":3407,"T } } { ":3408,"T}}":3409,"T } ^ { \\mbox { ":3410,"T c":3411,"T + \\mbox { ":3412,"T } \\left ( ":3413,"T } \\right ]\r\n":3414,"T } \\right ) }\r\n":3415,"T_1, \\ldots, ":3416,"T_d":3417,"T } - { \\mbox { ":3418,"T } } + { ":3419,"T \\geq ":3420,"T(t) = ":3421,"T w":3422,"T-\\mbox{":3423,"T } \\int ":3424,"T } } \\left (":3425,"T } } - ":3426,"TC }\r\n":3427,"T } \\mbox { m } }":3428,"T \\rightarrow \\infty}":3429,"Va":3430,"Vb":3431,"V } }":3432,"V}{":3433,"V -":3434,"V^2":3435,"V \\left (":3436,"V \\right )\r\n":3437,"V_0":3438,"V } { \\mbox { ":3439,"V } _ { \\mbox { ":3440,"V_j":3441,"V^j":3442,"V } } ^ { \\mbox { ":3443,"V } } \\right )\r\n":3444,"V \\gt ":3445,"V } } -":3446,"V_i$\r\n":3447,"VT }\r\n":3448,"V } \\sum { ":3449,"V \\right ) } ^ { \\mbox { ":3450,"V_i}{":3451,"V_i^2":3452,"V_0}$\r\n":3453,"Vw } }\r\n":3454,"V}}}\r\n":3455,"V_j$\r\n":3456,"V^i":3457,"Vce":3458,"V } \\right ) \\right )\r\n":3459,"V} {":3460,"V + \\mbox { o } } }\r\n":3461,"VA(F":3462,"X$\r\n":3463,"X^{":3464,"X d":3465,"X - ":3466,"X } } { ":3467,"X_n":3468,"X_i":3469,"X^3":3470,"X } } ^ { ":3471,"X } \\right )\r\n":3472,"X + a":3473,"X } } { \\mbox { ":3474,"X } ":3475,"X)=":3476,"X^n":3477,"X + \\mbox { ":3478,"X } } } ^ { ":3479,"X } \\right ]\r\n":3480,"X } - \\mbox { ":3481,"X \\gt ":3482,"X } } -":3483,"X_N":3484,"X } } \\right ]":3485,"X}\\neq":3486,"X+1$\r\n":3487,"Y]":3488,"Y + ":3489,"Y d":3490,"Y \\right )\r\n":3491,"Y } -":3492,"Y } } _ { ":3493,"Y^{\\prime}":3494,"Y } + ":3495,"Y } = ":3496,"Y \\geq \\mbox { ":3497,"Y >":3498,"Y } } _ { \\mbox { I } }\r\n":3499,"Y } - \\mbox { M } } }\r\n":3500,"Y) \\geq H":3501,"[(X":3502,"[\\mbox{":3503,"[0,1":3504,"\\{ ":3505,"\\left":3506,"\\ 0":3507,"\\{0":3508,"] =":3509,"]}{":3510,"] - ":3511,"] = \\frac{":3512,"], ":3513,"] y":3514,"] <":3515,"]}\r\n":3516,"^l":3517,"^p":3518,"^r":3519,"^s":3520,"^v":3521,"^ { ":3522,"^0$\r\n":3523,"^n+":3524,"^\\mu":3525,"^4}$\r\n":3526,"^ \\infty":3527,"^T$\r\n":3528,"^1 \\times ":3529,"^d}$\r\n":3530,"^\\frac { N":3531,"^1 + 2":3532,"^0_{":3533,"^1(G":3534,"^6-1":3535,"^A) = ":3536,"^N}$\r\n":3537,"_g":3538,"_s":3539,"_x":3540,"_a^":3541,"_ {":3542,"_\\mu":3543,"_t$\r\n":3544,"_r}":3545,"_u$\r\n":3546,"_S$\r\n":3547,"_C = \\frac{2":3548,"_H=\\tan ":3549,"_I$\r\n":3550,"aq":3551,"au":3552,"a$\r\n":3553,"a } { ":3554,"a d":3555,"a } } }\r\n":3556,"a } } { ":3557,"a } ^ { ":3558,"a } d":3559,"a} ":3560,"a } { \\mbox { ":3561,"a } } d":3562,"a } } { { ":3563,"a } ^ { { ":3564,"a } } { { \\mbox { ":3565,"a-\\frac{":3566,"a } \\leq":3567,"a } \\right ) }\r\n":3568,"a } \\right ) } ^ { ":3569,"a } } } { \\sqrt { \\mbox { ":3570,"a,b":3571,"a.s":3572,"aR$\r\n":3573,"air":3574,"a_{ij}$\r\n":3575,"a C } \\right )\r\n":3576,"a . R":3577,"bs":3578,"b } { ":3579,"b d":3580,"b } } { ":3581,"b } +":3582,"b_2":3583,"b } \\right )\r\n":3584,"b } } _ { ":3585,"b } ^ { \\mbox { ":3586,"b } } } }\r\n":3587,"b}^{":3588,"b } = ":3589,"bc }\r\n":3590,"b\\neq":3591,"b } } + { ":3592,"b^{\\prime},":3593,"b e^{":3594,"b-a":3595,"bb^{-1}":3596,"b } \\right ) } ^ { \\mbox { ":3597,"b \\gt p":3598,"b).":3599,"c } }":3600,"c -":3601,"c } { ":3602,"c } } { ":3603,"cal":3604,"c } \\mbox { ":3605,"c } + \\mbox { ":3606,"c - \\mbox { ":3607,"c } } \\right ]\r\n":3608,"c})$\r\n":3609,"ce }\r\n":3610,"c } } } { \\mbox { ":3611,"cm}$\r\n":3612,"c P":3613,"c+i":3614,"c_o":3615,"c^{\\prime}$\r\n":3616,"c-i":3617,"c3d":3618,"cbb^{-1}":3619,"dg":3620,"d\r\n":3621,"d_{":3622,"d \\right )\r\n":3623,"d } } ^ { ":3624,"d } \\right )\r\n":3625,"d } } _ { ":3626,"d } } d":3627,"d } \\mbox { ":3628,"d \\left ( \\mbox { ":3629,"d } + \\mbox { ":3630,"d } } } { ":3631,"d_A":3632,"d } } { { \\mbox { ":3633,"d)}{":3634,"d } \\left ( \\mbox { ":3635,"dx$\r\n":3636,"d^{-1}":3637,"d w":3638,"dV$\r\n":3639,"d^{\\prime})$\r\n":3640,"d \\sum { \\mbox { H":3641,"d } } } { \\sqrt { \\mbox { ":3642,"d( x ":3643,"dX_1":3644,"d } } _ { \\mbox { n } }\r\n":3645,"dB\\left(V":3646,"dB}$\r\n":3647,"dP = -":3648,"e } }":3649,"e -":3650,"e}$\r\n":3651,"e \\left (":3652,"e } } { ":3653,"e}\\":3654,"e}}":3655,"e } \\right )\r\n":3656,"e } ^ { \\mbox { ":3657,"e } } { \\mbox { ":3658,"e } _ { \\mbox { ":3659,"e } \\right ]":3660,"ej }\r\n":3661,"e^{-":3662,"eo } }\r\n":3663,"eH } }\r\n":3664,"e A":3665,"e_r":3666,"e } } + ":3667,"e_j$\r\n":3668,"e.I":3669,"e^t":3670,"ec}}$\r\n":3671,"e}{L":3672,"e = (":3673,"e } ^ { \\sqrt { ":3674,"e \\times l":3675,"e } } } } { \\left [":3676,"eau":3677,"ec P":3678,"fu":3679,"f$\r\n":3680,"f + ":3681,"f \\mbox { ":3682,"f d":3683,"f } } }\r\n":3684,"f}{2":3685,"f(x":3686,"f_2":3687,"f } d":3688,"f \\right ]\r\n":3689,"f } } { \\mbox { ":3690,"f } \\mbox { ":3691,"f - \\mbox { ":3692,"f \\right ) }\r\n":3693,"f(y":3694,"f(A":3695,"f||^2":3696,"f}+":3697,"f(x)$\r\n":3698,"f(t) = ":3699,"f } { \\sum { ":3700,"f(\\frac{":3701,"f_1(x)":3702,"f } + \\frac { ":3703,"f } } _ { \\mbox { z":3704,"f,x}$\r\n":3705,"f=F":3706,"gy":3707,"g =":3708,"g \\frac":3709,"g \\right )":3710,"g - ":3711,"g } } { ":3712,"g \\right )\r\n":3713,"g_n":3714,"g = \\frac{1}{":3715,"geq":3716,"g } \\mbox { ":3717,"gcd":3718,"g } } } { ":3719,"g } } \\right ]\r\n":3720,"g y":3721,"g } \\gt":3722,"g(s":3723,"g \\mbox { m } } }\r\n":3724,"g } } { \\frac { ":3725,"g(F":3726,"g^{ij}":3727,"g } + \\frac { \\mbox { ":3728,"h } }":3729,"h + ":3730,"h } { ":3731,"h } } }\r\n":3732,"h \\right )\r\n":3733,"h } ^ { ":3734,"h } \\right )\r\n":3735,"h } ^ { \\mbox { ":3736,"h } } } }\r\n":3737,"h } + ":3738,"hi)":3739,"h \\right ) }\r\n":3740,"h \\gt":3741,"h } } \\right )\r\n":3742,"ht}$\r\n":3743,"h-\\mbox{":3744,"h } - \\frac { ":3745,"i}":3746,"i }":3747,"i \\frac{":3748,"i}}":3749,"i\\pi}{":3750,"i } ^ { \\mbox { ":3751,"i } } { \\mbox { ":3752,"i } ":3753,"i } } } }\r\n":3754,"i } + ":3755,"i } \\right ]":3756,"i \\right ) }\r\n":3757,"i e":3758,"i + { ":3759,"i } \\right ) }\r\n":3760,"it}$\r\n":3761,"i}}}\r\n":3762,"i=0}":3763,"i } } { \\sqrt { ":3764,"i } } _ { \\mbox { z":3765,"i } } } { \\left [ ":3766,"i= 0$\r\n":3767,"j } }":3768,"j \\right )\r\n":3769,"j } } _ { \\mbox { ":3770,"j } _ { ":3771,"j } ":3772,"j } - ":3773,"j } } } ^ { ":3774,"j } - \\mbox { ":3775,"j } } \\right ]\r\n":3776,"j \\right ] }\r\n":3777,"j - { \\mbox { ":3778,"k}":3779,"k\r\n":3780,"k = ":3781,"k}{2":3782,"k } _ { ":3783,"k \\left ( \\mbox { ":3784,"k } \\right ]":3785,"k } } } { ":3786,"k } - \\mbox { ":3787,"k } } { { ":3788,"k[X":3789,"k \\Delta":3790,"k } } { 3 }\r\n":3791,"k } \\right ] }\r\n":3792,"k_2,":3793,"k X":3794,"k-1}$\r\n":3795,"k)^":3796,"l\r\n":3797,"l } { ":3798,"l d":3799,"l } } }\r\n":3800,"l } ^ { ":3801,"l_2":3802,"l } } _ { ":3803,"l^2$\r\n":3804,"l } \\right ) =":3805,"l } } } }\r\n":3806,"l } + ":3807,"l } \\mbox { ":3808,"l - \\mbox { ":3809,"l_0$\r\n":3810,"l(A":3811,"l})$\r\n":3812,"l(u":3813,"l } } \\left (":3814,"l } } } d":3815,"l,m}$\r\n":3816,"l.L":3817,"m$\r\n":3818,"m d":3819,"m } \\right )\r\n":3820,"m } + \\mbox { ":3821,"m}{2}":3822,"m } } ^ { \\mbox { ":3823,"m } } \\right ]\r\n":3824,"m}=":3825,"mm}$\r\n":3826,"m } } _ { { ":3827,"m+1}$\r\n":3828,"m - { \\mbox { ":3829,"m } \\right ) } ^ { ":3830,"m_{i+1}":3831,"m } dz\r\n":3832,"mf$\r\n":3833,"mi}}":3834,"n } }":3835,"n + ":3836,"n d":3837,"n - ":3838,"n } } ^ { ":3839,"n \\right ]\r\n":3840,"n } _ { ":3841,"n } } { \\mbox { ":3842,"n } { \\mbox { ":3843,"n } } } }\r\n":3844,"n } + ":3845,"n } } } ^ { ":3846,"n\\left(":3847,"nt } }\r\n":3848,"n(n":3849,"nR}{":3850,"n}{k":3851,"n } ^ { \\alpha } ":3852,"o } }":3853,"o } { ":3854,"o } } { ":3855,"o } ^ { ":3856,"o } +":3857,"o } d":3858,"o } \\right )\r\n":3859,"o } } d":3860,"o } + \\mbox { ":3861,"o } - ":3862,"o } \\right ]":3863,"o \\right ) }\r\n":3864,"o } } } ^ { ":3865,"o(v":3866,"o } - { ":3867,"o } \\sum { ":3868,"o-\\mbox{":3869,"o = \\sqrt{":3870,"o}{V":3871,"o_i-":3872,"o}}}{":3873,"o(1)$\r\n":3874,"o_t)":3875,"o S } }\r\n":3876,"obs":3877,"p }":3878,"p$\r\n":3879,"p { \\mbox { ":3880,"p^2":3881,"p \\mbox { ":3882,"p d":3883,"p - ":3884,"p_i":3885,"p(x":3886,"p } } ^ { ":3887,"p_2":3888,"p_0":3889,"p c":3890,"p } } } }\r\n":3891,"p - \\mbox { ":3892,"p } - ":3893,"p } - \\mbox { ":3894,"pj } }\r\n":3895,"pg } }\r\n":3896,"p } \\right ) }\r\n":3897,"p_N":3898,"p+\\frac{":3899,"p_i}{":3900,"p^{\\prime}}":3901,"p+q":3902,"pA}":3903,"p_j$\r\n":3904,"p } + \\mbox { R } } }\r\n":3905,"p e^{":3906,"p } + \\mbox { s } } \\right ]\r\n":3907,"p } } } ^ { \\sum { ":3908,"p) e":3909,"pM } \\left (":3910,"pe^t":3911,"q^2":3912,"q } } { ":3913,"q } \\right )\r\n":3914,"q } } _ { ":3915,"q } + \\mbox { ":3916,"q } \\left ( ":3917,"q \\right ] }\r\n":3918,"q})$\r\n":3919,"q } \\right ) d":3920,"q } - { \\mbox { ":3921,"q_2,":3922,"q^{-1}":3923,"q+1)":3924,"q \\mbox { m } } }\r\n":3925,"q^{\\prime})$\r\n":3926,"q.{":3927,"q } } ^ { X } }\r\n":3928,"q) = p":3929,"q \\int S d":3930,"q_m$\r\n":3931,"q.(v":3932,"qA}^{":3933,"qce }\r\n":3934,"r }":3935,"r\r\n":3936,"r = ":3937,"r d":3938,"r}}$\r\n":3939,"r } ":3940,"rV }\r\n":3941,"r_1 = ":3942,"r)^{":3943,"r - \\sum { ":3944,"r } } ^ { X } }\r\n":3945,"r^{\\prime}$\r\n":3946,"r \\lt \\int":3947,"r-2}":3948,"r.G":3949,"r/N":3950,"sx":3951,"sy":3952,"s + ":3953,"sin":3954,"s \\mbox { ":3955,"s - ":3956,"s)$\r\n":3957,"s } ^ { ":3958,"s } } ^ { ":3959,"s}}{":3960,"s \\right ]\r\n":3961,"s - \\mbox { ":3962,"s } \\left ( ":3963,"s}=":3964,"s})$\r\n":3965,"s_1, \\ldots, ":3966,"s+1}":3967,"sp_{":3968,"s } \\right ) } ^ { ":3969,"s } + \\left ( ":3970,"s } - \\sum { ":3971,"s_m ":3972,"s } { { - ":3973,"s^3}$\r\n":3974,"s } } _ { \\sigma":3975,"s/2":3976,"tx":3977,"t { ":3978,"t } }":3979,"t}{":3980,"t } } { ":3981,"t^3":3982,"t } } ^ { ":3983,"t) = ":3984,"t } \\right )\r\n":3985,"t } _ { ":3986,"t } { \\mbox { ":3987,"t } } d":3988,"t } \\right ]":3989,"t} \\lt ":3990,"t } } \\right )\r\n":3991,"t } ^ { { ":3992,"t_i$\r\n":3993,"t } - { \\mbox { ":3994,"t}}}\r\n":3995,"to$\r\n":3996,"tu(0":3997,"t } + \\sqrt { \\mbox { ":3998,"t+\\p":3999,"t=c":4000,"t_r}":4001,"u|":4002,"u } } }\r\n":4003,"u_1":4004,"u } } _ { \\mbox { ":4005,"u } } d":4006,"u^{\\prime}":4007,"u_{n+":4008,"u } - ":4009,"u } } } { ":4010,"ut }\r\n":4011,"u } } \\right ]\r\n":4012,"u_{n":4013,"u_N":4014,"u } } + { ":4015,"u_1, ":4016,"u } - \\sqrt { ":4017,"u-3":4018,"ux}":4019,"u_2,\\ldots,":4020,"u= 0.":4021,"v\r\n":4022,"v}$\r\n":4023,"v \\right )":4024,"v } } }\r\n":4025,"v } } { ":4026,"v \\right )\r\n":4027,"v } } _ { \\mbox { ":4028,"v } d":4029,"v } } _ { ":4030,"v } _ { ":4031,"v } } d":4032,"v^{\\prime}":4033,"v}=":4034,"v } ^ { { ":4035,"vp }\r\n":4036,"v } \\right ] }\r\n":4037,"v } { { ":4038,"v_i}{":4039,"v \\geq ":4040,"v_4":4041,"v} = \\frac{":4042,"v_n)$\r\n":4043,"v } { { - ":4044,"v } } ^ { g } }\r\n":4045,"v } ^ { \\mbox { k } }":4046,"v \\in E, ":4047,"v i } }\r\n":4048,"v)-v":4049,"v= \\mathrm d":4050,"vec P":4051,"w$\r\n":4052,"w + ":4053,"w d":4054,"w } } }\r\n":4055,"w \\sqrt { ":4056,"w \\right ]":4057,"w)}":4058,"w \\sin":4059,"w } } _ { ":4060,"w \\sum { ":4061,"w^{\\prime}":4062,"w } \\mbox { ":4063,"w } \\right ]":4064,"w } } \\right )\r\n":4065,"wX }\r\n":4066,"w } } ^ { { \\mbox { ":4067,"w } = ":4068,"w||^2":4069,"w_i$\r\n":4070,"w } } _ { \\mbox { m } } }\r\n":4071,"w \\in E$\r\n":4072,"w( r":4073,"w } \\right ) \\right )\r\n":4074,"w(G)$\r\n":4075,"x } }":4076,"x +":4077,"x + ":4078,"x^2":4079,"x d":4080,"x - ":4081,"x_i":4082,"x}}":4083,"x } \\right )":4084,"x + b":4085,"x } } d":4086,"x)=":4087,"x } + ":4088,"x } \\mbox { ":4089,"x^2 +":4090,"x + \\frac{":4091,"x } } } { ":4092,"x\\right":4093,"xt$\r\n":4094,"x } } \\right ]\r\n":4095,"x } } -":4096,"x}{d":4097,"xe }\r\n":4098,"x } } ^ { { ":4099,"x P":4100,"x + A":4101,"x(t)$\r\n":4102,"x \\mbox { m } } }\r\n":4103,"x } + \\mbox { R } } }\r\n":4104,"x } - \\mbox { X } } }\r\n":4105,"x ||":4106,"x^5":4107,"x_{i+1}":4108,"x 8.":4109,"x0 - x":4110,"xP_{n}":4111,"x] y":4112,"xc3d":4113,"xd } } ^ { ":4114,"y } }":4115,"y } { ":4116,"y \\right )":4117,"y d":4118,"y - ":4119,"y_1":4120,"y } } ^ { ":4121,"y } } _ { \\mbox { ":4122,"y_2":4123,"y } \\right )\r\n":4124,"y = 0$\r\n":4125,"y } } _ { ":4126,"y}}$\r\n":4127,"y } { \\mbox { ":4128,"y||":4129,"yi }\r\n":4130,"y } } } }\r\n":4131,"y^{\\prime}":4132,"y^2 +":4133,"y } \\right ]":4134,"y } } } { ":4135,"y } } } ^ { ":4136,"y}{d":4137,"y } \\lt":4138,"y } \\right ) }\r\n":4139,"y } } \\right ]":4140,"y-v":4141,"y + x":4142,"y-y":4143,"y_m ":4144,"yz d":4145,"y } + l } }\r\n":4146,"y } + \\mbox { s } } \\right ]\r\n":4147,"y - \\mbox { Y":4148,"z -":4149,"z}$\r\n":4150,"z } ^ { ":4151,"z \\left ( ":4152,"z } } _ { ":4153,"z^2$\r\n":4154,"z } ":4155,"z } } d":4156,"z } \\mbox { ":4157,"z } + \\mbox { ":4158,"z } =":4159,"z } + { ":4160,"z}+":4161,"z } \\leq":4162,"z}{dt":4163,"z X":4164,"z - x":4165,"z-z":4166,"z } \\left ( b":4167,"z.u":4168,"zVT }\r\n":4169,"zx d":4170,"{\\alpha":4171,"{\\theta":4172,"{(w":4173,"{e}^{":4174,"{{\\mbox{":4175,"{\\frac{d":4176,"{y_i":4177,"{0.1":4178,"{1 + \\frac{":4179,"{RS":4180,"{T-\\mbox{":4181,"{b\\neq":4182,"{h-\\mbox{":4183,"{i=0}":4184,"{o-\\mbox{":4185,"{x P":4186,"|}{2":4187,"|x_":4188,"| \\geq":4189,"|\\leq":4190,"|A|":4191,"|P_1-":4192,"} \\":4193,"} + ":4194,"} \\right )":4195,"}\\cdots":4196,"}x + a":4197,"}(X":4198,"} \\mathrm d":4199,"} \\mathrm{":4200,"} }$\r\n":4201,"} \\}$\r\n":4202,"}}\\neq":4203,"} a$\r\n":4204,"}f(x) = l$\r\n":4205,"},B":4206,"}2 -":4207,"}4 x":4208,"}VA(F":4209,"}^ \\infty":4210,"}a_{ij}$\r\n":4211,"}i}":4212,"}x^5":4213,"{ \\left (":4214,"{ \\left [":4215,"{ \\tan":4216,"{ \\frac { { ":4217,"{ \\sqrt { { ":4218,"{ 0.":4219,"{ 6.":4220,"{ { - { ":4221,"{ { - { \\mbox { ":4222,"{ \\left [ ":4223,"{ 9.":4224,"{ 5.":4225,"{ \\phi":4226,"{ \\sum { { ":4227,"{ \\left ( { \\mbox { ":4228,"{ 2 ":4229,"{ r}":4230,"{ \\lambda":4231,"{ \\left ( { -":4232,"{ 6 -":4233,"{ e } _ { ":4234,"{ i - ":4235,"{ i } _ { \\mbox { ":4236,"{ o \\left (":4237,"{ r } ^ { \\mbox { ":4238,"{ t } _ { \\mbox { ":4239,"{ \\pi } ^ { ":4240,"{ \\cos } ^ { ":4241,"{ 2.9":4242,"{ \\left [ { t +":4243,"{ 4 { \\mbox { ":4244,"{ 7 X }\r\n":4245,"{ 96 \\mbox { ":4246,"{ C - { ":4247,"{ F } ^ { { ":4248,"{ G - ":4249,"{ I } _ { ":4250,"{ R } ^ { ":4251,"{ X - ":4252,"{ e } ^ { \\sqrt { ":4253,"{ o } ^ { ":4254,"{ r \\lt \\int":4255,"{ t { ":4256,"{ w \\sum { ":4257," } + 1":4258," } \\theta":4259," } \\left ( \\frac { ":4260," } b":4261," } + 3":4262," } = \\sum":4263," } = a":4264," } \\left [":4265," } \\sum _ { ":4266," } \\mu":4267," } \\}$\r\n":4268," } \\beta } } { \\mbox { ":4269," { \\sigma":4270," { \\mu":4271," { L - \\mbox { ":4272," { i } _ { \\mbox { ":4273," { q } _ { ":4274," { x } _ { ":4275," { z } _ { ":4276," { 2 \\mbox { ":4277," { C } _ { \\mbox { ":4278," { H } _ { ":4279," { a } ^ { ":4280," \\dots":4281," \\}+":4282," \\{ 1":4283," } } + \\frac { ":4284," } } } + ":4285," } } } } { { \\mbox { ":4286," } } } } { \\mbox { f } }\r\n":4287,"ac }\r\n":4288,"ac}$\r\n":4289,"t )$\r\n":4290,"\\mbox { B }\r\n":4291,"\\mbox { X }\r\n":4292,"\\mbox { l }\r\n":4293,"\\mbox { N }\r\n":4294,"\\mbox { F }\r\n":4295,"\\mbox { M }\r\n":4296,"\\mbox { T }\r\n":4297,"\\mbox { r }\r\n":4298,"\\mbox { C }\r\n":4299,"\\mbox { jt }\r\n":4300,"\\mbox { Bc }\r\n":4301,"\\mbox { Ci }\r\n":4302,"\\mbox { Ff":4303,"\\mbox { Gjt }\r\n":4304,"\\mbox { Hi":4305,"\\mbox { Ny }\r\n":4306,"\\mbox { Pr }\r\n":4307,"\\mbox { R } \\left ( { ":4308,"\\mbox { Sh }\r\n":4309,"\\mbox { TC }\r\n":4310,"\\mbox { bc }\r\n":4311,"\\mbox { ej }\r\n":4312,"\\mbox { pM } \\left (":4313,"\\mbox { qce }\r\n":4314,"\\mbox { rV }\r\n":4315,"\\mbox { ut }\r\n":4316,"\\mbox { vp }\r\n":4317,"\\mbox { wX }\r\n":4318,"\\mbox { xe }\r\n":4319,"\\mbox { yi }\r\n":4320,"\\mbox { zVT }\r\n":4321,"\\mbox { ac }\r\n":4322," + \\frac":4323," + \\sum { ":4324," +(n-":4325," + \\left ( \\mbox { ":4326," + \\left [":4327," + \\beta":4328," + \\Delta ":4329," +\\infty}":4330," + \\phi }\r\n":4331," ^ \\alpha":4332," ^2}$\r\n":4333," ^2-p":4334," ^T w":4335," =\\frac { ":4336," = \\left (":4337," = \\sqrt { ":4338," =0$\r\n":4339," = \\pi":4340," =1$\r\n":4341," =||":4342," = \\int":4343," =\\sqrt{":4344," = { -":4345," = \\mathrm d":4346," = \\mu":4347," =v_4":4348,"}{\\pi":4349,"}{\\sigma":4350,"}{\\mathrm d":4351,"}{M_1":4352,"}{p}":4353,"}{156":4354,"}{8s^2":4355,"}{R c^2":4356,"}{p_0":4357,"\\frac b":4358,"\\frac1{":4359," - \\left ( \\mbox { ":4360," - \\sqrt { \\beta":4361," - \\sqrt { \\mbox { ":4362," - \\int \\mbox { ":4363," -E) + c":4364," + 2 }\r\n":4365," + 2)":4366," + 2.":4367," + t$\r\n":4368," + P }\r\n":4369," + 2 ":4370," + F } d":4371," + X_2":4372," + 6 } }\r\n":4373," + M_2":4374," + X_n$\r\n":4375," + r^2":4376," + m^2c":4377," + M_{u v} M":4378," + 0 = ":4379," + 4 \\gt ":4380," + C ) = ":4381," + f_2":4382," + l } } \\left (":4383," + o(1)$\r\n":4384," + q) = p":4385," + sx":4386," + tx":4387," + u_{n+":4388," { \\mbox { s } } _ { \\mbox { ":4389," { \\mbox { A } } ^ { ":4390," { \\mbox { M } ":4391," { \\mbox { R } } _ { \\mbox { ":4392," { \\mbox { X } ":4393," { \\mbox { f } + \\frac { ":4394," { \\mbox { p } } ^ { ":4395," { \\mbox { q } + \\mbox { ":4396," { \\mbox { v } } _ { \\mbox { ":4397," { \\mbox { w } } _ { ":4398," { \\mbox { x } + \\mbox { R } } }\r\n":4399," { \\mbox { z } } _ { ":4400," \\frac{a}{":4401," \\frac{y_n":4402," \\frac{16":4403," \\frac{C}{q":4404," \\frac{L_t":4405," \\frac{N}{L":4406," \\frac{V^i":4407," \\frac{t^3":4408," } { \\tan":4409," } { \\left ( \\mbox { ":4410," } { \\left [ \\mbox { ":4411," } { v } }\r\n":4412," } { F \\mbox { ":4413," } { z } d":4414," } { 7 } } }\r\n":4415," } { l } ^ { ":4416," \\sqrt ":4417," \\right ) } }\r\n":4418," \\right ) \\right )\r\n":4419," \\right )\\left (":4420," \\right ) } \\right )\r\n":4421," \\right ) \\lt":4422," \\right ) } ^ { { ":4423,"^2 = ":4424,"^2 - ":4425,"^2 \\cos":4426,"^2+b":4427,"^2\\theta":4428,"^2)=":4429,"^2 \\gamma":4430,"^2\\left(":4431,"^2 \\right":4432,"^2 T":4433,"^2+\\frac{":4434,"^2 = u":4435,"^2+4":4436,"^2+w":4437,"^2 c^2":4438,"^2 m ":4439,"^2-1":4440,"^2 (\\alpha_0":4441,"^2 + 256":4442,"^2aR$\r\n":4443,"^2z}{dt":4444," = 1$\r\n":4445," = 0}":4446," = 5.":4447," = T_{":4448," = 6 }\r\n":4449," = (2":4450," = 36":4451," = 33":4452," = B \\times ":4453," = p/":4454," = {0":4455," = {v":4456," = P[x_0, x":4457," = c^2 \\Delta t^2 -":4458," = 6,1":4459," = G(x":4460," = L \\frac{":4461," = N M$\r\n":4462," = [0,1":4463," = g \\frac":4464," = k[X":4465," = x + ":4466," \\mbox { P } }\r\n":4467," \\mbox { S } }\r\n":4468," \\mbox { C } }\r\n":4469," \\mbox { L }\r\n":4470," \\mbox { x } }\r\n":4471," \\mbox { m }\r\n":4472," \\mbox { M } } }\r\n":4473," \\mbox { s } }\r\n":4474," \\mbox { L } d":4475," \\mbox { e } }":4476," \\mbox { s } \\left ( ":4477,"\\frac { \\left [":4478,"\\frac { \\sum { ":4479,"\\frac { \\sqrt { \\mbox { ":4480,"\\frac { \\gamma":4481,"\\frac { { \\cdots +":4482,"\\frac { 8.":4483,"\\frac { { - { ":4484,"\\frac { \\left [ \\mbox { ":4485,"\\frac { { \\cdots + ":4486,"\\frac { { \\cdots - ":4487,"\\frac { { \\mbox { g":4488,"\\frac { \\theta } { ":4489,"\\frac { { \\mbox { L":4490,"\\frac { { \\cdots + { \\mbox { ":4491,"\\frac { { \\mbox { R":4492,"\\frac { { \\mbox { v":4493,"\\frac { B } { \\mbox { ":4494,"\\frac { n } { ":4495,"\\frac { { \\mbox { l":4496,"\\frac { E } { \\mbox { ":4497,"\\frac { I } { ":4498,"\\frac { i } { \\mbox { ":4499,"\\frac { { - \\sqrt { ":4500,"\\frac { 76 } { \\sqrt { ":4501,"\\frac { 94.":4502,"\\frac { A } { ":4503,"\\frac { b } { ":4504,"\\frac { f } { \\sum { ":4505,"\\frac { h } { ":4506,"\\frac { n } { \\mbox { ":4507,"\\frac { o } { ":4508,"\\frac { s } { { - ":4509,"\\frac { t } { \\mbox { ":4510,"\\frac { v } { { - ":4511,"\\frac { y } { ":4512,"{ \\mbox { B } + ":4513,"{ \\mbox { B } { ":4514,"{ \\mbox { H } } _ { \\mbox { ":4515,"{ \\mbox { S } } _ { ":4516,"{ \\mbox { T } } _ { \\mbox { ":4517,"{ \\mbox { B } } ^ { \\mbox { V } }\r\n":4518,"{ \\mbox { H } - ":4519,"{ \\mbox { Si":4520,"{ \\mbox { T } - { \\mbox { ":4521,"{ \\mbox { n } } ^ { ":4522,"{ \\mbox { s } + \\left ( ":4523," \\left ( \\sum { ":4524," \\left ( \\lambda":4525," \\left ( \\phi":4526," \\left ( { \\mu":4527," _i= 0$\r\n":4528," _k)^":4529," _{i=0}":4530,"1}{4}":4531,"1}{n}$\r\n":4532,"1}{\\mu}$\r\n":4533,"^{-p":4534,"^{(0":4535,"^{(\\alpha":4536,"^{T/":4537,"^{p/":4538,"^{10}":4539,"^{AE":4540,"^{N-k}}{":4541,"^{SA}":4542,"^{cal":4543,"^{k-1}$\r\n":4544,"^{n - ":4545,"^{obs":4546,"^{s}=":4547,"^{ac}$\r\n":4548," x)}":4549," x^2 +":4550," x \\in ":4551," x } } { { \\mbox { ":4552," x_n$\r\n":4553," x_i$\r\n":4554," x + \\alpha":4555," xx_k":4556," x^{\\prime}\\":4557," x \\in [":4558," x_{LL":4559," x_2]$\r\n":4560," x=x^{":4561," x + t$\r\n":4562," x^2 - ":4563,"_{n-":4564,"_{2k":4565,"_{\\mu":4566,"_{r}":4567,"_{j}":4568,"_{n-1}$\r\n":4569,"_{1_{":4570,"_{G}$\r\n":4571,"_{2n}$\r\n":4572,"_{3\\times":4573,"_{CV":4574,"_{F}":4575,"_{LG}$\r\n":4576,"_{l,m}$\r\n":4577,"\\sqrt { \\sqrt { ":4578,"\\sqrt { \\left [":4579,"\\sqrt { { - ":4580,"\\sqrt { \\int":4581,"\\sqrt { \\beta":4582,"\\sqrt { f }\r\n":4583,"\\sqrt { o }\r\n":4584,"\\sqrt { \\Delta":4585,"\\sqrt { S } }\r\n":4586,"\\sqrt { E }\r\n":4587,"\\sqrt { h }\r\n":4588,"\\sqrt { k }\r\n":4589,"\\sqrt { l }\r\n":4590,"\\sqrt { p }\r\n":4591,"\\sqrt { 5 }\r\n":4592,"\\sqrt { b }\r\n":4593,"\\sqrt { { \\cdots + { \\mbox { ":4594,"\\sqrt { 1 }\r\n":4595,"\\sqrt { A }\r\n":4596,"\\sqrt { { \\cdots + \\mbox { ":4597,"\\sqrt { \\tan ":4598,"\\sqrt { 9 }\r\n":4599,"\\sqrt { \\gamma }\r\n":4600,"\\sqrt { 60 }\r\n":4601,"\\sqrt { R } + \\mbox { ":4602," d } }\r\n":4603," d^2$\r\n":4604," dt$\r\n":4605," dB }\r\n":4606," d } } { { ":4607," d\\left(":4608," dq\r\n":4609," dg\r\n":4610," dT\r\n":4611," dX_2":4612," dh\r\n":4613," d { \\mbox { g":4614," d = c":4615," d \\Delta\r\n":4616," da d":4617," dd^{\\prime})$\r\n":4618," dt=c":4619,"\\sum_{i=":4620,"\\sum_{n":4621,"\\sum_{k":4622,"\\frac{V_{":4623,"\\frac{-2":4624,"\\frac{3 \\sqrt{":4625,"\\frac{E}{k":4626,"\\frac{V_i^2":4627,"\\frac{f}{2":4628,"\\frac{t}{":4629,"\\frac{{T-\\mbox{":4630,"\\frac{1}{n}$\r\n":4631," \\frac{1}{4}$\r\n":4632," \\frac{1}{t^2":4633," \\frac{1}{\\sqrt ":4634," \\frac{1}{H_0}$\r\n":4635," - 1$\r\n":4636," - 18":4637," - 0.":4638," - v } }\r\n":4639," - z }\r\n":4640," - T_{":4641," - p }\r\n":4642," - (\\alpha":4643," - c } }\r\n":4644," - k } } }\r\n":4645," - G$\r\n":4646," - q$\r\n":4647," - 0 } }\r\n":4648," - (B":4649," - 3 } }\r\n":4650," - nP":4651," - o } \\right ]\r\n":4652," - 4||":4653," - C = 0$\r\n":4654," - cbb^{-1}":4655," - f(A":4656," - n } }":4657," - r_1 = ":4658," - w_i$\r\n":4659," - y_m ":4660," - 1}{\\mu}$\r\n":4661," \\frac { B } { ":4662," \\frac { H } { ":4663," \\frac { I } { ":4664," \\frac { k } { \\mbox { ":4665," \\frac { a } { ":4666," \\frac { c } { ":4667,"{ - \\alpha":4668,"{ - \\left ( \\mbox { ":4669,"{ - \\left [":4670,"{ - \\pi }\r\n":4671,"{ - d }\r\n":4672,"{ - z }\r\n":4673,"{ - d } } { { ":4674,"1} 2":4675,"1}{ b":4676,"1} = I":4677,"1}^{+\\infty}":4678,"\\in B":4679,"\\in A":4680,"\\in A, \\forall":4681," } } { 6.":4682," } } { B }\r\n":4683," } } { B } }\r\n":4684," } } { { - \\mbox { h":4685," } } { d } }":4686," } } { 5.7 }\r\n":4687,"\\pi } }\r\n":4688,"\\pi b":4689,"\\pi } ":4690,"\\pi k":4691,"\\pi \\frac {":4692,"\\pi f":4693,"\\pi(t)$\r\n":4694,"\\pi \\left ( p":4695,"\\pi], ":4696,"\\pi}i}":4697,"\\pi^2aR$\r\n":4698,"ts}{V_":4699,"_n}$\r\n":4700,"_n(x)$\r\n":4701,"_nS_{":4702,"_n) - ":4703,"_n(x)=":4704,"_n(P":4705,"_n(1-":4706,"_n^2)$\r\n":4707,"_ny_n":4708,"_n -x||^2":4709,"_n/T$\r\n":4710,"_nX^n":4711,"_n + u_{n+":4712,"_n^2+b":4713,"_n - y_m ":4714," _ { { \\mbox { e":4715," \\sum_{n":4716," \\sqrt { \\frac {":4717," \\sqrt { l } }\r\n":4718," \\sqrt { L } d":4719," \\sqrt { z } d":4720," \\sqrt { y } \\right ]":4721,"\\cdots + { \\mbox { ":4722,"\\cdots - \\left ( \\mbox { ":4723,"\\cdots - o } \\right ]\r\n":4724,"_1$\r\n":4725,"_1 = \\frac{":4726,"_1) = ":4727,"_1 ,":4728,"_1(\\alpha":4729,"_1 + A":4730,"_1^{\\gamma":4731,"_1\\gt":4732,"_1(z)<y":4733,"_1 > t":4734,"_1X + a":4735,"_1] - ":4736,"_1b_2":4737,"_1y_1":4738,"_i)$\r\n":4739,"_i = \\frac{":4740,"_i k":4741,"_i = \\sum":4742,"_i^j":4743,"_i}=":4744,"_i <":4745,"_i)\\times ":4746,"_i(x_i":4747,"_i (\\alpha_0":4748,"_i)\\right)$\r\n":4749,"_i=d":4750,"_iE_j":4751,"_i] = \\frac{":4752,"_ip_j$\r\n":4753,"_i^{ac}$\r\n":4754," = \\frac{\\sqrt{":4755," = \\frac{p}{q":4756," = \\frac{M_2":4757," = \\frac{P[x_0, x":4758," = \\frac{8 R":4759," = \\frac{A.k":4760," = \\frac{p e^{":4761," = \\frac{x^2":4762,"theta_3":4763," } ^ { X }\r\n":4764," } ^ { { \\cdots + ":4765," } ^ { m }\r\n":4766," } ^ { \\lambda":4767," } ^ { M }\r\n":4768," } ^ { \\frac { N":4769," } ^ { f } d":4770," } ^ { \\frac { \\gamma":4771," } ^ { \\pi } ":4772," \\left ( 3 \\right ) }\r\n":4773," \\left ( 7 \\right )":4774," \\left ( B \\right )":4775," \\left ( C_{n}":4776," \\left ( R \\right )":4777," \\left ( o \\right ) }\r\n":4778," \\left ( v \\right )":4779," a \\right ]":4780," a_0":4781," a \\right ] }\r\n":4782," a $\r\n":4783," a_ {":4784," ak X":4785," a}f(x) = l$\r\n":4786," a}{\\pi":4787," a\\in A, \\forall":4788,"$\\frac{\\sin":4789,"$\\frac{18":4790,"$\\frac{m ":4791,"$\\frac{a}{b":4792,"$\\frac{\\mathrm d":4793,"$\\frac{S_{":4794,"$\\frac{75":4795,"$\\frac{C_{":4796,"$\\frac{P}{":4797,"$\\frac{(n+k":4798,"$\\frac{2s":4799,"$\\frac{8\\pi r":4800,"$\\frac{P_i}{":4801,"$\\frac{pe^t":4802,"$\\frac{u-3":4803,"}{2s}":4804,"}{2R}$\r\n":4805,"}{2g}":4806,"}{24 \\div 6":4807,"}{2N_0}$\r\n":4808,"\\left ( z":4809,"\\left ( r":4810,"\\left ( \\left ( \\mbox { ":4811,"\\left ( \\frac { \\mbox { ":4812,"\\left ( \\lambda \\right )\r\n":4813,"\\left ( \\frac { a } { ":4814,"\\left ( \\left ( 7 \\right )":4815,"im_{n":4816,"_{i})$\r\n":4817,"_{i+1}$\r\n":4818,"_{i-1}$\r\n":4819,"_{i-1}":4820,"_{ik}":4821,"_{i}VA(F":4822,"\\int 3.":4823,"\\int q d":4824,"\\int 0.0":4825,"\\int F d":4826,"\\int dX_1":4827,"\\int l d":4828,"\\int m d":4829,"\\int w d":4830,"n-2}$\r\n":4831,"n-k}}{":4832,"n-1}{n}V(X":4833,"\\sin \\gamma":4834,"\\sin \\mu":4835,"\\sin(2":4836,"\\sin 5\r\n":4837,"\\sin^2\\frac{":4838,"\\sin p\r\n":4839,"\\sin \\mbox { L }\r\n":4840,"x_T(t) = ":4841," + 1 }\r\n":4842,"alpha= 2":4843,"n}(X":4844,"n}(x)=":4845,"}\\mu":4846,"}\\!$\r\n":4847,"}\\{A,":4848,"^3) = ":4849,"^3 + \\frac{":4850,"^3-3":4851,"^3 ....":4852," \\lim_{n":4853,"}}}$\r\n":4854,"}})$\r\n":4855,"}} {":4856,"}}}{q":4857,"}} ( \\cos":4858,"}}=10$\r\n":4859,"}}=k":4860,"}} + o(1)$\r\n":4861,"\\left [ \\alpha":4862,"\\left [ \\int ":4863,"\\left [ \\sqrt { \\mbox { ":4864,"\\left [ \\left [ \\mbox { ":4865," } } ^ { \\sigma":4866," } } ^ { \\gamma":4867," } } ^ { u }\r\n":4868," } } ^ { { \\beta":4869," } } ^ { 0 }\r\n":4870," } } ^ { T }\r\n":4871," } } ^ { 8 } { { - \\mbox { ":4872," } } ^ { n } } } }\r\n":4873," z } + \\frac { \\mbox { ":4874," z^2 \\right":4875," \\pi\r\n":4876," \\pi } } { { ":4877," \\pi(x)$\r\n":4878," \\pi \\right ) } ^ { \\mbox { ":4879," \\pi i":4880," \\pi \\right ) \\right )\r\n":4881," r } +":4882,"4} \\mathrm{":4883,"\\sum { j }\r\n":4884,"\\sum { o }\r\n":4885,"\\sum { A } }\r\n":4886,"\\sum { B }\r\n":4887,"\\sum { v }\r\n":4888,"\\sum { z }\r\n":4889,"\\sum { { \\mbox { t":4890,"\\sum { P }\r\n":4891,"\\sum { E }\r\n":4892,"\\sum { e }\r\n":4893,"\\sum { g }\r\n":4894,"\\sum { B } }\r\n":4895,"\\sum { \\phi }\r\n":4896,"\\sum { w }\r\n":4897,"\\sum { { \\mbox { F":4898,"\\sum { { \\mbox { q":4899,"\\sum { T }\r\n":4900,"\\sum { { \\mbox { v":4901,"\\sum { j } } { \\mbox { ":4902,"\\sum { { \\mbox { p":4903,"\\sum { \\left [ \\mbox { h":4904,"\\sum { \\left [ { t +":4905,"\\sum { 5 } } ^ { { ":4906,"\\sum { b } +":4907,"\\sum { { \\mbox { B } + ":4908,") = 1$\r\n":4909,") = (-":4910,") = E - ":4911,") = Nk":4912,") = E(X)^2":4913,") = c^2 \\Delta t^2 -":4914,") = G(\\theta":4915,") = N_k$\r\n":4916,") = dB\\left(V":4917,") = u_1":4918,"b^2}$\r\n":4919,"x^{\\mu}$\r\n":4920,"x^{-n+1}":4921,"$\\beta":4922,"$\\tan":4923,"$\\left(":4924,"$\\{x P":4925,"$\\theta_3":4926,"$\\alpha= 2":4927," } + \\left [ \\mbox { ":4928," } + \\pi }\r\n":4929," \\cos \\alpha":4930," } } _ { \\mbox { A } }\r\n":4931," } } _ { \\mbox { C } }\r\n":4932," } } _ { \\mbox { M } }\r\n":4933," } } _ { \\mbox { i } }\r\n":4934," } } _ { \\mbox { z } } }\r\n":4935," } } _ { \\mbox { c } }\r\n":4936," } } _ { \\mbox { e } }\r\n":4937," } } _ { \\mbox { A } } }\r\n":4938," } } _ { \\mbox { q } } }\r\n":4939," } } _ { \\mbox { w } }\r\n":4940," } } _ { \\mbox { Y } }\r\n":4941,"_2}}$\r\n":4942,"_2}{a":4943,"_2} \\right":4944,"_2(z)$\r\n":4945,"_2[i":4946,"_2b_1":4947,"_2||$\r\n":4948,"_2 > t":4949,"_2>B":4950,"_2B_1)$\r\n":4951,"_2]}{":4952,"_2y_2":4953,"_2}\\cdots":4954,"_2 = {v":4955,"_2^{(\\alpha":4956,"_2 - r_1 = ":4957,"_2 = \\frac{P[x_0, x":4958," \\theta = 0$\r\n":4959," \\theta } } } ^ { ":4960," \\theta } \\leq":4961," \\theta ) = ":4962," \\left ( x \\right ) dT\r\n":4963," } - \\int ":4964," = \\frac{1}{\\sqrt{":4965," = \\frac{1}{2}":4966," = \\frac{1}{2}$\r\n":4967," = \\frac{1}{\\frac{d":4968," = \\frac{1}{T}$\r\n":4969,"$y_0":4970,"$y^{\\prime}":4971,"$y^n":4972,"$y\\times ":4973,"$y^{\\prime} = ":4974,"$y \\mathrm dx":4975,"$y \\neq":4976,"$y = A":4977,"$y=s":4978,"$y^{obs":4979,"$y_1(z)<y":4980,"$y_i^{ac}$\r\n":4981,"(a)$\r\n":4982,"(ab^{-1}":4983,"(a_n^2+b":4984,"}}{P_{v":4985,"}}{m_{":4986,"}}{v}=":4987,"\\sum _ { { \\mbox { z":4988,"1-o_i-":4989,"1-tu(0":4990," } de }\r\n":4991," } dP\r\n":4992," } dg \\right )\r\n":4993,"\\prime}-":4994,"{ - i }\r\n":4995,"{ - t }\r\n":4996,"{ - 2.":4997,"{ - 7.":4998,"{ - o }\r\n":4999,"{ - N } }\r\n":5000,"{ - y }\r\n":5001,"{ - R }\r\n":5002,"{ - L }\r\n":5003,"{ - k }\r\n":5004,"{ - N }\r\n":5005,"{ - 6 }\r\n":5006,"{ - A }\r\n":5007,"{ - q }\r\n":5008,"{ - L } } { ":5009,"{ - E } } { { ":5010,"{ - L \\left ( \\mbox { ":5011," + \\frac { L } { ":5012," + \\frac { a } { \\mbox { ":5013," ( B":5014," (10":5015," (T_{":5016," (1/":5017," (z)$\r\n":5018," ( \\frac{\\alpha \\pi":5019," (4)$\r\n":5020," (X)=":5021," (f_1(x)":5022," (t) = ":5023,"$P = \\sum":5024,"$P = a":5025,"$P(v":5026,"$P_{n":5027,"$P_1 = ":5028,"$P(b":5029,"$P_d":5030,"$P\\gt":5031,"$P[X]":5032,"$P(r)$\r\n":5033,"$P^i":5034,"$P_f":5035,"$P_o":5036,"$P = (":5037,"$P_{s":5038,"$P_1=":5039,"$P( E":5040,"$P^\\mu":5041,"$Pa.s":5042,"$P^{k-1}$\r\n":5043,"$P_{CV":5044,")}(x)":5045,")}dx$\r\n":5046,")} = {0":5047,")} \\frac{1}{H_0}$\r\n":5048,"_0 = 0$\r\n":5049,"_0)=":5050,"_0 = \\frac{2":5051,"_0(X":5052,"_0}-":5053,"_0(G)$\r\n":5054,"_0)+b":5055,"_0+f":5056,"_0, \\ldots":5057,"_0-N":5058,"_0>0$\r\n":5059,"_0I_n$\r\n":5060,"_0 = \\int":5061,"_0}} {":5062,"_0) = N_k$\r\n":5063," \\sin { a } ^ { ":5064,"\\int \\alpha":5065,"\\int \\left ( \\mbox { ":5066,"\\int \\left [":5067,"\\int \\left ( n":5068,"\\int \\frac { \\mbox { ":5069,"\\int \\sigma":5070,"\\int \\int \\mbox { ":5071,"\\int \\sum _ { ":5072,"\\int \\log":5073,"\\int { - { \\mbox { ":5074,"\\int \\beta d":5075,"\\int \\sqrt { L } d":5076,"\\int \\left ( x \\right ) dT\r\n":5077,"n-1}+\\ldots":5078,"n-1}\\frac 1{":5079,"n-1}-n$\r\n":5080,"n-1}x^{-n+1}":5081,"\\beta } }\r\n":5082,"\\beta}{k":5083,"\\beta) = 0$\r\n":5084,"\\beta } { 7 } } }\r\n":5085," \\sqrt{\\frac{t}{":5086,"_{i=1}^{n}":5087,"_{i=1}^s":5088,"\\alpha^{\\prime}":5089,"\\alpha}}\r\n":5090,"\\alpha}{1-\\alpha}$\r\n":5091,"\\alpha G } }\r\n":5092,"\\alpha - c } }\r\n":5093,"\\alpha_i (\\alpha_0":5094,"\\theta\r\n":5095,"\\theta } \\right )\r\n":5096,"\\theta } { \\mbox { ":5097,"\\theta^2 +":5098,"\\theta_2$\r\n":5099,"\\theta + \\mbox { r } } }\r\n":5100,"\\theta + F } d":5101,"\\theta_2}}$\r\n":5102,"eq2$\r\n":5103,"} $\r\n":5104,"} )$\r\n":5105,"} m ":5106,"} )^2":5107,"} g}$\r\n":5108,"} w_{ij":5109,"} V_j$\r\n":5110," + a_1X + a":5111,"$\\frac{1}{\\sqrt{":5112,"$\\frac{1}{T}":5113,"$\\frac{1}{2{":5114,"$\\frac{1}{p^{\\prime}}":5115,"$S^{\\prime}":5116,"$S_{n+1}":5117,"$S(A":5118,"$S(f":5119,"$S=0$\r\n":5120,"$S_n = ":5121,"$S^{4":5122,"$S^1 \\times ":5123,"$S _i= 0$\r\n":5124,"-b}\\neq":5125,"-b_2}{a":5126," } } _ { \\sqrt { \\mbox { ":5127," } } _ { i }\r\n":5128," } } _ { t }\r\n":5129," } } _ { A } }\r\n":5130," } } _ { { \\mbox { d":5131," } } _ { { \\mbox { G":5132," } } _ { \\mu }\r\n":5133," } } _ { \\frac { E } { \\mbox { ":5134," - \\frac{M}{":5135," + c [":5136,"{ - \\mbox { d } }\r\n":5137,"{ - \\mbox { A } }\r\n":5138,"{ - \\mbox { X } }\r\n":5139,"{ - \\mbox { S } }\r\n":5140,"{ - \\mbox { g } }\r\n":5141,"{ - \\mbox { l } }\r\n":5142,"{ - \\mbox { G } }\r\n":5143,"{ - \\mbox { r } }\r\n":5144,"{ - \\mbox { s } }\r\n":5145,"{ - \\mbox { g } }":5146,"{ - \\mbox { s } }":5147,"{ - \\mbox { p } }":5148,"{ - \\mbox { w } \\left ( ":5149,"{ - \\mbox { L } } -":5150,"{ - \\mbox { x } } -":5151,"\\pi}{6} ":5152,"\\pi}{T}}":5153," \\sum { \\mu":5154," \\sum { \\gamma":5155," \\sum { 2 } }\r\n":5156," \\sum { j } }\r\n":5157," \\sum { X } }\r\n":5158," \\sum { u } }":5159," \\sum { 8 } d":5160," b$\r\n":5161," b \\right ] }\r\n":5162," b y":5163," b }{ ":5164," b )":5165," b<B$\r\n":5166," b\\in B":5167,"_ { z } ^ { ":5168,"\\frac { \\mbox { l } } { \\mbox { ":5169,"\\frac { \\mbox { L } } { ":5170,"\\frac { \\mbox { j } } { \\mbox { ":5171,"\\frac { \\mbox { A } } { ":5172,"\\frac { \\mbox { L } } { \\mbox { ":5173,"\\frac { \\mbox { V } } { \\mbox { ":5174,"\\frac { \\mbox { r } } { ":5175,"\\frac { \\mbox { A } } { { \\mbox { ":5176,"\\frac { \\mbox { B } } { c }\r\n":5177,"\\frac { \\mbox { C } } { ":5178,"\\frac { \\mbox { G } } { { ":5179,"\\frac { \\mbox { H } } { \\mbox { ":5180,"\\frac { \\mbox { M } } { ":5181,"\\frac { \\mbox { N } } { ":5182,"\\frac { \\mbox { a } } { { \\mbox { ":5183,"\\frac { \\mbox { d } } { { \\mbox { ":5184,"\\frac { \\mbox { i } } { \\sqrt { ":5185,"\\frac { \\mbox { k } } { { ":5186,"\\frac { \\mbox { n } } { \\mbox { ":5187,"\\frac { \\mbox { q } } { ":5188,"leq x_{LL":5189,"(x) \\lt":5190,"(x)\\}$\r\n":5191,"(x) )=":5192,"(x) - nP":5193," {\\sqrt{2}":5194," {S_0}$\r\n":5195," {\\frac{V_{":5196," } _ { { \\mbox { z":5197," } _ { f }\r\n":5198," } _ { o }\r\n":5199," } _ { v }\r\n":5200," } _ { z }\r\n":5201," } _ { G } }\r\n":5202," } _ { S }\r\n":5203," } _ { x }\r\n":5204," } _ { \\frac { \\mbox { Y":5205," } _ { { \\mbox { t } } _ { ":5206," } _ { \\sum { j } } { \\mbox { ":5207," } ^ { \\mbox { f } }\r\n":5208," } ^ { \\mbox { u } }\r\n":5209," } ^ { \\mbox { X } }\r\n":5210," } ^ { \\mbox { C } }\r\n":5211," } ^ { \\mbox { y } }\r\n":5212," } ^ { \\mbox { A } } }\r\n":5213," } ^ { \\mbox { a } }\r\n":5214," } ^ { \\mbox { v } }":5215," } ^ { \\mbox { b } }\r\n":5216,"\\sigma } { \\mbox { ":5217,"\\sigma + \\mbox { ":5218,"\\sigma_1,":5219,"\\sigma+i":5220,"\\sigma_2]$\r\n":5221,"\\sigma ^2}$\r\n":5222,"\\sigma - n } }":5223," + y_k":5224," + y j":5225," + y_m":5226,"\\sqrt { \\mbox { c } } }\r\n":5227,"\\sqrt { \\mbox { P } }\r\n":5228,"\\sqrt { \\mbox { j } }\r\n":5229,"\\sqrt { \\mbox { X } }\r\n":5230,"\\sqrt { \\mbox { S } }\r\n":5231,"\\sqrt { \\mbox { M } }\r\n":5232,"\\sqrt { \\mbox { L } }\r\n":5233,"\\sqrt { \\mbox { y } }\r\n":5234,"\\sqrt { \\mbox { E } }\r\n":5235,"\\sqrt { \\mbox { F } }\r\n":5236,"\\sqrt { \\mbox { p } }\r\n":5237,"\\sqrt { \\mbox { q } } } ^ { \\mbox { ":5238,"\\mu } }\r\n":5239,"\\mu \\gt ":5240,"\\mu_3":5241,"\\mu } } \\lt":5242,"\\mu + \\sum { \\mbox { ":5243,"\\mu+1)$\r\n":5244,"\\mu } } + \\frac { ":5245,"\\mu \\mbox { e } }":5246,"\\mu - 1}{\\mu}$\r\n":5247," } } { \\mbox { j } }\r\n":5248," } } { \\mbox { i } } }\r\n":5249," } } { \\mbox { H } }\r\n":5250," } } { \\mbox { L } + \\mbox { ":5251," } } { \\mbox { p } - ":5252," } } { \\mbox { t } }":5253,"\\cos(v":5254,"\\cos{(w":5255,"\\cos \\mbox { m }\r\n":5256," \\pm \\frac {":5257,"mathrm d x":5258," c^4":5259," c ,":5260," c } } { { \\mbox { ":5261," c ) = ":5262," c )$\r\n":5263," \\leq \\sum { \\mbox { j } } }\r\n":5264," \\leq { \\mbox { f } + \\frac { ":5265," \\leq \\mbox { P } }\r\n":5266,"$f^{\\prime}":5267,"$f(v":5268,"$f(u":5269,"$f_2(":5270,"$f(1/":5271,"$f(z)=":5272,"$f = \\frac{\\sqrt{":5273,"$f = \\frac{1}{T}$\r\n":5274,"\\geq2$\r\n":5275,"1)^n":5276,"1)(1-":5277,"1)n}{k":5278," } { \\mbox { s } } }\r\n":5279," } { \\mbox { f } } }\r\n":5280," } { \\mbox { g } \\mbox { ":5281," } { \\mbox { i } ":5282," } { \\mbox { q } } ^ { X } }\r\n":5283,"||^2$\r\n":5284,"|| \\alpha":5285,"|| \\leq ":5286,"||z - ":5287,"||w||^2":5288," } 7\r\n":5289," } j }\r\n":5290," } h } }\r\n":5291," } f }\r\n":5292," } j } }\r\n":5293," } o }\r\n":5294," } m } } }\r\n":5295," } h }\r\n":5296," } Y\r\n":5297," } 1 }\r\n":5298,", 1$\r\n":5299,", t)$\r\n":5300,", C_1":5301,", Y >":5302,", u_1, ":5303,"0})$\r\n":5304,"0} + \\Delta ":5305,"0} \\sqrt ":5306," } _ { \\mbox { f } }\r\n":5307," } _ { \\mbox { v } }\r\n":5308," } _ { \\mbox { S } }\r\n":5309," } _ { \\mbox { l } }\r\n":5310," } _ { \\mbox { x } }\r\n":5311," } _ { \\mbox { G } }\r\n":5312," } _ { \\mbox { c } }\r\n":5313," } _ { \\mbox { k } } }\r\n":5314," } _ { \\mbox { t } }\r\n":5315," } _ { \\mbox { y } }\r\n":5316," } _ { \\mbox { I } }\r\n":5317," } _ { \\mbox { X } } }\r\n":5318," } _ { \\mbox { b } } } }\r\n":5319," } _ { \\mbox { eH } }\r\n":5320," } _ { \\mbox { pj } }\r\n":5321," \\alpha$\r\n":5322," \\alpha, \\forall":5323," \\alpha } } { 6.":5324," \\alpha } } { \\mbox { H } }\r\n":5325," } } dI\r\n":5326,"^{\\prime}(t)":5327,"^{\\prime}=\\sum":5328,"^{\\prime}(b)":5329,"^{\\prime}(s)$\r\n":5330,"^{\\prime}Y^{\\prime}":5331,"^{\\prime}) = (-":5332,")=1$\r\n":5333,")=G$\r\n":5334,")=C_1":5335,")=01$\r\n":5336,")=2^n$\r\n":5337,")=A^\\prime":5338,")=n\\left(":5339,")=w$\r\n":5340,")=\\sum_{n":5341,"\\tan s":5342,"^n}$\r\n":5343,"^n]$\r\n":5344,"^n)=2^n$\r\n":5345," \\geq \\int ":5346," \\geq \\beta":5347," \\geq \\sum { \\mbox { H":5348," \\geq { C } _ { \\mbox { ":5349," \\geq x } } { { \\mbox { ":5350," \\geq \\left ( 3 \\right ) }\r\n":5351,"\\gamma + \\mbox { ":5352,"\\gamma - \\mbox { ":5353,"\\gamma}+":5354,"\\gamma + z":5355,"\\gamma \\gt \\mbox { ":5356,"\\gamma n":5357,"\\gamma } ^ { f } d":5358,"\\gamma } - \\int ":5359,"\\gamma } 7\r\n":5360," \\sum { \\mbox { m } } }\r\n":5361," \\sum { \\mbox { S } } }\r\n":5362," \\sum { \\mbox { A } } }\r\n":5363," \\sum { \\mbox { T } } }\r\n":5364," \\sum { \\mbox { h } }":5365," h \\right ] }\r\n":5366,"(n-1)\\times ":5367,"_j)$\r\n":5368,"a}{\\sqrt ":5369,"a}{\\frac b":5370," } + f } }\r\n":5371," } + t }\r\n":5372," } + 7 } }\r\n":5373," } + L } } { ":5374," } + 6.2 }\r\n":5375," } \\mbox { u } }\r\n":5376," } \\mbox { M } }\r\n":5377," } \\mbox { q } }\r\n":5378," } \\mbox { F } d":5379," } \\mbox { e } d":5380," } \\mbox { B } } - ":5381," } \\mbox { V } } -":5382," + \\mbox { c } } }\r\n":5383," + \\mbox { A } }\r\n":5384," + \\mbox { v } }\r\n":5385," + \\mbox { L } }\r\n":5386," + \\mbox { F } } }\r\n":5387,"\\frac { { \\Delta":5388,"\\frac { { { \\mbox { P":5389,"\\frac { { 8 + ":5390,"\\frac { { { - I":5391,"\\frac { { { - \\mbox { h":5392,"\\frac { { 6 -":5393,"\\frac { { N + ":5394,"\\frac { { i - ":5395,"\\frac { { r } ^ { \\mbox { ":5396,"\\frac { { \\frac { \\mbox { p } } { ":5397,"\\frac { { 0 s":5398,"\\frac { { 2 - \\mbox { ":5399,"\\frac { { A - \\mbox { ":5400,"\\frac { { P - ":5401,"\\frac { { R + \\mbox { ":5402,"\\frac { { Y + ":5403,"\\frac { { h + ":5404,"\\frac { { i + { ":5405,"\\frac { { r - \\sum { ":5406,"\\frac { { \\sqrt { R } + \\mbox { ":5407,"\\frac { { { - \\mbox { g } }":5408," \\left ( \\mbox { L } \\right )\r\n":5409," \\left ( \\mbox { w } \\right )\r\n":5410," \\left ( \\mbox { X } \\right )\r\n":5411," \\left ( \\mbox { w } \\right ) \\right )\r\n":5412," \\left ( \\mbox { x } \\right )":5413,"\\sqrt { { \\phi":5414,"\\sqrt { { \\lambda":5415,"\\sqrt { { 4 - ":5416,"\\sqrt { { N \\sum { ":5417,"\\sqrt { { S - ":5418,"\\sqrt { { T + \\mbox { ":5419,"\\sqrt { { a } ^ { { ":5420,"\\sqrt { { g - ":5421,"\\sqrt { { m - { \\mbox { ":5422,"\\sqrt { { s + ":5423,"\\sqrt { { w + ":5424,"\\sqrt { { \\sin \\mu":5425,"\\sqrt { { \\sum { b } +":5426,"\\sqrt { { { - \\mbox { x } } -":5427,"\\sqrt { { \\sqrt { \\mbox { q } } } ^ { \\mbox { ":5428," } + \\mbox { v } }\r\n":5429," } + \\mbox { S } } }\r\n":5430," } + \\mbox { p } } }\r\n":5431," } + \\mbox { M } } } } { ":5432," } + \\mbox { T } \\left ( ":5433," } + \\mbox { g } } } { ":5434," k$\r\n":5435,"$(T_{":5436,"$(2)$\r\n":5437,"$(E_{":5438,"$(M_1":5439,"$(n+1)":5440,"$(2-s":5441,"$(BT":5442,"$(E_{ij":5443,"$(Gz)$\r\n":5444,"$(PA)$\r\n":5445,"$(k_2,":5446,"$(s_1, \\ldots, ":5447,"$(y-y":5448,"$(\\mu+1)$\r\n":5449,"$1 + z":5450,"$1 + a(p":5451,"$1 g = ":5452,"$1/v^2$\r\n":5453,"$1 = \\frac{p e^{":5454,"13(P":5455,"2)(\\alpha+":5456,"2) +(n-":5457,"^k}}$\r\n":5458,"^kC_{":5459,"^k+1)$\r\n":5460,"^k x)}":5461,"c^2 + m^2c":5462,"c^2\\frac{f}{2":5463," - \\mbox { P } }\r\n":5464," - \\mbox { S } }\r\n":5465," - \\mbox { L } } }\r\n":5466,"_{n+2}":5467,"$x = \\sqrt{":5468,"$x_{2}":5469,"$x_{LL":5470,"$x(k,":5471,"$x =v_4":5472,"$|f(x)":5473,"$|B-\\beta":5474,"$|f(\\frac{":5475,"$|u_{n":5476,"$|x - ":5477,"x_1, x":5478,"x_1+a^":5479,"{ { { \\beta":5480,"{ { { - I":5481,"{ { 5 - ":5482,"{ { M - \\mbox { ":5483,"{ { P - \\mbox { ":5484,"{ { k - ":5485,"{ { { - \\mbox { H":5486,"{ { 5 b":5487,"{ { 8 + { \\mbox { ":5488,"{ { M } ^ { ":5489,"{ { T +":5490,"{ { b } ^ { \\mbox { ":5491,"{ { f - \\mbox { ":5492,"{ { j - { \\mbox { ":5493,"{ { k } _ { ":5494,"{ { s - ":5495,"{ { y - ":5496,"{ { \\pi b":5497,"{ { \\mu + \\sum { \\mbox { ":5498," = \\sum_{i=1}^{n}":5499,"^2 +\\frac {":5500,"^2}{5t":5501," = a$\r\n":5502,"\\sum _ { { \\Delta":5503,"\\sum _ { { m = ":5504,"\\sum _ { { 4 = \\mbox { ":5505,"\\sum _ { { 6 \\gt ":5506,"\\sum _ { { 9 \\geq \\mbox { ":5507,"\\sum _ { { C \\gt ":5508,"\\sum _ { { E \\geq":5509,"\\sum _ { { I \\geq":5510,"\\sum _ { { R \\geq H":5511,"\\sum _ { { T \\geq ":5512,"\\sum _ { { X \\gt ":5513,"\\sum _ { { Y \\geq \\mbox { ":5514,"\\sum _ { { b \\gt p":5515,"\\sum _ { { h \\gt":5516,"\\sum _ { { k = ":5517,"\\sum _ { { v \\geq ":5518,"\\sum _ { { \\mu \\gt ":5519,"\\sum _ { { \\gamma \\gt \\mbox { ":5520,"$S = \\{ 1":5521,"0.1\r\n":5522,"0.9\r\n":5523,"0.0\r\n":5524,"0.4\r\n":5525,"0.3 } } { ":5526,"0.8 \\right )\r\n":5527,"0.33}$\r\n":5528,"273,1":5529,"^4+4":5530,"^4 + tx":5531,"^je_j$\r\n":5532,"m i } }\r\n":5533,"m w( r":5534,"{ { \\mbox { B } + ":5535,"{ { \\mbox { z } } ^ { ":5536,"{ { \\mbox { B } } ^ { ":5537,"{ { \\mbox { E } } _ { \\mbox { ":5538,"{ { \\mbox { L } + \\mbox { ":5539,"{ { \\mbox { N } } ^ { ":5540,"{ { \\mbox { N } } _ { \\mbox { ":5541,"{ { \\mbox { e } } _ { \\mbox { ":5542,"{ { \\mbox { G } - ":5543,"{ { \\mbox { b } } _ { ":5544,"{ { \\mbox { f } } _ { \\mbox { z":5545,"{ { \\mbox { j } } _ { \\mbox { ":5546,"{ { \\mbox { k } - \\mbox { ":5547,"{ { \\mbox { o } +":5548,"{ { \\mbox { x } + ":5549,"a}{b} \\right":5550,"_{n+1}(E":5551,"_{n+1}=f":5552,"$u(t":5553,"$u_1,":5554,"$u\\mathrm d":5555,"$u(b":5556,"$u(t)":5557,"$u\\neq":5558,"$u = R":5559,"$u_{N":5560,"$u_n = ":5561,"$u_L":5562,"$u \\in S$\r\n":5563,"$u \\in E, ":5564,"$u=x$\r\n":5565,"$uu^{\\prime}":5566,"$u = g \\frac":5567,"$u(ab^{-1}":5568,"$u_{n+2}":5569,"$u_{n+1}=f":5570,"$a^L_1":5571,"x+y||^2":5572," } \\left ( V \\right ) } ^ { \\mbox { ":5573," } \\left ( Y \\right )\r\n":5574," + \\frac{V_":5575," + \\frac{\\pi}{6} ":5576,"1}{2} m ":5577,"_{n-1}(x)$\r\n":5578,"_{n-1}) + ":5579," \\sum_{i=1}^m ":5580," = \\frac{2}{\\sqrt{3":5581,"\\left ( 1.":5582,"\\left ( 5.":5583,"\\left ( 4.":5584,"\\left ( 0.0":5585,"\\left ( 3 \\right )\r\n":5586,"\\left ( 5 \\right )\r\n":5587,"\\left ( 606 \\right )\r\n":5588,"\\left ( E \\right )\r\n":5589,"\\left ( M \\right )\r\n":5590,"\\left ( S \\right )\r\n":5591,"\\left ( V \\right )\r\n":5592,"\\left ( v \\right )\r\n":5593,"\\left ( 0.8 \\right )\r\n":5594,"$E_0$\r\n":5595,"$E=\\frac{":5596,"$E_1 = ":5597,"$E_1, \\ldots, ":5598,"$E_p":5599,"$E \\rightarrow":5600,"$E_1, ":5601,"$E(P":5602,"$E = \\sqrt{":5603,"$E^{\\prime} = ":5604,"$E[X]":5605,"$E,F":5606,"$E(s^2":5607,"$Ext$\r\n":5608,"$E ^2-p":5609,"$E_iE_j":5610,"$\\sum _{i=0}":5611,"og 2":5612," } - o }\r\n":5613," } - g }\r\n":5614," } - Y }\r\n":5615," } - k } } }\r\n":5616," } - o } }\r\n":5617," } - H } }\r\n":5618," } - r }\r\n":5619," } - 36":5620," } - 5 } }\r\n":5621," } } } { { \\mbox { u":5622," } } } { { \\mbox { a":5623," x < 1$\r\n":5624,"\\sum { \\mbox { f } }\r\n":5625,"\\sum { \\mbox { N } }\r\n":5626,"\\sum { \\mbox { S } }\r\n":5627,"\\sum { \\mbox { q } }\r\n":5628,"\\sum { \\mbox { B } }\r\n":5629,"\\sum { \\mbox { m } }\r\n":5630,"\\sum { \\mbox { o } }\r\n":5631,"\\sum { \\mbox { n } }\r\n":5632,"\\sum { \\mbox { N } } }\r\n":5633,"\\sum { \\mbox { w } }\r\n":5634,"\\sum { \\mbox { T } } - ":5635,"\\sum { \\mbox { k } } } { ":5636,"\\sum { \\mbox { p } } } }\r\n":5637,"}{2} + 4 \\gt ":5638,"}{2} - (\\alpha":5639,"(x) = 2a":5640,"(a-b)]$\r\n":5641,"$L_0$\r\n":5642,"$L(X":5643,"$L(v":5644,"$L(w":5645,"$L_v":5646,"$L(E":5647,"$L_0, ":5648,"$L(S)":5649,"$L/\\log":5650,"$L=2^{":5651,"$L^2\\left(":5652,"$L = [0,1":5653,"$L_{\\mu":5654,"$L_2^{(\\alpha":5655,"$L_0 = \\int":5656,"$L = a$\r\n":5657,"(n+1)n}{k":5658,"+2x_i":5659,"a}}{S_{":5660,"| \\leq \\frac{1}{\\sqrt ":5661," \\frac {v \\sin \\theta":5662," \\frac {S_1}":5663," \\frac {\\sin(2":5664," + it$\r\n":5665," x - \\frac{a}{b} \\right":5666,"\\sqrt { { \\mbox { A } +":5667,"\\sqrt { { \\mbox { C } - \\lambda } }\r\n":5668,"\\sqrt { { \\mbox { Y } - \\mbox { M } } }\r\n":5669,"\\sqrt { { \\mbox { g } + \\frac { \\mbox { ":5670,"\\sqrt { { \\mbox { i } + ":5671,"\\sqrt { { \\mbox { o } - { ":5672,"\\sqrt { { \\mbox { x } - \\mbox { X } } }\r\n":5673,"\\sqrt { { \\mbox { y } + l } }\r\n":5674,"\\sqrt { { \\mbox { z } + \\mbox { ":5675," \\int_{-":5676," \\int \\beta d":5677," \\int \\frac { H } { ":5678,"$\\sum_{i=1}^m ":5679,"$T_{ij":5680,"$T_N":5681,"$T(t)":5682,"$T_{n}":5683,"$T=1$\r\n":5684,"$T \\in E$\r\n":5685,"$T_0, ":5686,"$T(g":5687,"$TN = \\frac{n":5688,"$TX_i":5689,"$To = \\sqrt{":5690,"$T = T_{":5691,"$T x_n$\r\n":5692,"$T_0(X":5693,"x^n + Cste":5694," \\gamma }\r\n":5695," \\gamma_H=\\tan ":5696," \\gamma dB }\r\n":5697," \\int q d":5698," \\int T d":5699," \\int f d":5700," \\int g_n":5701," \\lt \\frac{a}{b}$\r\n":5702," \\lt \\left( 1 - \\frac{L}{R":5703," \\lt \\frac{a}{":5704,"x^{n-1}}$\r\n":5705,"{ \\cdots + \\frac { \\mbox { ":5706,"{ \\cdots + \\int \\frac { H } { ":5707,"{ \\cdots + \\int f d":5708," + a_{n-1}X^{":5709,"$x = \\frac{m_{":5710," } } } ^ { { \\mbox { R":5711," } } } ^ { P } } }\r\n":5712," } } } ^ { q } \\left ( ":5713,"\\sqrt{\\left(":5714,"\\infty}^{":5715," \\in V$\r\n":5716," \\in B, x":5717," \\in Ni":5718," \\in X$\r\n":5719,"$y^2=-\\sqrt{":5720,"\\log v":5721,"\\log 5\r\n":5722,"(t)}{":5723," \\left [ 0":5724," \\left [ \\sqrt { y } \\right ]":5725," \\left [ a \\right ]":5726," \\left [ h \\right ] }\r\n":5727," } } ^ { \\mbox { u } }\r\n":5728," } } ^ { \\mbox { N } }\r\n":5729," } } ^ { \\mbox { M } }\r\n":5730," } } ^ { \\mbox { o } }\r\n":5731," } } ^ { \\mbox { z } }\r\n":5732," } } ^ { \\mbox { C } }":5733," } } ^ { \\mbox { r } }":5734," } } ^ { \\mbox { eo } }\r\n":5735," = 12 ":5736," = 10000":5737," = 1,2":5738," = 100$\r\n":5739,"left(\\phi":5740,"$A_1,":5741,"$A\\times ":5742,"$A \\times (":5743,"$A = n":5744,"$Air":5745,"$A = \\":5746,"$A = A":5747,"$A(0, R":5748,"$AB^2":5749,"$A^n+":5750,"$A = \\pi":5751,"$A = B \\times ":5752,"$A_2>B":5753,"$A ( B":5754,"2})$\r\n":5755,"2}g^{ij}":5756,"2}n(n":5757,"2} = P[x_0, x":5758,"2}^{T/":5759,"2} \\cos \\alpha":5760,"6.5\r\n":5761,"6.9\r\n":5762,"6.9 }\r\n":5763,"6.4 } }\r\n":5764,"6.4 { ":5765,"8.2 }\r\n":5766,"8.6\r\n":5767,"8.8\r\n":5768,"8.5 }\r\n":5769,"8.9 }\r\n":5770,"8.3 -":5771,"8.94 \\pi }\r\n":5772,"^{-6} ":5773,"^{-i \\frac{":5774,"{ - { { \\beta":5775,"{ - { 20":5776,"{ - { 5 ":5777,"{ - { \\frac { \\mbox { Y":5778,"{ - { 1 7 } }\r\n":5779,"{ - { 3 s":5780,"{ - { F } _ { ":5781,"{ - { d \\sum { \\mbox { H":5782,"{ - { g \\mbox { m } } }\r\n":5783,"{ - { j } _ { ":5784,"{ - { q \\mbox { m } } }\r\n":5785,"{ - { w \\sqrt { ":5786,"$H=\\frac{":5787,"$H_3":5788,"$H_4":5789,"$H,H":5790,"$H(X,":5791,"$HCN":5792,"$HR=\\frac{":5793,"$HS_2$\r\n":5794,"$H_{2n}$\r\n":5795,"$H_n/T$\r\n":5796,"$H_{i-1}$\r\n":5797,"$I_A":5798,"$I_d":5799,"$I(t) = ":5800,"$I^{-1}$\r\n":5801,"$I_c":5802,"$I=10$\r\n":5803,"$I=a":5804,"$Id_A":5805,"$Imf$\r\n":5806,"$I_i = \\sum":5807,"2.7\r\n":5808,"2.6 }\r\n":5809,"2.2 = \\sum { \\mbox { ":5810,"\\right)^2":5811,"\\right) = p":5812,"\\right)}}\r\n":5813,"\\right) = dB\\left(V":5814,"\\right)=n\\left(":5815,"d + 4 } } } }\r\n":5816,"{ \\mbox { z } \\leq":5817,"{ \\mbox { z } - \\mbox { M } } }\r\n":5818,"{ \\mbox { z } - \\left ( \\theta \\right ) }\r\n":5819,"{ \\mbox { z } } ^ { { \\mbox { h } + \\mbox { c } } }\r\n":5820,"{ \\mbox { zB } } _ { ":5821,"{ \\mbox { z } - k } } }\r\n":5822," \\left ( n \\right ) }\r\n":5823,"\\left ( \\mbox { L } \\right )\r\n":5824,"\\left ( \\mbox { l } \\right )\r\n":5825,"\\left ( \\mbox { LM":5826,"\\left ( \\mbox { b } \\right )\r\n":5827,"\\left ( \\mbox { d } \\right )\r\n":5828,"\\left ( \\mbox { t } \\right )\r\n":5829,"\\left ( \\mbox { y } \\right )\r\n":5830,"\\int _ { C } ^ { d":5831,"\\int _ { n } ^ { \\alpha } ":5832,"\\int _ { v } ^ { { ":5833,"\\int _ { \\sum { 5 } } ^ { { ":5834," \\gt1$\r\n":5835," \\gt { - \\mbox { ":5836," \\gt \\frac{a}{b}$\r\n":5837," \\gt { \\mbox { A } } ^ { ":5838," \\gt \\frac { k } { \\mbox { ":5839," \\infty } }\r\n":5840," \\infty } - 36":5841," \\ldots$\r\n":5842," \\ldots}$\r\n":5843," \\ldots , ":5844,"\\left [ \\mbox { V } \\right ]\r\n":5845,"\\left [ \\mbox { o } \\right ]\r\n":5846,"\\left [ \\mbox { C } \\right ] }\r\n":5847,"\\left [ \\mbox { T } \\right ]\r\n":5848,"\\left [ \\mbox { i } \\right ]":5849,"\\left [ \\mbox { k } \\right ]":5850,"{ \\cdots - \\Delta":5851,"{ \\cdots - { \\mbox { g":5852,"{ \\cdots - \\sum { \\mbox { i } } }\r\n":5853,"{ \\cdots - \\int S d":5854,"{ \\cdots - \\lambda }\r\n":5855,"{ \\cdots - { \\mbox { x } + \\mbox { R } } }\r\n":5856,"{ \\cdots - \\sqrt { l } }\r\n":5857,"{ \\cdots - \\sum { j } }\r\n":5858,"{ \\cdots - \\sum { \\mbox { T } } }\r\n":5859," } - \\mbox { B } } }\r\n":5860," } - \\mbox { b } }\r\n":5861," } - \\mbox { m } } } }\r\n":5862,"$M\\times ":5863,"$M_k":5864,"$M(2":5865,"$M N":5866,"$M(z)$\r\n":5867,"$M(r)$\r\n":5868,"$M\\righ":5869,"$M \\in S$\r\n":5870,"$M = \\frac {P":5871,"$M(R)$\r\n":5872,"$M=(\\alpha":5873,"$M_i(x_i":5874,"7.5\r\n":5875,"7.4\r\n":5876,"7.2\r\n":5877,"7.8 } }\r\n":5878,"7.9 } \\geq \\sum { ":5879," = \\mbox { p } } } ^ { \\sum { ":5880," - \\frac { M } { ":5881," - \\frac { i } { \\mbox { ":5882,"{ - { \\mbox { G } } _ { ":5883,"{ - { \\mbox { H } { \\sqrt { ":5884,"{ - { \\mbox { N } \\mbox { ":5885,"{ - { \\mbox { T } \\int ":5886,"{ - { \\mbox { V } { \\mbox { ":5887,"{ - { \\mbox { d } \\mbox { ":5888,"{ - { \\mbox { l } \\mbox { ":5889,"{ - { \\mbox { x } \\mbox { ":5890,"{ - { \\mbox { y } } _ { \\mbox { ":5891,"\\left [ 1 \\right ]\r\n":5892,"\\left [ 4 \\right ]\r\n":5893,"\\left [ 6 \\right ]\r\n":5894,"\\left [ 9 \\right ]\r\n":5895,"\\left [ P \\right ]\r\n":5896,"\\left [ f \\right ]\r\n":5897,"\\left [ n \\right ]\r\n":5898,"\\left [ q \\right ] }\r\n":5899,"\\left [ s \\right ]\r\n":5900,"3.6\r\n":5901,"3.2\r\n":5902,"3.8\r\n":5903,"9.5\r\n":5904,"9.9\r\n":5905,"9.0\r\n":5906,"9.2\r\n":5907,"9.3\r\n":5908,"9.6 }\r\n":5909,"9.6 } { ":5910,"V_p}$\r\n":5911,"V_o$\r\n":5912,"\\Delta\r\n":5913,"\\Delta + \\alpha":5914,"\\Delta } \\mu":5915,"\\Delta } } } + ":5916,"{ { - \\mbox { q } }":5917,"{ { - \\mbox { s } }":5918,"{ { - \\mbox { v } }":5919,"{ { - \\mbox { Y } }":5920,"{ { - \\mbox { r } }":5921,"{ { - \\mbox { F } } - ":5922,"{ { - \\mbox { S } } -":5923,"{ { - \\mbox { b } } + { ":5924,"{ { - \\mbox { o } }":5925," } \\frac { \\theta } { \\mbox { ":5926," \\times i$\r\n":5927," \\times B) \\times ":5928," \\times p$\r\n":5929," \\times  (10":5930," \\mathrm dB_":5931," \\mathrm dy = 0$\r\n":5932," \\mathrm dz^2$\r\n":5933," = \\frac {v^2}{":5934," = \\frac {1 }{ ":5935," = \\frac {F }{ ":5936," = \\frac {M_0":5937," = \\frac {nR}{":5938," = \\frac {1}{4}":5939," = \\frac {1}{ b":5940," = \\frac {\\alpha^{\\prime}":5941," = \\frac {1}{2} m ":5942," \\frac { \\mbox { j } } { \\mbox { ":5943," \\frac { \\mbox { b } } { ":5944,"\\frac { x } { t }\r\n":5945,"_1, x_2]$\r\n":5946,"x_2=L$\r\n":5947,"\\beta + \\theta } } } ^ { ":5948,"$q_t":5949,"$q_1, ":5950,"$q\\lt":5951,"$q(x)=":5952,"$q=\\sum":5953,"$q = w":5954,"$q \\in E$\r\n":5955,"$q = 36":5956,"$q_ip_j$\r\n":5957,"$q \\times p$\r\n":5958,"1.5\r\n":5959,"1.0\r\n":5960,"1.0 }\r\n":5961,"1.4 }\r\n":5962,"1.6$\r\n":5963,"1.40\r\n":5964,"\\times 1}$\r\n":5965,"\\times C$\r\n":5966,"{ \\sqrt { B } } ^ { ":5967,"{ \\sqrt { g } } ^ { ":5968,"{ \\sqrt { o } } ^ { ":5969,"{ \\sqrt { 2 } } ^ { ":5970,"{ \\sqrt { 9 } } ^ { { \\mbox { ":5971,"{ \\sqrt { N } } ^ { { ":5972,"{ \\sqrt { m } } ^ { \\mbox { ":5973,"{ \\sqrt { t } } ^ { ":5974,"{ \\sqrt { x } } ^ { { ":5975,"{ \\sqrt { y } } ^ { ":5976,"{ { - 4 } -":5977,"{ { - F } - { ":5978,"{ { - G } +":5979,"{ { - I } - { ":5980,"{ { - h } - \\frac { ":5981,"{ { - p } - \\mbox { ":5982,"{ { - q } - { \\mbox { ":5983,"{ { - s } - \\sum { ":5984,"{ { - u } - \\sqrt { ":5985,"{ { - y } \\lt":5986,"{ \\sqrt { \\mbox { g } }":5987,"{ \\sqrt { \\mbox { N } } } ^ { ":5988,"{ \\sqrt { \\mbox { R } } } ^ { ":5989,"{ \\sqrt { \\mbox { X } } } ^ { ":5990,"{ \\sqrt { \\mbox { j } } } ^ { ":5991,"{ \\sqrt { \\mbox { o } } } ^ { ":5992,"{ \\sqrt { \\mbox { u } } + { ":5993,"{ \\sqrt { \\mbox { y } }":5994," \\beta }\r\n":5995," \\beta } \\right ]\r\n":5996," \\beta } } { \\sqrt { ":5997," \\beta } } ^ { 8 } { { - \\mbox { ":5998,"\\frac {p}{q":5999,"\\frac {p_n(v-u":6000,"\\frac {2H":6001," \\sigma } }\r\n":6002," \\sigma \\right )\r\n":6003," \\sigma^2$\r\n":6004," \\sigma } \\right ]\r\n":6005," \\sigma + { \\mbox { ":6006,"{ \\mbox { u } - { ":6007,"{ \\mbox { u } + { \\mbox { ":6008,"{ \\mbox { u } = a":6009,"{ \\mbox { u } } _ { \\mbox { A } }\r\n":6010,"{ \\mbox { u } \\mbox { M } }\r\n":6011," \\sqrt { \\mbox { x } } }\r\n":6012," \\sqrt { \\mbox { q } } }\r\n":6013," \\sqrt { \\mbox { n } } d":6014," \\sqrt { \\mbox { u } }":6015," } } { { C - \\mbox { ":6016," } } { { y - \\mbox { Y":6017," } } ^ { { \\mbox { L } + ":6018," } } ^ { { \\mbox { B } + \\mbox { ":6019," } } ^ { { \\mbox { C } + \\mbox { R } } }\r\n":6020," } } ^ { { \\mbox { d } + \\mbox { ":6021,"\\sum _ { { \\mbox { F } \\geq \\mbox { ":6022,"\\sum _ { { \\mbox { H } = ":6023,"\\sum _ { { \\mbox { N } = ":6024,"\\sum _ { { \\mbox { P }":6025,"\\sum _ { { \\mbox { S } \\gt ":6026,"\\sum _ { { \\mbox { Y } = ":6027,"\\sum _ { { \\mbox { g } \\gt":6028,"\\sum _ { { \\mbox { w } = ":6029," \\int \\mbox { B } dV }\r\n":6030," \\int \\mbox { G } d":6031," \\int \\mbox { M } d":6032," } \\frac { z } { z } d":6033," , a_ {":6034," , c )$\r\n":6035,"$G(A":6036,"$G(k":6037,"$G M":6038,"$G,H":6039,"$G_u = ":6040,"$G/H":6041,"$G=10":6042,"$GL_m$\r\n":6043,"$G_{2k":6044,"$d(A":6045,"$d(u":6046,"$d \\in E":6047,"$d \\times (":6048,"$dV = ":6049,"$dB\\left(V":6050,"$dE=u":6051,"$dg = \\frac{1}{":6052,"$dx^{\\mu}$\r\n":6053,"$v_3":6054,"$v_1 = ":6055,"$v(x)$\r\n":6056,"$v_p":6057,"$v-u$\r\n":6058,"$v_{LG}$\r\n":6059,"$v_2 = {v":6060,"$v, u_1, ":6061,"$v^je_j$\r\n":6062,"$\\sigma(0":6063,"$\\sigma({":6064,"$\\sigma=1$\r\n":6065,"$\\sigma \\in [":6066,"$\\sigma =\\sqrt{":6067,"$\\sigma_{F}":6068,"$\\sigma = \\frac{1}{2}$\r\n":6069,"$\\sigma \\in X$\r\n":6070,"$\\sigma = \\frac {F }{ ":6071,"(A)}$\r\n":6072,"(A_1)$\r\n":6073,"(A+B":6074,"(A \\times B) \\times ":6075,"(v^2)=":6076,"5.5\r\n":6077,"5.9\r\n":6078,"5.6\r\n":6079,"5.7\r\n":6080,"}= \\{A,":6081,"}=P\\frac{\\alpha":6082,"}=f(y":6083," } \\geq { - \\mbox { ":6084," } \\geq w":6085," } \\geq F":6086," } \\geq \\frac { \\mbox { b } } { ":6087,"{ \\mbox { t } \\left ( \\mbox { ":6088,"{ \\mbox { t } + { ":6089,"{ \\mbox { t } + { \\mbox { ":6090,"{ \\mbox { t } } ^ { u }\r\n":6091,"\\phi\r\n":6092,"\\phi } \\mbox { u } }\r\n":6093," } ^ { { 9 + \\mbox { ":6094," } ^ { { \\sum { \\mbox { T } } - ":6095,"\\left ( { L - \\mbox { ":6096,"\\left ( { 9 - ":6097,"\\left ( { R \\mbox { ":6098,"\\left ( { T } ^ { \\mbox { ":6099,"\\left ( { e A":6100,"\\left ( { t } _ { ":6101,"\\left ( { \\gamma + z":6102,"\\left [ { P } _ { ":6103,"\\left [ { 8 6":6104,"\\left [ { P } _ { \\mbox { ":6105,"\\left [ { d w":6106,"\\left [ { e } ^ { \\mbox { ":6107,"\\left [ { z X":6108,"\\left [ { \\cdots - o } \\right ]\r\n":6109,"\\ldots 2":6110,"\\ldots+c":6111,"\\ldots(n+1)n}{k":6112,"\\mbox{F}}\r\n":6113," 10^":6114," e }\r\n":6115," e \\frac{N}{L":6116," e^{-i \\frac{":6117," yx_k":6118," y + \\beta":6119," y\\in A":6120," y_n - y_m ":6121," y \\in B, x":6122,"$C_p":6123,"$C(0, R":6124,"$C^1(G":6125,"$C_1y_1":6126,"$C_{n+1}(E":6127,"$R_A":6128,"$R_d":6129,"$R^{ij}":6130,"$R^{\\prime} = \\frac{":6131,"$R_g":6132,"$R = k[X":6133,"$R_{3\\times":6134,"$R_1\\gt":6135,"$V_i-":6136,"$V.f(p":6137,"$V=\\int":6138,"$VA = ":6139,"$VdP = -":6140,"$V_i = \\frac{":6141,"$p=\\frac{":6142,"$p_A":6143,"$pV = ":6144,"$p \\neq":6145,"$p = 2":6146,"$pgcd":6147,"$p^{SA}":6148,"$p_1^{\\gamma":6149,"$s_i^2":6150,"$s=1$\r\n":6151,"$s=n":6152,"$s_{j}":6153,"$s = \\frac{1}{2}":6154,"$s = 1,2":6155,"(1+q":6156,"(1+w":6157,"(1+{y":6158,"(z-z":6159,"3}^T$\r\n":6160,"3} a}{\\pi":6161,"3}(a-b)]$\r\n":6162,"=\\frac{V_s":6163,"=\\frac{4 \\pi":6164,"=\\frac{|P_1-":6165,"=\\frac{\\gamma n":6166,"[X_i] = \\frac{":6167,"\\left(\\frac{\\alpha}{2}\\right":6168,"_A (t) = ":6169,"_A = \\frac {M_0":6170,"}^{e}\\":6171," } = \\beta } } ^ { 8 } { { - \\mbox { ":6172," } = \\sqrt { \\mbox { x } } }\r\n":6173," } \\left ( \\lambda \\right )\r\n":6174," } \\left ( { \\mbox { p } } ^ { ":6175," } \\left ( \\left ( \\sum { ":6176," } \\left ( \\left [ 0":6177," \\Delta } }\r\n":6178," \\Delta x^2 +":6179," \\Delta z^2 \\right":6180,"\\mbox { ti }\r\n":6181,"\\mbox { tg }\r\n":6182,"\\mbox { tN }\r\n":6183,"\\mbox { tY }\r\n":6184,"\\mbox { tS }\r\n":6185,"\\mbox { t } \\left ( { \\mbox { p } } ^ { ":6186," + { \\sin } ^ { ":6187," + { q \\int S d":6188," \\right\\}$\r\n":6189," \\right) \\left( 1 - \\frac{L}{R":6190,"{ \\mbox { y } } _ { \\phi }\r\n":6191,"{ \\mbox { y } = \\sum":6192,"{ \\mbox { y } } _ { \\mbox { w } }\r\n":6193,"{ \\mbox { y } + t }\r\n":6194,"{ \\mbox { y } } ^ { \\mbox { N } }\r\n":6195,"{ \\mbox { y } - \\mbox { b } }\r\n":6196," } } { { \\mbox { T } ":6197,"_{ij}a_{ij}$\r\n":6198,"_{ij}\\mu":6199," \\lambda \\left ( n \\right ) }\r\n":6200,"\\sum { { C - \\mbox { ":6201,"\\sum { { I - \\phi } }\r\n":6202,"\\sum { { X + \\mbox { ":6203,"\\sum { { f + ":6204,"\\sum { { p - \\mbox { ":6205,"\\sum { { s - \\mbox { ":6206,"\\sum { { \\sigma + \\mbox { ":6207,"$\\Delta S_{":6208,"$\\Delta s^2":6209,"$\\Delta L$\r\n":6210,"$\\Delta w_{ij":6211,"$\\Delta F \\lt ":6212,"$\\Delta t_i$\r\n":6213,"{ \\cdots + H }\r\n":6214,"{ \\cdots + z }\r\n":6215,"{ \\cdots + 6.2 }\r\n":6216,"{ \\cdots + 2.6 }\r\n":6217,"{ \\cdots - h } }\r\n":6218,"{ \\cdots - l }\r\n":6219,"{ \\cdots - 4.":6220,"{ \\cdots - 5 }\r\n":6221,"{ \\cdots - 6 }\r\n":6222,"{ \\cdots - 3 } }\r\n":6223,"{ \\cdots - 9.6 }\r\n":6224," } - { S } ^ { \\mbox { ":6225," } - { i e":6226," } - { \\cdots + { \\mbox { ":6227," } - { \\gamma - \\mbox { ":6228,"{ \\cdots + { { \\mbox { r":6229,"{ \\cdots + { \\cos } ^ { ":6230,"{ \\cdots + { { a } ^ { ":6231,"{ \\cdots + { 2 + \\mbox { ":6232,"{ \\cdots + { C } ^ { \\mbox { ":6233,"{ \\cdots + { V -":6234,"{ \\cdots + { e \\left (":6235,"{ \\cdots + { l - \\mbox { ":6236," 2^{-n}":6237," 247":6238," 250 4":6239," B$\r\n":6240," B } }\r\n":6241," B^k$\r\n":6242," B_n(x)$\r\n":6243," R}{\\gamma":6244," R^2 \\cos":6245," T)$\r\n":6246," T)}$\r\n":6247," T }$\r\n":6248," T}}}{":6249," T - \\sqrt { \\beta":6250," s }\r\n":6251," s } \\right )\r\n":6252," sat":6253," sec}}$\r\n":6254,"$B_1 = ":6255,"$B_N":6256,"$B(t)":6257,"$B(L":6258,"$B(X,":6259,"$B = (2":6260,"$B_n(1-":6261,"$N/M$\r\n":6262,"$Nsy":6263,"$Nu= 0.":6264,"$N_{n-1}$\r\n":6265,"$N - G$\r\n":6266,"$a,b":6267,"$a^{\\prime} = \\frac{":6268,"$a = p/":6269,"$a^{p/":6270,"$a = \\frac{8 R":6271,"$a_2 = \\frac{P[x_0, x":6272,"$a(v^2)=":6273,"(u)$\r\n":6274,"(u_n)$\r\n":6275,"(u^{\\prime})$\r\n":6276,"(uv)-v":6277,")}{1+":6278,")}{L}}$\r\n":6279,")}{1-tu(0":6280,")^2 \\mathrm{":6281,")^2 f(x":6282,")^2] =":6283,"101_2$\r\n":6284,"10^{-6} ":6285,"T_{r-2}":6286,"{ \\sin T - \\sqrt { \\beta":6287,"{ \\beta - 0.":6288,"{ \\beta } ^ { \\frac { \\gamma":6289,"{ \\beta \\leq \\mbox { P } }\r\n":6290,"{ \\beta } _ { \\mbox { t } }\r\n":6291," } = 7 } } ^ { ":6292," } = I }\r\n":6293," } \\left ( \\mbox { G } \\right )\r\n":6294," } \\left ( \\mbox { i } \\right ) }\r\n":6295," } \\left ( \\mbox { m } \\right )\r\n":6296,"}{q(r":6297," - { r}":6298," - { t } ^ { { ":6299," - { \\cdots - \\left ( \\mbox { ":6300," - { \\alpha G } }\r\n":6301,"{ \\mbox { g } - \\left ( ":6302,"{ \\mbox { g } - \\left ( \\theta \\right ) }\r\n":6303,"{ \\mbox { gF } } _ { \\mbox { j } }\r\n":6304,"{ \\mbox { g } { l } ^ { ":6305,"{ \\mbox { g } { \\mbox { i } ":6306,"{ \\mbox { g } \\geq \\frac { \\mbox { b } } { ":6307," \\sum _ { { k":6308," \\phi$\r\n":6309," \\phi \\right ] }\r\n":6310," \\phi } } dI\r\n":6311,"\\left ( { \\mbox { F } \\mbox { ":6312,"\\left ( { \\mbox { N } } ^ { ":6313,"\\left ( { \\mbox { s } } _ { \\mbox { ":6314,"\\left ( { \\mbox { C } } _ { ":6315,"\\left ( { \\mbox { G } - \\mbox { ":6316,"\\left ( { \\mbox { r } ":6317,"$\\mu_0$\r\n":6318,"$\\mu_p":6319,"$\\mu P":6320,"$\\mu_n = ":6321,"$\\mu=m":6322,"$\\mu_i=d":6323,"$\\mu e \\frac{N}{L":6324," } + { z } _ { ":6325," } + { V } _ { \\mbox { ":6326," } + { v i } }\r\n":6327," } + { x 8.":6328,"||^2 = 2":6329," \\ldots, X_n":6330," t } \\right )\r\n":6331," t \\in [":6332," tv$\r\n":6333," t/2$\r\n":6334,"$2 + 2":6335,"$26$\r\n":6336,"$2^{2":6337,"$2S+1$\r\n":6338,"$2^\\frac { N":6339,"$2sp_{":6340,"$e ^ {":6341,"$e^{2":6342,"$e_{s":6343,"$e^{-n}":6344,"$e^v":6345,"$e = 6,1":6346,"$g(\\theta":6347,"$g_{v":6348,"$g_1(x)":6349,"$g(z)=":6350,"$g(b)":6351,"$g^{\\prime}(b)":6352,"$r^{\\prime} = ":6353,"$r=M$\r\n":6354,"$r^l":6355,"$r_C = \\frac{2":6356,"$r_2 - r_1 = ":6357,"$r=\\frac{|P_1-":6358,"(p^{\\prime},":6359,"(p + q) = p":6360,"-\\frac{1}{n}V(X":6361,"-\\frac{P_v":6362,"-\\frac{k}{2":6363,"-\\frac{\\beta}{k":6364,"-\\frac{\\alpha}{1-\\alpha}$\r\n":6365,"... \\}$\r\n":6366,"17 247":6367,"2 E }\r\n":6368,"2 M_{u v} M":6369,"2 G M":6370,"4.5\r\n":6371,"4.7\r\n":6372,"4.45 }\r\n":6373,"\\mathrm dt$\r\n":6374,"\\mathrm du$\r\n":6375,"\\mathrm d\\theta^2 +":6376,"q ds\r\n":6377,"q dT } }\r\n":6378,"q d \\sigma + { \\mbox { ":6379,"}+1,":6380,"}+\\sqrt{34+2\\sqrt17":6381,"{ Y - { \\mbox { ":6382,"{ Y - \\sum { \\mbox { ":6383,"{ Y } _ { { \\mbox { z":6384,"{ Y - \\mbox { P } }\r\n":6385,"{ a_0, \\ldots":6386,"{ a } _ { f }\r\n":6387,"{ a } _ { \\mbox { f } }\r\n":6388,"{ a - { t } ^ { { ":6389,"{ m - F }\r\n":6390,"{ m - 3 } }\r\n":6391,"{ m } ^ { \\mbox { b } }\r\n":6392,"{ m \\gt { - \\mbox { ":6393," } \\leq \\sum { \\mbox { j } } }\r\n":6394," } \\lt \\int \\mbox { E":6395," } \\lt { \\sigma":6396," } \\lt { \\mbox { z } } _ { ":6397," } \\lt \\lambda \\left ( n \\right ) }\r\n":6398," \\mu \\right ] }\r\n":6399," \\mu } ds\r\n":6400," \\mu \\right ) } ^ { { ":6401," } } } } { { \\cdots + \\int \\frac { H } { ":6402,"\\frac { \\sqrt { V } } { \\mbox { ":6403,"{ \\mbox { C } \\gt":6404,"{ \\mbox { C } \\geq \\sum { ":6405,"{ \\mbox { C } } _ { { \\mbox { G":6406,"{ \\mbox { C } f }\r\n":6407,"_{n,n}$\r\n":6408,"_1 = L_1":6409,"\\left [ { \\mbox { A } } _ { \\mbox { ":6410,"\\left [ { \\mbox { g } } ^ { ":6411,"\\left [ { \\mbox { P } +":6412,"\\left [ { \\mbox { p } + \\mbox { s } } \\right ]\r\n":6413,"\\left [ { \\mbox { y } + \\mbox { s } } \\right ]\r\n":6414,"\\left [ { \\mbox { z } + { ":6415,"$\\forall a ,":6416,"$\\forall u":6417,"$\\forall x \\in ":6418,"$\\forall a\\in A, \\forall":6419,"$\\forall y\\in A":6420,"$\\forall t \\in [":6421,"_1, \\ldots, X_N":6422,"_1, \\ldots, p_N":6423,"_1, \\ldots, v_n)$\r\n":6424,"}{dt}$\r\n":6425,"}{dt}\\{A,":6426,"tarrow N":6427," < b$\r\n":6428," < x < 1$\r\n":6429," < B$\r\n":6430," j$\r\n":6431," j } } { { C - \\mbox { ":6432," v$\r\n":6433," v_4":6434,"$0\\leq":6435,"$0<\\gamma":6436,"$0 + 0 = ":6437,"$0 \\lt \\left( 1 - \\frac{L}{R":6438,"$0 < x < 1$\r\n":6439,"$F(t) = ":6440,"$F_{-":6441,"$F_u = ":6442,"$F((T":6443,"$F_n(x)=":6444,"${f(x)":6445,"${\\sqrt{2}":6446,"${E_{":6447,"${Re":6448,"${f=F":6449,"$\\int \\mathrm dx":6450,"$\\int_a^":6451,"$||f||^2":6452,"$||z - x":6453,"$||{ r}":6454,"$||x+y||^2":6455,"$|| y_n - y_m ":6456,"(-1)^n":6457,"(b, a":6458,", x _k)^":6459,"=X_1+":6460,"=X_{i+1}$\r\n":6461,"=X^3-3":6462,"_d \\sin \\theta":6463,"_p q":6464,"_1}^2$\r\n":6465,"_1} t$\r\n":6466,"_1}p_2":6467,"_1} \\right) \\left( 1 - \\frac{L}{R":6468,"f(x) \\mathrm dx":6469,"f(x)g(y":6470,"f(x) \\mathrm dx$\r\n":6471,"q } } = { -":6472,"q } } } - { \\cdots + { \\mbox { ":6473,"r}[X_i] = \\frac{":6474,"s^2 = \\mathrm d":6475,"} = 1$\r\n":6476,"} = L_1":6477,"} = z$\r\n":6478,"} = m^2c":6479,"} = P a":6480,"{ 8 \\geq \\mbox { ":6481,"{ 839.":6482,"{ 8 \\sum { 2 } }\r\n":6483,"{ 86.4 { ":6484,"{ 8 - { \\cdots - \\left ( \\mbox { ":6485,"{ d = { \\mbox { ":6486,"{ d } _ { x }\r\n":6487,"{ d } ^ { \\mbox { a } }\r\n":6488,"{ d } _ { \\mbox { I } }\r\n":6489,"{ d \\geq \\int ":6490,"{ n \\lt \\int":6491,"{ n } _ { S }\r\n":6492,"{ n } _ { \\mbox { eH } }\r\n":6493,"{ { - z } + \\frac { \\mbox { ":6494,"{ { - r } +":6495,"{ { - \\sum { u } }":6496,"{ { - \\sum { \\mbox { h } }":6497,"{ { - \\infty } - 36":6498,"{ \\left ( \\mbox { C } \\right )":6499,"{ \\left ( \\mbox { G } \\right ) } ^ { \\mbox { ":6500,"{ \\left ( \\mbox { l } \\right ) =":6501,"{ \\left ( \\mbox { m } \\right ) } ^ { ":6502,"{ \\left ( \\mbox { s } \\right ) } ^ { ":6503," } \\gt { \\mbox { X } ":6504," } \\gt \\sum { X } }\r\n":6505," \\left(\\frac{\\alpha}{2}\\right":6506," \\left( {\\frac{V_{":6507," \\left( \\Delta x^2 +":6508," \\mathrm{Cste":6509," \\mathrm{cm}$\r\n":6510," \\forall b ,":6511," \\forall c ,":6512,"\\mbox { Iy }\r\n":6513,"\\mbox { IV }\r\n":6514,"\\mbox { IE }\r\n":6515,"}{3} + \\frac{\\pi}{6} ":6516," + 2||y":6517," + 2AI":6518," } { { \\pi } ^ { ":6519," } { { G + ":6520,"{ \\mbox { F } - \\sum { ":6521,"{ \\mbox { F } H }\r\n":6522,"{ \\mbox { Fl } } _ { ":6523,"{ \\mbox { F } } _ { \\mbox { C } }\r\n":6524,"{ \\mbox { L } \\sum _ { ":6525,"{ \\mbox { L } } _ { \\mbox { q } } }\r\n":6526,"{ \\mbox { L } + \\mbox { v } }\r\n":6527,"{ \\mbox { L } } ^ { { \\mbox { L } + ":6528,"{ \\mbox { d } \\sum { ":6529,"{ \\mbox { dL } } _ { { ":6530,"{ \\mbox { d } } ^ { \\mbox { u } }\r\n":6531,"{ \\mbox { d } = \\sqrt { \\mbox { x } } }\r\n":6532,"{ \\mbox { e } - { \\mbox { ":6533,"{ \\mbox { e } - { i e":6534,"{ \\mbox { i } } _ { { ":6535,"{ \\mbox { i } } _ { \\mbox { j } }\r\n":6536,"{ \\mbox { i } } _ { \\mu }\r\n":6537,"{ \\mbox { k } } ^ { { ":6538,"{ \\mbox { k } - \\sum { ":6539,"{ \\mbox { k } \\lt ":6540,"{ \\mbox { k } } _ { \\mbox { I } }\r\n":6541,"{ \\mbox { k } \\lt { \\sigma":6542,"{ \\mbox { q } } ^ { \\mbox { V } }\r\n":6543,"{ \\mbox { q } } ^ { \\mbox { c } }\r\n":6544,"{ \\mbox { q } } ^ { { \\mbox { h } + \\mbox { c } } }\r\n":6545,"{ \\mbox { q } } ^ { \\gamma":6546," } ^ { { \\mbox { B } + ":6547," } ^ { { \\mbox { h } - ":6548," } ^ { { \\mbox { E } + ":6549," } ^ { { \\mbox { M } } _ { ":6550," } ^ { { \\mbox { c } + \\mbox { ":6551," } } ^ { { \\theta + \\mbox { r } } }\r\n":6552,"$\\Delta_r":6553,"$\\Delta x=x^{":6554,"$\\Delta_{r}":6555,"$\\Delta d = c":6556,"$\\Delta \\theta = 0$\r\n":6557,"$\\left\\{ ":6558," } - { \\mbox { j } - ":6559,"\\int { M - \\mbox { ":6560,"\\int { T c":6561,"\\int { \\theta + F } d":6562,"\\int { { - \\mbox { L } } -":6563,"\\int { \\gamma } ^ { f } d":6564," } } _ { { A } _ { ":6565," } } _ { { \\sigma - n } }":6566,"\\lambda } }\r\n":6567,"\\lambda - v } }\r\n":6568,"\\cos 5\r\n":6569,"\\cos 3\r\n":6570,"\\cos I\r\n":6571,"{ \\cdots + { \\mbox { A } } _ { \\mbox { ":6572,"{ \\cdots + { \\mbox { a } } ^ { ":6573,"{ \\cdots + { \\mbox { q } } _ { ":6574," \\left [ \\mbox { E } \\right ] }\r\n":6575," \\left [ \\mbox { k } \\right ] }\r\n":6576," \\left [ \\mbox { w } \\right ]":6577," { - \\mbox { X } } \\right ]":6578,"\\int ^ { e } _ { ":6579,"\\int ^ { { - r":6580,"\\int ^ { n } _ { ":6581,"\\int ^ { \\frac { t } { \\mbox { ":6582,"\\int ^ { { - \\mbox { p } }":6583," C_2[i":6584," E/F":6585," E[(X":6586," P_\\mu":6587,"$c(w":6588,"$c.s":6589,"$c - w_i$\r\n":6590,"$c_1(\\alpha":6591,"$t_1=":6592,"$tw(G)$\r\n":6593,"$t_2 > t":6594,"$t_0 = \\frac{2":6595,"$w = w":6596,"$w ^ \\alpha":6597,"(2n+1)":6598,"(k-1)":6599,"(n)$\r\n":6600,"(n) = \\frac{1}{":6601,"(n,P":6602,"(w) = u_1":6603,") - G$\r\n":6604,") - E(X)^2":6605,"+15X":6606,"+1^2)":6607,"+\\frac{u}{3}":6608,"+\\frac{v}{3}":6609,"+1},v":6610,"2} BC^2":6611,"2} P(t)":6612,"56^2 + 256":6613,"B } + P } }\r\n":6614,"S } } q d":6615,"S } } } \\left ( \\frac { ":6616,"S } } + \\mbox { v } }\r\n":6617,"S } } \\int q d":6618,"S } } { \\alpha } }\r\n":6619,"S } } { \\sigma } }\r\n":6620,"S } } { G } \\sum { ":6621,"S } } { S \\mbox { ":6622,"\\Delta V} {":6623,"\\Delta l^2$\r\n":6624,"\\mathrm{moy":6625,"\\mathrm{card}":6626,"\\neq{v":6627,"\\neq\\left":6628,"^\\prime\\right) = dB\\left(V":6629,"_B)$\r\n":6630,"_BT$\r\n":6631,"_B T}}}{":6632,"_m -x||^2":6633,"_v$\r\n":6634,"_v + M_{u v} M":6635,"a|$\r\n":6636,"a|\\lt":6637,"e}^{2i":6638,"l } } { \\mbox { X } }\r\n":6639,"l } } { \\mbox { s } }\r\n":6640,"l } } { \\mbox { z } } d":6641,"m } } \\geq \\left ( 3 \\right ) }\r\n":6642,"m } } \\left ( \\mbox { X } \\right )\r\n":6643,"p}{q}\\right":6644,"p}{q})":6645,"t^2}{2s}":6646,"{\\mbox{X}\\neq":6647,"{ 1 + { \\mbox { ":6648,"{ 1 \\mbox { u } }\r\n":6649,"{ 1 + \\mbox { L } }\r\n":6650,"{ b + n } } }\r\n":6651,"{ b + l } } \\left (":6652,"{ b } ^ { m }\r\n":6653,"{ f + n } } }\r\n":6654,"{ f } ^ { \\mbox { k } }":6655,"{ f y }\r\n":6656,"{ f + \\left [":6657,"{ y + \\left ( \\mbox { ":6658,"{ y } ^ { M }\r\n":6659,"{ y \\leq \\sum { \\mbox { j } } }\r\n":6660,"{ y } _ { \\mbox { b } } } }\r\n":6661,"{ z o":6662,"{ z + P }\r\n":6663,"{ z } _ { \\mbox { y } }\r\n":6664,"{ z \\gt \\frac { k } { \\mbox { ":6665,"{ \\sum { 4 } -":6666,"{ \\sum { 3 } -":6667,"{ \\sum { j } - \\mbox { ":6668,"{ \\sum { \\gamma } - \\int ":6669,"{ \\alpha z }\r\n":6670,"{ \\alpha - k } } }\r\n":6671,"{ \\alpha } _ { z }\r\n":6672,"{ \\alpha s }\r\n":6673,"{ \\frac { \\mbox { r } } { ":6674,"{ \\frac { \\mbox { E } } { \\mbox { ":6675,"{ \\frac { \\mbox { e } } { ":6676,"{ \\frac { \\mbox { S } } { G } \\sum { ":6677,"{ \\Delta - \\sum { ":6678,"{ \\Delta - \\sum { \\mbox { ":6679,"{ \\Delta + \\sum { ":6680,"{ \\Delta } _ { v }\r\n":6681," \\Delta y^2 +":6682," } } + { P } _ { ":6683,"\\mbox { iR }\r\n":6684,"\\mbox { i } \\left ( \\left [ 0":6685,"}{1-(1-":6686,"}{1-q}$\r\n":6687," + AC^2":6688," + A C$\r\n":6689," \\right ) } ^ { \\mbox { j } }\r\n":6690," \\right ) } ^ { \\mbox { b } } }\r\n":6691," = u_n + u_{n+":6692," = u + c [":6693," = u_p q":6694,"{ \\mbox { G } + \\sqrt { \\mbox { ":6695,"{ \\mbox { G } } _ { \\mbox { n } }\r\n":6696,"{ \\mbox { G } + 6.2 }\r\n":6697,"{ \\mbox { NY } } _ { \\mbox { I } }\r\n":6698,"{ \\mbox { N } } _ { \\mbox { e } }\r\n":6699,"{ \\mbox { N } h }\r\n":6700,"{ \\mbox { N } } ^ { { \\mbox { B } + \\mbox { ":6701,"{ \\mbox { P } + \\sum { ":6702,"{ \\mbox { P } - \\frac { ":6703,"{ \\mbox { P } } ^ { \\mbox { eo } }\r\n":6704,"{ \\mbox { R } 1 }\r\n":6705,"{ \\mbox { R } \\left ( V \\right ) } ^ { \\mbox { ":6706,"{ \\mbox { X } { \\mbox { q } } ^ { X } }\r\n":6707,"{ \\mbox { X } - Y }\r\n":6708,"{ \\mbox { a } } ^ { \\sigma":6709,"{ \\mbox { a } + \\pi }\r\n":6710,"{ \\mbox { a } = 7 } } ^ { ":6711,"{ \\mbox { j } } ^ { n } } } }\r\n":6712,"{ \\mbox { j } } _ { i }\r\n":6713,"{ \\mbox { j } - o }\r\n":6714,"{ \\mbox { j } \\lt \\lambda \\left ( n \\right ) }\r\n":6715,"{ \\mbox { m } + \\sum { ":6716,"{ \\mbox { m } \\gt ":6717,"{ \\mbox { m } m } } }\r\n":6718,"{ \\mbox { m } } ^ { \\mbox { z } }\r\n":6719,"{ \\mbox { o } } ^ { { \\beta":6720,"{ \\mbox { o } - r }\r\n":6721,"{ \\mbox { o } } ^ { \\mbox { o } }\r\n":6722,"{ \\mbox { o } } ^ { { \\theta + \\mbox { r } } }\r\n":6723,"{ \\mbox { v } \\lt ":6724,"{ \\mbox { v } } _ { \\mbox { i } }\r\n":6725,"_{n}) = E(X)^2":6726,"\\frac{dB}{dt":6727,"{ - \\sum { g } }\r\n":6728,"{ - \\sum { l } }\r\n":6729,"{ - \\sum { r } }\r\n":6730,"{ - \\sum { { \\mbox { m } m } } }\r\n":6731,"{ - \\sum _ { { 5":6732,"{ - \\sum _ { { 8 \\geq \\mbox { ":6733,"{ - \\sum _ { { z \\gt \\frac { k } { \\mbox { ":6734,"{ - \\sum _ { { \\mbox { a } = 7 } } ^ { ":6735,"_1, F_2$\r\n":6736,"\\left ( { - C } \\right )\r\n":6737,"\\left ( { - s } \\right )\r\n":6738,"\\left ( { - t } \\right )\r\n":6739,"\\left [ \\sum { \\mbox { j } } \\right ]\r\n":6740,"\\left [ \\sum { \\mbox { x } } \\right ]\r\n":6741,"$\\log 2":6742,"$\\gamma>\\gamma":6743,"$\\gamma_1 = \\frac{":6744,"$\\gamma=\\frac{4 \\pi":6745,"$\\gamma < B$\r\n":6746,"{ \\cdots + \\mbox { g } }\r\n":6747,"{ \\cdots + \\mbox { s } }\r\n":6748,"{ \\cdots + \\mbox { pg } }\r\n":6749,"\\int { \\mbox { T } } _ { \\mbox { ":6750,"\\int { \\mbox { I } + \\mbox { ":6751,"\\int { \\mbox { S } } ^ { \\mbox { ":6752,"\\int { \\mbox { s } } _ { \\sigma":6753,"^{\\prime}}^2)":6754,"\\ltl_0$\r\n":6755,"\\ltq^{-1}":6756,"(x)=(2n+1)":6757," \\leq I_":6758," \\leq I_B":6759," \\leq 4.45 }\r\n":6760,"$f(M)$\r\n":6761,"$f(H)$\r\n":6762,"$f(N) =":6763,"$f(\\sigma+i":6764,"||y_n -x||^2":6765,"^{\\prime},M$\r\n":6766,"^{\\prime},b^{\\prime},":6767,"\\tan 9\r\n":6768,"\\tan 3.1\r\n":6769,"\\tan \\mbox { i }\r\n":6770,"\\tan \\mbox { g } }\r\n":6771,"\\tan \\mbox { h }\r\n":6772,"\\tan \\mbox { r }\r\n":6773," \\geq \\mbox { c } } } { \\mbox { ":6774,"\\infty}g(s":6775,"\\int ^ { \\mbox { m } } _ { { ":6776,"\\int ^ { \\mbox { v } } _ { ":6777,"$\\left| q":6778,"$\\left|V_s":6779,"$\\left|a-\\frac{":6780,"$\\left| x - \\frac{a}{b} \\right":6781," A_0) = N_k$\r\n":6782," M_i^j":6783," N\\times (":6784," X \\right ] \\right )\r\n":6785," Y_{l,m}$\r\n":6786," Y, Y >":6787," Y } } } { { \\mbox { a":6788," i + y j":6789," i, C_1":6790,"$4m_{i+1}":6791,"$4^2+4":6792,"$4\\pi^2aR$\r\n":6793,"$i.M$\r\n":6794,"$i=E":6795,"$i_A (t) = ":6796,"$k^2 = u":6797,"$k = 10000":6798,"$k(p + q) = p":6799,"$m.\\frac{d":6800,"$m = \\frac{A.k":6801,"$m\\geq2$\r\n":6802,"$\\frac {V}{":6803,"$\\frac {\\mu - 1}{\\mu}$\r\n":6804,"$\\frac {\\Delta V} {":6805,"(E)\\righ":6806,"(S))$\r\n":6807,"(f,S":6808,"(fd)}{":6809,"({q})$\r\n":6810,") = \\frac{1}{R}":6811,") = \\frac{1}{d( x ":6812,"))=T_{m":6813,"))=|x_":6814,"+4{y_i":6815,"+q) \\times (":6816,"+v_{2}":6817,"+vv^{\\prime}":6818,"+v_1$\r\n":6819,"+ww^{\\prime}":6820,"+1)}$\r\n":6821,"+1)-4":6822,"+\\ldots+C":6823,"+\\ldots+X_n$\r\n":6824,"-v(t)$\r\n":6825,"-1)(n+k":6826,"1/4} \\mathrm{":6827,"1/2) +(n-":6828,"36}{156":6829,"5X^2-1":6830,"5X^4+4":6831,"<y$\r\n":6832,"=1 \\!$\r\n":6833,"=\\sum_{k":6834,"A}_i)$\r\n":6835,"A } } } \\leq \\sum { \\mbox { j } } }\r\n":6836,"B } { \\frac { R":6837,"B } { \\mbox { S } } }\r\n":6838,"B } { \\mbox { S } } + \\mbox { v } }\r\n":6839,"F } d \\lambda }\r\n":6840,"H } { - ":6841,"H } { m i } }\r\n":6842,"P[x_1, x":6843,"P } _ { x } }\r\n":6844,"R}{3}$\r\n":6845,"V_{e}}":6846,"X_2+\\ldots+X_n$\r\n":6847,"\\times x^{\\prime}\\":6848,"_r)}$\r\n":6849,"a } } = { \\mbox { ":6850,"a } } } } } } { { \\mbox { ":6851,"a } } \\sum { \\mu":6852,"di}{dt}$\r\n":6853,"e^{5417":6854,"e^{it}$\r\n":6855,"e^{\\frac{-2":6856,"g } } \\left ( \\mbox { L } \\right )\r\n":6857,"h } } { \\mbox { E } }\r\n":6858,"h } } { \\mbox { E } } \\right ]\r\n":6859,"h } } { \\mbox { w } } _ { \\mbox { m } } }\r\n":6860,"mol.L":6861,"n } { 45 }\r\n":6862,"n } { o } \\sum { ":6863,"s} + a(p":6864,"s } } } \\geq { - \\mbox { ":6865,"v } } } \\left [":6866,"x||^2 + ||y":6867,"y_i+5":6868,"}-\\sqrt{34+2\\sqrt17":6869,"} = \\frac{3}{4}$\r\n":6870,"} = \\frac{C}{":6871,"} \\right)^2 \\mathrm{":6872,"{ 3 \\mbox { S } }\r\n":6873,"{ 3 - { \\alpha G } }\r\n":6874,"{ 3 \\sum _ { { k":6875,"{ S } _ { { \\mbox { C":6876,"{ S - p }\r\n":6877,"{ S } _ { \\mbox { S } }\r\n":6878,"{ g } _ { { \\mbox { t } } _ { ":6879,"{ g \\sum { \\mbox { A } } }\r\n":6880,"{ g + { \\sin } ^ { ":6881,"{ p p }\r\n":6882,"{ p } ^ { \\lambda":6883,"{ p } _ { \\mbox { x } }\r\n":6884,"{ q + \\phi }\r\n":6885,"{ q } _ { \\mbox { v } }\r\n":6886,"{ q \\gt { \\mbox { A } } ^ { ":6887,"{ u \\mbox { M } } }\r\n":6888,"{ u + \\mbox { F } } }\r\n":6889,"{ u } ^ { { \\mbox { M } } _ { ":6890,"{ x - \\int \\mbox { ":6891,"{ x } ^ { X }\r\n":6892,"{ x } _ { \\mbox { G } }\r\n":6893,"{ \\frac { { \\cdots - { \\mbox { g":6894,"{ \\frac { B } { \\mbox { S } } + \\mbox { v } }\r\n":6895,"{ \\frac { n } { o } \\sum { ":6896,"{ \\sigma d }\r\n":6897,"{ \\sigma = 6 }\r\n":6898,"{ \\sigma \\geq { C } _ { \\mbox { ":6899,"{ \\mu } _ { o }\r\n":6900,"{ \\mu } ^ { \\mbox { u } }\r\n":6901,"{ \\mu } _ { \\mbox { pj } }\r\n":6902,"{ 8.0 \\theta }\r\n":6903,"{ 8.1 { \\mbox { ":6904,"{ 8.5 + { ":6905,"{ \\left [ \\mbox { G } \\right ] } ^ { ":6906,"{ \\left [ \\mbox { L } \\right ] } ^ { ":6907,"{ \\left [ \\mbox { N } \\right ]":6908,"{ 7.9 \\mbox { u } }\r\n":6909," } } \\left ( { i } _ { \\mbox { ":6910,"\\mbox { EX }\r\n":6911,"\\mbox { Ec }\r\n":6912,"\\mbox { EAc }\r\n":6913,"\\mbox { oo }\r\n":6914,"\\mbox { oP }\r\n":6915,"\\mbox { o } \\left ( { ":6916," + \\alpha$\r\n":6917," = -\\int_{":6918," = -\\frac1{":6919," - x||$\r\n":6920," + x \\mathrm dy = 0$\r\n":6921," + x i + y j":6922," + z k$\r\n":6923," } { \\sum { P } }\r\n":6924," } { \\sum { \\lambda } }\r\n":6925,"^2)p^{-":6926," = R_f":6927," = nS_1":6928," = n \\sum_{i=1}^m ":6929," = w ^ {":6930,"\\frac { r } { \\int q d":6931,"\\frac { r } { \\int \\beta d":6932,"\\frac { r } { \\left [ q \\right ] }\r\n":6933,"{ \\mbox { At } + \\sqrt { \\mbox { ":6934,"{ \\mbox { A } } ^ { T }\r\n":6935,"{ \\mbox { A } } ^ { { \\mbox { C } + \\mbox { R } } }\r\n":6936,"{ \\mbox { V } } _ { \\phi }\r\n":6937,"{ \\mbox { V } j }\r\n":6938,"{ \\mbox { V } + { V } _ { \\mbox { ":6939,"{ \\mbox { Y } } _ { \\mbox { M } }\r\n":6940,"{ \\mbox { Y } h } }\r\n":6941,"{ \\mbox { Y } - { \\gamma - \\mbox { ":6942,"{ \\mbox { c } } ^ { \\mbox { c } }\r\n":6943,"{ \\mbox { c } } _ { t }\r\n":6944,"{ \\mbox { c } + { z } _ { ":6945,"{ \\mbox { l } } _ { { \\mbox { d":6946,"{ \\mbox { l } o }\r\n":6947,"{ \\mbox { p } } _ { \\mbox { c } }\r\n":6948,"{ \\mbox { p } = I }\r\n":6949,"{ \\mbox { wa } \\leq":6950,"{ \\mbox { w } } _ { \\mbox { Y } }\r\n":6951,"{ \\mbox { w } \\mbox { q } }\r\n":6952,"{ \\mbox { x } - \\gamma } }\r\n":6953,"{ \\mbox { xd } } _ { \\mbox { n } }\r\n":6954,"{ \\mbox { x } \\gt { \\mbox { X } ":6955,"^{\\gamma_n}$\r\n":6956,"^{\\gamma_2}\\cdots":6957,"_{N+1}$\r\n":6958,"_{N-1}":6959,"_{k = 0}":6960,"{ - \\int z d":6961,"{ - \\int t d":6962,"{ - \\int _ { z } ^ { ":6963,"{ - \\int \\mbox { A } dV }\r\n":6964,"{ - \\int \\mbox { S } d":6965,"{ - \\int \\mbox { a } d":6966,"$\\frac{dA}{dt":6967,"$\\frac{dy}{d":6968,"$\\frac{d}{dt}\\{A,":6969,"\\left ( \\sqrt { l } \\right )\r\n":6970,"\\left ( \\sqrt { C } \\right )\r\n":6971,"\\left ( \\sqrt { 3 } \\right )\r\n":6972,"\\sin(\\theta)}$\r\n":6973,"\\sin(\\theta_i)}{":6974,"\\sin(\\theta_r)}$\r\n":6975,"$\\mathrm d\\left(x":6976,"$\\mathrm df(x)$\r\n":6977,"$\\mathrm ds^2 = \\mathrm d":6978," } + \\sum { h } } } { \\mbox { ":6979," } - \\sqrt { 4 } } \\lt":6980," } - \\sqrt { l } } } }\r\n":6981,"{ - I }\r\n":6982,"\\int \\mbox { C } ds\r\n":6983,"\\int \\mbox { I } d":6984,"\\int \\mbox { o } d":6985,"\\alpha_0^2 (\\alpha_0":6986,"} M_v + M_{u v} M":6987,"{ - \\mbox { h } \\left ( \\mbox { i } \\right ) }\r\n":6988,"\\cos { R } ^ { \\mbox { ":6989,"\\cos { h } ^ { \\mbox { ":6990,"\\cos { \\sqrt { \\beta":6991," c^2 \\frac{V^i":6992,"\\gtM$\r\n":6993,")=\\frac{u(0":6994,")=\\frac{m}{2}":6995,")=\\frac{n-1}{n}V(X":6996," \\sum { \\mbox { H } } } } { \\mbox { f } }\r\n":6997,"$(p,q":6998,"$(p_1, \\ldots, p_N":6999,"$(p+q) \\times (":7000,"$1011":7001,"$1024":7002,"$10^{-p":7003,"$E = F_":7004,"$E = dg":7005,"$E = p c":7006,"\\sqrt { { \\mbox { V } + \\mbox { p } } }\r\n":7007,"$T_{85":7008,"$T_{f,x}$\r\n":7009,"$T_{\\mathrm{moy":7010,"$I_{1_{":7011,"$I_{moy":7012,"$I_{1} = I":7013,"{ \\mbox { z } } ^ { \\phi }\r\n":7014,"{ \\mbox { z } } ^ { \\frac { \\mbox { s } } { ":7015,"{ \\mbox { z } } ^ { { \\cdots - h } }\r\n":7016,"00000$\r\n":7017,"\\ldots,e_r":7018," e^{ux}":7019,"$C_t =":7020,"$C_S = R":7021,"$C_V \\gt ":7022,"[X]=X^3-3":7023," } \\left ( { p \\mbox { ":7024," } } - { \\mbox { e } } _ { \\mbox { ":7025,"{ \\sin } ^ { P } \\mbox { ":7026,"{ \\sin } ^ { r }":7027,"{ \\sin } ^ { \\gamma } 7\r\n":7028,"{ \\sin } ^ { \\mbox { Y } }":7029,"$\\int_{a}^{b} ":7030,"$\\int_{b}^{":7031,"$\\int_{1}^{+\\infty}":7032," f(x_{n-":7033,"$\\lim_{T \\rightarrow \\infty}":7034,"M_{u u":7035,"\\frac 1{n+1}":7036,"^{(n-1)}=0$\r\n":7037,"^{(n-1)}+C":7038,"^{(n-1)}+\\ldots+C":7039,"$\\exists \\alpha, \\forall":7040,"$\\exists Y, Y >":7041,"$\\exists i, C_1":7042," 4 d { \\mbox { g":7043," F \\right ] }\r\n":7044," o } \\right ] } ^ { { ":7045," ||}$\r\n":7046," m / R":7047,"$-X_t":7048,"$- (T_{":7049,"$l=v":7050,"$l_1 = L_1":7051,"$z=|z|\\mathrm{e}^{i\\theta":7052,"$z^2+w":7053,"$V_m = ":7054,"$V_r = ":7055,"$\\phi_A = \\frac {M_0":7056,"$\\phi(w) = u_1":7057,"(B^A) = ":7058,"(L)$\r\n":7059,"(T)}$\r\n":7060,"(\\frac{P}{":7061,"( r,t)$\r\n":7062,"( x ) = \\frac{1}{d( x ":7063,"),f(a":7064,"),B(R":7065,") + w \\sin":7066,")^{n-1}-n$\r\n":7067,")\\times 1.6$\r\n":7068,"+o_t$\r\n":7069,"+o(z-z":7070,",9 \\mathrm{cm}$\r\n":7071,",F)$\r\n":7072,",s,s^2":7073,",s^3 ....":7074,",v)=\\sum_{n":7075,", a < b$\r\n":7076,"- 1.0 }\r\n":7077,"-2gy":7078,"-4R^2$\r\n":7079,"-a_2b_1":7080,"-y\\right)$\r\n":7081,".Ic + ":7082,".{100":7083,".B_x)$\r\n":7084,".B_y-v":7085,"1+x\\right":7086,"1,2}$\r\n":7087,"1 \\times e^{5417":7088,"20,w":7089,"2^{\\mathrm{card}":7090,"4862\r\n":7091,"48} $\r\n":7092,"5 b^2}$\r\n":7093,"640}$\r\n":7094,"64/8":7095,"85 } } }\r\n":7096,"959\r\n":7097,"=S_nS_{":7098,"=S_0+f":7099,"=f(V_{":7100,"=1}^\\infty":7101,"=1}^{+\\infty}":7102,"=0}^\\infty":7103,"A } } { P }\r\n":7104,"A}{dt},B":7105,"B \\times C) = ":7106,"C } } = \\sqrt { ":7107,"E - FG$\r\n":7108,"E } } _ { \\mbox { q } } } - { \\cdots + { \\mbox { ":7109,"E } { \\mbox { M } }\r\n":7110,"F \\mbox { L } } }\r\n":7111,"F } \\mbox { c } } }\r\n":7112,"F } } } { \\sum { B } }\r\n":7113,"F } } } { { u \\mbox { M } } }\r\n":7114,"H } } _ { \\mbox { o } } }\r\n":7115,"I_S \\sqrt{":7116,"L } } } \\frac { z } { z } d":7117,"L } } } \\left ( \\mbox { m } \\right )\r\n":7118,"L } { { \\mbox { j } } ^ { n } } } }\r\n":7119,"L } } { \\mbox { S } } { S \\mbox { ":7120,"L } + o }\r\n":7121,"M } } } } { \\mbox { i } } }\r\n":7122,"M } } \\leq 4.45 }\r\n":7123,"Nk_BT$\r\n":7124,"N + 6 } }\r\n":7125,"N } } _ { \\mbox { L } } }\r\n":7126,"P } \\mbox { E } } } }\r\n":7127,"P - \\mbox { A } } } } }\r\n":7128,"P^\\prime$\r\n":7129,"P_{v}}{P_{v":7130,"R}\\sin^2\\frac{":7131,"S_1(A_1)$\r\n":7132,"S } } _ { C } }\r\n":7133,"T/2}^{T/":7134,"T} = \\frac {nR}{":7135,"T } u } } } { ":7136,"X_1 + X_2":7137,"X_t \\mathrm dB_":7138,"[i] <":7139,"\\times (1-o_i-":7140,"\\left(x-y\\right)$\r\n":7141,"^5-10":7142,"^t}\\!$\r\n":7143,"_L \\}$\r\n":7144,"_c\\times (1-o_i-":7145,"_y^2)$\r\n":7146,"_y.B_x)$\r\n":7147,"at(T)}$\r\n":7148,"a } } ^ { q } }\r\n":7149,"a (-1 + 2":7150,"a (z-z":7151,"b_1-b_2}{a":7152,"b } dT } }\r\n":7153,"b } dR d":7154,"b } _ { \\mbox { L } } }\r\n":7155,"b } _ { \\mbox { N } }":7156,"ce})$\r\n":7157,"c + V_p}$\r\n":7158,"d } } } \\right )\r\n":7159,"d } } } { \\mbox { x } } }\r\n":7160,"d } } } { \\mbox { p } }":7161,"e } da } \\right ) } ^ { ":7162,"f(a_{i-1}":7163,"f(p.d":7164,"g} \\pm \\frac {":7165,"g(y_j)$\r\n":7166,"h } l } }\r\n":7167,"h } 1 } } } d":7168,"h } - f } }\r\n":7169,"h } } } { \\mbox { N } }\r\n":7170,"k - C } }\r\n":7171,"k } { \\mbox { j } } \\right )\r\n":7172,"l_i^2\\right)$\r\n":7173,"l_i^2-\\left(":7174,"nPdV$\r\n":7175,"n } } dY\r\n":7176,"o \\left ( \\sum { \\gamma":7177,"o } } ^ { { - E } } { { ":7178,"p} - C = 0$\r\n":7179,"q } _ { \\mu } } + \\frac { ":7180,"q \\left ( \\mbox { F } \\right )\r\n":7181,"q \\left ( \\mbox { I } \\right )\r\n":7182,"r^2 + r^2":7183,"t } _ { \\mbox { a } } \\sum { \\mu":7184,"u + P } }\r\n":7185,"u + 9 } }\r\n":7186,"u}{3}+\\frac{v}{3}":7187,"v^2}{s^3}$\r\n":7188,"v}{3}+\\frac{u}{3}":7189,"v \\sin \\theta\\right)^2":7190,"w } } dq\r\n":7191,"w } } d \\Delta\r\n":7192,"w - \\mbox { n } } }\r\n":7193,"w - \\mbox { b } } }\r\n":7194,"w } \\left ( y \\right )":7195,"x} = \\frac{1}{\\frac{d":7196,"x } _ { \\mu } }\r\n":7197,"z } } } ^ { \\mbox { C } }\r\n":7198,"z } } } } } ^ { { \\mbox { R":7199,"z - c } }\r\n":7200,"{y}^{e}\\":7201,"{{\\sum{\\mbox{":7202,"{{-b}\\neq":7203,"}) v_4":7204,"}^2+8":7205,"}^2+2x_i":7206,"{ 05 C":7207,"{ 0 e }\r\n":7208,"{ 28.94 \\pi }\r\n":7209,"{ 22.2 = \\sum { \\mbox { ":7210,"{ 5 \\sum { \\mbox { i } } }\r\n":7211,"{ B \\left ( p":7212,"{ B } ^ { { \\mbox { B } + ":7213,"{ M + \\frac { \\mbox { ":7214,"{ M - F }\r\n":7215,"{ T + { q \\int S d":7216,"{ T } ^ { { \\mbox { c } + \\mbox { ":7217,"{ V + 2 }\r\n":7218,"{ V } ^ { \\frac { N":7219,"{ j } _ { \\mbox { X } } }\r\n":7220,"{ j } ^ { { \\sum { \\mbox { T } } - ":7221,"{ k } ^ { \\mbox { X } }\r\n":7222,"{ v - \\sqrt { \\mbox { ":7223,"{ v } _ { \\mbox { l } }\r\n":7224,"{ t - \\sqrt { ":7225,"{ t - 1.0 }\r\n":7226,"{ \\int p d":7227,"{ \\int q d \\sigma + { \\mbox { ":7228,"{ \\theta F }\r\n":7229,"{ \\theta \\leq { \\mbox { f } + \\frac { ":7230,"{ \\gamma } ^ { \\sqrt { ":7231,"{ \\gamma } _ { \\mbox { c } }\r\n":7232,"{ 3.6 \\sum { ":7233,"{ 3.8 \\sum { ":7234,"{ l - { M \\mbox { ":7235,"{ l - { \\lambda - v } }\r\n":7236," \\{A,\\frac{dB}{dt":7237,"t dd \\right )\r\n":7238,"\\mbox { go }\r\n":7239,"\\mbox { gw }\r\n":7240,"\\mbox { hB }\r\n":7241,"\\mbox { hv }\r\n":7242,"\\mbox { nv }\r\n":7243,"\\mbox { n } \\left ( { p \\mbox { ":7244,"\\mbox { l } \\left ( \\mbox { N } \\right )\r\n":7245,"\\mbox { l } \\left ( \\mbox { h } \\right )\r\n":7246," + \\sum { \\mbox { S } } } } { ":7247," + \\ldots$\r\n":7248," + \\ldots + X_n$\r\n":7249," + \\frac { \\mbox { T } } { ":7250," = \\{\\frac{d":7251," = \\sum { \\mbox { z } } }\r\n":7252,"}{3} )$\r\n":7253,"}{3(1+w":7254,"}{V} \\right )":7255,"}{\\gamma}$\r\n":7256,"}{V_e}$\r\n":7257,"}{\\sqrt{3}}$\r\n":7258," - \\frac{1}{2}g^{ij}":7259," - \\frac{1}{p} - C = 0$\r\n":7260," + ||y - x||$\r\n":7261," + Cste = -\\frac1{":7262," \\frac{L}{t_r}":7263," \\frac{L}{c + V_p}$\r\n":7264," \\right ) d { \\mbox { w } } _ { ":7265,"^2\\frac{b_1-b_2}{a":7266,"^2}=R^{-1}$\r\n":7267,"^2}=q.{":7268," = I_i k":7269," = c(1)$\r\n":7270," = m^2 c^4":7271," = m^2 c^2 \\frac{V^i":7272,"\\frac { R } { \\left ( \\mbox { ":7273,"\\frac { \\phi } { \\mbox { s } } }\r\n":7274,"\\frac { \\phi } { \\sum { \\lambda } }\r\n":7275,"{ \\mbox { E } - \\left ( ":7276,"{ \\mbox { E } + \\mbox { T } \\left ( ":7277,"{ \\mbox { M } + \\left [ \\mbox { ":7278,"{ \\mbox { M } - g }\r\n":7279,"{ \\mbox { f } } ^ { { \\mbox { P":7280,"{ \\mbox { f } \\lt { \\mbox { z } } _ { ":7281,"{ \\mbox { h } } ^ { 0 }\r\n":7282,"{ \\mbox { h } + { v i } }\r\n":7283,"{ \\mbox { r } \\left ( \\left ( \\sum { ":7284,"{ \\mbox { r } } _ { \\mbox { E } } }\r\n":7285,"{ \\mbox { r } } _ { \\mbox { F } }\r\n":7286,"{ \\mbox { b } } ^ { 7 }\r\n":7287,"{ \\mbox { b } } ^ { { { - \\mbox { S } } -":7288,"1}{E}}$\r\n":7289,"1}{E} - \\frac {":7290,"1}{P}}$\r\n":7291,"1}{P} - \\frac {":7292,"^{4-\\frac{k}{2":7293,"_{jl})$\r\n":7294,"_{j} w_{ij":7295,"\\sqrt { \\frac { \\mbox { c } } { ":7296,"\\sqrt { \\frac { \\mbox { g } } { \\frac { ":7297,"\\sum{\\mbox{V}}}\r\n":7298,"\\frac{2u}{3}+\\frac{v}{3}":7299,"{ - \\frac { y } { \\mbox { ":7300,"{ - \\frac { { \\sum { \\gamma } - \\int ":7301,"{ - \\sqrt { 0 } }\r\n":7302,"{ - r }\r\n":7303,"{ - \\sum { \\mbox { G } } }\r\n":7304,"{ - \\sum { \\mbox { w } } }\r\n":7305,"max}}$\r\n":7306,"max}=P\\frac{\\alpha":7307,"_1+\\theta_2$\r\n":7308,"_1-m$\r\n":7309,"_i)}{\\alpha_0^2 (\\alpha_0":7310," } ^ { d } Y\r\n":7311,"$\\frac{V_o}{V":7312,"$\\frac{V_ts}{V_":7313,"\\left ( \\sum { w } \\right )\r\n":7314,"\\left ( \\sum { o } \\right )\r\n":7315,"\\left ( \\int ^ { ":7316,"\\left ( \\int t dd \\right )\r\n":7317,"\\left ( \\left [ { \\mbox { R } } _ { \\mbox { ":7318,"\\left ( \\left [ X \\right ] \\right )\r\n":7319,"\\int 9 dN }\r\n":7320,"\\int 9 dB\r\n":7321,"\\int _ { \\mbox { w } } ^ { { \\mbox { ":7322,"\\int _ { \\mbox { xd } } ^ { ":7323,"(x_i+1)-4":7324,"\\sin } ^ { G } \\mbox { ":7325," \\log \\left( {\\frac{V_{":7326,"\\left [ \\sum { G } \\right ]\r\n":7327,"\\left [ \\sum { X } \\right ]\r\n":7328,"\\left [ { - l":7329,"\\left [ { - \\sigma } \\right ]\r\n":7330,"\\left [ \\frac { \\mbox { F } } { \\mbox { ":7331,"\\left [ \\frac { \\mbox { h } } { \\mbox { E } } \\right ]\r\n":7332,"\\sum { \\sqrt { C } }\r\n":7333,"\\sum { \\sqrt { x } }\r\n":7334,"\\sum { { \\mbox { y } + l } }\r\n":7335,"\\sum { { \\mbox { y } + 3":7336,"$\\mathrm{card}":7337,"$\\mathrm{Va":7338," } + \\frac { \\sigma } { \\mbox { ":7339,"_2(\\beta) = 0$\r\n":7340,"(a)=b-a":7341,"(a)=\\sum_{k":7342," ( \\cos \\theta ) = ":7343," ( a , b ,":7344,"$P(X)P^\\prime":7345,"$P(X_1, \\ldots, X_N":7346,"_0^{x_1} 2":7347,"_0^{x_0} \\sqrt ":7348,"\\int_{c-i":7349,"\\int { - \\mbox { a } } d":7350,"\\int { - \\mbox { w } } d \\Delta\r\n":7351,"} {g} \\pm \\frac {":7352,"$S_{20,w":7353,"$S_{max}=P\\frac{\\alpha":7354,"$S_n = 12 ":7355,"$S_n=X_1+":7356,"$S_2 = nS_1":7357,"$S_2=S_0+f":7358,"{ - \\mbox { H } } }\r\n":7359,"\\frac { \\mbox { y } } { \\mbox { f } }\r\n":7360,"\\frac { \\mbox { y } } { { \\mbox { T } ":7361,"\\frac { \\mbox { p } } { \\sqrt { { \\mbox { o } - { ":7362,"\\frac { \\mbox { s } } { \\int 9 dN }\r\n":7363," } _ { { \\mbox { Cu } } _ { \\mbox { ":7364,"\\cos \\frac { 7 } { { ":7365,"\\cos \\frac { E } { \\mbox { M } }\r\n":7366,"1)\\times  d^2$\r\n":7367,", F(k,":7368,", F_1, F_2$\r\n":7369,"\\frac { { { - 4 } + { ":7370,"\\frac { { { - l } + ":7371,"\\sqrt { { o - 0 } }\r\n":7372,"\\sqrt { { o - \\mbox { L } } }\r\n":7373,"\\sqrt { { { - m } + \\mbox { ":7374,"\\sqrt { { { - t } - { \\mbox { ":7375,"\\sqrt { { \\mu + 6 } }\r\n":7376,"\\sqrt { { \\mu } _ { \\mbox { k } } }\r\n":7377,"\\sqrt { { 8 + l } }\r\n":7378,"\\sqrt { { 8 + I } }\r\n":7379,"$(A_2B_1)$\r\n":7380,"$(A_{N-1}":7381,"$(SM)$\r\n":7382,"$(S,T":7383,"$(v, r":7384,"$(v_1, \\ldots, v_n)$\r\n":7385," - \\mbox { Y } } } { { \\mbox { u":7386,"{ { \\left ( E \\right )":7387,"{ { \\left ( F \\right )":7388,"\\sum _ { { u \\geq x } } { { \\mbox { ":7389,"\\sum _ { { u \\geq \\mbox { c } } } { \\mbox { ":7390,"{ { \\mbox { P } } _ { { A } _ { ":7391,"{ { \\mbox { P } - \\sqrt { 4 } } \\lt":7392,"{ { \\mbox { T } } ^ { \\mbox { C } }":7393,"{ { \\mbox { T } } ^ { { \\mbox { d } + \\mbox { ":7394,"{ { \\mbox { r } } _ { \\mbox { T } } + { ":7395,"{ { \\mbox { r } } _ { \\mbox { n } } } ^ { ":7396,"$u_n = u_p q":7397,"$u_n\\gtM$\r\n":7398," } \\left ( b \\right )\r\n":7399,"1}{2} \\sum_{n":7400,"1}{2} (f_1(x)":7401,"$n = \\frac{L}{2}":7402,"$n = \\frac{\\sin(\\theta_i)}{":7403,"a}^{b} f(x) \\mathrm dx$\r\n":7404,"$Li_s":7405,"$Li(x) \\lt":7406,"\\sqrt { { \\mbox { X } + 7 } }\r\n":7407,"\\sqrt { { \\mbox { X } - { \\mbox { j } - ":7408,"\\sqrt { { \\mbox { n } - \\gamma } }\r\n":7409,"\\sqrt { { \\mbox { n } + \\mbox { S } } }\r\n":7410," \\int { \\mbox { d } } _ { ":7411," \\int { \\mbox { y } } _ { ":7412,"\\log \\mbox { v }\r\n":7413,"\\log \\mbox { g }\r\n":7414," { - { \\mbox { V } } ^ { \\mbox { ":7415,"$H_5=X":7416,"$H_6=X":7417,"2.99\r\n":7418,"\\right| \\gt1$\r\n":7419,"\\right|=\\frac{V_s":7420,"{ \\mbox { z } } _ { \\mbox { N } }\r\n":7421,"{ \\mbox { z } } _ { \\mbox { y } }\r\n":7422," \\gt \\mbox { d } } } { \\mbox { x } } }\r\n":7423,"\\left [ \\mbox { h } \\right ]\r\n":7424,"{ \\cdots - { x \\mbox { m } } }\r\n":7425,"{ \\cdots - { z -":7426,"{ \\cdots - \\sqrt { \\mbox { n } } }\r\n":7427,"{ \\cdots - \\sqrt { \\mbox { t } } }\r\n":7428,"{ - { \\mbox { c } \\theta":7429,"{ - { \\mbox { c } { \\mbox { g } \\mbox { ":7430,"9.43\r\n":7431,"9.4 \\frac { c } { ":7432," \\times l - q$\r\n":7433," = \\frac {P b }{ ":7434," \\gt p^{AE":7435,"{ \\sqrt { \\mbox { F } } } ^ { \\left [ \\mbox { k } \\right ]":7436,"{ \\sqrt { \\mbox { F } } } ^ { { u + \\mbox { F } } }\r\n":7437," \\beta } } { \\mbox { N } }\r\n":7438,"{ \\mbox { u } } _ { \\theta }\r\n":7439,"{ \\mbox { u } } _ { x }\r\n":7440,"\\sum _ { { \\mbox { n } \\geq w":7441,"\\sum _ { { \\mbox { n } = \\beta } } ^ { 8 } { { - \\mbox { ":7442," \\int \\mbox { E } dV }\r\n":7443," } \\geq \\mbox { R } } } { ":7444,"{ \\mbox { t } } _ { { \\mbox { T } } _ { \\mbox { ":7445,"{ \\mbox { t } \\int r d":7446,"{ \\mbox { t } \\int z \\left ( ":7447,"\\left ( { A + \\mbox { Y } } \\right )\r\n":7448,"\\left ( { A + \\mbox { w } } \\right )\r\n":7449,"$V = C \\sqrt{":7450,"$V = f(p.d":7451,"$sp_{t}$\r\n":7452,"$sp_{t} \\lt ":7453,"(1/T_d":7454,"(z)<y_2(z)$\r\n":7455,"$\\Delta H^0$\r\n":7456,"$\\Delta H_I$\r\n":7457,"$N = 3$\r\n":7458,"$N = (n-1)\\times ":7459,"(\\alpha+2)(\\alpha+":7460,"_t)}{2N_0}$\r\n":7461,"{ a } ^ { P } \\left ( ":7462,"{ m } _ { \\mbox { d } }\r\n":7463,"{ m } _ { \\mbox { N } }\r\n":7464,"A, \\forall y \\in B, x":7465,"q } } } ^ { \\mbox { N } }\r\n":7466," \\rightarrow \\infty} \\int g_n":7467," + 256^1 + 2":7468,"{ \\mbox { e } + \\left ( P \\right ) }\r\n":7469,"{ \\mbox { e } + \\left ( h \\right ) }\r\n":7470,"$w_k^2 = ":7471,"$w_k( x ) = \\frac{1}{d( x ":7472,"\\mbox { izu }\r\n":7473,"\\mbox { iza }\r\n":7474,"{ \\mbox { X } t }\r\n":7475,"{ \\mbox { X } 5.7 }\r\n":7476,"\\int ^ { \\mbox { H } } _ { \\sqrt { \\mbox { ":7477,"\\int ^ { \\mbox { H } } _ { { \\sigma - n } }":7478," . Ra . R":7479,"(S)),B(R":7480,"{ 7.7 \\mbox { R } }\r\n":7481,"{ 7.7 + 1 }\r\n":7482,"$\\lim_{x \\rightarrow +\\infty}":7483,"$\\lim_{x \\rightarrow a}f(x) = l$\r\n":7484," L }{ 4}$\r\n":7485," L }{ 3 E":7486,"$\\sqrt [3]":7487,"$\\sqrt [x] y":7488,"\\ 1110\\ 1110":7489,"|a|} da d":7490,"|a|} \\times i$\r\n":7491,"{ \\left [ \\sum { \\mbox { h } } \\right ] \\lt \\sum { { b + n } } }\r\n":7492,"{ \\left [ \\sum { \\mbox { h } } \\right ] \\lt \\sum { { f + n } } }\r\n":7493,"{ \\sqrt { { \\mbox { V } + z } } } ^ { \\mbox { C } }\r\n":7494,"{ \\sqrt { { \\mbox { V } + q } } } ^ { \\mbox { N } }\r\n":7495," \\div 6}{24 \\div 6":7496," \\frac{\\alpha \\pi}{3} )$\r\n":7497,"\\frac { M } { { \\mbox { u } } ^ { A } }\r\n":7498,"\\frac { M } { { \\mbox { u } } ^ { L } }\r\n":7499," } ^ { \\alpha } q ds\r\n":7500,"$\\frac{m+m^{\\prime}}{n+n^{\\prime}} \\lt \\frac{a}{b}$\r\n":7501,"$\\frac{m+m^{\\prime}}{n+n^{\\prime}} \\gt \\frac{a}{b}$\r\n":7502," = \\frac{1}{2} k x^2 - ":7503," = \\frac{1}{4}(-1 - \\sqrt{17}+\\sqrt{34+2\\sqrt17":7504," = \\frac{1}{4}(-1 - \\sqrt{17}-\\sqrt{34+2\\sqrt17":7505,"$f^{\\prime}\\left(x\\right)$\r\n":7506,"$f^{\\prime}\\left(x\\right)=n\\left(":7507,"\\sum _ { { g = z } } ^ { \\sqrt { \\mbox { j } } } { \\mbox { A } }\r\n":7508,"\\sum _ { { g = z } } ^ { \\sqrt { \\mbox { j } } } { \\mbox { L } }\r\n":7509,"$S = \\frac1{\\frac {1}{E} - \\frac {":7510,"$S = \\frac1{\\frac {1}{P} - \\frac {":7511,"p_n(v-u)}$\r\n":7512,"{ { - \\mbox { T } } - { \\mbox { T } - M } }\r\n":7513,"{ { - \\mbox { T } } - { \\mbox { T } - B } }\r\n":7514,"|z|\\mathrm{e}^{i\\theta} \\mathrm{":7515,"\t\\sum_{i}VA(F":7516," / T)$\r\n":7517," G^0_{":7518," S^2 T":7519," p(x)$\r\n":7520," p_n^{\\gamma_n}$\r\n":7521," S_{n-2}$\r\n":7522,"$X=R":7523,"$[\\frac{2u}{3}+\\frac{v}{3}":7524,"$b^{\\prime}=\\sum":7525,"$j({q})$\r\n":7526,"$o \\in Ni":7527,"${ E = \\frac{1}{2} k":7528,"$\\frac1p":7529,"$\\pm w( r":7530,"$\\pi_0(G)$\r\n":7531,"$ a = \\frac {v^2}{":7532,"$\\int g =":7533,"$\\sin^2\\theta":7534,"$\\cos(A+B":7535,"$a_n(f,S":7536,"$a_1 = \\frac{M_2":7537,"$\\sqrt{48} $\r\n":7538,"$[XY]":7539,"$x_k xx_k":7540,"$t = \\frac {v \\sin \\theta":7541,"(\\sqrt{V^j":7542,"( R )$\r\n":7543,"( T_0)$\r\n":7544,"( ( a , b )":7545,"(T_{m}(X":7546,")L(u^{\\prime})$\r\n":7547,")t^{s}=":7548,") = \\frac{e^{-":7549,") (1)$\r\n":7550,") \\sin\\left(\\frac{\\alpha}{2}\\right":7551,") \\lt 1$\r\n":7552,") \\gt (p^{\\prime},":7553,")(-1/2) +(n-":7554,") ) }$\r\n":7555,")p^{-s} + a(p":7556,"+a)$\r\n":7557,"+\\sqrt{c}}$\r\n":7558,"+V(X) - E(X)^2":7559,",a^{\\prime},b^{\\prime},":7560,",c,a^{\\prime},b^{\\prime},":7561,",t)=w$\r\n":7562,",y\\right) = p":7563,",\\mu \\right)$\r\n":7564,", \\infty)$\r\n":7565,",y_i)$\r\n":7566,",7530 \\times (":7567,",\\frac{2v}{3}+\\frac{u}{3}":7568,",(d))=|x_":7569,"-B(s)$\r\n":7570,"-V(r)$\r\n":7571,"-d^{\\prime}) = (-":7572,"-g(a)=b-a":7573,"-x\\times x^{\\prime}\\":7574,"- \\mbox { o } } d":7575,"-\\alpha_i)}{\\alpha_0^2 (\\alpha_0":7576,"-\\mu)^2] =":7577,"-2)\\ldots(n+1)n}{k":7578,"-\\frac 1{n-1}x^{-n+1}":7579,".A$\r\n":7580,".q - 1$\r\n":7581,".a^n + ":7582,".\\beta_{jl})$\r\n":7583,".R}{g}$\r\n":7584,"/c)$\r\n":7585,"/(16 \\pi":7586,"/(R T)}$\r\n":7587,"0 } \\lt \\int \\beta d":7588,"0,2\\pi], ":7589,"120.6\r\n":7590,"1f0}$\r\n":7591,"1q=1 \\!$\r\n":7592,"1 d \\alpha\r\n":7593,"1 } } { k }\r\n":7594,"1 - \\frac{2 G M":7595,"1 \\sum { \\mbox { e } } }\r\n":7596,"118,9 \\mathrm{cm}$\r\n":7597,"1 } { { - \\mbox { y } } }\r\n":7598,"25}$\r\n":7599,"2e1f0}$\r\n":7600,"2n\\pi}{T}}":7601,"2 - S } } q d":7602,"2 } } } { { \\mbox { L } } _ { \\mbox { q } } }\r\n":7603,"2s} + \\ldots$\r\n":7604,"2,91T$\r\n":7605,"29536}{156":7606,"2(N_0-N":7607,"3 { P } _ { x } }\r\n":7608,"37.0\r\n":7609,"35 - 2,91T$\r\n":7610,"441\r\n":7611,"45} + ":7612,"40})\\times 1.6$\r\n":7613,"4277\r\n":7614,"41.8\r\n":7615,"4 \\Delta } } }\r\n":7616,"5}}{RC}$\r\n":7617,"6 } } = 5.":7618,"6) - (1/T_d":7619,"6 .10^{-6} ":7620,"7 } { { \\mbox { Y } h } }\r\n":7621,"76.1\r\n":7622,"700}})$\r\n":7623,"7 } \\geq 2 }\r\n":7624,"7 } \\right ] } ^ { { N + 6 } }\r\n":7625,"700} - T_{":7626,"8k+a}$\r\n":7627,"8 } } { { P - \\phi } }\r\n":7628,"80.1 Y } } } { { \\mbox { a":7629,"9 \\mbox { B } }\r\n":7630,"9a^2}4 x":7631,"9 } } { \\frac { B } { \\mbox { S } } }\r\n":7632,"<x B^k$\r\n":7633,"=N}^ \\infty":7634,"=p_c\\times (1-o_i-":7635,"=\\theta_1+\\theta_2$\r\n":7636,"=[X^{\\prime}Y^{\\prime}":7637,"=0 avec P":7638,"=4({x_{i+1}":7639,"A - a|$\r\n":7640,"A B + A C$\r\n":7641,"A}\\right]}\r\n":7642,"A } } _ { \\sigma }\r\n":7643,"A } \\mbox { m } } } \\gt \\sum { X } }\r\n":7644,"A_2,\\ldots,A_n$\r\n":7645,"B } } _ { \\mbox { E } }":7646,"B } dd\r\n":7647,"B^n x + \\alpha":7648,"B } } } ^ { { - N } }\r\n":7649,"B\\} = \\{\\frac{d":7650,"B } } } } { \\left [ a \\right ] }\r\n":7651,"C dX } } { ":7652,"C_A^n}$\r\n":7653,"C } } } } { \\sum _ { { 6 \\gt ":7654,"C } \\gt \\mbox { C } }\r\n":7655,"E_z}+":7656,"E } { x } }\r\n":7657,"E } \\right ) } }\r\n":7658,"E_2, F_1, F_2$\r\n":7659,"E_0/(16 \\pi":7660,"E } 2.6\r\n":7661,"E } } } { \\left [ \\mbox { C } \\right ] }\r\n":7662,"E[X^n]$\r\n":7663,"E } } + 7 }\r\n":7664,"E } } { \\frac { v } { { ":7665,"F } } } b":7666,"F \\left ( { \\mbox { s } } _ { \\mbox { ":7667,"F } ^ { x } }\r\n":7668,"F } \\right ) \\right ) }\r\n":7669,"F } } ^ { G } { { ":7670,"F } } _ { \\mbox { v } } } }\r\n":7671,"G } } } \\right ] }\r\n":7672,"G\\times V$\r\n":7673,"G-1)\\times C$\r\n":7674,"G } } } ^ { \\sum { h } }\r\n":7675,"H_i}$\r\n":7676,"H \\sin \\phi$\r\n":7677,"H } ^ { \\mbox { E } } }\r\n":7678,"H } \\mbox { N } }\r\n":7679,"H } } { { \\mbox { V } \\sum { ":7680,"H}\\neq{o-\\mbox{":7681,"H\\} =0$\r\n":7682,"H,A \\right\\}$\r\n":7683,"I\\times dt$\r\n":7684,"I, R,\\mu \\right)$\r\n":7685,"I } } } { \\sqrt { \\mbox { X } } }\r\n":7686,"I\\sqrt{2}\\cos{(w":7687,"I } } } { \\left [ 2 \\right ] }\r\n":7688,"L } ^ { I } } } { \\sqrt { \\mbox { X } } }\r\n":7689,"L}\\leq x_{LL":7690,"L_2x_2=L$\r\n":7691,"L } } _ { j } }\r\n":7692,"L } { \\mbox { z } } }\r\n":7693,"L } } } { { { - \\mbox { r } }":7694,"L + \\frac{1}{3}(a-b)]$\r\n":7695,"L_1, \\ldots$\r\n":7696,"M } } ^ { \\sum { \\mbox { k } } } { ":7697,"M_3)$\r\n":7698,"M } \\leq \\frac { I } { ":7699,"M))= M$\r\n":7700,"M f(x)}dx$\r\n":7701,"M } } ^ { { \\mbox { P } } ^ { \\mbox { r } }":7702,"N_i = n \\sum_{i=1}^m ":7703,"N \\left ( \\mbox { l } \\right )\r\n":7704,"N_A u$\r\n":7705,"N } } + 85 } } }\r\n":7706,"P } { Y } }\r\n":7707,"P = r^{\\prime}$\r\n":7708,"P_i = m^2 c^2 \\frac{V^i":7709,"P } } _ { \\mbox { t } } }\r\n":7710,"P_0 \\frac {S_1}":7711,"P_{n+1}(x)=(2n+1)":7712,"P_3|}{2":7713,"P \\right ) dl }\r\n":7714,"R } } = \\sum { \\mbox { z } } }\r\n":7715,"R^{n-1}$\r\n":7716,"R \\left ( \\mbox { N } \\right )\r\n":7717,"S } + H } }\r\n":7718,"S_{n-1} - 18":7719,"S}{a+b-c}$\r\n":7720,"S } } { { \\sin } ^ { G } \\mbox { ":7721,"Toto$\r\n":7722,"T_1, \\ldots, T_{r-2}":7723,"T } } \\left ( \\pi \\right ) \\right )\r\n":7724,"T } \\mbox { m } } } \\mbox { F } d":7725,"Vbe.I":7726,"V } } } \\frac { \\theta } { \\mbox { ":7727,"V^2}{2}$\r\n":7728,"V \\left ( \\int T d":7729,"V_0}{p_0":7730,"V_j} )^2":7731,"V_i}{(\\sqrt{V^j":7732,"Vce.Ic + ":7733,"X d \\beta } } { \\sqrt { ":7734,"X^3+15X":7735,"X } } ^ { 9.6 } { ":7736,"X } } { \\mbox { z } } } } } ^ { { \\mbox { R":7737,"X } - \\mbox { p } } }\r\n":7738,"X } } - \\left ( \\phi":7739,"Y dk\r\n":7740,"Y } - \\left [ a \\right ]":7741,"Y } } _ { d } }\r\n":7742,"Y } + 8.5 }\r\n":7743,"Y) \\geq H(X)$\r\n":7744,"[\\mbox{A}\\right]}\r\n":7745,"\\ 0101_2$\r\n":7746,"\\{0_L \\}$\r\n":7747,"^p ak X":7748,"^rl_i^2\\right)$\r\n":7749,"^6-15X^4+4":7750,"_x.B_y-v":7751,"aq}{1-q}$\r\n":7752,"a } } { 0 }\r\n":7753,"a} f(x) \\mathrm dx":7754,"a } } { { \\alpha - c } }\r\n":7755,"a } } } { \\sqrt { \\mbox { z } } }\r\n":7756,"a,b]$\r\n":7757,"air sec}}$\r\n":7758,"b dI \\right ]\r\n":7759,"b } = 5 }\r\n":7760,"b e^{M f(x)}dx$\r\n":7761,"b } \\right ) } ^ { \\mbox { X } }\r\n":7762,"b).RC$\r\n":7763,"c } } } \\left ( \\mbox { G } \\right )\r\n":7764,"c - \\frac { \\mbox { j } } { \\mbox { ":7765,"c } \\mbox { o } }\r\n":7766,"c - \\mbox { d } } } { \\mbox { p } }":7767,"c+i\\infty}g(s":7768,"c_o} }$\r\n":7769,"d_{700}})$\r\n":7770,"d } } dT\r\n":7771,"d \\left ( \\mbox { A } \\right )\r\n":7772,"d } } } { P }\r\n":7773,"d } \\left ( \\mbox { E } \\right )\r\n":7774,"d^{-1}) = 0$\r\n":7775,"d } } } { \\sqrt { \\mbox { x } } } }\r\n":7776,"e - \\left [ h \\right ] }\r\n":7777,"e } } { \\mbox { s } } }\r\n":7778,"e } _ { \\mbox { V } } }\r\n":7779,"e } \\right ] dh\r\n":7780,"e } } + 0 } \\lt \\int \\beta d":7781,"e}{L_1} t$\r\n":7782,"e = (64/8":7783,"e \\times l = \\frac {1}{2} m ":7784,"e } } } } { \\left [ \\phi \\right ] }\r\n":7785,"eau}}{m_{":7786,"fus})$\r\n":7787,"f \\mbox { P } } }\r\n":7788,"f(x_n) - ":7789,"f } } { \\mbox { t } }\r\n":7790,"f } \\mbox { M } } }\r\n":7791,"f}+H}\\neq{o-\\mbox{":7792,"f(t) = e^{it}$\r\n":7793,"g \\right ) } } } ^ { P } } }\r\n":7794,"g } } { 8.2 }\r\n":7795,"geq 0$\r\n":7796,"g y_0}} {":7797,"g(F - f(A":7798,"h } ^ { F } }\r\n":7799,"h } + I } } }\r\n":7800,"hi)}$\r\n":7801,"i } \\phi } } dI\r\n":7802,"i\\pi}{9}}$\r\n":7803,"i } ^ { \\mbox { B } } } } { \\left [ a \\right ] }\r\n":7804,"i } } { \\mbox { d } } }\r\n":7805,"i } } _ { \\mbox { z } } } }\r\n":7806,"i } } } { \\left [ j \\right ] }\r\n":7807,"j } } \\phi }\r\n":7808,"j } n d":7809,"k \\left ( \\mbox { y } \\right ) }\r\n":7810,"k \\Delta } } \\left ( { i } _ { \\mbox { ":7811,"l } { \\frac { { Y + ":7812,"l_2)$\r\n":7813,"l(A)$\r\n":7814,"l(u)}{L}}$\r\n":7815,"l } } } dx\r\n":7816,"m}=118,9 \\mathrm{cm}$\r\n":7817,"mi}} + \\frac{V_":7818,"n } + v } } { ":7819,"o } } { \\left [ \\mbox { i } \\right ]":7820,"o } + \\mbox { h } } } }\r\n":7821,"o } - 6 } } = 5.":7822,"o } \\right ] \\right ]\r\n":7823,"o(v_n)$\r\n":7824,"o}}}{{y}^{e}\\":7825,"o_t)+o_t$\r\n":7826,"p } \\gamma }\r\n":7827,"p { \\mbox { F } } _ { \\mbox { v } } } }\r\n":7828,"p^2c^2 + m^2c":7829,"p - n } } }\r\n":7830,"p_i = 1$\r\n":7831,"p(x+a)$\r\n":7832,"p+\\frac{aq}{1-q}$\r\n":7833,"p_i}{p}$\r\n":7834,"p+q)$\r\n":7835,"pA}^kC_{":7836,"p) e^t}\\!$\r\n":7837,"q^2 f(x_{n-":7838,"q } \\right ) dp\r\n":7839,"q_2, \\ldots , ":7840,"q+1)f(x_n) - ":7841,"q.(v_x.B_y-v":7842,"qA}^{n-k}}{":7843,"r)^{0.33}$\r\n":7844,"r.Gr)^{0.33}$\r\n":7845,"r/N} = 1$\r\n":7846,"sinc^2\\frac{f}{2":7847,"s \\mbox { q } } }\r\n":7848,"s } ^ { q } \\right )\r\n":7849,"s } } ^ { n } { 45 }\r\n":7850,"s}}{V_{e}}":7851,"s+1}^rl_i^2\\right)$\r\n":7852,"s_m )$\r\n":7853,"s/2) = 0$\r\n":7854,"t } } { E }\r\n":7855,"t } } dC\r\n":7856,"t } \\right ] } { \\sum { P } }\r\n":7857,"t+\\phi)}$\r\n":7858,"u| \\lt \\frac{a}{":7859,"u } } de\r\n":7860,"u } - V } }\r\n":7861,"u_N$\r\n":7862,"u_2,\\ldots,u_N$\r\n":7863,"v } d { x } _ { ":7864,"v } _ { P } }\r\n":7865,"v } } dc\r\n":7866,"v_i}{v} = \\frac{":7867,"v } ^ { \\mbox { k } } \\left ( R \\right )":7868,"v \\in E, w \\in E$\r\n":7869,"v= \\mathrm d(uv)-v":7870,"w \\right ] + 2.":7871,"w)} = w ^ {":7872,"w } \\mbox { x } } d":7873,"x } } } _ { \\frac { \\mbox { Y":7874,"x +zx d":7875,"x}}-\\frac{\\beta}{k":7876,"x + b$\r\n":7877,"x)=(-1)^n":7878,"x^2 + \\frac{t^3":7879,"x + \\frac{(\\alpha+2)(\\alpha+":7880,"x } } } { { \\left [ ":7881,"x}{dy}}$\r\n":7882,"x + A^2$\r\n":7883,"x ||^2$\r\n":7884,"x0 - x2} = P[x_0, x":7885,"xP_{n}(x) - nP":7886,"xc3d2e1f0}$\r\n":7887,"y dz$\r\n":7888,"y|| + ||y - x||$\r\n":7889,"y^{\\prime}-x\\times x^{\\prime}\\":7890,"y } } } { - \\mbox { o } } d":7891,"y } } } ^ { { - d } } { { ":7892,"y } } \\right ] \\right )\r\n":7893,"y + xy dz$\r\n":7894,"yz dx +zx d":7895,"z } B }\r\n":7896,"z } \\mbox { m } } } }\r\n":7897,"z } = { 2 \\mbox { ":7898,"z } \\leq \\mbox { x } }\r\n":7899,"z } \\left ( b \\right ) }\r\n":7900,"z.u(z)$\r\n":7901,"{\\alpha\\neq{v":7902,"{\\theta}}{v}=":7903,"{e}^{ht}$\r\n":7904,"{{\\mbox{f}+H}\\neq{o-\\mbox{":7905,"{0.1\\neq\\left":7906,"{1 + \\frac{9a^2}4 x":7907,"{RS}}$\r\n":7908,"{b\\neq{h-\\mbox{":7909,"| \\geq \\frac{C}{q":7910,"|\\leq p(x)$\r\n":7911,"|A| } \\}$\r\n":7912,"} \\mathrm d x":7913,"}x + a_0 = 0$\r\n":7914,"} \\mathrm dt$\r\n":7915,"}}\\neq\\frac{{T-\\mbox{":7916,"}2 -x ||^2$\r\n":7917,"}x^5 + sx":7918,"{ \\left ( \\pi \\right ) } ^ { \\mbox { ":7919,"{ \\left [ \\frac { B } { ":7920,"{ \\tan } ^ { d } Y\r\n":7921,"{ \\frac { { c - \\mbox { d } } } { \\mbox { p } }":7922,"{ \\sqrt { { \\beta + \\theta } } } ^ { ":7923,"{ 0.9 \\mbox { B } }\r\n":7924,"{ 6.1 \\sum { \\mbox { e } } }\r\n":7925,"{ { - { q } _ { \\mu } } + \\frac { ":7926,"{ { - { \\mbox { E } } _ { \\mbox { q } } } - { \\cdots + { \\mbox { ":7927,"{ 9.8 u }\r\n":7928,"{ 5.3 { P } _ { x } }\r\n":7929,"{ \\phi n }\r\n":7930,"{ \\sum { { 8.3 -":7931,"{ \\left ( { \\mbox { B } } _ { \\mbox { E } }":7932,"{ 2 G }\r\n":7933,"{ \\lambda } ^ { { \\cdots + ":7934,"{ \\left ( { - \\int { \\mbox { y } } _ { ":7935,"{ 6 - \\left [ \\mbox { E } \\right ] }\r\n":7936,"{ e } _ { { j } _ { \\mbox { X } } }\r\n":7937,"{ i - R }\r\n":7938,"{ i } _ { \\mbox { R } }\r\n":7939,"{ o \\left ( \\mu \\right ) } ^ { { ":7940,"{ r } ^ { \\mbox { Vw } }\r\n":7941,"{ t } _ { \\mbox { X } }\r\n":7942,"{ \\pi } ^ { { - { d \\sum { \\mbox { H":7943,"{ \\cos } ^ { E } 2.6\r\n":7944,"{ 2.9 g }\r\n":7945,"{ \\left [ { t + o } \\right ] } ^ { { ":7946,"{ 4 { \\mbox { P } } _ { \\mbox { t } } }\r\n":7947,"{ 96 \\mbox { V } }\r\n":7948,"{ C - { H - q } }\r\n":7949,"{ F } ^ { { \\Delta + \\alpha":7950,"{ G - 3 }\r\n":7951,"{ I } _ { X }\r\n":7952,"{ R } ^ { l }\r\n":7953,"{ X - f }\r\n":7954,"{ e } ^ { \\sqrt { g } } \\left ( \\mbox { L } \\right )\r\n":7955,"{ o } ^ { \\sum { A } }\r\n":7956,"{ r \\lt \\int \\gamma dB }\r\n":7957,"{ t { F \\mbox { L } } }\r\n":7958,"{ w \\sum { P } }\r\n":7959," } + 1 } } { { - \\mbox { h":7960," } \\beta } } { \\mbox { u } }\r\n":7961," { L - \\mbox { G } } } \\right ] }\r\n":7962," { q } _ { { \\mbox { r } } _ { \\mbox { E } } }\r\n":7963," { z } _ { n }\r\n":7964," { H } _ { \\gamma }\r\n":7965," \\dots A_0) = N_k$\r\n":7966," \\}+ \\{A,\\frac{dB}{dt":7967,"\\mbox { FfN }\r\n":7968,"\\mbox { HiN }\r\n":7969,"\\mbox { R } \\left ( { s } ^ { q } \\right )\r\n":7970,"\\mbox { pM } \\left ( { - { \\mbox { V } } ^ { \\mbox { ":7971," + \\frac1q=1 \\!$\r\n":7972," ^T w$\r\n":7973," =\\frac { 1}{2} (f_1(x)":7974," = \\left ( \\frac{L}{t_r}":7975," =||x||^2 + ||y":7976," = \\mu E[(X":7977,"}{\\sigma^3}$\r\n":7978,"}{\\mathrm dt}$\r\n":7979,"}{M_1 + M_2":7980,"}{p}.{100":7981,"}{8s^2}x + a_0 = 0$\r\n":7982,"}{R c^2}}}$\r\n":7983," -E) + c_2(\\beta) = 0$\r\n":7984," + 2)x + \\frac{(\\alpha+2)(\\alpha+":7985," + 2 g y_0}} {":7986," + C ) = A B + A C$\r\n":7987," + f_2(x) )=":7988," { \\mbox { M } e } \\right ] dh\r\n":7989," { \\mbox { q } + \\mbox { G } } }\r\n":7990," { \\mbox { v } } _ { \\mbox { p } }\r\n":7991," \\frac{y_n + y_m":7992," \\frac{16^{N-k}}{":7993," \\frac{L_t}{V} \\right )":7994," } { \\tan } ^ { \\alpha } q ds\r\n":7995," } { \\left [ \\mbox { v } \\right ] }\r\n":7996," } { F \\mbox { E } } } }\r\n":7997," \\right )\\left ( \\frac{L_t}{V} \\right )":7998," \\right ) \\lt { \\mbox { q } + \\mbox { G } } }\r\n":7999,"^2 \\gamma_{ij}$\r\n":8000,"^2+\\frac{4}{4}$\r\n":8001,"^2 c^2 = m^2 c^4":8002,"^2 m V_0}{p_0":8003,"^2z}{dt^2}=q.{":8004," = 3335 - 2,91T$\r\n":8005," = c^2 \\Delta t^2 - \\left( \\Delta x^2 +":8006," = G(x_0)=":8007," = L \\frac{di}{dt}$\r\n":8008," = x + C$\r\n":8009," \\mbox { L } dg\r\n":8010," \\mbox { s } \\left ( A \\right ) }\r\n":8011,"\\frac { \\left [ { - \\mbox { X } } \\right ]":8012,"\\frac { \\sum { l } } { \\mbox { s } }\r\n":8013,"\\frac { \\sqrt { \\mbox { a } } } { \\sqrt { \\mbox { z } } }\r\n":8014,"\\frac { { \\cdots + \\sum { \\mbox { H } } } } { \\mbox { f } }\r\n":8015,"\\frac { 8.1 } { { - \\mbox { y } } }\r\n":8016,"\\frac { { - { 80.1 Y } } } { { \\mbox { a":8017,"\\frac { \\left [ \\mbox { t } \\right ] } { \\sum { P } }\r\n":8018,"\\frac { { \\cdots + 0.3 } } { ":8019,"\\frac { { \\cdots - H } } { { \\mbox { V } \\sum { ":8020,"\\frac { { \\mbox { g } + \\mbox { g } } } { ":8021,"\\frac { \\theta } { { m - 3 } }\r\n":8022,"\\frac { { \\mbox { L } + L } } { ":8023,"\\frac { { \\cdots + { \\mbox { T } u } } } { ":8024,"\\frac { { \\mbox { R } \\beta } } { \\mbox { u } }\r\n":8025,"\\frac { { \\mbox { v } + 1 } } { { - \\mbox { h":8026,"\\frac { B } { \\mbox { nt } }\r\n":8027,"\\frac { n } { \\frac { \\phi } { \\mbox { s } } }\r\n":8028,"\\frac { { \\mbox { l } + \\sum { h } } } { \\mbox { ":8029,"\\frac { I } { 4 }\r\n":8030,"\\frac { i } { \\mbox { a } }\r\n":8031,"\\frac { { - \\sqrt { { \\cdots + { \\mbox { A } } _ { \\mbox { ":8032,"\\frac { 76 } { \\sqrt { { \\mbox { z } - k } } }\r\n":8033,"\\frac { 94.7 } { { \\mbox { Y } h } }\r\n":8034,"\\frac { A } { \\int m d":8035,"\\frac { b } { \\sum { \\mbox { N } } }\r\n":8036,"\\frac { f } { \\sum { f } }\r\n":8037,"\\frac { h } { k \\left ( \\mbox { y } \\right ) }\r\n":8038,"\\frac { n } { \\mbox { u } }\r\n":8039,"\\frac { o } { \\sqrt { \\mbox { c } } }\r\n":8040,"\\frac { s } { { - M } }\r\n":8041,"\\frac { v } { { - n } }\r\n":8042,"\\frac { y } { q }\r\n":8043,"{ \\mbox { B } { o S } }\r\n":8044,"{ \\mbox { H } } _ { \\mbox { r } }\r\n":8045,"{ \\mbox { S } } _ { d } \\left ( \\mbox { E } \\right )\r\n":8046,"{ \\mbox { H } - 8.9 }\r\n":8047,"{ \\mbox { SiA } } _ { \\sigma }\r\n":8048,"{ \\mbox { T } - { \\mbox { f } \\mbox { M } } }\r\n":8049,"{ \\mbox { n } } ^ { B }\r\n":8050,"{ \\mbox { s } + \\left ( i \\right ) }\r\n":8051," \\left ( \\lambda \\right ) }\r\n":8052," \\left ( { \\mu } ^ { \\mbox { v } }":8053,"^{(0)} = {0":8054,"^{10} x_i$\r\n":8055,"^{calc})$\r\n":8056,"^{n - p}$\r\n":8057," x \\in [a,b]$\r\n":8058,"_{1_{mi}} + \\frac{V_":8059,"\\sqrt { \\sqrt { y } }\r\n":8060,"\\sqrt { \\left [ b \\right ] }\r\n":8061,"\\sqrt { { - 1 } }\r\n":8062,"\\sqrt { \\int \\sqrt { \\mbox { n } } d":8063,"\\sqrt { \\Delta }\r\n":8064,"\\sqrt { { \\cdots + { \\mbox { i } } _ { \\mbox { z } } } }\r\n":8065,"\\sqrt { { \\cdots + \\mbox { N } } }\r\n":8066,"\\sqrt { \\tan B }\r\n":8067," d\\left(f(a_{i-1}":8068," dX_2 \\ldots}$\r\n":8069," dt=c_n(P":8070,"\\sum_{i=s+1}^rl_i^2\\right)$\r\n":8071,"\\frac{3 \\sqrt{3} a}{\\pi":8072,"\\frac{E}{k_B T}}}{":8073,"\\frac{V_i^2}{2g}":8074," \\frac{1}{t^2} \\mathrm dt$\r\n":8075," - (B y + \\beta":8076," - 4|| \\frac{y_n + y_m":8077," - cbb^{-1}d^{-1}) = 0$\r\n":8078,"{ - \\alpha }\r\n":8079,"{ - \\left ( \\mbox { S } \\right ) }\r\n":8080,"{ - \\left [ \\sqrt { \\mbox { u } }":8081," } } { d } } \\sum { 8 } d":8082,"\\pi k} = z$\r\n":8083,"\\pi \\frac {v^2}{s^3}$\r\n":8084,"\\pi f}{2R}$\r\n":8085,"\\pi \\left ( p \\right )\r\n":8086,"\\pi}i}\\int_{c-i":8087,"_ny_n^{(n-1)}=0$\r\n":8088,"_nX^n + a_{n-1}X^{":8089," _ { { \\mbox { e } \\geq \\mbox { R } } } { ":8090," \\sqrt { \\frac {l(u)}{L}}$\r\n":8091," \\sqrt { z } dd }\r\n":8092,"_1) = u_2$\r\n":8093,"_1 , \\ldots, X_n":8094,"_1 + A_2$\r\n":8095,"_1 > t_0$\r\n":8096,"_1] - P[x_1, x":8097,"_1b_2-a_2b_1":8098,"_i}=-\\frac{\\alpha}{1-\\alpha}$\r\n":8099,"_i < \\alpha$\r\n":8100,"_i)\\times g(y_j)$\r\n":8101," = \\frac{p}{q}}$\r\n":8102," = \\frac{x^2}{2} - (\\alpha":8103," } ^ { \\pi } Y }\r\n":8104," \\left ( B \\right ) } { \\tan } ^ { \\alpha } q ds\r\n":8105," \\left ( C_{n}(E)\\righ":8106," \\left ( v \\right ) } \\left ( b \\right )\r\n":8107," a_0^2 +\\frac {":8108,"$\\frac{\\sin{\\theta}}{v}=":8109,"$\\frac{18 \\div 6}{24 \\div 6":8110,"$\\frac{m V^2}{2}$\r\n":8111,"$\\frac{a}{b+\\sqrt{c}}$\r\n":8112,"$\\frac{\\mathrm d}{\\mathrm dt}$\r\n":8113,"$\\frac{S_{a}}{S_{":8114,"$\\frac{7529536}{156":8115,"$\\frac{C_{pA}^kC_{":8116,"$\\frac{P}{640}$\r\n":8117,"$\\frac{(n+k-1)(n+k":8118,"$\\frac{2s^2}{5t":8119,"$\\frac{8\\pi r}{q(r":8120,"$\\frac{P_i}{\\gamma}+":8121,"$\\frac{pe^t}{1-(1-":8122,"$\\frac{u-3}{2} + 4 \\gt ":8123,"\\left ( z \\left ( \\mbox { w } \\right ) \\right )\r\n":8124,"\\left ( r \\right ) } ^ { \\mbox { b } } }\r\n":8125,"\\left ( \\left ( \\mbox { V } \\right ) \\right )\r\n":8126,"\\left ( \\frac { \\mbox { o } } { \\left [ \\mbox { i } \\right ]":8127,"\\left ( \\frac { a } { e } \\right )\r\n":8128,"\\left ( \\left ( 7 \\right ) \\right ) } \\right )\r\n":8129,"_{ik}.\\beta_{jl})$\r\n":8130,"\\int 3.1 d \\alpha\r\n":8131,"\\int 0.0 dq\r\n":8132,"\\int F dj }\r\n":8133,"\\int dX_1 dX_2 \\ldots}$\r\n":8134,"\\int l dt\r\n":8135,"\\int w dN\r\n":8136,"\\sin \\gamma\r\n":8137,"x_T(t) = x(t)$\r\n":8138,"n}(X) $\r\n":8139,"n}(x)=-\\frac 1{n-1}x^{-n+1}":8140,"^3) = 17 247":8141,"^3 + \\frac{t^2}{2s}":8142," \\lim_{n \\rightarrow \\infty} \\int g_n":8143,"}}}{q}$\r\n":8144,"}} ( \\cos ( \\frac{\\alpha \\pi":8145,"}}=k$\r\n":8146,"\\left [ \\alpha \\right ]\r\n":8147,"\\left [ \\int b dI \\right ]\r\n":8148,"\\left [ \\sqrt { \\mbox { c } } \\right ]\r\n":8149,"\\left [ \\left [ \\mbox { o } \\right ] \\right ]\r\n":8150," \\pi } } { { I - q } }\r\n":8151," \\pi i b y":8152,"\\sum { { \\mbox { t } - \\lambda } }\r\n":8153,"\\sum { { \\mbox { F } - H } }\r\n":8154,"\\sum { { \\mbox { q } - o } }\r\n":8155,"\\sum { { \\mbox { v } + f } }\r\n":8156,"\\sum { { \\mbox { p } - \\mbox { m } } } }\r\n":8157,"\\sum { \\left [ \\mbox { h } \\right ] }\r\n":8158,"\\sum { \\left [ { t + { L - \\mbox { G } } } \\right ] }\r\n":8159,"\\sum { { \\mbox { B } + z } }\r\n":8160,") = E - g(F - f(A":8161,") = NkT$\r\n":8162,") = c^2 \\Delta t^2 -\\Delta l^2$\r\n":8163,") = G(\\theta) - G$\r\n":8164,"$\\beta^{\\prime}(s)$\r\n":8165,"$\\tan \\gamma_H=\\tan ":8166,"$\\left( M_i^j":8167,"$\\{x P(x)\\}$\r\n":8168,"$\\theta_3=\\theta_1+\\theta_2$\r\n":8169,"$\\alpha= 2 \\sqrt { \\frac {l(u)}{L}}$\r\n":8170,"_2} \\right) \\lt 1$\r\n":8171,"_2]}{x0 - x2} = P[x_0, x":8172,"_2y_2^{(n-1)}+\\ldots+C":8173," \\theta } \\leq \\left ( o \\right ) }\r\n":8174," = \\frac{1}{\\sqrt{1 - \\frac{2 G M":8175,"$y_0 = G(x_0)=":8176,"$y^{\\prime}(a)$\r\n":8177,"$y^n<x B^k$\r\n":8178,"$y\\times y^{\\prime}-x\\times x^{\\prime}\\":8179,"$y^{\\prime} = f(x)g(y":8180,"$y \\mathrm dx + x \\mathrm dy = 0$\r\n":8181,"$y \\neq x$\r\n":8182,"$y = Ax + A^2$\r\n":8183,"$y=s x + t$\r\n":8184,"$y^{obs}$\r\n":8185,"$y_1(z)<y(z)<y_2(z)$\r\n":8186,"(a_n^2+b_n^2)$\r\n":8187,"\\sum _ { { \\mbox { z } \\geq F":8188,"\\prime}-x$\r\n":8189,"{ - 2.1 }\r\n":8190,"{ - 7.0 }\r\n":8191,"{ - L } } { c - \\frac { \\mbox { j } } { \\mbox { ":8192,"{ - L \\left ( \\mbox { a } \\right ) }\r\n":8193," + \\frac { L } { j } }\r\n":8194," + \\frac { a } { \\mbox { R } } } }\r\n":8195," (1/273,1":8196," (X)=R(X)$\r\n":8197,"$P = \\sum_{k = 0}":8198,"$P = a_nX^n + a_{n-1}X^{":8199,"$P(v_y^2)$\r\n":8200,"$P_{nmm}$\r\n":8201,"$P_1 = P_0 \\frac {S_1}":8202,"$P(b/c)$\r\n":8203,"$P_d(u)$\r\n":8204,"$P\\gtp+\\frac{aq}{1-q}$\r\n":8205,"$P[X]=0 avec P":8206,"$P^iP_i = m^2 c^2 \\frac{V^i":8207,"$P_f=p_c\\times (1-o_i-":8208,"$P_o ( \\cos \\theta ) = ":8209,"$P = (Vce.Ic + ":8210,"$P_{sat(T)}$\r\n":8211,"$P_1=P^\\prime$\r\n":8212,"$P( E)$\r\n":8213,"$P^\\mu P_\\mu":8214,"$Pa.s$\r\n":8215,"$P_{CV} = \\frac{C}{":8216,")}(x) = \\frac{x^2}{2} - (\\alpha":8217,"_0}-a|\\lt":8218,"_0)+b+o(z-z":8219," \\sin { a } ^ { M } } \\leq 4.45 }\r\n":8220,"\\int \\alpha d \\Delta\r\n":8221,"\\int \\left ( \\mbox { q } \\right ) dp\r\n":8222,"\\int \\left [ { \\mbox { M } e } \\right ] dh\r\n":8223,"\\int \\left ( n \\right ) d { \\mbox { w } } _ { ":8224,"\\int \\frac { \\mbox { l } } { \\mbox { z } } d":8225,"\\int \\sigma dg\r\n":8226,"\\int \\int \\mbox { b } dR d":8227,"\\int \\sum _ { { d \\geq \\int ":8228,"\\int \\log \\mbox { L } dg\r\n":8229,"\\int { - { \\mbox { i } \\phi } } dI\r\n":8230,"\\int \\sqrt { L } d { \\mbox { v } } _ { \\mbox { p } }\r\n":8231,"n-1}+\\ldots + a_1X + a":8232,"n-1}\\frac 1{x^{n-1}}$\r\n":8233," \\sqrt{\\frac{t}{c_o} }$\r\n":8234,"_{i=1}^sl_i^2-\\left(":8235,"\\alpha_i (\\alpha_0-\\alpha_i)}{\\alpha_0^2 (\\alpha_0":8236,"$\\frac{1}{\\sqrt{-2gy":8237,"$\\frac{1}{T} \\int_{-":8238,"$\\frac{1}{2{\\pi}i}\\int_{c-i":8239,"$\\frac{1}{p^{\\prime}} - \\frac{1}{p} - C = 0$\r\n":8240,"$S^{\\prime}P = r^{\\prime}$\r\n":8241,"$S_{n+1}=S_nS_{":8242,"$S(A)=A^\\prime":8243,"$S(f) = \\frac{1}{R}":8244,"$S_n = X_1 + X_2":8245,"$S^{4m+1}$\r\n":8246,"$S^1 \\times R^{n-1}$\r\n":8247," } } _ { \\frac { E } { \\mbox { y } } } { - \\mbox { o } } d":8248," - \\frac{M}{m}$\r\n":8249,"{ - \\mbox { s } } } \\left ( Y \\right )\r\n":8250,"{ - \\mbox { w } \\left ( F \\right ) }\r\n":8251," b\\in B, a < b$\r\n":8252,"\\frac { \\mbox { l } } { \\mbox { E } }\r\n":8253,"\\frac { \\mbox { L } } { c } } }\r\n":8254,"\\frac { \\mbox { j } } { \\mbox { u } }\r\n":8255,"\\frac { \\mbox { A } } { i }\r\n":8256,"\\frac { \\mbox { L } } { \\mbox { c } } } \\left ( \\mbox { G } \\right )\r\n":8257,"\\frac { \\mbox { V } } { \\mbox { G } }\r\n":8258,"\\frac { \\mbox { r } } { P }\r\n":8259,"\\frac { \\mbox { A } } { { \\mbox { v } } ^ { g } }\r\n":8260,"\\frac { \\mbox { C } } { x }\r\n":8261,"\\frac { \\mbox { G } } { { f \\mbox { P } } }\r\n":8262,"\\frac { \\mbox { H } } { \\mbox { y } } }\r\n":8263,"\\frac { \\mbox { M } } { \\frac { \\mbox { H } } { \\mbox { y } } }\r\n":8264,"\\frac { \\mbox { N } } { V }\r\n":8265,"\\frac { \\mbox { a } } { { \\mbox { L } } _ { j } }\r\n":8266,"\\frac { \\mbox { d } } { { \\mbox { r } } ^ { X } }\r\n":8267,"\\frac { \\mbox { i } } { \\sqrt { R } }\r\n":8268,"\\frac { \\mbox { k } } { { \\sqrt { { \\mbox { g } + \\frac { \\mbox { ":8269,"\\frac { \\mbox { n } } { \\mbox { P } }\r\n":8270,"\\frac { \\mbox { q } } { n }\r\n":8271," {\\sqrt{2}^k}}$\r\n":8272," } _ { \\sum { j } } { \\mbox { w } \\mbox { x } } d":8273,"\\sigma_1,\\sigma_2]$\r\n":8274," + y_k yx_k":8275,"\\mu_3}{\\sigma^3}$\r\n":8276,"\\mu } } \\lt \\theta }\r\n":8277,"\\mu \\mbox { e } } } \\mbox { e } d":8278," } } { \\mbox { L } + \\mbox { w } } dq\r\n":8279," } } { \\mbox { p } - B } dd\r\n":8280," } } { \\mbox { t } } B } }\r\n":8281,"\\cos(vx)$\r\n":8282," c } } { { \\mbox { p } + \\mbox { R } } }\r\n":8283," c ) = ( ( a , b )":8284,"$f^{\\prime}(x) = 2a":8285,"$f(v,t)=w$\r\n":8286,"$f(u_1) = u_2$\r\n":8287,"$f_2(M)=0$\r\n":8288,"$f(1/s)$\r\n":8289,"$f(z)=a (z-z":8290,"$f = \\frac{\\sqrt{5}}{RC}$\r\n":8291,"1)(1-s/2) = 0$\r\n":8292,"|| \\alpha^{\\prime}(t)":8293,"|| \\leq ||z - ":8294,"||w||^2-V(r)$\r\n":8295,"0} + \\Delta T$\r\n":8296," \\alpha } } { 6.1 }\r\n":8297,")=C_1 \\left ( C_{n}(E)\\righ":8298,"\\tan s\r\n":8299," \\geq \\beta } } { B } }\r\n":8300," \\geq \\sum { \\mbox { H } } } } { { \\cdots + \\int \\frac { H } { ":8301,"\\gamma + \\mbox { V } } } \\frac { \\theta } { \\mbox { ":8302,"a}{\\sqrt 2}$\r\n":8303,"a}{\\frac bc}$\r\n":8304," } \\mbox { B } } - N } }\r\n":8305," } \\mbox { V } } - \\alpha } } { 6.1 }\r\n":8306,"\\frac { { \\Delta + \\sum { \\mbox { S } } } } { ":8307,"\\frac { { { \\mbox { P } \\mbox { V } } - \\alpha } } { 6.1 }\r\n":8308,"\\frac { { 8 + E } } { \\frac { v } { { ":8309,"\\frac { { { - I } + \\frac { \\sigma } { \\mbox { ":8310,"\\frac { { { - \\mbox { h } } - { \\mbox { e } } _ { \\mbox { ":8311,"\\frac { { 6 - \\beta } } { \\mbox { N } }\r\n":8312,"\\frac { { N + 9 } } { \\frac { B } { \\mbox { S } } }\r\n":8313,"\\frac { { i - t } } { E }\r\n":8314,"\\frac { { r } ^ { \\mbox { F } } } { { u \\mbox { M } } }\r\n":8315,"\\frac { { \\frac { \\mbox { p } } { n } + v } } { ":8316,"\\frac { { 0 s } } { 5.7 }\r\n":8317,"\\frac { { 2 - \\mbox { L } } } { { { - \\mbox { r } }":8318,"\\frac { { A - \\mbox { h } } } { \\mbox { N } }\r\n":8319,"\\frac { { P - a } } { 0 }\r\n":8320,"\\frac { { R + \\mbox { i } } } { \\left [ j \\right ] }\r\n":8321,"\\frac { { h + 8 } } { { P - \\phi } }\r\n":8322,"\\frac { { i + { i } ^ { \\mbox { B } } } } { \\left [ a \\right ] }\r\n":8323,"\\frac { { r - \\sum { 2 } } } { { \\mbox { L } } _ { \\mbox { q } } }\r\n":8324,"\\frac { { \\sqrt { R } + \\mbox { F } } } { \\sum { B } }\r\n":8325,"\\frac { { { - \\mbox { g } } - \\mbox { Y } } } { { \\mbox { u":8326," \\left ( \\mbox { x } \\right ) } { { G + ":8327,"\\sqrt { { \\phi + \\mbox { c } } }\r\n":8328,"\\sqrt { { \\lambda } ^ { \\mbox { A } } }\r\n":8329,"\\sqrt { { 4 - C } }\r\n":8330,"\\sqrt { { N \\sum { I } } }\r\n":8331,"\\sqrt { { S - a } }\r\n":8332,"\\sqrt { { T + \\mbox { N } } }\r\n":8333,"\\sqrt { { a } ^ { { p - n } } }\r\n":8334,"\\sqrt { { g - R } }\r\n":8335,"\\sqrt { { m - { \\mbox { h } + I } } }\r\n":8336,"\\sqrt { { s + 6.4 } }\r\n":8337,"\\sqrt { { w + v } }\r\n":8338,"\\sqrt { { \\sin \\mu + \\mbox { o } } }\r\n":8339,"\\sqrt { { \\sum { b } + \\phi } }\r\n":8340,"\\sqrt { { { - \\mbox { x } } - \\int \\mbox { M } d":8341,"\\sqrt { { \\sqrt { \\mbox { q } } } ^ { \\mbox { p } } }\r\n":8342," } + \\mbox { M } } } } { \\int \\int \\mbox { b } dR d":8343,"$(T_{fus})$\r\n":8344,"$(E_{0})$\r\n":8345,"$(M_1M_3)$\r\n":8346,"$(n+1)P_{n+1}(x)=(2n+1)":8347,"$(2-s)(-1/2) +(n-":8348,"$(BT_B)$\r\n":8349,"$(E_{ij})$\r\n":8350,"$(k_2,l_2)$\r\n":8351,"$(s_1, \\ldots, s_m )$\r\n":8352,"$(y-y^{calc})$\r\n":8353,"$1 + z = \\frac{1}{\\sqrt{1 - \\frac{2 G M":8354,"$1 + a(p)p^{-s} + a(p":8355,"$1 g = N_A u$\r\n":8356,"$1 = \\frac{p e^{\\frac {p}{q":8357,"13(Pr.Gr)^{0.33}$\r\n":8358,"^k x)} {\\sqrt{2}^k}}$\r\n":8359,"$x = \\sqrt{|a|} \\times i$\r\n":8360,"$x_{2}+v_{2}":8361,"$x_{LLL}\\leq x_{LL":8362,"$x(k,L)$\r\n":8363,"$x =v_4+v_1$\r\n":8364,"$|f(x)|\\leq p(x)$\r\n":8365,"$|B-\\beta|$\r\n":8366,"$|f(\\frac{p}{q})":8367,"$|u_{n_0}-a|\\lt":8368,"$|x - u| \\lt \\frac{a}{":8369,"x_1+a^L_2x_2=L$\r\n":8370,"{ { { \\beta } ^ { { \\mbox { E } + ":8371,"{ { { - I } - { S } ^ { \\mbox { ":8372,"{ { 5 - z } \\leq \\mbox { x } }\r\n":8373,"{ { M - \\mbox { q } } = { -":8374,"{ { P - \\mbox { m } } \\geq \\left ( 3 \\right ) }\r\n":8375,"{ { k - 7.9 } \\geq \\sum { ":8376,"{ { { - \\mbox { H } } + { P } _ { ":8377,"{ { 5 b } \\lt \\int \\mbox { E":8378,"{ { 8 + { \\mbox { A } \\mbox { m } } } \\gt \\sum { X } }\r\n":8379,"{ { M } ^ { l } { \\frac { { Y + ":8380,"{ { T + \\sin { a } ^ { M } } \\leq 4.45 }\r\n":8381,"{ { b } ^ { \\mbox { h } } { \\mbox { w } } _ { \\mbox { m } } }\r\n":8382,"{ { f - \\mbox { R } } = \\sum { \\mbox { z } } }\r\n":8383,"{ { j - { \\mbox { o } - 6 } } = 5.":8384,"{ { k } _ { z } B }\r\n":8385,"{ { s - b } = 5 }\r\n":8386,"{ { y - 7 } \\geq 2 }\r\n":8387,"{ { \\pi b } - \\mbox { B } } }\r\n":8388,"{ { \\mu + \\sum { \\mbox { A } } } \\leq \\sum { \\mbox { j } } }\r\n":8389," = \\sum_{i=1}^{n} d\\left(f(a_{i-1}":8390,"\\sum _ { { \\Delta \\geq \\sum { \\mbox { H } } } } { { \\cdots + \\int \\frac { H } { ":8391,"\\sum _ { { m = X } } ^ { 9.6 } { ":8392,"\\sum _ { { 4 = \\mbox { y } } } ^ { { - d } } { { ":8393,"\\sum _ { { 9 \\geq \\mbox { E } } } { \\left [ \\mbox { C } \\right ] }\r\n":8394,"\\sum _ { { C \\gt h } } { \\mbox { E } }\r\n":8395,"\\sum _ { { E \\geq c } } { { \\mbox { p } + \\mbox { R } } }\r\n":8396,"\\sum _ { { I \\geq j } } { { C - \\mbox { ":8397,"\\sum _ { { R \\geq H } } { B }\r\n":8398,"\\sum _ { { T \\geq g } } { 8.2 }\r\n":8399,"\\sum _ { { X \\gt a } } { { \\alpha - c } }\r\n":8400,"\\sum _ { { Y \\geq \\mbox { x } } } { { \\left [ ":8401,"\\sum _ { { b \\gt p } } { { y - \\mbox { Y":8402,"\\sum _ { { h \\gt \\pi } } { { I - q } }\r\n":8403,"\\sum _ { { k = M } } ^ { \\sum { \\mbox { k } } } { ":8404,"\\sum _ { { v \\geq l } } { \\mbox { X } }\r\n":8405,"\\sum _ { { \\mu \\gt A } } { P }\r\n":8406,"\\sum _ { { \\gamma \\gt \\mbox { I } } } { \\left [ 2 \\right ] }\r\n":8407,"$S = \\{ 1,s,s^2":8408,"^4 + tx^3 + \\frac{t^2}{2s}":8409,"{ { \\mbox { B } + z } = { 2 \\mbox { ":8410,"{ { \\mbox { z } } ^ { \\Delta } \\mu":8411,"{ { \\mbox { B } } ^ { L } + o }\r\n":8412,"{ { \\mbox { E } } _ { \\mbox { B } } } ^ { { - N } }\r\n":8413,"{ { \\mbox { L } + \\mbox { C } } = \\sqrt { ":8414,"{ { \\mbox { N } } ^ { H } { m i } }\r\n":8415,"{ { \\mbox { N } } _ { \\mbox { E } } + 7 }\r\n":8416,"{ { \\mbox { e } } _ { \\mbox { G } } } ^ { \\sum { h } }\r\n":8417,"{ { \\mbox { G } - M } \\leq \\frac { I } { ":8418,"{ { \\mbox { b } } _ { Y } + 8.5 }\r\n":8419,"{ { \\mbox { f } } _ { \\mbox { z } } } ^ { q } \\left ( ":8420,"{ { \\mbox { j } } _ { \\mbox { X } } - \\left ( \\phi":8421,"{ { \\mbox { k } - \\mbox { a } } = { \\mbox { ":8422,"{ { \\mbox { o } + \\theta } \\leq \\left ( o \\right ) }\r\n":8423,"{ { \\mbox { x } + C } \\gt \\mbox { C } }\r\n":8424,"$u(t)=\\frac{u(0":8425,"$u_1,u_2,\\ldots,u_N$\r\n":8426,"$u\\mathrm dv= \\mathrm d(uv)-v":8427,"$u(b)$\r\n":8428,"$u(t)-v(t)$\r\n":8429,"$u\\neq v$\r\n":8430,"$u = Ri$\r\n":8431,"$u_{N+1},v":8432,"$u_n = o(v_n)$\r\n":8433,"$u_L = L \\frac{di}{dt}$\r\n":8434,"$u \\in E, v \\in E, w \\in E$\r\n":8435,"$uu^{\\prime}+vv^{\\prime}":8436,"$u = g \\frac tv$\r\n":8437,"$u(ab^{-1} - cbb^{-1}d^{-1}) = 0$\r\n":8438,"$u_{n+2} = u_n + u_{n+":8439,"$u_{n+1}=f(u_n)$\r\n":8440,"$a^L_1x_1+a^L_2x_2=L$\r\n":8441,"_{n-1}) + q^2 f(x_{n-":8442," = \\frac{2}{\\sqrt{3}} ( \\cos ( \\frac{\\alpha \\pi":8443,"\\left ( 1.1 \\right ) }\r\n":8444,"\\left ( 5.0 \\right )\r\n":8445,"\\left ( 4.8 \\right )\r\n":8446,"\\left ( 0.0 \\right ) }\r\n":8447,"$E=\\frac{a}{\\frac bc}$\r\n":8448,"$E_1 = E_0/(16 \\pi":8449,"$E_1, \\ldots, E_k$\r\n":8450,"$E_p = \\frac{1}{2} k x^2 - ":8451,"$E \\rightarrow E/F":8452,"$E_1, E_2, F_1, F_2$\r\n":8453,"$E(P)$\r\n":8454,"$E = \\sqrt{p^2c^2 + m^2c":8455,"$E^{\\prime} = E - FG$\r\n":8456,"$E[X] = \\mu E[(X":8457,"$E,F$\r\n":8458,"$E(s^2_{n}) = E(X)^2":8459,"$E ^2-p^2 c^2 = m^2 c^4":8460,"$E_iE_j = 0$\r\n":8461,"$\\sum _{i=0}^{10} x_i$\r\n":8462,"$L(X^n)=2^n$\r\n":8463,"$L(v)L(u^{\\prime})$\r\n":8464,"$L(w)=\\frac{m}{2}":8465,"$L_v = 3335 - 2,91T$\r\n":8466,"$L(E,F)$\r\n":8467,"$L_0, L_1, \\ldots$\r\n":8468,"$L(S) = \\sum_{i=1}^{n} d\\left(f(a_{i-1}":8469,"$L/\\log(L)$\r\n":8470,"$L=2^{1/4} \\mathrm{":8471,"$L^2\\left(I, R,\\mu \\right)$\r\n":8472,"$L = [0,1]$\r\n":8473,"$L_{\\mu} = L_1":8474,"$L_2^{(\\alpha)}(x) = \\frac{x^2}{2} - (\\alpha":8475,"$L_0 = \\int_0^{x_0} \\sqrt ":8476,"| \\leq \\frac{1}{\\sqrt 5 b^2}$\r\n":8477," \\frac {\\sin(2^k x)} {\\sqrt{2}^k}}$\r\n":8478,"\\sqrt { { \\mbox { A } + \\infty } }\r\n":8479,"\\sqrt { { \\mbox { i } + r } }\r\n":8480,"\\sqrt { { \\mbox { z } + \\mbox { V } } }\r\n":8481,"$\\sum_{i=1}^m N_i = n \\sum_{i=1}^m ":8482,"$T_{ij} = P a":8483,"$T_N = 100$\r\n":8484,"$T(t) = \\frac {\\alpha^{\\prime}":8485,"$T_{n}(T_{m}(X":8486,"$T_0, T_1, \\ldots, T_{r-2}":8487,"$T(g)=0$\r\n":8488,"$TN = \\frac{n}{p}.{100":8489,"$TX_i=X_{i+1}$\r\n":8490,"$To = \\sqrt{\\frac {2H":8491,"$T = T_{0} + \\Delta T$\r\n":8492,"$T_0(X)=1$\r\n":8493,"x^n + Cste$\r\n":8494,"{ \\cdots + \\frac { \\mbox { e } } { \\mbox { s } } }\r\n":8495,"{ \\cdots + \\int f dG }\r\n":8496,"$x = \\frac{m_{eau}}{m_{":8497,"\\sqrt{\\left(v \\sin \\theta\\right)^2":8498,"\\infty}^{c+i\\infty}g(s":8499,"$y^2=-\\sqrt{q}$\r\n":8500,"\\log v\r\n":8501,"(t)}{|| \\alpha^{\\prime}(t)":8502," \\left [ \\sqrt { y } \\right ] \\right ) } }\r\n":8503,"left(\\phi\\right)}}\r\n":8504,"$A_1,A_2,\\ldots,A_n$\r\n":8505,"$A\\times B$\r\n":8506,"$A \\times (B \\times C) = ":8507,"$A = n R^2 \\cos":8508,"$Aire = (64/8":8509,"$A = \\{ a_0, \\ldots":8510,"$A = A_1 + A_2$\r\n":8511,"$A(0, R, \\infty)$\r\n":8512,"$AB^2 + AC^2":8513,"$A^n+\\ldots+c":8514,"$A = \\pi . Ra . R":8515,"$A = B \\times C$\r\n":8516,"$A_2>B_2$\r\n":8517,"$A ( B + C ) = A B + A C$\r\n":8518,"2}n(n^k+1)$\r\n":8519,"2} \\cos \\alpha_S$\r\n":8520,"{ - { { \\beta } _ { { \\mbox { Cu } } _ { \\mbox { ":8521,"{ - { 209.4 \\frac { c } { ":8522,"{ - { 5 A } }\r\n":8523,"{ - { \\frac { \\mbox { Y } } { \\mbox { t } } B } }\r\n":8524,"{ - { 3 s } }\r\n":8525,"{ - { F } _ { A } }\r\n":8526,"{ - { j } _ { { y } _ { \\mbox { b } } } }\r\n":8527,"{ - { w \\sqrt { F } } }\r\n":8528,"$H=\\frac{(fd)}{":8529,"$H_3(R)$\r\n":8530,"$H_4^{(0)} = {0":8531,"$H,H^{\\prime},M$\r\n":8532,"$H(X,Y) \\geq H(X)$\r\n":8533,"$HCN_{n,n}$\r\n":8534,"$HR=\\frac{P_{v}}{P_{v":8535,"$I_A \\leq I_B":8536,"$I_d = I_i k":8537,"$I(t) = I\\sqrt{2}\\cos{(w":8538,"$I_c=f(V_{":8539,"$I=a.A$\r\n":8540,"$Id_A$\r\n":8541,"$I_i = \\sum_{j} w_{ij":8542,"{ \\mbox { z } \\leq \\mbox { R } }\r\n":8543,"{ \\mbox { zB } } _ { B }\r\n":8544,"\\left ( \\mbox { LM } \\right )\r\n":8545,"\\int _ { C } ^ { d \\left ( B \\right ) } { \\tan } ^ { \\alpha } q ds\r\n":8546,"\\int _ { n } ^ { \\alpha } Y dk\r\n":8547,"\\int _ { v } ^ { { \\mu \\mbox { e } } } \\mbox { e } d":8548,"\\int _ { \\sum { 5 } } ^ { { 2 - S } } q d":8549,"{ \\cdots - \\Delta }\r\n":8550,"{ \\cdots - \\int S d \\sigma }\r\n":8551,"$M\\times N$\r\n":8552,"$M_k(n) = \\frac{1}{":8553,"$M(22)$\r\n":8554,"$M N = N M$\r\n":8555,"$M\\rightarrow N":8556,"$M = \\frac {P L }{ 4}$\r\n":8557,"$M=(\\alpha_{ik}.\\beta_{jl})$\r\n":8558,"$M_i(x_i,y_i)$\r\n":8559," = \\mbox { p } } } ^ { \\sum { 1 } } { k }\r\n":8560," - \\frac { M } { i } }\r\n":8561," - \\frac { i } { \\mbox { i } } }\r\n":8562,"{ - { \\mbox { G } } _ { m } }\r\n":8563,"{ - { \\mbox { H } { \\sqrt { { \\mbox { g } - \\left ( ":8564,"{ - { \\mbox { N } \\mbox { V } } }\r\n":8565,"{ - { \\mbox { T } \\int q dT } }\r\n":8566,"{ - { \\mbox { V } { \\mbox { z } \\mbox { m } } } }\r\n":8567,"{ - { \\mbox { d } \\mbox { t } } }\r\n":8568,"{ - { \\mbox { l } \\mbox { T } } }\r\n":8569,"{ - { \\mbox { x } \\mbox { v } } }\r\n":8570,"{ - { \\mbox { y } } _ { \\mbox { B } } }\r\n":8571,"\\Delta } } } + 7 }\r\n":8572,"{ { - \\mbox { q } } - z }\r\n":8573,"{ { - \\mbox { s } } + \\frac { \\mbox { T } } { ":8574,"{ { - \\mbox { v } } + \\frac { L } { j } }\r\n":8575,"{ { - \\mbox { Y } } - \\frac { M } { i } }\r\n":8576,"{ { - \\mbox { F } } - 2 }\r\n":8577,"{ { - \\mbox { b } } + { s \\mbox { q } } }\r\n":8578,"{ { - \\mbox { o } } - \\frac { i } { \\mbox { i } } }\r\n":8579," \\times  (10 + 256^1 + 2":8580," = \\frac {1 }{ 2} BC^2":8581," = \\frac {1}{4} a_0^2 +\\frac {":8582," = \\frac {1}{ b}$\r\n":8583,"$q_t=2q$\r\n":8584,"$q_1, q_2, \\ldots , ":8585,"$q\\lt-1$\r\n":8586,"$q(x)=p(x+a)$\r\n":8587,"$q=\\sum_{i=1}^sl_i^2-\\left(":8588,"$q = w + x i + y j":8589,"$q = 36\\pi \\frac {v^2}{s^3}$\r\n":8590,"{ \\sqrt { B } } ^ { \\phi }\r\n":8591,"{ \\sqrt { g } } ^ { \\left ( 1.1 \\right ) }\r\n":8592,"{ \\sqrt { o } } ^ { { - \\mbox { s } } } \\left ( Y \\right )\r\n":8593,"{ \\sqrt { 2 } } ^ { { a - { t } ^ { { ":8594,"{ \\sqrt { 9 } } ^ { { \\mbox { B } + P } }\r\n":8595,"{ \\sqrt { N } } ^ { { u + 9 } }\r\n":8596,"{ \\sqrt { m } } ^ { \\mbox { m } }\r\n":8597,"{ \\sqrt { t } } ^ { { { \\pi b } - \\mbox { B } } }\r\n":8598,"{ \\sqrt { x } } ^ { { k \\Delta } } \\left ( { i } _ { \\mbox { ":8599,"{ \\sqrt { y } } ^ { \\left ( 0.0 \\right ) }\r\n":8600,"{ { - 4 } - \\left ( { \\mu } ^ { \\mbox { v } }":8601,"{ { - F } - { F } ^ { x } }\r\n":8602,"{ { - G } + \\sum { \\mbox { m } } }\r\n":8603,"{ { - I } - { w - \\mbox { n } } }\r\n":8604,"{ { - h } - \\frac { E } { x } }\r\n":8605,"{ { - p } - \\mbox { S } } } \\left ( \\frac { ":8606,"{ { - q } - { \\mbox { S } + H } }\r\n":8607,"{ { - s } - \\sum { { \\alpha - k } } }\r\n":8608,"{ { - u } - \\sqrt { e } }\r\n":8609,"{ { - y } \\lt \\mbox { s } \\left ( A \\right ) }\r\n":8610,"{ \\sqrt { \\mbox { g } } } ^ { \\mbox { f } }\r\n":8611,"{ \\sqrt { \\mbox { N } } } ^ { f }\r\n":8612,"{ \\sqrt { \\mbox { R } } } ^ { { b + l } } \\left (":8613,"{ \\sqrt { \\mbox { X } } } ^ { 8 }\r\n":8614,"{ \\sqrt { \\mbox { j } } } ^ { { \\cdots - 3 } }\r\n":8615,"{ \\sqrt { \\mbox { o } } } ^ { \\frac { \\mbox { L } } { \\mbox { c } } } \\left ( \\mbox { G } \\right )\r\n":8616,"{ \\sqrt { \\mbox { u } } + { H } ^ { \\mbox { E } } }\r\n":8617,"{ \\sqrt { \\mbox { y } } } ^ { \\mbox { y } }\r\n":8618,"\\frac {p_n(v-u)}{1+":8619,"{ \\mbox { u } - { p { \\mbox { F } } _ { \\mbox { v } } } }\r\n":8620,"{ \\mbox { u } + { \\mbox { u } - V } }\r\n":8621,"{ \\mbox { u } = a }\r\n":8622,"\\sum _ { { \\mbox { F } \\geq \\mbox { d } } } { P }\r\n":8623,"\\sum _ { { \\mbox { H } = s } } ^ { n } { 45 }\r\n":8624,"\\sum _ { { \\mbox { N } = o } } ^ { { - E } } { { ":8625,"\\sum _ { { \\mbox { P } = \\mbox { p } } } ^ { \\sum { 1 } } { k }\r\n":8626,"\\sum _ { { \\mbox { S } \\gt f } } { \\mbox { t } }\r\n":8627,"\\sum _ { { \\mbox { Y } = M } } ^ { { \\mbox { P } } ^ { \\mbox { r } }":8628,"\\sum _ { { \\mbox { g } \\gt \\alpha } } { \\mbox { H } }\r\n":8629,"\\sum _ { { \\mbox { w } = F } } ^ { G } { { ":8630," \\int \\mbox { G } dB }\r\n":8631," , a_ {|A| } \\}$\r\n":8632,"$G(A) = E - g(F - f(A":8633,"$G(k, F(k,":8634,"$G M m / R":8635,"$G,H$\r\n":8636,"$G_u = 2 M_{u v} M":8637,"$G/H_{G}$\r\n":8638,"$G=10 \\log \\left( {\\frac{V_{":8639,"$G_{2k}$\r\n":8640,"$d(A,(d))=|x_":8641,"$d(u,v)=\\sum_{n":8642,"$d \\in EIC$\r\n":8643,"$d \\times (-d^{\\prime}) = (-":8644,"$dV = yz dx +zx d":8645,"$dB\\left(V^\\prime\\right) = dB\\left(V":8646,"$dE=uI\\times dt$\r\n":8647,"$dg = \\frac{1}{|a|} da d":8648,"$v_3 = \\frac{1}{4}(-1 - \\sqrt{17}+\\sqrt{34+2\\sqrt17":8649,"$v_1 = e^{\\frac{-2":8650,"$v_p(n)$\r\n":8651,"$v_2 = {v_1}^2$\r\n":8652,"$v, u_1, u_2$\r\n":8653,"$\\sigma(0)=01$\r\n":8654,"$\\sigma({A}_i)$\r\n":8655,"$\\sigma \\in [\\sigma_1,\\sigma_2]$\r\n":8656,"$\\sigma =\\sqrt{\\sigma ^2}$\r\n":8657,"$\\sigma_{F}( R )$\r\n":8658,"$\\sigma = \\frac {F }{ S}$\r\n":8659,"(A \\times B) \\times C$\r\n":8660,"}= \\{A,H\\} =0$\r\n":8661,"}=f(y_i)\\times g(y_j)$\r\n":8662,"{ \\mbox { t } \\left ( \\mbox { b } \\right ) } ^ { \\mbox { X } }\r\n":8663,"{ \\mbox { t } + { P - \\mbox { A } } } } }\r\n":8664,"{ \\mbox { t } + { \\mbox { Y } } _ { d } }\r\n":8665," } ^ { { 9 + \\mbox { e } } }\r\n":8666,"\\left ( { L - \\mbox { j } } \\right )\r\n":8667,"\\left ( { 9 - 0 } \\right )\r\n":8668,"\\left ( { R \\mbox { Y } } \\right )\r\n":8669,"\\left ( { T } ^ { \\mbox { T } } \\left ( \\pi \\right ) \\right )\r\n":8670,"\\left ( { e A } \\right )\r\n":8671,"\\left ( { t } _ { G } \\right )\r\n":8672,"\\left ( { \\gamma + z } \\right )\r\n":8673,"\\left [ { P } _ { V } \\right ]\r\n":8674,"\\left [ { 8 6 } \\right ]\r\n":8675,"\\left [ { P } _ { \\mbox { I } } \\right ]\r\n":8676,"\\left [ { d w } \\right ]\r\n":8677,"\\left [ { e } ^ { \\mbox { m } } \\right ]\r\n":8678,"\\left [ { z X } \\right ]\r\n":8679,"\\ldots 2\\times 1}$\r\n":8680," 10^6$\r\n":8681," e^{-i \\frac{2n\\pi}{T}}":8682,"$C_p=\\frac{\\gamma n":8683,"$C(0, R)$\r\n":8684,"$C^1(G)=G$\r\n":8685,"$C_1y_1^{(n-1)}+C":8686,"$C_{n+1}(E)=C_1 \\left ( C_{n}(E)\\righ":8687,"$R_A = \\frac {P b }{ ":8688,"$R_d = R_f":8689,"$R^{ij} - \\frac{1}{2}g^{ij}":8690,"$R^{\\prime} = \\frac{R}{3}$\r\n":8691,"$R_g\\ltq^{-1}":8692,"$R = k[X_1 , \\ldots, X_n":8693,"$R_{3\\times3}^T$\r\n":8694,"$R_1\\gt0$\r\n":8695,"$V_i-V_o$\r\n":8696,"$V.f(p) = NkT$\r\n":8697,"$V=\\int_0^{x_1} 2":8698,"$VA = \t\\sum_{i}VA(F":8699,"$VdP = -nPdV$\r\n":8700,"$V_i = \\frac{v_i}{v} = \\frac{":8701,"$p=\\frac{2(N_0-N":8702,"$p_A = u + c [":8703,"$pV = Nk_BT$\r\n":8704,"$p \\neq q$\r\n":8705,"$p = 2 \\times l - q$\r\n":8706,"$pgcd(n,P":8707,"$p^{SA} \\gt p^{AE":8708,"$p_1^{\\gamma_1}p_2":8709,"$s_i^2 =1$\r\n":8710,"$s=n + \\alpha$\r\n":8711,"$s_{j}(t)$\r\n":8712,"$s = \\frac{1}{2} + it$\r\n":8713,"$s = 1,26 .10^{-6} ":8714,"(1+q)^2 f(x":8715,"(1+{y^{\\prime}}^2)":8716," \\Delta z^2 \\right) = c^2 \\Delta t^2 -\\Delta l^2$\r\n":8717,"\\mbox { t } \\left ( { \\mbox { p } } ^ { \\left ( \\left ( 7 \\right ) \\right ) } \\right )\r\n":8718,"{ \\mbox { y } = \\sum _ { { \\mbox { e } \\geq \\mbox { R } } } { ":8719,"_{ij}\\mu_{ij}a_{ij}$\r\n":8720,"\\sum { { C - \\mbox { h } } }\r\n":8721,"\\sum { { X + \\mbox { x } } }\r\n":8722,"\\sum { { f + r } }\r\n":8723,"\\sum { { p - \\mbox { V } } }\r\n":8724,"\\sum { { s - \\mbox { k } } }\r\n":8725,"\\sum { { \\sigma + \\mbox { S } } }\r\n":8726,"$\\Delta S_{1,2}$\r\n":8727,"$\\Delta s^2 = c^2 \\Delta t^2 - \\left( \\Delta x^2 +":8728,"$\\Delta w_{ij}=f(y_i)\\times g(y_j)$\r\n":8729,"$\\Delta F \\lt 0$\r\n":8730,"{ \\cdots - 4.2 }\r\n":8731,"{ \\cdots + { { \\mbox { r } \\mbox { B } } - N } }\r\n":8732,"{ \\cdots + { \\cos } ^ { 8 } H }\r\n":8733,"{ \\cdots + { { a } ^ { h } 1 } } } d":8734,"{ \\cdots + { 2 + \\mbox { d } } }\r\n":8735,"{ \\cdots + { C } ^ { \\mbox { z } } }\r\n":8736,"{ \\cdots + { V - d } }\r\n":8737,"{ \\cdots + { e \\left ( \\left [ \\sqrt { y } \\right ] \\right ) } }\r\n":8738,"{ \\cdots + { l - \\mbox { m } } }\r\n":8739," 2^{-n}\\frac {p_n(v-u)}{1+":8740," 250 432$\r\n":8741," R}{\\gamma-1}$\r\n":8742," sat}}$\r\n":8743,"$B_1 = S_1(A_1)$\r\n":8744,"$B_N(a)=\\sum_{k":8745,"$B(t)-B(s)$\r\n":8746,"$B(L(S)),B(R":8747,"$B(X,M)$\r\n":8748,"$B = (2q+1)f(x_n) - ":8749,
[...]
