{
  "version": "1.0",
  "truncation": null,
  "padding": null,
  "added_tokens": [
    {
      "id": 0,
      "special": true,
      "content": "[PAD]",
      "single_word": false,
      "lstrip": false,
      "rstrip": false,
      "normalized": false
    },
    {
      "id": 1,
      "special": true,
      "content": "[UNK]",
      "single_word": false,
      "lstrip": false,
      "rstrip": false,
      "normalized": false
    },
    {
      "id": 2,
      "special": true,
      "content": "[SEP]",
      "single_word": false,
      "lstrip": false,
      "rstrip": false,
      "normalized": false
    },
    {
      "id": 3,
      "special": true,
      "content": "[CLS]",
      "single_word": false,
      "lstrip": false,
      "rstrip": false,
      "normalized": false
    },
    {
      "id": 4,
      "special": true,
      "content": "[MASK]",
      "single_word": false,
      "lstrip": false,
      "rstrip": false,
      "normalized": false
    },
    {
      "id": 5,
      "special": true,
      "content": "\\frac",
      "single_word": false,
      "lstrip": false,
      "rstrip": false,
      "normalized": false
    },
    {
      "id": 6,
      "special": true,
      "content": "\\sin",
      "single_word": false,
      "lstrip": false,
      "rstrip": false,
      "normalized": false
    },
    {
      "id": 7,
      "special": true,
      "content": "\\cos",
      "single_word": false,
      "lstrip": false,
      "rstrip": false,
      "normalized": false
    },
    {
      "id": 8,
      "special": true,
      "content": "\\sqrt",
      "single_word": false,
      "lstrip": false,
      "rstrip": false,
      "normalized": false
    },
    {
      "id": 9,
      "special": true,
      "content": "\\sum",
      "single_word": false,
      "lstrip": false,
      "rstrip": false,
      "normalized": false
    },
    {
      "id": 10,
      "special": true,
      "content": "\\forall",
      "single_word": false,
      "lstrip": false,
      "rstrip": false,
      "normalized": false
    },
    {
      "id": 11,
      "special": true,
      "content": "\\exists",
      "single_word": false,
      "lstrip": false,
      "rstrip": false,
      "normalized": false
    },
    {
      "id": 12,
      "special": true,
      "content": "\\log",
      "single_word": false,
      "lstrip": false,
      "rstrip": false,
      "normalized": false
    },
    {
      "id": 13,
      "special": true,
      "content": "\\pi",
      "single_word": false,
      "lstrip": false,
      "rstrip": false,
      "normalized": false
    },
    {
      "id": 14,
      "special": true,
      "content": "\\alpha",
      "single_word": false,
      "lstrip": false,
      "rstrip": false,
      "normalized": false
    },
    {
      "id": 15,
      "special": true,
      "content": "\\int",
      "single_word": false,
      "lstrip": false,
      "rstrip": false,
      "normalized": false
    },
    {
      "id": 16,
      "special": true,
      "content": "\\beta",
      "single_word": false,
      "lstrip": false,
      "rstrip": false,
      "normalized": false
    },
    {
      "id": 17,
      "special": true,
      "content": "\\|dots",
      "single_word": false,
      "lstrip": false,
      "rstrip": false,
      "normalized": false
    },
    {
      "id": 18,
      "special": true,
      "content": "\\infty",
      "single_word": false,
      "lstrip": false,
      "rstrip": false,
      "normalized": false
    }
  ],
  "normalizer": null,
  "pre_tokenizer": {
    "type": "Sequence",
    "pretokenizers": [
      {
        "type": "Split",
        "pattern": {
          "String": "(\\\\frac|\\\\sin|\\\\cos|\\\\sqrt|\\\\sum|\\\\forall|\\\\exists|\\\\log|\\\\pi|\\\\alpha|\\\\int|\\\\beta|\\\\\\|dots|\\\\infty|\\$[^\\$]+\\$|[^\\s{}_^\\\\$]+|[{}_^\\\\$])"
        },
        "behavior": "Isolated",
        "invert": false
      },
      {
        "type": "WhitespaceSplit"
      }
    ]
  },
  "post_processor": null,
  "decoder": null,
  "model": {
    "type": "WordPiece",
    "unk_token": "[UNK]",
    "continuing_subword_prefix": "##",
    "max_input_chars_per_word": 100,
    "vocab": {
      "[PAD]": 0,
      "[UNK]": 1,
      "[SEP]": 2,
      "[CLS]": 3,
      "[MASK]": 4,
      "\\frac": 5,
      "\\sin": 6,
      "\\cos": 7,
      "\\sqrt": 8,
      "\\sum": 9,
      "\\forall": 10,
      "\\exists": 11,
      "\\log": 12,
      "\\pi": 13,
      "\\alpha": 14,
      "\\int": 15,
      "\\beta": 16,
      "\\|dots": 17,
      "\\infty": 18,
      "!": 19,
      "\"": 20,
      "#": 21,
      "$": 22,
      "%": 23,
      "&": 24,
      "'": 25,
      "(": 26,
      ")": 27,
      "*": 28,
      "+": 29,
      ",": 30,
      "-": 31,
      ".": 32,
      "/": 33,
      "0": 34,
      "1": 35,
      "2": 36,
      "3": 37,
      "4": 38,
      "5": 39,
      "6": 40,
      "7": 41,
      "8": 42,
      "9": 43,
      ":": 44,
      ";": 45,
      "<": 46,
      "=": 47,
      ">": 48,
      "?": 49,
      "@": 50,
      "A": 51,
      "B": 52,
      "C": 53,
      "D": 54,
      "E": 55,
      "F": 56,
      "G": 57,
      "H": 58,
      "I": 59,
      "J": 60,
      "K": 61,
      "L": 62,
      "M": 63,
      "N": 64,
      "O": 65,
      "P": 66,
      "Q": 67,
      "R": 68,
      "S": 69,
      "T": 70,
      "U": 71,
      "V": 72,
      "W": 73,
      "X": 74,
      "Y": 75,
      "Z": 76,
      "[": 77,
      "\\": 78,
      "]": 79,
      "^": 80,
      "_": 81,
      "`": 82,
      "a": 83,
      "b": 84,
      "c": 85,
      "d": 86,
      "e": 87,
      "f": 88,
      "g": 89,
      "h": 90,
      "i": 91,
      "j": 92,
      "k": 93,
      "l": 94,
      "m": 95,
      "n": 96,
      "o": 97,
      "p": 98,
      "q": 99,
      "r": 100,
      "s": 101,
      "t": 102,
      "u": 103,
      "v": 104,
      "w": 105,
      "x": 106,
      "y": 107,
      "z": 108,
      "{": 109,
      "|": 110,
      "}": 111,
      "~": 112,
      "": 113,
      "##l": 114,
      "##a": 115,
      "##b": 116,
      "##e": 117,
      "##{": 118,
      "##1": 119,
      "##3": 120,
      "##}": 121,
      "##-": 122,
      "##g": 123,
      "##_": 124,
      "##t": 125,
      "##=": 126,
      "##(": 127,
      "##r": 128,
      "##)": 129,
      "##^": 130,
      "##+": 131,
      "##\\": 132,
      "##f": 133,
      "##q": 134,
      "##o": 135,
      "##v": 136,
      "##w": 137,
      "##i": 138,
      "##d": 139,
      "##M": 140,
      "##m": 141,
      "##4": 142,
      "##0": 143,
      "##,": 144,
      "##!": 145,
      "##j": 146,
      "##z": 147,
      "##2": 148,
      "##c": 149,
      "##s": 150,
      "##~": 151,
      "##h": 152,
      "##p": 153,
      "##9": 154,
      "##.": 155,
      "##x": 156,
      "##n": 157,
      "##y": 158,
      "##G": 159,
      "##;": 160,
      "##B": 161,
      "##L": 162,
      "##u": 163,
      "##N": 164,
      "##S": 165,
      "##D": 166,
      "##6": 167,
      "##]": 168,
      "##K": 169,
      "##P": 170,
      "##E": 171,
      "##k": 172,
      "##'": 173,
      "##&": 174,
      "##|": 175,
      "##/": 176,
      "##W": 177,
      "##O": 178,
      "##:": 179,
      "##C": 180,
      "##Z": 181,
      "##R": 182,
      "##*": 183,
      "##[": 184,
      "##A": 185,
      "##F": 186,
      "##5": 187,
      "##V": 188,
      "##%": 189,
      "##T": 190,
      "##I": 191,
      "##J": 192,
      "##Y": 193,
      "##>": 194,
      "##8": 195,
      "##U": 196,
      "##Q": 197,
      "##<": 198,
      "##H": 199,
      "##7": 200,
      "##$": 201,
      "##X": 202,
      "##`": 203,
      "###": 204,
      "##\"": 205,
      "##@": 206,
      "##?": 207,
      "##": 208,
      "##{\\": 209,
      "##_{": 210,
      "##}\\": 211,
      "##^{": 212,
      "##ra": 213,
      "##ta": 214,
      "##el": 215,
      "##al": 216,
      "##la": 217,
      "##ar": 218,
      "##ig": 219,
      "##rac": 220,
      "##frac": 221,
      "##^2": 222,
      "##}{": 223,
      "##le": 224,
      "##ph": 225,
      "##el{": 226,
      "##lab": 227,
      "##label{": 228,
      "##ti": 229,
      "##in": 230,
      "##frac{": 231,
      "##ft": 232,
      "##ma": 233,
      "##eta": 234,
      "##igh": 235,
      "##righ": 236,
      "##_{\\": 237,
      "##mu": 238,
      "##2}": 239,
      "##left": 240,
      "##right": 241,
      "##er": 242,
      "##(\\": 243,
      "##,\\": 244,
      "##1}": 245,
      "##si": 246,
      "##^{\\": 247,
      "##\\p": 248,
      "\\label{": 249,
      "##}}": 250,
      "##pha": 251,
      "##alpha": 252,
      "##tial": 253,
      "##artial": 254,
      "##mb": 255,
      "##ga": 256,
      "##ver": 257,
      "##me": 258,
      "##da": 259,
      "##over": 260,
      "##phi": 261,
      "##right)": 262,
      "##elta": 263,
      "##mbda": 264,
      "##nu": 265,
      "##)}": 266,
      "##th": 267,
      "##ot": 268,
      "##=\\": 269,
      "{\\": 270,
      "##partial": 271,
      "##psi": 272,
      "##)\\": 273,
      "##mma": 274,
      "##-\\": 275,
      "##cal": 276,
      "##dot": 277,
      "##_1": 278,
      "##de": 279,
      "##on": 280,
      "##left(": 281,
      "##bar": 282,
      "\\frac{": 283,
      "##qu": 284,
      "##delta": 285,
      "##}(": 286,
      "##int": 287,
      "##1}{": 288,
      "##lambda": 289,
      "##igma": 290,
      "##_\\": 291,
      "##beta": 292,
      "##}^{": 293,
      "##_0": 294,
      "##mega": 295,
      "##t{": 296,
      "##+\\": 297,
      "##theta": 298,
      "##_2": 299,
      "\\s": 300,
      "##^{-": 301,
      "##frac{\\": 302,
      "##ha": 303,
      "##hi": 304,
      "##lon": 305,
      "##rm": 306,
      "##ad": 307,
      "##}_{": 308,
      "##})": 309,
      "##ray": 310,
      "##array": 311,
      "##{array": 312,
      "##til": 313,
      "##tilde": 314,
      "##\\label{": 315,
      "##gamma": 316,
      "##psilon": 317,
      "##quad": 318,
      "##\\over": 319,
      "##epsilon": 320,
      "##_{\\mu": 321,
      "##\\pi": 322,
      "##^\\": 323,
      "##_i": 324,
      "##ho": 325,
      "##um": 326,
      "##}{\\": 327,
      "##qr": 328,
      "##rho": 329,
      "##_{i": 330,
      "##ng": 331,
      "\\,": 332,
      "##ngle": 333,
      "##var": 334,
      "##sigma": 335,
      "##(x": 336,
      "##tau": 337,
      "##eq": 338,
      "##bf": 339,
      "##ri": 340,
      "##\\,": 341,
      "##frac{1}{": 342,
      "##\\;": 343,
      "##ro": 344,
      "##}=": 345,
      "##omega": 346,
      "##^{(": 347,
      "##nd": 348,
      "##}\\right)": 349,
      "##ec": 350,
      "##pi": 351,
      "\\;": 352,
      "##^{2}": 353,
      "##qrt{": 354,
      "\\left": 355,
      "##xi": 356,
      "##~~": 357,
      "##},": 358,
      "##dots": 359,
      "\\c": 360,
      "\\over": 361,
      "##2}\\": 362,
      "##-1": 363,
      "{\\cal": 364,
      "##\\nu": 365,
      "##Phi": 366,
      "##vec": 367,
      "##pa": 368,
      "##hat": 369,
      "##Ga": 370,
      "##ab": 371,
      "\\\\": 372,
      "\\partial": 373,
      "##\\partial": 374,
      "##Gamma": 375,
      "##0}": 376,
      "##eg": 377,
      "##inft": 378,
      "##infty": 379,
      "##right]": 380,
      "##\\right)": 381,
      "##{\\cal": 382,
      "\\left(": 383,
      "_{": 384,
      "\\right)": 385,
      "##rime": 386,
      "##)=": 387,
      "##sum": 388,
      "##3}": 389,
      "##math": 390,
      "##egin": 391,
      "##end": 392,
      "##}_": 393,
      "##begin": 394,
      "##^{\\mu": 395,
      "##2\\": 396,
      "##lin": 397,
      "##end{array": 398,
      "##begin{array": 399,
      "##ap": 400,
      "(\\": 401,
      "##rangle": 402,
      "##begin{array}{": 403,
      "##}\\,": 404,
      "##line": 405,
      "##c}": 406,
      "##La": 407,
      "##st": 408,
      "##_{n": 409,
      "##varphi": 410,
      "##_\\mu": 411,
      "##Lambda": 412,
      "##eq:": 413,
      "##.\\label{": 414,
      "##tar": 415,
      "##^2}": 416,
      "##sqrt{": 417,
      "##ox": 418,
      "##hat{": 419,
      "##Delta": 420,
      "##\\c": 421,
      "\\phi": 422,
      "\\delta": 423,
      "##4}": 424,
      "\\frac{1}{": 425,
      "##_n": 426,
      "##}^": 427,
      "##}(\\": 428,
      "##i\\": 429,
      "##{\\bf": 430,
      "##ex": 431,
      "##(1": 432,
      "##tilde{": 433,
      "\\frac{\\": 434,
      "##_{1}": 435,
      "##m}": 436,
      "##row": 437,
      "##Omega": 438,
      "##bar{": 439,
      "##kap": 440,
      "##kappa": 441,
      "##{1": 442,
      "##j}": 443,
      "##^{\\p": 444,
      "##mbox": 445,
      "-\\": 446,
      "##tarrow": 447,
      "##,\\label{": 448,
      "##-1}": 449,
      "##2\\pi": 450,
      "##left(\\": 451,
      "##_{\\alpha": 452,
      "##qquad": 453,
      "##_3": 454,
      "##\\alpha": 455,
      "##_{1": 456,
      "##\\left(": 457,
      "##rightarrow": 458,
      "##^{-1}": 459,
      "##\\phi": 460,
      "##iv": 461,
      "##_j": 462,
      "##}=\\": 463,
      "##Psi": 464,
      "##}}\\": 465,
      "##^{i": 466,
      "##equ": 467,
      "##=1}": 468,
      "##os": 469,
      "\\nu": 470,
      "##)^2": 471,
      "##big": 472,
      "##^3": 473,
      "##dag": 474,
      "##_{\\mu\\nu": 475,
      "##+1": 476,
      "##equiv": 477,
      "##\\\\": 478,
      "##langle": 479,
      "##)=\\": 480,
      "##left[": 481,
      "##=0": 482,
      "##^4": 483,
      "\\psi": 484,
      "##Big": 485,
      "##l}": 486,
      "##}_{\\": 487,
      "##time": 488,
      "^{": 489,
      "##\\psi": 490,
      "##(z": 491,
      "##times": 492,
      "##}^{\\": 493,
      "##^{\\prime": 494,
      "##\\beta": 495,
      "##\\frac{": 496,
      "##{\\rm": 497,
      "##^\\mu": 498,
      "##^a": 499,
      "##_a": 500,
      "##_k": 501,
      "##vec{": 502,
      "##_{k": 503,
      "##..": 504,
      "##\\;\\;": 505,
      "##mbox{": 506,
      "##\\mu": 507,
      "##r}": 508,
      "\\lambda": 509,
      "\\gamma": 510,
      "##}{2}": 511,
      "##\\theta": 512,
      "\\begin{array}{": 513,
      "##),": 514,
      "##ge": 515,
      "\\quad": 516,
      "##}(x": 517,
      "##^i": 518,
      "##}+": 519,
      "##exp": 520,
      "##_{2}": 521,
      "##ger": 522,
      "##_{j": 523,
      "##dagger": 524,
      "##n}": 525,
      "##zeta": 526,
      "\\l": 527,
      "##varepsilon": 528,
      "##/2}": 529,
      "##mi": 530,
      "##bar{\\": 531,
      "##pro": 532,
      "##_{0": 533,
      "##(x)": 534,
      "##qrt": 535,
      "\\sigma": 536,
      "##end{array}": 537,
      "##(t": 538,
      "##wi": 539,
      "##\\lambda": 540,
      "##nab": 541,
      "{\\rm": 542,
      "##nabla": 543,
      "##)}\\": 544,
      "##}^2": 545,
      "\\theta": 546,
      "##-2": 547,
      "##\\!": 548,
      "##yle": 549,
      "##style": 550,
      "\\label{eq:": 551,
      "##di": 552,
      "##\\sigma": 553,
      "##^{1": 554,
      "\\left[": 555,
      "##to": 556,
      "##+1}": 557,
      "##^{2": 558,
      "##hat{\\": 559,
      "##s}": 560,
      "##,\\,\\": 561,
      "##-1)": 562,
      "##a}": 563,
      "##\\rangle": 564,
      "##frac{1}{2}": 565,
      "##(2": 566,
      "\\epsilon": 567,
      "##sin": 568,
      "##{1\\over": 569,
      "\\mu": 570,
      "=\\": 571,
      "##}\\left(": 572,
      "##t}": 573,
      "##ed": 574,
      "##(p": 575,
      "\\Phi": 576,
      "##cc": 577,
      "##wide": 578,
      "{1": 579,
      "##-\\frac{": 580,
      "##(k": 581,
      "##sp": 582,
      "##_+": 583,
      "\\rho": 584,
      "##^2}{": 585,
      "##Sigma": 586,
      "##_{2": 587,
      "##_{\\rm": 588,
      "##\\l": 589,
      "##\\{": 590,
      "##\\rho": 591,
      "\\sqrt{": 592,
      "##}.": 593,
      "##_{m": 594,
      "##}{\\partial": 595,
      "##mathcal": 596,
      "\\Gamma": 597,
      "##(r": 598,
      "{\\bf": 599,
      "##dot{": 600,
      "##1}{\\": 601,
      "##e^{": 602,
      "##\\gamma": 603,
      "##tilde{\\": 604,
      "##0,": 605,
      "\\qquad": 606,
      "##k}": 607,
      "##ell": 608,
      "\\omega": 609,
      "##\\,\\": 610,
      "##^2)": 611,
      "##chi": 612,
      "##pm": 613,
      "##line{": 614,
      "##^+": 615,
      "##\\tau": 616,
      "##&0": 617,
      "(x": 618,
      "\\right": 619,
      "##}\\partial": 620,
      "\\right]": 621,
      "##ce": 622,
      "_{\\": 623,
      "\\eta": 624,
      "##_{-": 625,
      "##qrt{\\": 626,
      "##}-": 627,
      "##\\delta": 628,
      "##_{a": 629,
      "##^*": 630,
      "##_\\alpha": 631,
      "##\\prime": 632,
      "##_m": 633,
      "##^{\\alpha": 634,
      "##}\\int": 635,
      "##p}": 636,
      "##}\\over": 637,
      "##otimes": 638,
      "\\rangle": 639,
      "##)\\,": 640,
      "##^2+": 641,
      "##_4": 642,
      "##x}": 643,
      "##\\pm": 644,
      "##_{\\nu": 645,
      "##).": 646,
      "##}\\label{": 647,
      "##edge": 648,
      "e^{": 649,
      "##5}": 650,
      "##e^{-": 651,
      "##wedge": 652,
      "##infty}": 653,
      "##tri": 654,
      "##_-": 655,
      "##_1}": 656,
      "##hs": 657,
      "##{\\partial": 658,
      "##(n": 659,
      "##)}{": 660,
      "\\Delta": 661,
      "\\equiv": 662,
      "##,\\quad": 663,
      "e^{-": 664,
      "\\xi": 665,
      "##und": 666,
      "##/2": 667,
      "##dx": 668,
      "\\tau": 669,
      "##Pi": 670,
      "##_{\\mu}": 671,
      "##^1": 672,
      "##mathcal{": 673,
      "##0)": 674,
      "2}": 675,
      "##y)": 676,
      "##_\\nu": 677,
      "##_{0}": 678,
      "##6}": 679,
      "##frac{\\partial": 680,
      "##pace": 681,
      "##sim": 682,
      "##hbar": 683,
      "\\langle": 684,
      "##disp": 685,
      "##re": 686,
      "dx": 687,
      "+\\": 688,
      "##^2\\": 689,
      "##}}{": 690,
      "##lay": 691,
      "##display": 692,
      "##displaystyle": 693,
      "\\chi": 694,
      "##bigg": 695,
      "##}\\;": 696,
      "\\left(\\": 697,
      "##_c": 698,
      "##_{ij": 699,
      "##^0": 700,
      "##.1": 701,
      "##end{array}\\right)": 702,
      ",\\": 703,
      "##(\\tau": 704,
      "##_s": 705,
      "##\\}": 706,
      "##|\\": 707,
      ".\\label{": 708,
      "##=1": 709,
      "\\mbox{": 710,
      "##\\cdot": 711,
      "}\\": 712,
      "##vert": 713,
      "##}\\right": 714,
      "\\Psi": 715,
      "##_2}": 716,
      "##,x": 717,
      "##g}": 718,
      "##_{ab": 719,
      "\\Omega": 720,
      "##^{(1": 721,
      "\\hat{": 722,
      "##under": 723,
      "##_{+": 724,
      "\\bar": 725,
      "##^n": 726,
      "##^{\\mu\\nu": 727,
      "##^-": 728,
      "##4\\pi": 729,
      "##}{2": 730,
      "##d\\": 731,
      "##hspace": 732,
      "##^{-1": 733,
      "##_p": 734,
      "##^\\prime": 735,
      "\\Big": 736,
      "##d}": 737,
      "##i}": 738,
      "##Th": 739,
      "##=1}^{": 740,
      "\\tilde{": 741,
      "##_{p": 742,
      "##_{\\mu\\nu}": 743,
      "##cos": 744,
      "##f}": 745,
      "##Theta": 746,
      "##+\\frac{": 747,
      "\\cdot": 748,
      "##_b": 749,
      "\\varphi": 750,
      "##)+": 751,
      "{1\\over": 752,
      "##,\\;": 753,
      "##}^{2}": 754,
      "^{\\": 755,
      "\\rightarrow": 756,
      "##'}": 757,
      "\\{": 758,
      "##)^{": 759,
      "##ts": 760,
      "##\\left(\\": 761,
      "##0)}": 762,
      "##line{\\": 763,
      "##)]": 764,
      "\\frac{1}{2}": 765,
      "##_A": 766,
      "##8}": 767,
      "##cc}": 768,
      "##}\\frac{": 769,
      "##}\\,\\": 770,
      "\\frac{d": 771,
      "##_{ij}": 772,
      "##}\\delta": 773,
      "(1": 774,
      "##_{A": 775,
      "##^{a": 776,
      "##=\\frac{": 777,
      "##\\int": 778,
      "\\Lambda": 779,
      "##=-": 780,
      "##prod": 781,
      "##(q": 782,
      "##b}": 783,
      "##}{d": 784,
      "##_1,": 785,
      "##+2": 786,
      "##sqrt{\\": 787,
      "##(a": 788,
      "##ll": 789,
      "##e}": 790,
      "##~~~": 791,
      "##\\Phi": 792,
      "##rm{": 793,
      "##\\right": 794,
      "\\end{array}": 795,
      "##mathbf": 796,
      "##\\omega": 797,
      "##\\right]": 798,
      "##N}": 799,
      "##ldots": 800,
      "\\frac{\\partial": 801,
      "##(u": 802,
      "##_5": 803,
      "##}\\right]": 804,
      ",\\label{": 805,
      "##0.": 806,
      "\\bar{": 807,
      "##_{r": 808,
      "\\exp": 809,
      "##^\\infty": 810,
      "##mid": 811,
      "##dot{\\": 812,
      "##,t": 813,
      "##(\\lambda": 814,
      "##^{+": 815,
      "##^j": 816,
      "##rc": 817,
      "##}\\c": 818,
      "##og": 819,
      "##^{\\dagger": 820,
      "##=-\\": 821,
      "##_{l": 822,
      "##frac{1}{2}\\": 823,
      "##(-": 824,
      "##tion": 825,
      "##''": 826,
      "##})\\": 827,
      "##or": 828,
      "##^{ab": 829,
      "##_R": 830,
      "\\cdots": 831,
      "##(s": 832,
      "##...": 833,
      "##,\\,": 834,
      "##\\chi": 835,
      "##_r": 836,
      "##^\\dagger": 837,
      "##^2-": 838,
      "##\\sqrt{": 839,
      "##^{\\nu": 840,
      "##}{\\cal": 841,
      "##^\\alpha": 842,
      "##ck": 843,
      "##7}": 844,
      "##}}{\\": 845,
      "##imi": 846,
      "##}\\phi": 847,
      "##en": 848,
      "##ol": 849,
      "##_{3": 850,
      "##\\left[": 851,
      "##_l": 852,
      "##=0}": 853,
      "##[\\": 854,
      "##ast": 855,
      "##))": 856,
      "##}\\left[": 857,
      "##^{(2": 858,
      "##ln": 859,
      "##im": 860,
      "##,1": 861,
      "##^{(1)}": 862,
      "\\cr": 863,
      "\\tilde": 864,
      "##imits": 865,
      "##}{1": 866,
      "##}^{(": 867,
      "##matri": 868,
      "##}\\sum": 869,
      "##con": 870,
      "##}+\\": 871,
      "##&0&0": 872,
      "##}]": 873,
      "##(\\phi": 874,
      "##mathrm{": 875,
      "##,2": 876,
      "ds": 877,
      "##(\\alpha": 878,
      "##(y": 879,
      "##\\eta": 880,
      "##~~~~": 881,
      "##_2)": 882,
      "##B}": 883,
      "##=\\int": 884,
      "##^{n": 885,
      "##}(z": 886,
      "##ext": 887,
      "##pt": 888,
      "##-2}": 889,
      "##tack": 890,
      "\\label{eq": 891,
      "##\\epsilon": 892,
      "##^\\nu": 893,
      "##tackr": 894,
      "##_{(": 895,
      "##({\\bf": 896,
      "\\hat": 897,
      "##\\xi": 898,
      "##-x": 899,
      "##\\limits": 900,
      "\\nabla": 901,
      "##9}": 902,
      "}{": 903,
      "##leq": 904,
      "##matrix": 905,
      "\\sim": 906,
      "##_{b": 907,
      "##(\\sigma": 908,
      "##},\\": 909,
      "##^b": 910,
      "##^A": 911,
      "##_B": 912,
      "##)\\label{": 913,
      "\\label{1": 914,
      "\\label{2": 915,
      "##')": 916,
      "##hspace{": 917,
      "##\\frac{\\": 918,
      "\\kappa": 919,
      "##mathbf{": 920,
      "##det": 921,
      "##}\\left(\\": 922,
      "##_{\\beta": 923,
      "-1": 924,
      "##}\\psi": 925,
      "##_{N": 926,
      "##vec{\\": 927,
      "\\:": 928,
      "##\\varphi": 929,
      "##r)": 930,
      "##_{i}": 931,
      "##appro": 932,
      "##\\{\\": 933,
      "\\label{s": 934,
      "##)}{\\": 935,
      "##mp": 936,
      "##m^2": 937,
      "##_L": 938,
      "##^{\\mu}": 939,
      "##^{2}\\": 940,
      "##_{12}": 941,
      "##approx": 942,
      "##_N": 943,
      "##+1)": 944,
      "##^{*": 945,
      "##\\left": 946,
      "##~,": 947,
      "\\nu}": 948,
      "##A}": 949,
      "##\\Gamma": 950,
      "##(\\theta": 951,
      "##dt": 952,
      "##ac": 953,
      "##^k": 954,
      "\\ln": 955,
      "##cri": 956,
      "##text": 957,
      "##\\sum": 958,
      "##op": 959,
      "##_{M": 960,
      "##cdots": 961,
      "##us": 962,
      "##-i": 963,
      "##_{I": 964,
      "##\\!\\!": 965,
      "##_f": 966,
      "##_{x": 967,
      "##}(x)": 968,
      "##,\\qquad": 969,
      "##(2\\pi": 970,
      "##box": 971,
      "##_x": 972,
      "##\\end{array}": 973,
      "##}=0": 974,
      "\\!": 975,
      "##^{\\infty": 976,
      "##)}}": 977,
      "##}{2}\\": 978,
      "##co": 979,
      "##\\quad": 980,
      "##(m": 981,
      "##|^2": 982,
      "##^N": 983,
      "\\bar{\\": 984,
      "\\prod": 985,
      "##no": 986,
      "\\frac{1}{\\": 987,
      "##\\bar": 988,
      "##.2": 989,
      "##_{s": 990,
      "##se": 991,
      "##ff": 992,
      "##_{\\lambda": 993,
      "##(z)": 994,
      "##_1)": 995,
      "##(x,": 996,
      "##\\langle": 997,
      "##=&": 998,
      "##^{(2)}": 999,
      "d^2": 1000,
      "##_{\\alpha\\beta": 1001,
      "##)\\right)": 1002,
      "##(\\partial": 1003,
      "\\wide": 1004,
      "##1-": 1005,
      "##ut": 1006,
      "D}": 1007,
      "^{2}": 1008,
      "##z}": 1009,
      "##^{3": 1010,
      "##}(t": 1011,
      "\\pm": 1012,
      "##^m": 1013,
      "##^{\\infty}": 1014,
      "-\\frac{": 1015,
      "\\otimes": 1016,
      "##y}": 1017,
      "##}{4": 1018,
      "##(t)": 1019,
      "##(g": 1020,
      "##\\s": 1021,
      "##q}": 1022,
      "##}\\gamma": 1023,
      "##erp": 1024,
      "\\vec{": 1025,
      "\\left\\{": 1026,
      "dt": 1027,
      "##-3": 1028,
      "\\,\\": 1029,
      "d^4": 1030,
      "##-\\frac{1}{": 1031,
      "##mbox{\\": 1032,
      "\\zeta": 1033,
      "{\\partial": 1034,
      "##}_{i": 1035,
      "\\ldots": 1036,
      "##-p": 1037,
      "\\varepsilon": 1038,
      "\\big": 1039,
      "##\\in": 1040,
      "\\wedge": 1041,
      "##\\rightarrow": 1042,
      "0,": 1043,
      "\\label{3": 1044,
      "\\Pi": 1045,
      "##-m": 1046,
      "##,\\ldots": 1047,
      "##~.": 1048,
      "##)\\right]": 1049,
      "##_I": 1050,
      "##_{c": 1051,
      "Tr": 1052,
      "##r^2": 1053,
      "##fo": 1054,
      "##sinh": 1055,
      "##(\\xi": 1056,
      "^2": 1057,
      "##{{": 1058,
      "##_M": 1059,
      "##,n": 1060,
      "##,m": 1061,
      "##D}": 1062,
      "##_0}": 1063,
      "##}\\left": 1064,
      "\\}": 1065,
      "##underline{": 1066,
      "##(1-": 1067,
      "=0": 1068,
      "##\\Delta": 1069,
      "##tan": 1070,
      "##vartheta": 1071,
      "##e^{\\": 1072,
      "##_t": 1073,
      "##,p": 1074,
      "##}}}": 1075,
      "##,k": 1076,
      "##\\end{array}\\right)": 1077,
      "##\\pro": 1078,
      "\\label{e": 1079,
      "##^{(0)}": 1080,
      "##^{1/2}": 1081,
      "\\Sigma": 1082,
      "##1+": 1083,
      "##(N": 1084,
      "\\sqrt{\\": 1085,
      "##)-": 1086,
      "\\mathcal{": 1087,
      "##\\Psi": 1088,
      "##ds": 1089,
      "##^{\\pm": 1090,
      "##{\\bar": 1091,
      "##\\Omega": 1092,
      "##irc": 1093,
      "##\\Lambda": 1094,
      "L}": 1095,
      "##}\\epsilon": 1096,
      "##\\equiv": 1097,
      "##2}{": 1098,
      "##^I": 1099,
      "##geq": 1100,
      "##phi}": 1101,
      "##(A": 1102,
      "##left(\\begin{array}{": 1103,
      "##/2}\\": 1104,
      "##.\\label{eq:": 1105,
      "##-\\frac{\\": 1106,
      "##_{\\sigma": 1107,
      "##=\\sum": 1108,
      "##(T": 1109,
      "##_\\beta": 1110,
      "##{2": 1111,
      "##}|": 1112,
      "##_z": 1113,
      "##^{A": 1114,
      "##_{\\rho": 1115,
      "##^5": 1116,
      "##up": 1117,
      "##)\\;": 1118,
      "##)\\over": 1119,
      "##}(p": 1120,
      "##}{\\delta": 1121,
      "##ch": 1122,
      "##it": 1123,
      "##L}": 1124,
      "##,z": 1125,
      "ds^2": 1126,
      "##(\\mu": 1127,
      "##8\\pi": 1128,
      "##R}": 1129,
      "##prime": 1130,
      "##]=": 1131,
      "##-k": 1132,
      "##long": 1133,
      "##e^{i": 1134,
      "##}},": 1135,
      "e^{\\": 1136,
      "##^{k": 1137,
      "##_{j}": 1138,
      "##=\\;": 1139,
      "##(d": 1140,
      "##\\cr": 1141,
      "##\\cos": 1142,
      "##_{-\\": 1143,
      "##sqrt{2}": 1144,
      "\\hat{\\": 1145,
      "\\tilde{\\": 1146,
      "##\\Big": 1147,
      "##(\\frac{": 1148,
      "(z": 1149,
      "\\dot{": 1150,
      "##matrix{": 1151,
      "\\in": 1152,
      "##neq": 1153,
      "##^2\\over": 1154,
      "e^{i": 1155,
      "##\\;\\;\\;\\;": 1156,
      "2\\pi": 1157,
      "##(-1)": 1158,
      "\\times": 1159,
      "##tion}": 1160,
      "##\\prod": 1161,
      "##l(": 1162,
      "##\\kappa": 1163,
      "##_{B": 1164,
      "##end{array}\\right": 1165,
      "##ne": 1166,
      "(p": 1167,
      "##_{t": 1168,
      "##}\\Big": 1169,
      "##^{-2}": 1170,
      "##(1)}": 1171,
      "d^{": 1172,
      "##(r)": 1173,
      "##cript": 1174,
      "##,\\theta": 1175,
      "##\\,,": 1176,
      "##(\\omega": 1177,
      "##textstyle": 1178,
      "_{\\mu": 1179,
      "##-g": 1180,
      "##]}": 1181,
      "##}(k": 1182,
      "##^{(n": 1183,
      "##brac": 1184,
      "##_0)": 1185,
      "##\\,.": 1186,
      "##}[": 1187,
      "##=~": 1188,
      "##\\mbox{": 1189,
      "##(1+": 1190,
      "\\to": 1191,
      "##\\bar{": 1192,
      "##}{2\\pi": 1193,
      "##meq": 1194,
      "##,j": 1195,
      "##-\\alpha": 1196,
      "##-q": 1197,
      "##-y": 1198,
      "##(X": 1199,
      "##M}": 1200,
      "##_{e": 1201,
      "##_q": 1202,
      "##ip": 1203,
      "\\sum_{n": 1204,
      "##oint": 1205,
      "{d": 1206,
      "##12": 1207,
      "##_H": 1208,
      "##simeq": 1209,
      "\\label{f": 1210,
      "##(D": 1211,
      "##_{i=1}": 1212,
      "##\\wedge": 1213,
      "##\\hat{": 1214,
      "##}\\cdot": 1215,
      "\\dot": 1216,
      "##{d": 1217,
      "_{i": 1218,
      "##(\\beta": 1219,
      "##}^a": 1220,
      "d^3": 1221,
      "##+m": 1222,
      "\\label{a": 1223,
      "##)^": 1224,
      "##(3": 1225,
      "##12}": 1226,
      "##-n": 1227,
      "0.": 1228,
      "\\vert": 1229,
      "##tr": 1230,
      "##^{j": 1231,
      "##_{d": 1232,
      "##log": 1233,
      "##hbox": 1234,
      "A}": 1235,
      "##}\\Gamma": 1236,
      "(x)": 1237,
      "##,q": 1238,
      "##}=-": 1239,
      "##cdot": 1240,
      "##mm": 1241,
      "##tackrel{": 1242,
      "##=\\frac{1}{": 1243,
      "##-z": 1244,
      "##(x)\\": 1245,
      "##T}": 1246,
      "##_{S": 1247,
      "\\mid": 1248,
      "##lus": 1249,
      "##\\otimes": 1250,
      "##_0^2": 1251,
      "##,\\,\\,\\,\\": 1252,
      "##^{m": 1253,
      "##_{C": 1254,
      "##}}=": 1255,
      "##^{2}}": 1256,
      "##}\\Phi": 1257,
      "##(\\vec{": 1258,
      "##})=": 1259,
      "##not": 1260,
      "##_{[": 1261,
      "\\begin{array}{c}": 1262,
      "##(\\rho": 1263,
      "##e^{-\\": 1264,
      "##}})": 1265,
      "##)=\\frac{": 1266,
      "##_\\pm": 1267,
      "##,y": 1268,
      "##_{\\pm": 1269,
      "##}=\\frac{": 1270,
      "##}\\hat{": 1271,
      "##_{\\alpha}": 1272,
      "##\\vert": 1273,
      "##}_i": 1274,
      "##\\cdots": 1275,
      "##frac{\\partial}{\\partial": 1276,
      "##cm}": 1277,
      "##\\to": 1278,
      "##(w": 1279,
      "##}\\frac{\\": 1280,
      "##(y)": 1281,
      "##\\qquad": 1282,
      "##_{i=1}^{": 1283,
      "##oplus": 1284,
      "##}_1": 1285,
      "##_{3}": 1286,
      "(2": 1287,
      "\\label{c": 1288,
      "(k": 1289,
      "(\\partial": 1290,
      "##bar{z": 1291,
      "##longrightarrow": 1292,
      "##}F": 1293,
      "##ve": 1294,
      "##star": 1295,
      "##{\\pi": 1296,
      "##,\\alpha": 1297,
      "##-\\frac{1}{2}": 1298,
      "##)+\\": 1299,
      "##(i": 1300,
      "##h}": 1301,
      "\\label{b": 1302,
      "##_{R": 1303,
      "##&&": 1304,
      "##_{\\p": 1305,
      "##)=0": 1306,
      "##Tr": 1307,
      "##^{0": 1308,
      "\\begin{array}{cc}": 1309,
      "\\int_0": 1310,
      "##}\\eta": 1311,
      "{\\bar": 1312,
      "##an": 1313,
      "##overline{": 1314,
      "##cosh": 1315,
      "##^{ij": 1316,
      "\\vec": 1317,
      "##!}": 1318,
      "##_D": 1319,
      "(t": 1320,
      "\\Theta": 1321,
      "##+i": 1322,
      "\\bigg": 1323,
      "##=0}^{": 1324,
      "##,b": 1325,
      "##}\\equiv": 1326,
      "\\label{4": 1327,
      "##II": 1328,
      "##_{4": 1329,
      "##)},": 1330,
      "##_\\lambda": 1331,
      "\\begin{array}{cc": 1332,
      "##+}": 1333,
      "##^c": 1334,
      "##v}": 1335,
      "##-i\\": 1336,
      "##overline": 1337,
      "##}^{-1}": 1338,
      "##_1^2": 1339,
      "##}),": 1340,
      "##}\\sigma": 1341,
      "##=\\frac{\\": 1342,
      "##}_{n": 1343,
      "##}\\\\": 1344,
      "##,\\label{eq:": 1345,
      "##n:": 1346,
      "##16": 1347,
      "-2": 1348,
      "m^2": 1349,
      "##&=&": 1350,
      "##\\ldots": 1351,
      "##S}": 1352,
      "##}\\theta": 1353,
      "\\partial_\\mu": 1354,
      "##.5": 1355,
      "##_{ab}": 1356,
      "##(0": 1357,
      "##^T": 1358,
      "##\\frac{1}{": 1359,
      "##{q": 1360,
      "##}\\alpha": 1361,
      "##-\\lambda": 1362,
      "##_{D": 1363,
      "##\\:": 1364,
      "##^{\\beta": 1365,
      "\\lim": 1366,
      "##[A": 1367,
      "\\label{p": 1368,
      "-i": 1369,
      "##(\\eta": 1370,
      "##}^{a": 1371,
      "##\\frac{d": 1372,
      "##_F": 1373,
      "##put": 1374,
      "##_{L": 1375,
      "##_{q": 1376,
      "##underline": 1377,
      "##}_{1}": 1378,
      "\\begin{array}{l": 1379,
      "##{k": 1380,
      "##}{r": 1381,
      "##({\\": 1382,
      "##}{\\pi": 1383,
      "\\;\\;": 1384,
      "##}_0": 1385,
      "##}\\rangle": 1386,
      "##,a": 1387,
      "##)=\\sum": 1388,
      "##\\perp": 1389,
      "##(2)}": 1390,
      "##}{3": 1391,
      "##hspace{1": 1392,
      "##^6": 1393,
      "d^4x": 1394,
      "##+n": 1395,
      "##_{11}": 1396,
      "##in}": 1397,
      "##+k": 1398,
      "##widetilde{": 1399,
      "\\hspace{": 1400,
      "##o}": 1401,
      "##,0": 1402,
      "##{}": 1403,
      "##g^2": 1404,
      "##tackrel": 1405,
      "{2": 1406,
      "##,3": 1407,
      "##(l": 1408,
      "##^{b": 1409,
      "##C}": 1410,
      "##}\\lambda": 1411,
      "##^{4": 1412,
      "##rall": 1413,
      "##^{\\frac{": 1414,
      "\\approx": 1415,
      "\\frac{2": 1416,
      "##\\ln": 1417,
      "##old": 1418,
      "##}_n": 1419,
      "##et": 1420,
      "##\\tilde{": 1421,
      "##^{N": 1422,
      "##-4": 1423,
      "##-s": 1424,
      "##(v": 1425,
      "##cm": 1426,
      "##}_2": 1427,
      "##mber": 1428,
      "A_\\mu": 1429,
      "##\\leq": 1430,
      "##^2+\\": 1431,
      "##_{\\gamma": 1432,
      "##=0,": 1433,
      "##\\bar{\\": 1434,
      "##^\\beta": 1435,
      "\\frac{\\delta": 1436,
      "##}A": 1437,
      "##}\\quad": 1438,
      "##(\\gamma": 1439,
      "##{\\hat": 1440,
      "##_{g": 1441,
      "##r]": 1442,
      "##+i\\": 1443,
      "##.3": 1444,
      "##,s": 1445,
      "{\\tilde": 1446,
      "##(f": 1447,
      "0}": 1448,
      "##-a": 1449,
      "##,\\cdots": 1450,
      "\\end{array}\\right)": 1451,
      "_1": 1452,
      "##)}=": 1453,
      "##(R": 1454,
      "\\frac{i": 1455,
      "##bold": 1456,
      "##number": 1457,
      "##^{\\prime}": 1458,
      "##boldmath": 1459,
      "##-t": 1460,
      "##_\\rho": 1461,
      "i}": 1462,
      "12": 1463,
      "r^2": 1464,
      "##,\\phi": 1465,
      "_{1}": 1466,
      "##,l": 1467,
      "e^{-\\": 1468,
      "##)|": 1469,
      "}\\right)": 1470,
      "##^{\\mu\\nu}": 1471,
      "##^{I": 1472,
      "\\label{d": 1473,
      "##}^{i": 1474,
      "##^{ij}": 1475,
      "##lo": 1476,
      "##(M": 1477,
      "-\\frac{1}{": 1478,
      "##F}": 1479,
      "##def": 1480,
      "##_{0}^{": 1481,
      "\\left(\\begin{array}{": 1482,
      "+\\frac{": 1483,
      "##}}.": 1484,
      "##}\\over{": 1485,
      "(n": 1486,
      "##)\\right": 1487,
      "##}).": 1488,
      "dy": 1489,
      "##}d": 1490,
      "##^{d": 1491,
      "##^{1}": 1492,
      "{\\hat": 1493,
      "##end{array}\\right.": 1494,
      "##(0)": 1495,
      "\\displaystyle": 1496,
      "\\\\0": 1497,
      "##}\\,.": 1498,
      "##_T": 1499,
      "##\\tilde": 1500,
      "##criptstyle": 1501,
      "##\\times": 1502,
      "##_i)": 1503,
      "##_{5": 1504,
      "##-2\\": 1505,
      "##+2}": 1506,
      "##}{\\sqrt{": 1507,
      "##\\big": 1508,
      "##mo": 1509,
      "##}_j": 1510,
      "##}(\\tau": 1511,
      "##\\dot": 1512,
      "##\\hat": 1513,
      "##u}": 1514,
      "##}\\bigg": 1515,
      "##\\beta}": 1516,
      "##_y": 1517,
      "##hbox{": 1518,
      "dz": 1519,
      "##_{z": 1520,
      "\\frac{1}{2}\\": 1521,
      "##}^i": 1522,
      "\\overline{": 1523,
      "##nonumber": 1524,
      "##,\\mu": 1525,
      "##\\label{eq:": 1526,
      "x}": 1527,
      "##(4": 1528,
      "##^{\\rm": 1529,
      "##tackrel{\\": 1530,
      "##sqrt": 1531,
      "##J}": 1532,
      "##}(\\theta": 1533,
      "4}": 1534,
      "##})^2": 1535,
      "\\,.": 1536,
      "##_2,": 1537,
      "##.}": 1538,
      "##{\\tilde": 1539,
      "##}_a": 1540,
      "##}_{\\rm": 1541,
      "\\left.": 1542,
      "##+p": 1543,
      "##}\\varphi": 1544,
      "##_{\\nu}": 1545,
      "=\\frac{": 1546,
      "\\leq": 1547,
      "##_C": 1548,
      "##ur": 1549,
      "1}": 1550,
      "##,r": 1551,
      "##,\\lambda": 1552,
      "##)}.": 1553,
      "(a": 1554,
      "##^r": 1555,
      "##mbox{\\boldmath": 1556,
      "##_d": 1557,
      "##kip": 1558,
      "##\\zeta": 1559,
      "##{\\delta": 1560,
      "\\label{t": 1561,
      "d\\tau": 1562,
      "##\\sin": 1563,
      "\\beta}": 1564,
      "\\dots": 1565,
      "##dy": 1566,
      "##)^{2}": 1567,
      "##}{4}": 1568,
      "##+a": 1569,
      "##ss": 1570,
      "\\;=\\;": 1571,
      "(-1)": 1572,
      "##)^2}": 1573,
      "##}{(2\\pi": 1574,
      "##angle": 1575,
      "##=2": 1576,
      "##overline{\\": 1577,
      "##frac{\\pi": 1578,
      "##H}": 1579,
      "##}\\xi": 1580,
      "##_6": 1581,
      "##widetilde": 1582,
      "##_{\\bar": 1583,
      "##,\\tau": 1584,
      "##-\\frac": 1585,
      "##_\\sigma": 1586,
      "\\dot{\\": 1587,
      "##)=\\int": 1588,
      "##\\{\\begin{array}{": 1589,
      "##^M": 1590,
      "##}}{\\partial": 1591,
      "\\label{E": 1592,
      "##-}": 1593,
      "(q": 1594,
      "\\ell": 1595,
      "##\\exp": 1596,
      "##{\\alpha": 1597,
      "{{": 1598,
      "##(L": 1599,
      "##triangle": 1600,
      "L}_{": 1601,
      "##3)}": 1602,
      "##(E": 1603,
      "##}\\omega": 1604,
      "##_i}": 1605,
      "##-1)}": 1606,
      "##(0,": 1607,
      "##^{p": 1608,
      "\\,,": 1609,
      "##}\\,,": 1610,
      "##^2}}": 1611,
      "_\\mu": 1612,
      "##^4}": 1613,
      "##\\varepsilon": 1614,
      "##,\\bar": 1615,
      "##un": 1616,
      "##).\\label{": 1617,
      "##w}": 1618,
      "##}({\\bf": 1619,
      "\\overline{\\": 1620,
      "##_{2}\\": 1621,
      "##=\\left(": 1622,
      "##^\\pm": 1623,
      "##+q": 1624,
      "##_{\\tau": 1625,
      "tr": 1626,
      "##-\\mu": 1627,
      "##_S": 1628,
      "##G}": 1629,
      "##ul": 1630,
      "##ub": 1631,
      "##,\\dots": 1632,
      "}\\left(": 1633,
      "##_2^2": 1634,
      "##vec{x": 1635,
      "##1+\\": 1636,
      "##_{m}": 1637,
      "##^{\\dag": 1638,
      "\\frac{\\partial}{\\partial": 1639,
      "##~=~": 1640,
      "\\frac{1}{2": 1641,
      "##,t)": 1642,
      "##^{(n)}": 1643,
      "\\{\\": 1644,
      "r}": 1645,
      "##1}\\": 1646,
      "##;\\;": 1647,
      "\\label{5": 1648,
      "##)\\delta": 1649,
      "##.0": 1650,
      "##,\\beta": 1651,
      "##_{+}": 1652,
      "##}%": 1653,
      "##^{(\\": 1654,
      "##c}\\": 1655,
      "##=\\,": 1656,
      "##^{\\dagger}": 1657,
      "##sf": 1658,
      "##-\\gamma": 1659,
      "##\\nabla": 1660,
      ",\\quad": 1661,
      "##^{a}": 1662,
      "##-1}\\": 1663,
      "\\p": 1664,
      "e}^{": 1665,
      "##_E": 1666,
      "##^3}": 1667,
      "\\d": 1668,
      "t}": 1669,
      "##^l": 1670,
      "##^{ab}": 1671,
      "##u)": 1672,
      "##\\displaystyle": 1673,
      "##_{f": 1674,
      "\\label{g": 1675,
      "^{\\mu": 1676,
      "##-{": 1677,
      "##_g": 1678,
      "\\left|": 1679,
      "\\right\\}": 1680,
      "##_h": 1681,
      "##_{P": 1682,
      "##}(q": 1683,
      "##(b": 1684,
      "##ia": 1685,
      "##_{\\theta": 1686,
      "##^{\\rho": 1687,
      "##lambda}": 1688,
      "##,\\,\\,": 1689,
      "##|}": 1690,
      "##ran": 1691,
      "##left\\{": 1692,
      "##^{1/": 1693,
      "##_{-\\infty": 1694,
      "##_{n}": 1695,
      "##+\\frac{1}{": 1696,
      "##^B": 1697,
      "##\\Sigma": 1698,
      "##\\overline{": 1699,
      "##_i,": 1700,
      "##}{\\rm": 1701,
      "##}_{\\nu": 1702,
      "^{\\prime": 1703,
      "##i)}": 1704,
      "...": 1705,
      "##}\\ln": 1706,
      "##^{\\ast": 1707,
      "##k^2": 1708,
      "##^{4}": 1709,
      "##}\\right)^2": 1710,
      "##set": 1711,
      "##dz": 1712,
      "##{\\mu": 1713,
      "\\frac{3": 1714,
      "##_P": 1715,
      "##\\alpha}": 1716,
      "##}^{\\dagger": 1717,
      "##\\;\\;\\;": 1718,
      "##=1,2": 1719,
      "##3}\\": 1720,
      "##^{3}": 1721,
      "({\\bf": 1722,
      "##}_k": 1723,
      "(A": 1724,
      "##l[": 1725,
      "##,\\sigma": 1726,
      "##}(y": 1727,
      "##2\\alpha": 1728,
      "##}=\\int": 1729,
      "##\\mid": 1730,
      "##sum_{n": 1731,
      "##\\left(\\frac{": 1732,
      "##e^{2": 1733,
      "##^{'": 1734,
      "##_o": 1735,
      "##io": 1736,
      "##}\\!": 1737,
      "##)\\rangle": 1738,
      "##e^{i\\": 1739,
      "##-y)": 1740,
      "##=0.": 1741,
      "##_e": 1742,
      "##left|": 1743,
      "##end{array}\\label{": 1744,
      "##\\bigg": 1745,
      "##V}": 1746,
      "##^{r": 1747,
      "##_{a}": 1748,
      "+1": 1749,
      "##}\\bar{": 1750,
      "##hskip": 1751,
      "##(P": 1752,
      "##+\\alpha": 1753,
      "\\hbar": 1754,
      "##_{\\cal": 1755,
      "##}^{*": 1756,
      "##ff}": 1757,
      "##dr": 1758,
      "##(\\varphi": 1759,
      "##_3}": 1760,
      "##],": 1761,
      "##}=-\\": 1762,
      "##+1)}": 1763,
      "\\pi}": 1764,
      "M}": 1765,
      "##11}": 1766,
      "##^{c": 1767,
      "##(\\Phi": 1768,
      "##}_{j": 1769,
      "##^{2}+": 1770,
      "##(p)": 1771,
      "##_{AB": 1772,
      "##-1}{": 1773,
      "##%%": 1774,
      "##}\\hat{\\": 1775,
      "(D": 1776,
      "##,2}": 1777,
      "##Xi": 1778,
      "##for": 1779,
      "##du": 1780,
      "##}\\frac{1}{": 1781,
      "##}_{a": 1782,
      "##.4": 1783,
      "##psi}": 1784,
      "##}_{m": 1785,
      ",\\\\": 1786,
      "}=": 1787,
      "##|0": 1788,
      "##(\\tau)": 1789,
      "\\simeq": 1790,
      "##_{-1}": 1791,
      "##}\\tilde{": 1792,
      "##(\\vec": 1793,
      "##(j": 1794,
      "##brack": 1795,
      "##_{\\pm}": 1796,
      "##}^{\\infty}": 1797,
      "##\\lambda}": 1798,
      "##={": 1799,
      "##{\\vec": 1800,
      "##_{\\Lambda": 1801,
      "d}": 1802,
      "##E}": 1803,
      "##$}": 1804,
      "\\geq": 1805,
      "ex": 1806,
      "##_u": 1807,
      "##_{mn": 1808,
      "##(S": 1809,
      "##({\\cal": 1810,
      "##+\\lambda": 1811,
      "##eck": 1812,
      "F}": 1813,
      "##_\\perp": 1814,
      "##^p": 1815,
      "##,i": 1816,
      "##},t": 1817,
      "##_{-}": 1818,
      ":=": 1819,
      "##^D": 1820,
      "##(\\pi": 1821,
      "##metri": 1822,
      "##\\sqrt{\\": 1823,
      "_{n": 1824,
      "\\sum_{k": 1825,
      "(i": 1826,
      "##\\hbar": 1827,
      "##)\\,\\": 1828,
      "##-\\beta": 1829,
      "##\\rho}": 1830,
      "##,\\;\\;": 1831,
      "##-b": 1832,
      "##[\\phi": 1833,
      "##}\\Psi": 1834,
      "##2}}": 1835,
      "##+3": 1836,
      "##(\\zeta": 1837,
      "\\frac{m": 1838,
      "##}^{(1)}": 1839,
      "##\\right|": 1840,
      "d^3x": 1841,
      "##lim": 1842,
      "##\\hat{\\": 1843,
      "##}{2}}": 1844,
      "##\\neq": 1845,
      "##fi": 1846,
      ",\\label{eq:": 1847,
      "&=&": 1848,
      "##-r": 1849,
      "##-{1\\over": 1850,
      "##+\\frac{\\": 1851,
      "S_{": 1852,
      "}{\\": 1853,
      "##}{k": 1854,
      "##^2=": 1855,
      "##}{2\\": 1856,
      "##(\\nu": 1857,
      "##+4": 1858,
      "##,g": 1859,
      "##&1": 1860,
      "##}_3": 1861,
      "##\\\\0": 1862,
      "\\vec{\\": 1863,
      "##pto": 1864,
      "##}\\langle": 1865,
      "##=\\left(\\begin{array}{": 1866,
      "##sigma}": 1867,
      "##(u)": 1868,
      "##6\\pi": 1869,
      "##frac{d": 1870,
      "##}^*": 1871,
      "\\>": 1872,
      "##{x": 1873,
      "##_{\\Sigma": 1874,
      "##}_{0": 1875,
      "##I}": 1876,
      "##}\\cdots": 1877,
      "##)\\equiv": 1878,
      "\\cosh": 1879,
      "(X": 1880,
      "##(h": 1881,
      "##(C": 1882,
      "##=\\frac": 1883,
      "##}^{\\alpha": 1884,
      "##-2)": 1885,
      "##a^2": 1886,
      "##mm}": 1887,
      "\\sinh": 1888,
      "4\\pi": 1889,
      "##aa": 1890,
      "##}\\chi": 1891,
      "\\frac{1}{4}": 1892,
      ".\\label{eq:": 1893,
      "##_{\\alpha\\beta}": 1894,
      "##/4": 1895,
      "##}{\\bf": 1896,
      "##(c": 1897,
      "##i\\pi": 1898,
      "_{2}": 1899,
      "\\right|": 1900,
      "R}": 1901,
      "##}\\rho": 1902,
      "##(x)=": 1903,
      "},": 1904,
      "##{p": 1905,
      "##10": 1906,
      "##gamma}": 1907,
      "##_v": 1908,
      "##),\\label{": 1909,
      "k}": 1910,
      "##,\\xi": 1911,
      "##-\\delta": 1912,
      "##_{i}^{": 1913,
      "\\right),": 1914,
      "##-\\partial": 1915,
      "##,1}": 1916,
      "##ccc}": 1917,
      "e^{2": 1918,
      "##_1+": 1919,
      "##2.": 1920,
      "##,\\\\": 1921,
      "##}_{2}": 1922,
      "##brace": 1923,
      "(r": 1924,
      "##\\overline{\\": 1925,
      "_{\\alpha": 1926,
      "\\mathbf{": 1927,
      "##){\\": 1928,
      "##)^{-1}": 1929,
      "##vdots": 1930,
      "##}\\bar": 1931,
      "##}\\sqrt{": 1932,
      "1,": 1933,
      "##(B": 1934,
      "##^2,": 1935,
      "##\\;.": 1936,
      "\\right).": 1937,
      "\\frac{\\pi": 1938,
      "##\\sigma}": 1939,
      "##_{\\omega": 1940,
      "\\,\\,": 1941,
      "##_{\\phi": 1942,
      "\\label{r": 1943,
      "\\left(\\frac{": 1944,
      "##}\\pi": 1945,
      "\\right.": 1946,
      "##mm]": 1947,
      "in": 1948,
      "##,v": 1949,
      "##^{D": 1950,
      "##+\\frac{1}{2}": 1951,
      "\\begin{array}{rc": 1952,
      "##}{R": 1953,
      "##(k)": 1954,
      "##}\\big": 1955,
      "\\label{A": 1956,
      "##=\\delta": 1957,
      "{\\cal{": 1958,
      "a}": 1959,
      "##d\\tau": 1960,
      "##4)}": 1961,
      "##^2}{\\": 1962,
      "##eqn:": 1963,
      "(\\tau": 1964,
      "{\\delta": 1965,
      "##_{k}": 1966,
      "\\sqrt{-": 1967,
      "e^{-i": 1968,
      "##\\left\\{": 1969,
      "##{i": 1970,
      "##}\\exp": 1971,
      "##er}": 1972,
      "##\\mu}": 1973,
      "##hline": 1974,
      "##^{[": 1975,
      "##arrow": 1976,
      "##}\\right|": 1977,
      "##)\\Big": 1978,
      "d^2x": 1979,
      "##_{{\\rm": 1980,
      "##}\\Delta": 1981,
      "##^2\\right)": 1982,
      "##}}+": 1983,
      "##}(1": 1984,
      "##at": 1985,
      "##ze": 1986,
      "##}{m": 1987,
      "##\\vec{": 1988,
      "##P}": 1989,
      "(d": 1990,
      "##+\\sum": 1991,
      "##_{2n": 1992,
      "##K}": 1993,
      "##}(u": 1994,
      "##_{0}}": 1995,
      "N}": 1996,
      "##beta}": 1997,
      "##^{2})": 1998,
      "##left(\\frac{": 1999,
      "z}": 2000,
      "##imath": 2001,
      "##)\\Gamma": 2002,
      "H}": 2003,
      "##^d": 2004,
      "##}\\bar{\\": 2005,
      "##}\\nabla": 2006,
      "##\\dot{": 2007,
      "##\\partial_\\mu": 2008,
      "##}(\\phi": 2009,
      "##\\geq": 2010,
      "##}_{2": 2011,
      "\\;.": 2012,
      "##3.": 2013,
      "##_n)": 2014,
      "(g": 2015,
      "##(e": 2016,
      "##{\\theta": 2017,
      "##_{{\\cal": 2018,
      "##}\\put": 2019,
      "##^{0}": 2020,
      "Tr}": 2021,
      "d\\theta": 2022,
      "##_0,": 2023,
      "##}_m": 2024,
      "##}=\\frac{1}{": 2025,
      "##widehat{": 2026,
      "##(x,y": 2027,
      "##-N": 2028,
      "(\\phi": 2029,
      "0&": 2030,
      "##}{a": 2031,
      "##varrho": 2032,
      "##\\right\\": 2033,
      "\\sum_{j": 2034,
      "##%\\": 2035,
      "##_{4}": 2036,
      "##size": 2037,
      "##^{i}": 2038,
      "##}{4\\pi": 2039,
      "##sion": 2040,
      "##-\\eta": 2041,
      "##^{-1/2}": 2042,
      "##{q}}": 2043,
      "##_8": 2044,
      "##,0)": 2045,
      "##}(z)": 2046,
      "##_*": 2047,
      "##|x": 2048,
      "and": 2049,
      "##and": 2050,
      "##(2\\": 2051,
      "##+2\\": 2052,
      "##{\\lambda": 2053,
      "##}\\mu": 2054,
      "e^{i\\": 2055,
      "##(n)}": 2056,
      "##}\\frac{\\partial": 2057,
      "##/2)": 2058,
      "##const": 2059,
      "}}": 2060,
      "##^8": 2061,
      "##{\\textstyle": 2062,
      "##}\\Omega": 2063,
      "##\\alpha'": 2064,
      "##_{\\bf": 2065,
      "##(\\epsilon": 2066,
      "##_3)": 2067,
      "##^{-1})": 2068,
      "##c|": 2069,
      "##^{\\lambda": 2070,
      "##ot}": 2071,
      "##&0&0&0&0": 2072,
      "##W}": 2073,
      "##\\;,": 2074,
      "##^{\\alpha}": 2075,
      "##em": 2076,
      "##\\frac": 2077,
      "##\\nu}": 2078,
      "\\partial_i": 2079,
      "##=-\\infty": 2080,
      "\\widetilde{": 2081,
      "##b)}": 2082,
      "##3}}": 2083,
      "##}_{k": 2084,
      "##_{21}": 2085,
      "##(G": 2086,
      "##_\\gamma": 2087,
      "##}_{1": 2088,
      "(\\alpha": 2089,
      "##{\\frac{": 2090,
      "##}\\begin{array}{": 2091,
      "\\mathrm{": 2092,
      "_0": 2093,
      "##].": 2094,
      "##_{\\epsilon": 2095,
      "##)\\phi": 2096,
      "##(1)": 2097,
      "=-": 2098,
      "##e^2": 2099,
      "##^L": 2100,
      "##_\\ell": 2101,
      "##widetilde{\\": 2102,
      "##e^{-i": 2103,
      "3}": 2104,
      "\\det": 2105,
      "_2": 2106,
      "}{\\partial": 2107,
      "##,N": 2108,
      "##,...": 2109,
      "##}{n": 2110,
      "##=1}^\\infty": 2111,
      "##={1\\over": 2112,
      "##^{M": 2113,
      "##-\\omega": 2114,
      "##+\\beta": 2115,
      "##stackrel{": 2116,
      "##}\\tau": 2117,
      "##gau": 2118,
      "\\hspace{1": 2119,
      "##\\frac{1}{2}": 2120,
      "\\neq": 2121,
      "##(\\psi": 2122,
      "{\\alpha": 2123,
      "##}(r": 2124,
      "##\\,\\,": 2125,
      "##dot{\\alpha": 2126,
      "##^J": 2127,
      "##-c": 2128,
      "##_J": 2129,
      "##nto": 2130,
      "_i": 2131,
      "##{r": 2132,
      "\\label{S": 2133,
      "\\;,": 2134,
      "##^{\\nu}": 2135,
      "~=~": 2136,
      "##cl": 2137,
      "##^{\\frac{1}{2}": 2138,
      "##frac{\\delta": 2139,
      "##forall": 2140,
      "^a": 2141,
      "##\\tilde{\\": 2142,
      "##(\\bar": 2143,
      "##underline{\\": 2144,
      "(m": 2145,
      "##^\\lambda": 2146,
      "_{0": 2147,
      "-{1\\over": 2148,
      "##_-\\": 2149,
      "##\\begin{array}{": 2150,
      "##2}\\right)": 2151,
      "(\\sigma": 2152,
      "##e^{-2\\": 2153,
      "##{3": 2154,
      "##(J": 2155,
      "##(Q": 2156,
      "##^R": 2157,
      "##Q}": 2158,
      "##_{y": 2159,
      "##phanto": 2160,
      "##def}": 2161,
      "##+\\delta": 2162,
      "##iota": 2163,
      "##phantom": 2164,
      "##^t": 2165,
      "##\\ell": 2166,
      "##}\\otimes": 2167,
      "##}_+": 2168,
      "##}\\frac{d": 2169,
      "##+)}": 2170,
      "\\stackrel{": 2171,
      "##})=\\": 2172,
      "##tanh": 2173,
      "g^2": 2174,
      "##-2}\\": 2175,
      "##^2\\theta": 2176,
      "##(x,x": 2177,
      "##^{\\prime\\prime": 2178,
      "##0){\\": 2179,
      "##(s)": 2180,
      "2}}": 2181,
      "\\oplus": 2182,
      "\\longrightarrow": 2183,
      "##(F": 2184,
      "##-\\epsilon": 2185,
      "##-\\sigma": 2186,
      "(\\lambda": 2187,
      "\\right\\": 2188,
      "(y": 2189,
      "##+b": 2190,
      "##|z": 2191,
      "##}\\wedge": 2192,
      "n}": 2193,
      "##_{J": 2194,
      "##^{s": 2195,
      "##(\\Lambda": 2196,
      "##\\right\\}": 2197,
      "##(x,y)": 2198,
      "P}": 2199,
      "##M^2": 2200,
      "##}\\rightarrow": 2201,
      "##ab}": 2202,
      "##crip": 2203,
      "~~~": 2204,
      "##^s": 2205,
      "##\\sim": 2206,
      "##A_\\mu": 2207,
      "##,\\eta": 2208,
      "\\frac{g": 2209,
      "\\\\&": 2210,
      "x\\right)": 2211,
      "##}{N": 2212,
      "##+\\frac": 2213,
      "##rho}": 2214,
      "##mal": 2215,
      "##_\\theta": 2216,
      ",\\qquad": 2217,
      "##^{3/2}": 2218,
      "(2\\pi": 2219,
      "-i\\": 2220,
      "##\\vec": 2221,
      "##ij": 2222,
      "##ker": 2223,
      "##_{T": 2224,
      "##_{c}": 2225,
      "##}{p": 2226,
      "##}}^{": 2227,
      "##-\\theta": 2228,
      "\\star": 2229,
      "##^{-2": 2230,
      "##_{mn}": 2231,
      "d\\phi": 2232,
      "##_{o": 2233,
      "##)=\\frac{1}{": 2234,
      "##^{\\alpha\\beta": 2235,
      "##\\dots": 2236,
      "##or}": 2237,
      "##X}": 2238,
      "##tscriptstyle": 2239,
      "##criptscriptstyle": 2240,
      "{1}{": 2241,
      "##_+\\": 2242,
      "B}": 2243,
      "##}\\tilde": 2244,
      "##^\\ast": 2245,
      "##^2}{2": 2246,
      "\\oint": 2247,
      "##-j": 2248,
      "##sh": 2249,
      "##SU": 2250,
      "##/3}": 2251,
      "##,\\nu": 2252,
      "##)}{\\partial": 2253,
      "##}(s": 2254,
      "dr": 2255,
      "##_{\\xi": 2256,
      "##}(g": 2257,
      "\\;\\;\\;": 2258,
      "##1}{\\sqrt{": 2259,
      "##-l": 2260,
      "##\\infty": 2261,
      "##}{3}": 2262,
      "##ong": 2263,
      "##})+": 2264,
      "##(x_1": 2265,
      "##_{n-1}": 2266,
      "##^{\\prime}}": 2267,
      "##=0}^\\infty": 2268,
      "##+\\mu": 2269,
      "##_n}": 2270,
      "=\\int": 2271,
      "\\sum_{i": 2272,
      "+2": 2273,
      "G}": 2274,
      "##\\frac{\\partial": 2275,
      "##}(A": 2276,
      "(N": 2277,
      "##Im": 2278,
      "##}\\{": 2279,
      "##-\\tau": 2280,
      "##)^2+": 2281,
      "##)\\,.": 2282,
      "##_W": 2283,
      "##eta}": 2284,
      "##_{\\pi": 2285,
      "\\Bigg": 2286,
      "##\\star": 2287,
      "\\prime": 2288,
      "##circ": 2289,
      "##}\\Lambda": 2290,
      "##map": 2291,
      "##^{(N": 2292,
      "##^{(k": 2293,
      "##_j}": 2294,
      "##\\Theta": 2295,
      "##4}}": 2296,
      "##ct": 2297,
      "##R^2": 2298,
      "##}\\beta": 2299,
      "{\\mathcal": 2300,
      "##(x),": 2301,
      "x^2": 2302,
      "-\\frac{\\": 2303,
      "d\\Omega": 2304,
      "##-w": 2305,
      "##)/": 2306,
      "##^{l": 2307,
      "##al}": 2308,
      "\\partial_{\\mu}": 2309,
      "##_{eff": 2310,
      "j}": 2311,
      "##}_{-": 2312,
      "##^\\rho": 2313,
      "\\left\\langle": 2314,
      "##}(\\lambda": 2315,
      "e^{2\\": 2316,
      "T}": 2317,
      "k^2": 2318,
      "##es": 2319,
      "##_V": 2320,
      "##_\\phi": 2321,
      "##_\\Lambda": 2322,
      "##(\\hat{": 2323,
      "##})^{2}": 2324,
      "##^{(3)}": 2325,
      "##rallel": 2326,
      "##{$": 2327,
      "##+d": 2328,
      "##,\\psi": 2329,
      "##}(a": 2330,
      "##}{\\hbar": 2331,
      "##propto": 2332,
      "\\nonumber": 2333,
      "p}": 2334,
      "##ow": 2335,
      "##_{W": 2336,
      "##ell}": 2337,
      "##})]": 2338,
      "##a}}": 2339,
      "##10}": 2340,
      "##}\\end{array}\\right)": 2341,
      "##_{\\partial": 2342,
      "(\\theta": 2343,
      "##}(\\sigma": 2344,
      "##metric}": 2345,
      "##-E": 2346,
      "##,B": 2347,
      "##>0": 2348,
      "##_1=": 2349,
      "##=1}^N": 2350,
      "##,\\;\\;\\;": 2351,
      "##_7": 2352,
      "##scriptscriptstyle": 2353,
      "##A_{\\mu": 2354,
      "##_{E": 2355,
      "##}\\varepsilon": 2356,
      "##(\\delta": 2357,
      "##(\\lambda)": 2358,
      "\\label{eqn:": 2359,
      "##{D": 2360,
      "##-d": 2361,
      "##(5": 2362,
      "##(U": 2363,
      "##(H": 2364,
      "##}(n": 2365,
      "##_\\tau": 2366,
      "##^{(i)}": 2367,
      "##^{+}": 2368,
      "##action}": 2369,
      "m}": 2370,
      "##{}^": 2371,
      "##-u": 2372,
      "##}{8": 2373,
      "##}(\\xi": 2374,
      "##=1}^{\\infty": 2375,
      "##-\\frac{i": 2376,
      "##ds^2": 2377,
      "\\alpha'": 2378,
      "0\\": 2379,
      "con": 2380,
      "##sy": 2381,
      "\\label{con": 2382,
      "##kappa}": 2383,
      "\\begin{array}{l}": 2384,
      "##ubset": 2385,
      "##{\\sqrt{": 2386,
      "\\partial_\\nu": 2387,
      "\\frac{1}{4": 2388,
      "\\begin{array}{ll": 2389,
      "A_{\\mu": 2390,
      "for": 2391,
      "##/3": 2392,
      "\\label{n": 2393,
      "##-\\sum": 2394,
      "##st}": 2395,
      "##^{2n": 2396,
      ")=": 2397,
      "x})": 2398,
      "##ba": 2399,
      "##+c": 2400,
      "##ure": 2401,
      "##sto": 2402,
      "det": 2403,
      "##+g": 2404,
      "##il": 2405,
      "\\right)^2": 2406,
      "##(2)": 2407,
      "(s": 2408,
      "##-1)\\": 2409,
      "##(4\\pi": 2410,
      "##^i\\": 2411,
      "##4.": 2412,
      "##0~": 2413,
      "##p^2": 2414,
      "##}\\:": 2415,
      "##theta}": 2416,
      "##d\\Omega": 2417,
      "\\sum_{": 2418,
      "##--": 2419,
      "##_G": 2420,
      "##\\Pi": 2421,
      "##}}=\\": 2422,
      "##_i^2": 2423,
      "##}=\\sum": 2424,
      "##ree": 2425,
      "##(\\phi)": 2426,
      "##cr": 2427,
      "S_{\\rm": 2428,
      "\\label{D": 2429,
      "##_1\\ldots": 2430,
      "\\frac{4": 2431,
      "##+\\epsilon": 2432,
      "##_{n+1}": 2433,
      "##=1}^{\\infty}": 2434,
      "##tor": 2435,
      "##3}{2}": 2436,
      "##$}}": 2437,
      "##^2}\\right)": 2438,
      "\\label{6": 2439,
      "_{a": 2440,
      "##_{1}}": 2441,
      "##)}\\label{": 2442,
      "##({": 2443,
      "##_{F": 2444,
      "##alpha}": 2445,
      "##}^{+": 2446,
      "##e^{-i\\": 2447,
      "##=0}^{\\infty": 2448,
      "##k}}": 2449,
      "##}\\hat": 2450,
      "##}{g": 2451,
      "##}(X": 2452,
      "##eq}": 2453,
      "##pi}": 2454,
      "##cccc": 2455,
      "##(q)": 2456,
      "##textrm{": 2457,
      "##criptsize": 2458,
      "\\alpha}": 2459,
      "##,c": 2460,
      "##,T": 2461,
      "##x})": 2462,
      "##nt": 2463,
      "##*}": 2464,
      "##_{u": 2465,
      "##_{\\ell": 2466,
      "##^{\\left(": 2467,
      "\\label{h": 2468,
      "##nu}": 2469,
      "##-\\frac{1}{2}\\": 2470,
      "##}=0,": 2471,
      "##e^{2\\": 2472,
      "\\frac{d}{d": 2473,
      "##\\right\\rangle": 2474,
      "##_{IJ": 2475,
      "M^2": 2476,
      "eff": 2477,
      "##bot": 2478,
      "##_w": 2479,
      "##(Z": 2480,
      "\\label{l": 2481,
      "##_{1})": 2482,
      "##}^{(0)}": 2483,
      "##mapsto": 2484,
      "~,": 2485,
      "##min": 2486,
      "##,y)": 2487,
      "\\label{B": 2488,
      "##)\\,,": 2489,
      "R^2": 2490,
      "##,}": 2491,
      "##ss}": 2492,
      "##}{M": 2493,
      "##+\\gamma": 2494,
      "\\circ": 2495,
      "\\mu}": 2496,
      "##mbox{\\s": 2497,
      "##gauge": 2498,
      "##)!": 2499,
      "##{\\omega": 2500,
      "##}\\dot{": 2501,
      "##,\\gamma": 2502,
      "##-1,": 2503,
      "\\frac{\\alpha": 2504,
      "-\\frac{1}{2}": 2505,
      "\\frac{1}{\\sqrt{": 2506,
      "\\widehat{": 2507,
      "\\begin{array}{ll}": 2508,
      "##_\\infty": 2509,
      "##top": 2510,
      "=\\sum": 2511,
      "exp": 2512,
      "b}": 2513,
      "##{\\dot": 2514,
      "##_{K": 2515,
      "##^{\\sigma": 2516,
      "##+~": 2517,
      "##\\end{array}\\right.": 2518,
      "\\label{v": 2519,
      "##}_{0}": 2520,
      "##hat{\\mu": 2521,
      "e^{-2\\": 2522,
      "(-": 2523,
      "##11": 2524,
      "##-f": 2525,
      "##00": 2526,
      "##stackrel{\\": 2527,
      "\\label{k": 2528,
      "d^{4}": 2529,
      "\\pmatrix{": 2530,
      "1)": 2531,
      "##od": 2532,
      "##ound": 2533,
      "##nsion": 2534,
      "##[2": 2535,
      "##,\\frac{": 2536,
      "\\frac{k": 2537,
      "##+\\omega": 2538,
      "##}(\\partial": 2539,
      "##m}}": 2540,
      "##,\\bar{": 2541,
      "\\label{co": 2542,
      "\\overline": 2543,
      "##_{1},": 2544,
      "##~~~,": 2545,
      "(f": 2546,
      "##-v": 2547,
      "##\\over\\partial": 2548,
      "##},x": 2549,
      "\\phi}": 2550,
      "##dia": 2551,
      "##check": 2552,
      "-{": 2553,
      "a^2": 2554,
      "{\\pi": 2555,
      "##)^3": 2556,
      "##+N": 2557,
      "##[1": 2558,
      "##(\\Delta": 2559,
      "##(x-y": 2560,
      "##_{ijk}": 2561,
      "##sqrt{\\frac{": 2562,
      "}=\\": 2563,
      "~~": 2564,
      "##}\\prod": 2565,
      "\\label{w": 2566,
      "##(x-y)": 2567,
      "##16\\pi": 2568,
      "&0": 2569,
      "##_{\\dot": 2570,
      "##}{2}\\right)": 2571,
      "(u": 2572,
      "##rel": 2573,
      "##^x": 2574,
      "##+s": 2575,
      "##L}}": 2576,
      "##%\\label{": 2577,
      "##}\\ldots": 2578,
      "##(\\kappa": 2579,
      "\\label{C": 2580,
      "##(x)}": 2581,
      "##{\\cal{": 2582,
      "{\\bf{k": 2583,
      "##ca": 2584,
      "##}\\end{array}": 2585,
      "##+\\cdots": 2586,
      "##^{(a": 2587,
      "\\left\\{\\begin{array}{": 2588,
      "##)}\\over": 2589,
      "\\right\\rangle": 2590,
      "e^{-2": 2591,
      "##^2\\right]": 2592,
      "##=1}^{N": 2593,
      "##_{\\vec{": 2594,
      "##}^{A": 2595,
      "##_{ijk": 2596,
      "##=0}^{\\infty}": 2597,
      "\\vartheta": 2598,
      "d\\sigma": 2599,
      "##ll}": 2600,
      "##:=": 2601,
      "##-\\phi": 2602,
      "##}{\\lambda": 2603,
      "##~~~~~": 2604,
      "##}(t)": 2605,
      "##}\\left\\{": 2606,
      ")^2": 2607,
      "10": 2608,
      "{i": 2609,
      "}.": 2610,
      "\\label{R": 2611,
      "\\lambda}": 2612,
      "##+1}}": 2613,
      "##_{AB}": 2614,
      "\\sqrt{\\frac{": 2615,
      "##{n": 2616,
      "##1,": 2617,
      "##_Q": 2618,
      "##(V": 2619,
      "##^z": 2620,
      "##,u": 2621,
      "##x}}": 2622,
      "\\frac{2}{": 2623,
      "##form": 2624,
      "\\pi^2": 2625,
      "##g}}": 2626,
      "##]\\": 2627,
      "##|\\phi": 2628,
      "##{\\sigma": 2629,
      "##^{\\bar": 2630,
      "##}_{A": 2631,
      "##\\circ": 2632,
      "##}\\label{eq:": 2633,
      "\\label{2.": 2634,
      "##new": 2635,
      "\\sum_{i=1}": 2636,
      "})": 2637,
      "##(K": 2638,
      "##c.": 2639,
      "##Z}": 2640,
      "##Righ": 2641,
      "##U}": 2642,
      "##)\\\\": 2643,
      "##}^{(2)}": 2644,
      "##-1}}": 2645,
      "##Rightarrow": 2646,
      "-\\partial": 2647,
      "F_{\\mu": 2648,
      "##ik": 2649,
      "##,A": 2650,
      "##>=": 2651,
      "(\\xi": 2652,
      "\\frac{\\lambda": 2653,
      "##_{\\beta}": 2654,
      "##kern": 2655,
      "\\sum_{m": 2656,
      "##15": 2657,
      "##+l": 2658,
      "##^{B": 2659,
      "##(\\Gamma": 2660,
      "##-\\xi": 2661,
      "##_2=": 2662,
      "\\;\\;\\;\\;\\;": 2663,
      "(\\frac{": 2664,
      "12\\": 2665,
      "##{4": 2666,
      "##{\\phi": 2667,
      "##_{h": 2668,
      "##(\\chi": 2669,
      "##_0^\\infty": 2670,
      "##^2}.": 2671,
      "##ose": 2672,
      "\\hbox{": 2673,
      "##-3}": 2674,
      "##_9": 2675,
      "##=2}": 2676,
      "##}\\times": 2677,
      "##(\\frac{\\": 2678,
      "##-\\nu": 2679,
      "##&0&": 2680,
      "##}\\zeta": 2681,
      "##}{}": 2682,
      "\\\\\\": 2683,
      "##2\\mu": 2684,
      "##=0,1": 2685,
      "##,\\,\\,\\,": 2686,
      "\\mp": 2687,
      "##A}}": 2688,
      "##}\\sin": 2689,
      "##arge": 2690,
      "##,\\bar{z": 2691,
      "##}(2": 2692,
      "##infty}^\\infty": 2693,
      "x^\\mu": 2694,
      "##1.": 2695,
      "##-e": 2696,
      "##_{|": 2697,
      "##ign": 2698,
      "##}{x": 2699,
      "\\frac{n": 2700,
      "(\\gamma": 2701,
      "##_j)": 2702,
      "##}_{\\beta": 2703,
      "C}": 2704,
      "##z)": 2705,
      "##^{\\gamma": 2706,
      "##}_{b": 2707,
      "##kappa^2": 2708,
      "##}}\\over": 2709,
      "##widehat": 2710,
      "1+": 2711,
      "##-h": 2712,
      "##)^4": 2713,
      "##,X": 2714,
      "##space": 2715,
      "##^{(-": 2716,
      "##}^0": 2717,
      "({\\cal": 2718,
      "##d\\theta": 2719,
      "##,w": 2720,
      "##_{5}": 2721,
      "##lar": 2722,
      "##tin": 2723,
      "##}(y)": 2724,
      "##^\\sigma": 2725,
      "##}_A": 2726,
      "##.\\label{eq": 2727,
      "##}^4": 2728,
      "##-\\frac{2": 2729,
      "=\\left(": 2730,
      "##_K": 2731,
      "##,L": 2732,
      "##}{}^{": 2733,
      "##,\\omega": 2734,
      "##_0=": 2735,
      "##pansion": 2736,
      "##e^{-2": 2737,
      "\\propto": 2738,
      "##tr}": 2739,
      "##ol}": 2740,
      "##^{5": 2741,
      "##\\over2}": 2742,
      "##epsilon}": 2743,
      "##^\\dag": 2744,
      "##^{(j": 2745,
      "##}^3": 2746,
      "##_{2})": 2747,
      "##_{jk": 2748,
      "##^2}{4": 2749,
      "{k": 2750,
      "##cd": 2751,
      "##{\\mathcal": 2752,
      "##}\\Pi": 2753,
      "\\label{G": 2754,
      "##0}}\\put": 2755,
      "(\\omega": 2756,
      "##}=\\delta": 2757,
      "(T": 2758,
      "##14": 2759,
      "##jmath": 2760,
      "##2}\\,": 2761,
      "##^2}+": 2762,
      "##}(\\alpha": 2763,
      "##_{13}": 2764,
      "SU": 2765,
      "\\vdots": 2766,
      "g}": 2767,
      "##+x": 2768,
      "##ke": 2769,
      "##_{G": 2770,
      "##)\\big": 2771,
      "##}(T": 2772,
      "##}_{+": 2773,
      "+\\frac{1}{": 2774,
      "##eff": 2775,
      "##_{H": 2776,
      "##_{\\mathrm{": 2777,
      "\\label{m": 2778,
      "##=\\frac{1}{2}\\": 2779,
      "##}_b": 2780,
      "##q^2": 2781,
      "##is": 2782,
      "##left.": 2783,
      "##erm": 2784,
      "##_\\Sigma": 2785,
      "##varphi}": 2786,
      "##^{\\prime})": 2787,
      "{\\bf{q}}": 2788,
      "##}\\sum_{n": 2789,
      "##^{AB": 2790,
      "\\hline": 2791,
      "##t)": 2792,
      "##m)}": 2793,
      "##0}}": 2794,
      "##0.1": 2795,
      "##n}}": 2796,
      "##_{Q": 2797,
      "##_{X": 2798,
      "##}\\tilde{\\": 2799,
      "##^{11}": 2800,
      "\\le": 2801,
      "}\\partial": 2802,
      "##_X": 2803,
      "##_1,\\ldots": 2804,
      "_{0}": 2805,
      "##2\\pi}": 2806,
      "##_4}": 2807,
      "##)\\psi": 2808,
      "##-\\Delta": 2809,
      "##^{(4)}": 2810,
      "_{1": 2811,
      "##.\\label{s": 2812,
      "##bul": 2813,
      "##{m": 2814,
      "##^2.": 2815,
      "##,\\varphi": 2816,
      "##_{i}}": 2817,
      "##Phi}": 2818,
      "##}_-": 2819,
      "a_1": 2820,
      "##{\\beta": 2821,
      "##(\\tilde{": 2822,
      "##=\\frac{1}{2}": 2823,
      "##-\\int": 2824,
      "##on}": 2825,
      "##_\\omega": 2826,
      "##-1\\right)": 2827,
      "##^{1/2}\\": 2828,
      "dt^2": 2829,
      "##\\cosh": 2830,
      "\\sum_i": 2831,
      "##B}}": 2832,
      "##^{x": 2833,
      "##_{\\underline{": 2834,
      "##(\\nabla": 2835,
      "##+\\infty": 2836,
      "##end{array}\\right]": 2837,
      "##|0\\rangle": 2838,
      "=0,": 2839,
      "##gra": 2840,
      "##)}\\right)": 2841,
      "##+1}{": 2842,
      "##\\d": 2843,
      "##,4": 2844,
      "##xi}": 2845,
      "##\\frac{1}{\\": 2846,
      "##r_0": 2847,
      "##}\\\\\\": 2848,
      "##}{z": 2849,
      "##,\\end{array}": 2850,
      "\\label{F": 2851,
      "##}^{a}": 2852,
      "##)=-": 2853,
      "##cc}0": 2854,
      "du": 2855,
      "##16}": 2856,
      "##\\sp": 2857,
      "##,d": 2858,
      "##[g": 2859,
      "##,\\pi": 2860,
      "##}={1\\over": 2861,
      "##_{22}": 2862,
      "##\\log": 2863,
      "##)^{n": 2864,
      "##if": 2865,
      "##SO": 2866,
      "##}\\}": 2867,
      "##+\\theta": 2868,
      "##}=0.": 2869,
      "##~~,": 2870,
      "-\\frac": 2871,
      "16": 2872,
      "A_i": 2873,
      "q^2": 2874,
      "##atop": 2875,
      "##te": 2876,
      "##+\\sigma": 2877,
      "##}^j": 2878,
      "\\rho}": 2879,
      "##=1}^{n": 2880,
      "##0.3": 2881,
      "##0.5": 2882,
      "##^{*}": 2883,
      "##(0)}": 2884,
      "##{\\gamma": 2885,
      "##_{\\hat": 2886,
      "##\\,,\\label{": 2887,
      "##}=\\partial": 2888,
      "##_k}": 2889,
      "##}(x)\\": 2890,
      "s}": 2891,
      "##r^{2}": 2892,
      "##\\sinh": 2893,
      "##oth": 2894,
      "##,5": 2895,
      "{\\lambda": 2896,
      "##_{0}^{2}": 2897,
      "##_{23}": 2898,
      "##,x)": 2899,
      ")}": 2900,
      "##gg": 2901,
      "##^K": 2902,
      "##]+": 2903,
      "##[x": 2904,
      "##)=\\frac{\\": 2905,
      "##}}{\\delta": 2906,
      "##}(p)": 2907,
      "E}": 2908,
      "{3": 2909,
      "}+": 2910,
      "##et}": 2911,
      "##\\end{array}\\label{": 2912,
      "##n_2": 2913,
      "##}\\approx": 2914,
      "##}{6": 2915,
      "##den": 2916,
      "\\frac{p": 2917,
      "##}^{\\infty": 2918,
      "\\sigma}": 2919,
      "##~~~~~~~~": 2920,
      "##(g)": 2921,
      "A_0": 2922,
      "\\hskip": 2923,
      "##\\frac{\\partial}{\\partial": 2924,
      "##m^{2}": 2925,
      "##_{\\Omega": 2926,
      "##(\\Omega": 2927,
      "##,\\rho": 2928,
      "##}{\\alpha": 2929,
      "##^{abc}": 2930,
      "\\begin{array}{rcl}": 2931,
      "\\sqrt{-g}": 2932,
      "##cl}": 2933,
      "##^{\\dot": 2934,
      "{\\vec": 2935,
      "##hoose": 2936,
      "##~~~.": 2937,
      "(t)": 2938,
      "z)": 2939,
      "{4": 2940,
      "##}\\qquad": 2941,
      "##)\\sim": 2942,
      "\\frac{a": 2943,
      "##int}": 2944,
      "##^{(b)}": 2945,
      "^{2}\\": 2946,
      "##}\\right\\}": 2947,
      "##\\left(\\begin{array}{": 2948,
      "(z)": 2949,
      "##(w)": 2950,
      "##_{\\perp": 2951,
      "1-": 2952,
      "{x": 2953,
      "##}{l": 2954,
      "##}{L": 2955,
      "\\label{L": 2956,
      "##}^{n": 2957,
      "##\\,.\\label{": 2958,
      "_{k": 2959,
      "\\infty}": 2960,
      "##23}": 2961,
      "##+\\,": 2962,
      "##^\\Lambda": 2963,
      "##}{\\beta": 2964,
      "##i\\gamma": 2965,
      "##}=\\frac{\\": 2966,
      "##(2n": 2967,
      "##/2)}": 2968,
      "##_{0}^{\\infty}": 2969,
      "##}\\;.": 2970,
      "##d\\omega": 2971,
      "(P": 2972,
      "sin": 2973,
      "~.": 2974,
      "##23": 2975,
      "##2.1": 2976,
      "##',": 2977,
      "##)\\cdot": 2978,
      "\\frac{N": 2979,
      "##}{\\mu": 2980,
      "##}=\\left(": 2981,
      "##}}\\left(": 2982,
      "##}}{\\sqrt{": 2983,
      "##1-\\": 2984,
      "##-M": 2985,
      "##\\approx": 2986,
      "##_{\\kappa": 2987,
      "##leftrightarrow": 2988,
      "\\frac{e": 2989,
      "##_\\xi": 2990,
      "##}={": 2991,
      "_{j": 2992,
      "##str": 2993,
      "##_{\\mu\\nu\\rho": 2994,
      "##_{jk}": 2995,
      "##}\\right\\": 2996,
      ",\\\\&": 2997,
      "^\\mu": 2998,
      "c}": 2999,
      "##-D": 3000,
      "##)^{-": 3001,
      "##Re": 3002,
      "##_{v": 3003,
      "##}=2": 3004,
      "##gen": 3005,
      "\\begin{array}{ccc}": 3006,
      "0\\label{": 3007,
      "}\\,": 3008,
      "##3/2}": 3009,
      "##IN": 3010,
      "##)})": 3011,
      "(\\beta": 3012,
      "##_{0})": 3013,
      "##own": 3014,
      "),": 3015,
      "{m": 3016,
      "##-A": 3017,
      "##=\\partial": 3018,
      "##r^2}": 3019,
      "##.1}": 3020,
      "##_{Y": 3021,
      "##,\\Lambda": 3022,
      "##}^{1": 3023,
      "^{\\alpha": 3024,
      "##ert": 3025,
      "##}^{-": 3026,
      "\\stackrel{\\": 3027,
      "##mathrm": 3028,
      "##i\\epsilon": 3029,
      "\\!\\!": 3030,
      "##mall": 3031,
      "d^{4}x": 3032,
      "##_{w": 3033,
      "##(\\bar{": 3034,
      "##^{\\tau": 3035,
      "##}^+": 3036,
      "##^{\\pm}": 3037,
      "##tiny": 3038,
      "_n": 3039,
      "##x^2": 3040,
      "##Ex": 3041,
      "##_{(1": 3042,
      "##let": 3043,
      "##^{-}": 3044,
      "##}\\right).": 3045,
      "(R": 3046,
      "##a_1": 3047,
      "##_c}": 3048,
      "##}\\;,": 3049,
      "##}{1\\over": 3050,
      "\\sum_{i=1}^{": 3051,
      "SO": 3052,
      "##r_+": 3053,
      "##{\\rho": 3054,
      "##}\\frac{\\partial}{\\partial": 3055,
      "##^{~": 3056,
      "##(\\tilde": 3057,
      "##,\\Phi": 3058,
      "##^{\\,": 3059,
      "\\frac{2\\pi": 3060,
      "##i\\hbar": 3061,
      "##)}\\right]": 3062,
      "##^{++": 3063,
      "\\widetilde{\\": 3064,
      "ds^2=": 3065,
      "##+{1\\over": 3066,
      "##ise": 3067,
      "##po": 3068,
      "##}(m": 3069,
      "##}_{ab": 3070,
      "^{*": 3071,
      "##_{0},": 3072,
      "=\\frac{1}{": 3073,
      "##\\!\\!\\!": 3074,
      "##mbox{\\scriptsize": 3075,
      "(F": 3076,
      "=0.": 3077,
      "d^{2}": 3078,
      "##13}": 3079,
      "##3.1": 3080,
      "##tran": 3081,
      "##zer": 3082,
      "##;x": 3083,
      "##Tr}": 3084,
      "##}\\cos": 3085,
      "##_{10}": 3086,
      "##|^{2}": 3087,
      "##^{j}": 3088,
      "##,\\epsilon": 3089,
      "##2\\lambda": 3090,
      "##}}\\int": 3091,
      "##}\\left(\\frac{": 3092,
      "##vec{\\sigma": 3093,
      "##(\\xi)": 3094,
      "-1}": 3095,
      "##{a": 3096,
      "##_p}": 3097,
      "##ic": 3098,
      "##^2)^2": 3099,
      "##}{q": 3100,
      "##}^{2": 3101,
      "##}_{i}": 3102,
      "##^{(p": 3103,
      "_{\\nu": 3104,
      "##+2)": 3105,
      "##\\left|": 3106,
      "##0){\\line": 3107,
      "(M": 3108,
      "S=": 3109,
      "##{R": 3110,
      "##Upsilon": 3111,
      "##}\\mbox{": 3112,
      "##^{n}": 3113,
      "##_{\\;\\;": 3114,
      "\\label{T": 3115,
      "##}(\\beta": 3116,
      "##_3^2": 3117,
      "^{-1}": 3118,
      "##_{j=1}": 3119,
      "##-\\frac{1}{\\": 3120,
      "##_{abc}": 3121,
      "\\Bigr": 3122,
      ").": 3123,
      "\\L": 3124,
      "}%": 3125,
      "##wp": 3126,
      "##c^2": 3127,
      "##(x)=\\": 3128,
      "##},{\\bf": 3129,
      "##bar{\\psi": 3130,
      "##_{2k": 3131,
      "\\sqrt{2}": 3132,
      "##res": 3133,
      "\\pi^2}": 3134,
      "D_\\mu": 3135,
      "\\not": 3136,
      "##}\\log": 3137,
      "##,\\delta": 3138,
      "##}({\\cal": 3139,
      "##}^{k": 3140,
      "\\begin{array}{r": 3141,
      "##d\\xi": 3142,
      "tr}": 3143,
      "##_{l}": 3144,
      "##,\\chi": 3145,
      "##_\\epsilon": 3146,
      "(\\rho": 3147,
      "##ed}": 3148,
      "_\\nu": 3149,
      "t)": 3150,
      "##^7": 3151,
      "##,h": 3152,
      "##,0}": 3153,
      "##|m": 3154,
      "##}{8\\pi": 3155,
      "##(\\hat": 3156,
      "##)\\quad": 3157,
      "##omega}": 3158,
      "##^{(+)}": 3159,
      "##}_4": 3160,
      "##}^\\prime": 3161,
      "##=-\\frac{1}{": 3162,
      "p^2": 3163,
      "x)": 3164,
      "##a_2": 3165,
      "##(6": 3166,
      "##\\}}": 3167,
      "##d\\phi": 3168,
      "##N_c": 3169,
      "##_{~": 3170,
      "##make": 3171,
      "##left\\langle": 3172,
      "##}(\\vec{": 3173,
      "##^{2}\\right)": 3174,
      "##)}{\\Gamma": 3175,
      "##{2\\over": 3176,
      "##makebox": 3177,
      "I}": 3178,
      "##s}}": 3179,
      "##_{r}": 3180,
      "##frac1": 3181,
      "##label": 3182,
      "##\\pmatrix{": 3183,
      "\\label{def": 3184,
      "##-\\vec{": 3185,
      "##}(w": 3186,
      "##}^{-1": 3187,
      "##^{n-1}": 3188,
      "(L": 3189,
      "##tt": 3190,
      "##][": 3191,
      "##^2/": 3192,
      "##erg": 3193,
      "##)\\frac{": 3194,
      "##}_{N": 3195,
      "##(x-x": 3196,
      "\\label{2.1": 3197,
      "##dt^2": 3198,
      "##}_{ij}": 3199,
      "(C": 3200,
      "##bu": 3201,
      "##)}\\,": 3202,
      "##mp}": 3203,
      "##.7": 3204,
      "##S_{\\rm": 3205,
      "##left\\{\\begin{array}{": 3206,
      "##right|": 3207,
      "##,\\hat{": 3208,
      "##^{\\underline{": 3209,
      "\\frac{r": 3210,
      "##^{12}": 3211,
      "ds^{2}": 3212,
      "##c|c|": 3213,
      "^2}": 3214,
      "|0": 3215,
      "##22}": 3216,
      "##RO": 3217,
      "##raise": 3218,
      "##_{\\eta": 3219,
      "##_{\\infty": 3220,
      "##^{\\underline": 3221,
      "\\label{i": 3222,
      "##}(r)": 3223,
      "##_{ik": 3224,
      "##^{(l": 3225,
      "##,1)": 3226,
      "##^{(-)}": 3227,
      "q}": 3228,
      "##)~": 3229,
      "##]=0": 3230,
      "##')^2": 3231,
      "##<0": 3232,
      "##_{x}": 3233,
      "##+\\left(": 3234,
      "##+\\frac{1}{2}\\": 3235,
      "##}\\right),": 3236,
      "{\\bf{k}}": 3237,
      "##ownarrow": 3238,
      "##-B": 3239,
      "##tw": 3240,
      "##(W": 3241,
      "##,M": 3242,
      "##k_2": 3243,
      "##_{b}": 3244,
      "##=\\epsilon": 3245,
      "\\frac{M": 3246,
      "##}^{b": 3247,
      "##+\\infty}": 3248,
      "##}^n": 3249,
      "##}(x)=": 3250,
      "##chi}": 3251,
      "##_{MN": 3252,
      "x^i": 3253,
      "##_s}": 3254,
      "##+r": 3255,
      "##pm}": 3256,
      "##ing": 3257,
      "{\\mu": 3258,
      "{\\beta": 3259,
      "##}^{~": 3260,
      "##}^{2}\\": 3261,
      "##frac{\\alpha": 3262,
      "##\\gamma}": 3263,
      "##sqrt{\\pi": 3264,
      "L}_": 3265,
      "\\Xi": 3266,
      "##+{\\cal": 3267,
      "##yp": 3268,
      "##;\\": 3269,
      "##F_{\\mu": 3270,
      "##}{}_{": 3271,
      "##-\\left(": 3272,
      "##_{i},": 3273,
      "##,\\label{s": 3274,
      "8\\pi": 3275,
      "##\\},": 3276,
      "##i}{2}": 3277,
      "##,Q": 3278,
      "##,{\\bf": 3279,
      "##2n": 3280,
      "##k)": 3281,
      "##^{J": 3282,
      "##^2\\,": 3283,
      "##}}_{\\": 3284,
      "##+\\bar": 3285,
      "##}(x,y": 3286,
      "##)}\\;": 3287,
      "##dim": 3288,
      "##=1,": 3289,
      "##,\\;\\;\\;\\;\\;": 3290,
      "\\left(\\begin{array}{cc}": 3291,
      "##^{(\\pm": 3292,
      "##_{-\\infty}^{\\infty}": 3293,
      "(E": 3294,
      "0\\end{array}\\right)": 3295,
      "BE": 3296,
      "Z}": 3297,
      "a_i": 3298,
      "##15}": 3299,
      "##^C": 3300,
      "##,R": 3301,
      "##|n": 3302,
      "##_{(1)}": 3303,
      "##,\\partial": 3304,
      "##^{\\Lambda": 3305,
      "##=\\exp": 3306,
      "##\\overline": 3307,
      "##=1,\\ldots": 3308,
      "##(T)": 3309,
      "##}{2\\pi}": 3310,
      "##\\:\\:": 3311,
      "{R": 3312,
      "}^{": 3313,
      "##=q": 3314,
      "##c_1": 3315,
      "##}\\vec{": 3316,
      "##}\\mathcal{": 3317,
      "\\label{ma": 3318,
      "##}}\\;": 3319,
      "##}}\\label{": 3320,
      "##(n-1)": 3321,
      "##(a)}": 3322,
      "##_{MN}": 3323,
      "0\\\\": 3324,
      "##fin": 3325,
      "##,P": 3326,
      "##20": 3327,
      "##{\\eta": 3328,
      "##}\\displaystyle": 3329,
      "##}{r}": 3330,
      "##_{\\bar{": 3331,
      "##)\\Psi": 3332,
      "##_{i})": 3333,
      "(\\delta": 3334,
      "##}}\\partial": 3335,
      "##_k)": 3336,
      "##[A]": 3337,
      "\\frac1": 3338,
      "\\sum\\limits": 3339,
      "({\\rm": 3340,
      "##1)": 3341,
      "##p_2": 3342,
      "##el}": 3343,
      "##_{\\scriptscriptstyle": 3344,
      "\\label{P": 3345,
      "##}_{p": 3346,
      "##parallel": 3347,
      "\\partial_{\\mu": 3348,
      "##e^{ik": 3349,
      "-m": 3350,
      "g_{\\mu": 3351,
      "g_{\\mu\\nu}": 3352,
      "z_1": 3353,
      "##')}": 3354,
      "##')=": 3355,
      "##[X": 3356,
      "##_1\\dots": 3357,
      "##(z)=": 3358,
      "+\\sum": 3359,
      "##_{(0)}": 3360,
      "##)\\label{eq:": 3361,
      "##norm": 3362,
      "##}_{ij": 3363,
      "##cture": 3364,
      "##as": 3365,
      "##{g": 3366,
      "##=3": 3367,
      "##^9": 3368,
      "##\\mathcal{": 3369,
      "##[J": 3370,
      "##AB": 3371,
      "##le}": 3372,
      "##)\\left(": 3373,
      "##)\\gamma": 3374,
      "##}(R": 3375,
      "##}(0)": 3376,
      "\\,=\\,": 3377,
      "##begin{": 3378,
      "(\\eta": 3379,
      "##_{k-1}": 3380,
      "##0.0": 3381,
      "##}\\frac{\\delta": 3382,
      "\\int_0^\\infty": 3383,
      "##{i\\over": 3384,
      "F_{\\mu\\nu": 3385,
      "##cd}": 3386,
      "##scriptstyle": 3387,
      "##par": 3388,
      "##x_1": 3389,
      "##A_0": 3390,
      "##arc": 3391,
      "##(\\ell": 3392,
      "\\label{la": 3393,
      "##}(0": 3394,
      "##}^{N": 3395,
      "##}^{(n)}": 3396,
      "\\partial^\\mu": 3397,
      "##=\\frac{1}{\\": 3398,
      "_a": 3399,
      "g^{-1}": 3400,
      "x_i": 3401,
      "##({\\rm": 3402,
      "##ie": 3403,
      "##2m": 3404,
      "##he": 3405,
      "##5)}": 3406,
      "##_{\\bar{z": 3407,
      "##}(M": 3408,
      "##^\\gamma": 3409,
      "##&0\\\\": 3410,
      "##sqrt{2}}": 3411,
      "A^a": 3412,
      "\\mbox{\\boldmath": 3413,
      "d^D": 3414,
      "##/4}": 3415,
      "##H^2": 3416,
      "##^{C": 3417,
      "##ral": 3418,
      "##}^{j": 3419,
      "##+\\xi": 3420,
      "##}\\right)\\right]": 3421,
      "\\leftrightarrow": 3422,
      "##\\right)^2": 3423,
      "##end{": 3424,
      "##2\\omega": 3425,
      "##}\\cr": 3426,
      "##}]=": 3427,
      "-4": 3428,
      "A_\\nu": 3429,
      "a_0": 3430,
      "##l^2": 3431,
      "##,Y": 3432,
      "##25": 3433,
      "\\label{H": 3434,
      "##+\\bar{": 3435,
      "##frac{\\lambda": 3436,
      "##}_{l": 3437,
      "##}=1": 3438,
      "##}^1": 3439,
      "##}^A": 3440,
      "e^{-i\\": 3441,
      "##phantom{": 3442,
      "##Expansion": 3443,
      "S}": 3444,
      "{p": 3445,
      "##bre": 3446,
      "##)^{\\": 3447,
      "##+B": 3448,
      "##,7": 3449,
      "##'^2": 3450,
      "##|\\psi": 3451,
      "##_{U": 3452,
      "##}\\sim": 3453,
      "##^{k}": 3454,
      "##^{(\\alpha": 3455,
      "##}{c": 3456,
      "\\label{sp": 3457,
      "##\\,{": 3458,
      "##^{(3": 3459,
      "##\\tau}": 3460,
      "##_{p+1}": 3461,
      "##(\\sigma)": 3462,
      "##\\frac{\\delta": 3463,
      "\\int\\limits": 3464,
      "J}": 3465,
      "##{M": 3466,
      "##om": 3467,
      "##21}": 3468,
      "##|k": 3469,
      "##[a": 3470,
      "##{\\left(": 3471,
      "(\\epsilon": 3472,
      "\\frac{\\mu": 3473,
      "##}+2": 3474,
      "##hat{\\phi": 3475,
      "\\cdots,": 3476,
      "##-\\frac{1}{4": 3477,
      "##}{(2\\pi)^": 3478,
      "\\ast": 3479,
      "x_0": 3480,
      "##,D": 3481,
      "##,\\hspace{": 3482,
      "##-\\!": 3483,
      "##^{(s": 3484,
      "##\\partial_\\nu": 3485,
      "(\\mu": 3486,
      "##}}\\put": 3487,
      "##}^{\\nu": 3488,
      "##_{kl}": 3489,
      "\\right].": 3490,
      "##^{\\alpha\\beta}": 3491,
      "##_4)": 3492,
      "\\tau}": 3493,
      "##[\\xi": 3494,
      "##}\\Bigg": 3495,
      "##ij}": 3496,
      "##A_1": 3497,
      "##{\\frac": 3498,
      "##{\\Gamma": 3499,
      "##_{\\varphi": 3500,
      "##)\\bigg": 3501,
      "##}_{r": 3502,
      "##^{(I": 3503,
      "(\\nabla": 3504,
      "##_{n}}": 3505,
      "\\mu^2": 3506,
      "##_+}": 3507,
      "\\sqrt{-g": 3508,
      "##}\\,\\,": 3509,
      "##}{\\pi}": 3510,
      "\\sin^2": 3511,
      "##^+\\": 3512,
      "##+M": 3513,
      "##+h": 3514,
      "##mn": 3515,
      "##kl": 3516,
      "##}_{3": 3517,
      "##sin^2": 3518,
      "##-2}}": 3519,
      "\\begin{array}{rcl": 3520,
      "\\hspace{1cm}": 3521,
      "(\\pi": 3522,
      "S_0": 3523,
      "##-V": 3524,
      "##heck": 3525,
      "##C_2": 3526,
      "##^{m}": 3527,
      "##)\\}": 3528,
      "##_\\kappa": 3529,
      "##}{\\rho": 3530,
      "##_{i+1}": 3531,
      "##....": 3532,
      "##(r)}": 3533,
      "##(r)=": 3534,
      "##(\\theta)": 3535,
      "##^{\\dag}": 3536,
      "##^{(k)}": 3537,
      "(e": 3538,
      "(S": 3539,
      "p_i": 3540,
      "##gh": 3541,
      "##=4": 3542,
      "##+\\partial": 3543,
      "##\\dagger": 3544,
      "##\\hspace{": 3545,
      "##ir": 3546,
      "##,6": 3547,
      "##'}{": 3548,
      "##^{t": 3549,
      "##,\\\\\\": 3550,
      "##-\\rho": 3551,
      "##tau}": 3552,
      "##2\\sqrt{": 3553,
      "##}\\overline{": 3554,
      "(Q": 3555,
      "0\\,": 3556,
      "=1": 3557,
      "Im": 3558,
      "##=\\pm": 3559,
      "##4.1": 3560,
      "##2k": 3561,
      "##20}": 3562,
      "##{\\Lambda": 3563,
      "##_{6": 3564,
      "##^{2\\": 3565,
      "##,\\vec": 3566,
      "\\label{M": 3567,
      "##}^-": 3568,
      "##_{\\mu\\nu\\lambda": 3569,
      "##+1)\\": 3570,
      "##}^{\\rm": 3571,
      "##_{j=1}^{": 3572,
      "##)}\\left(": 3573,
      "##^{10}": 3574,
      "\\bar{\\psi": 3575,
      "+i": 3576,
      "of": 3577,
      "##14}": 3578,
      "##=a": 3579,
      "##(I": 3580,
      "##,J": 3581,
      "##N}}": 3582,
      "##'}}": 3583,
      "##_{(p": 3584,
      "##^{(r": 3585,
      "##sum_{k": 3586,
      "##_{00}": 3587,
      "##0,0,": 3588,
      "##\\int_0": 3589,
      "##}\\left|": 3590,
      "##(-1)^{\\": 3591,
      "Re": 3592,
      "X^\\mu": 3593,
      "dia": 3594,
      "##{A": 3595,
      "##+A": 3596,
      "##ftarrow": 3597,
      "##24}": 3598,
      "##}{(2": 3599,
      "##erp}": 3600,
      "##=\\,\\": 3601,
      "{\\Gamma": 3602,
      "{\\sqrt{": 3603,
      "##_1)\\": 3604,
      "##int_0": 3605,
      "##+\\eta": 3606,
      "##\\right).": 3607,
      "##ce}": 3608,
      "##})\\label{": 3609,
      "##\\sqrt{2}": 3610,
      "##olu": 3611,
      "##}(k)": 3612,
      "##mod": 3613,
      "##=1,2,3": 3614,
      "##^{(a)}": 3615,
      "\\sum_n": 3616,
      "O}": 3617,
      "V}": 3618,
      "a_2": 3619,
      "r})": 3620,
      "##1-\\frac{": 3621,
      "##^q": 3622,
      "##\\dot{\\": 3623,
      "##[3": 3624,
      "##{\\overline": 3625,
      "##_{p}": 3626,
      "##}\\vert": 3627,
      "##^{T": 3628,
      "##=\\sqrt{": 3629,
      "##delta}": 3630,
      "\\partial_x": 3631,
      "\\right)\\label{": 3632,
      "##}_c": 3633,
      "##(z)\\": 3634,
      "\\gamma^\\mu": 3635,
      "\\Bigl": 3636,
      "##}{dt": 3637,
      "##breve": 3638,
      "(y)": 3639,
      "F_{\\mu\\nu}": 3640,
      "S=\\int": 3641,
      "q)": 3642,
      "##-g}": 3643,
      "##ven": 3644,
      "##,-": 3645,
      "##z_2": 3646,
      "##.3}": 3647,
      "##,\\bar{\\": 3648,
      "\\label{in": 3649,
      "\\label{di": 3650,
      "{\\frac{": 3651,
      "##_1...": 3652,
      "##}=-\\frac{": 3653,
      "##^{(d": 3654,
      "##}=\\left(\\begin{array}{": 3655,
      "\\lbrack": 3656,
      "##_{0}^{\\infty": 3657,
      "\\Big(": 3658,
      "\\Bigl(": 3659,
      "1/": 3660,
      "cos": 3661,
      "{g": 3662,
      "##ian": 3663,
      "##}\\Sigma": 3664,
      "##^{7": 3665,
      "\\subset": 3666,
      "##^{-2}\\": 3667,
      "\\sqrt{g}": 3668,
      "##}\\partial_{\\mu": 3669,
      "##ent": 3670,
      "##uparrow": 3671,
      "(B": 3672,
      "d\\mu": 3673,
      "for}": 3674,
      "{e": 3675,
      "{n": 3676,
      "##+f": 3677,
      "##dS": 3678,
      "##scal": 3679,
      "##~.\\label{": 3680,
      "##.6": 3681,
      "##ar}": 3682,
      "##^2)}": 3683,
      "##=\\alpha": 3684,
      "##^{(i": 3685,
      "##^+}": 3686,
      "##)}{2": 3687,
      "##(a)": 3688,
      "0.\\label{": 3689,
      "dk": 3690,
      "##+j": 3691,
      "##\\le": 3692,
      "##p)": 3693,
      "##pt}": 3694,
      "##{\\widetilde": 3695,
      "##^{L": 3696,
      "##}{\\bar": 3697,
      "##picture": 3698,
      "##(1-x": 3699,
      "##}^{\\beta": 3700,
      "##}\\int_0": 3701,
      "##}}{2": 3702,
      "##|\\Psi": 3703,
      "1{": 3704,
      "14": 3705,
      "W}": 3706,
      "\\ge": 3707,
      "\\,\\,\\,": 3708,
      "l}": 3709,
      "##=-\\frac{": 3710,
      "##(8": 3711,
      "##0&": 3712,
      "##_{\\psi": 3713,
      "##_1\\cdots": 3714,
      "##_{1,2}": 3715,
      "##}=\\frac{1}{2}\\": 3716,
      "##}_{\\pm": 3717,
      "##}{2})": 3718,
      "##(t)=": 3719,
      "##}-{\\bf": 3720,
      "##}\\right\\rangle": 3721,
      "z_2": 3722,
      "##ation": 3723,
      "##32": 3724,
      "##+v": 3725,
      "##.2}": 3726,
      "##'=": 3727,
      "##')\\": 3728,
      "##{\\epsilon": 3729,
      "##{\\displaystyle": 3730,
      "##lash": 3731,
      "{\\overline": 3732,
      "##-\\Lambda": 3733,
      "##+\\nu": 3734,
      "##\\right),": 3735,
      "##i\\int": 3736,
      "##_{1,": 3737,
      "##_{12}\\": 3738,
      "##\\theta}": 3739,
      "##_{23": 3740,
      "##^+)": 3741,
      "\\mbox{for": 3742,
      "(J": 3743,
      "-2\\": 3744,
      "##b}}": 3745,
      "##\\}.": 3746,
      "##har": 3747,
      "##;q": 3748,
      "##^{6": 3749,
      "##^2x": 3750,
      "##beta}}": 3751,
      "##}{\\sigma": 3752,
      "=\\delta": 3753,
      "\\Big)": 3754,
      "##_{-\\infty}^\\infty": 3755,
      "##longrightarrow}": 3756,
      "+{\\cal": 3757,
      "##{Q": 3758,
      "##\\ge": 3759,
      "##|s": 3760,
      "##+\\sqrt{": 3761,
      "##}_{12}": 3762,
      "##(n)": 3763,
      "(1-": 3764,
      "##rcl": 3765,
      "12}": 3766,
      "d\\rho": 3767,
      "##_m}": 3768,
      "##\\mp": 3769,
      "##der": 3770,
      "##,j}": 3771,
      "##'})": 3772,
      "##|y": 3773,
      "##tic": 3774,
      "##mu}": 3775,
      "\\label{I": 3776,
      "##)\\rightarrow": 3777,
      "##-\\bar": 3778,
      "##-\\kappa": 3779,
      "\\frac{x": 3780,
      "##\\,d": 3781,
      "##}=g": 3782,
      "##}^k": 3783,
      "##,\\label{eq": 3784,
      "##}\\frac{1}{\\": 3785,
      "\\exp\\left(": 3786,
      "##,z)": 3787,
      "_{ij": 3788,
      "A_1": 3789,
      "L}=": 3790,
      "Q}": 3791,
      "^i": 3792,
      "y)": 3793,
      "##ac}": 3794,
      "##ve}": 3795,
      "##/l": 3796,
      "##_{ma": 3797,
      "##lat": 3798,
      "##}{T": 3799,
      "\\label{q": 3800,
      "##}(-1)": 3801,
      "\\partial_z": 3802,
      "##\\left(x": 3803,
      "##_{kl": 3804,
      "##}\\overline{\\": 3805,
      "\\widetilde": 3806,
      "##\\sqrt": 3807,
      "##bullet": 3808,
      "\\Rightarrow": 3809,
      "d\\xi": 3810,
      "y}": 3811,
      "{A": 3812,
      "##lu": 3813,
      "##17}": 3814,
      "##tex": 3815,
      "##,C": 3816,
      "##n^2": 3817,
      "##_{{\\bf": 3818,
      "##_{(2)}": 3819,
      "##(\\pm": 3820,
      "##,\\pm": 3821,
      "\\label{7": 3822,
      "{\\dot": 3823,
      "\\frac{q": 3824,
      "##}^{ab": 3825,
      "##Delta}": 3826,
      "##_{1}^{2}": 3827,
      "##_{2}}": 3828,
      "\\sqrt{g": 3829,
      "##action": 3830,
      "##0~0~": 3831,
      "(3": 3832,
      "d\\varphi": 3833,
      "x_1": 3834,
      "##^-\\": 3835,
      "##~+~": 3836,
      "##.8": 3837,
      "##.4}": 3838,
      "##_{\\hat{": 3839,
      "##_{\\underline": 3840,
      "##_\\varphi": 3841,
      "##_2+": 3842,
      "##_{\\mu},": 3843,
      "\\partial_t": 3844,
      "##}^b": 3845,
      "\\gamma}": 3846,
      "\\begin{array}{c": 3847,
      "##-2k": 3848,
      "##_s^2": 3849,
      "}\\right]": 3850,
      "##(\\rho)": 3851,
      "##^{(N)}": 3852,
      "X}": 3853,
      "r^2}": 3854,
      "y^2": 3855,
      "##li": 3856,
      "##+{": 3857,
      "##ule": 3858,
      "##<j": 3859,
      "##_{{\\": 3860,
      "##_{in": 3861,
      "##}{t": 3862,
      "##(\\infty": 3863,
      "##-\\sqrt{": 3864,
      "##+\\phi": 3865,
      "##+\\int": 3866,
      "##+\\rho": 3867,
      "##}_{M": 3868,
      "\\,.\\label{": 3869,
      "\\choose": 3870,
      "\\phi_0": 3871,
      "##\\alpha\\beta": 3872,
      "##widehat{\\": 3873,
      "##&0\\\\0": 3874,
      "##energ": 3875,
      "##_{\\lambda}": 3876,
      "##)=\\sum_{n": 3877,
      "##en}": 3878,
      "##=n": 3879,
      "##^\\perp": 3880,
      "##_{V": 3881,
      "##th}": 3882,
      "##=\\left(\\": 3883,
      "##)\\times": 3884,
      "\\partial_-": 3885,
      "-\\int": 3886,
      "##}}\\left[": 3887,
      "##_{\\mu\\nu}=": 3888,
      "##}_{\\rho": 3889,
      "##(k_1": 3890,
      "\\omega^2": 3891,
      "##|\\Phi": 3892,
      "##^{\\mu\\nu\\rho": 3893,
      "##}{16": 3894,
      "##unc": 3895,
      "&\\": 3896,
      "[A": 3897,
      "_k": 3898,
      "c_1": 3899,
      "##=2\\": 3900,
      "##24": 3901,
      "##28": 3902,
      "##|g": 3903,
      "##CD": 3904,
      "##_{\\Gamma": 3905,
      "##,\\vec{": 3906,
      "##)\\Phi": 3907,
      "##}(l": 3908,
      "##)=0,": 3909,
      "##}_L": 3910,
      "##}^{\\dag": 3911,
      "##_{j+1}": 3912,
      "##_{-n": 3913,
      "##_{-\\infty}^{": 3914,
      "##dot{\\alpha}}": 3915,
      "S}}": 3916,
      "[d": 3917,
      "a_n": 3918,
      "##18}": 3919,
      "##^0)": 3920,
      "##m^2}": 3921,
      "##z_1": 3922,
      "##stan": 3923,
      "##p}}": 3924,
      "##p})": 3925,
      "##{\\frac{1}{": 3926,
      "##^{g": 3927,
      "##ing}": 3928,
      "{\\displaystyle": 3929,
      "##}{\\hat": 3930,
      "##(x,t": 3931,
      "(\\Delta": 3932,
      "\\delta_{ij}": 3933,
      "##}^I": 3934,
      "##}(\\omega": 3935,
      "\\frac{\\beta": 3936,
      "##_a}": 3937,
      "\\gamma_5": 3938,
      "##_{++": 3939,
      "##\\left(\\frac{\\": 3940,
      "##},t)": 3941,
      "O}_{": 3942,
      "##(-1": 3943,
      "##\\vec{\\": 3944,
      "##M}}": 3945,
      "##p_1": 3946,
      "##}\\mid": 3947,
      "##}{|": 3948,
      "\\label{V": 3949,
      "##)\\int": 3950,
      "##-\\tilde{": 3951,
      "##}(E": 3952,
      "##}{\\Lambda": 3953,
      "##^{\\mu}_{": 3954,
      "\\frac{\\sqrt{": 3955,
      "##Omega}": 3956,
      "##(z,\\bar{z": 3957,
      "##^\\prime}": 3958,
      "##(D-2": 3959,
      "##III": 3960,
      "##){\\line": 3961,
      "##diag": 3962,
      "\\tan": 3963,
      "q_i": 3964,
      "##13": 3965,
      "##-6": 3966,
      "##,i}": 3967,
      "##p+1}": 3968,
      "##x_0": 3969,
      "##/N": 3970,
      "##}{dx": 3971,
      "##)}+": 3972,
      "##}(P": 3973,
      "##_{i,j": 3974,
      "##\\;=\\;": 3975,
      "\\partial_j": 3976,
      "##\\partial_i": 3977,
      "##}\\,{": 3978,
      "##}_{\\dot": 3979,
      "##_{2}^{2}": 3980,
      "\\label{eq:}": 3981,
      "\\right],": 3982,
      "##d\\varphi": 3983,
      "##^{\\dagger}_{": 3984,
      "##\\frac{\\pi": 3985,
      "\\!\\!\\!": 3986,
      "##^{mn": 3987,
      "##e^{-\\beta": 3988,
      "##star}": 3989,
      "\\ddots": 3990,
      "(H": 3991,
      "0)": 3992,
      "ln": 3993,
      "m_2": 3994,
      "}({\\bf": 3995,
      "##=g": 3996,
      "##)a": 3997,
      "##\\not": 3998,
      "##f_1": 3999,
      "##Q^2": 4000,
      "##{\\kappa": 4001,
      "##}\\oint": 4002,
      "##leftarrow": 4003,
      "##left\\{\\": 4004,
      "##=\\eta": 4005,
      "##det}": 4006,
      "##}{\\kappa": 4007,
      "##_{ik}": 4008,
      "##\\,=\\,": 4009,
      "##2\\kappa": 4010,
      "##\\phi}": 4011,
      "##_{k}}": 4012,
      "=\\frac{\\": 4013,
      "##\\,\\delta": 4014,
      "##4\\pi^2": 4015,
      "##}\\left(\\begin{array}{": 4016,
      "\\frac{i}{2}": 4017,
      "##and}": 4018,
      "##arctan": 4019,
      "-g": 4020,
      "2}\\right)": 4021,
      "^2\\": 4022,
      "p_1": 4023,
      "r_0": 4024,
      "##bi": 4025,
      "##\\}=": 4026,
      "##~,\\label{": 4027,
      "##N^2": 4028,
      "##[\\alpha": 4029,
      "##{\\psi": 4030,
      "##{\\frac{1}{2}": 4031,
      "##_{\\tilde{": 4032,
      "##oten": 4033,
      "##varpi": 4034,
      "##}^T": 4035,
      "##}(\\gamma": 4036,
      "##)=\\delta": 4037,
      "##(t)\\": 4038,
      "+\\frac{1}{2}": 4039,
      "##\\right>": 4040,
      "##for}": 4041,
      "##_{i=1}^N": 4042,
      "\\sum_{\\": 4043,
      "\\int_{0}^{": 4044,
      "(h": 4045,
      "##l}}": 4046,
      "##-\\pi": 4047,
      "##r}}": 4048,
      "##\\vartheta": 4049,
      "##,~": 4050,
      "##hy": 4051,
      "##}\\Theta": 4052,
      "##^{{\\rm": 4053,
      "##^2}{\\partial": 4054,
      "##}{{": 4055,
      "{\\textstyle": 4056,
      "##)\\otimes": 4057,
      "##}^{m": 4058,
      "##_i=": 4059,
      "##}{\\nu": 4060,
      "##ect": 4061,
      "##\\mu\\nu": 4062,
      "##^2).": 4063,
      "##underbrace": 4064,
      "\\ldots,": 4065,
      "##_{\\sigma}": 4066,
      "##vee": 4067,
      "##fiel": 4068,
      "(v": 4069,
      "(c": 4070,
      "H^2": 4071,
      "##),\\quad": 4072,
      "##i}{2}\\": 4073,
      "##dd": 4074,
      "##,S": 4075,
      "##x)": 4076,
      "##&-1": 4077,
      "##-\\bar{": 4078,
      "##-\\varepsilon": 4079,
      "##}^c": 4080,
      "##}(\\mu": 4081,
      "##}(\\rho": 4082,
      "##}(x,y)": 4083,
      "##^{1\\over": 4084,
      "##(k)}": 4085,
      "##}\\partial_\\mu": 4086,
      "##ren": 4087,
      "##^{n+1}": 4088,
      "##\\in\\Delta": 4089,
      "\\left(\\begin{array}{c}": 4090,
      "(b": 4091,
      "+{": 4092,
      "+{1\\over": 4093,
      "##{C": 4094,
      "##-H": 4095,
      "##&\\": 4096,
      "##^{\\dot{": 4097,
      "##\\pm}": 4098,
      "##-\\infty": 4099,
      "##-\\cos": 4100,
      "##}(L": 4101,
      "##}_B": 4102,
      "##i\\delta": 4103,
      "\\frac{\\kappa": 4104,
      "\\theta}": 4105,
      "##mathcal{O": 4106,
      "##ree}": 4107,
      "##(a,b": 4108,
      "##ens": 4109,
      "##\\sum_{n": 4110,
      "##(0,0)": 4111,
      "\\sum_{l": 4112,
      "(l": 4113,
      "(G": 4114,
      "A^\\mu": 4115,
      "det}": 4116,
      "##ef": 4117,
      "##-G": 4118,
      "##g)": 4119,
      "##=x": 4120,
      "##rbrack": 4121,
      "##+y": 4122,
      "##]=\\int": 4123,
      "##|p": 4124,
      "##F_{\\mu\\nu": 4125,
      "##}{e": 4126,
      "##-\\hat{": 4127,
      "##}(v": 4128,
      "##+\\tilde{": 4129,
      "##}_{I": 4130,
      "\\left\\{\\": 4131,
      "##-1/2}": 4132,
      "##}_N": 4133,
      "##}(\\eta": 4134,
      "^{+": 4135,
      "##}^{\\ast": 4136,
      "##}\\;\\;": 4137,
      "##},\\qquad": 4138,
      "\\label{3.1": 4139,
      "##,p)": 4140,
      "##(X)": 4141,
      "##.00,": 4142,
      "({": 4143,
      "[a": 4144,
      "\\matrix{": 4145,
      "f_1": 4146,
      "##\\ne": 4147,
      "##ddot": 4148,
      "##c}}": 4149,
      "##/2\\": 4150,
      "##[\\Phi": 4151,
      "##^{q": 4152,
      "##^{'}": 4153,
      "##,\\zeta": 4154,
      "##}{\\omega": 4155,
      "\\partial_+": 4156,
      "\\left(1": 4157,
      "##}_R": 4158,
      "##=0\\": 4159,
      "^{a": 4160,
      "^{ab": 4161,
      "##bar{\\theta": 4162,
      "##0,0": 4163,
      "##form}": 4164,
      "(w": 4165,
      "(U": 4166,
      "-3": 4167,
      "\\mapsto": 4168,
      "k_1": 4169,
      "{a": 4170,
      "|x": 4171,
      "##{X": 4172,
      "##-X": 4173,
      "##-m}": 4174,
      "##.5}": 4175,
      "##AC": 4176,
      "##}\\nu": 4177,
      "##=\\left[": 4178,
      "##i\\theta": 4179,
      "-\\delta": 4180,
      "-\\frac{1}{2}\\": 4181,
      "##^-)": 4182,
      "##^\\prime)": 4183,
      "##usy": 4184,
      "##vec{x})": 4185,
      "##}^{\\dagger}": 4186,
      "\\frac12": 4187,
      "\\alpha^2": 4188,
      "D_{\\mu": 4189,
      "L}_{\\rm": 4190,
      "\\label": 4191,
      "_\\alpha": 4192,
      "##-5": 4193,
      "##==": 4194,
      "##=k": 4195,
      "##i}}": 4196,
      "##,m}": 4197,
      "##,n}": 4198,
      "##sc": 4199,
      "##sup": 4200,
      "##]\\label{": 4201,
      "##[D": 4202,
      "\\label{8": 4203,
      "\\frac{c": 4204,
      "\\frac{2}": 4205,
      "##}(f": 4206,
      "##}))": 4207,
      "##+1\\right)": 4208,
      "##&0\\cr": 4209,
      "##dx^i": 4210,
      "##_1,...": 4211,
      "+1)": 4212,
      "##=\\left(\\begin{array}{cc}": 4213,
      "##=0,1,2": 4214,
      "K}": 4215,
      "[J": 4216,
      "|\\psi": 4217,
      "##ation}": 4218,
      "##19}": 4219,
      "##.c.": 4220,
      "##G}}": 4221,
      "##_{(2": 4222,
      "##^2-1)": 4223,
      "##_{\\tilde": 4224,
      "##=\\mu": 4225,
      "##\\partial_{\\mu": 4226,
      "##}\\,.\\label{": 4227,
      "\\phi^2": 4228,
      "##dot{x": 4229,
      "##~~~~~~": 4230,
      "d^{2}x": 4231,
      "(V": 4232,
      "C_2": 4233,
      "\\end{array}\\right.": 4234,
      "_j": 4235,
      "x_2": 4236,
      "{M": 4237,
      "##(Y": 4238,
      "##,V": 4239,
      "##Y}": 4240,
      "##H_0": 4241,
      "##_{{": 4242,
      "##(\\sqrt{": 4243,
      "\\label{de": 4244,
      "{\\widetilde": 4245,
      "##_1)}": 4246,
      "##\\over{": 4247,
      "##}\\right)\\label{": 4248,
      "##\\right)\\right]": 4249,
      "(\\Phi": 4250,
      "\\phi_i": 4251,
      "\\psi_1": 4252,
      "##(x)]": 4253,
      "##-\\frac{3": 4254,
      "\\sqrt{2": 4255,
      "##comp": 4256,
      "##(A)": 4257,
      "##({\\vec": 4258,
      "and}": 4259,
      "(4": 4260,
      "+i\\": 4261,
      "H}}": 4262,
      "n_1": 4263,
      "##=i": 4264,
      "##+O": 4265,
      "##RS": 4266,
      "##56": 4267,
      "##(\\varepsilon": 4268,
      "\\label{K": 4269,
      "\\frac{R": 4270,
      "##}^{3}": 4271,
      "##}_q": 4272,
      "##}_D": 4273,
      "\\phi_1": 4274,
      "\\lambda^2": 4275,
      "##^i,": 4276,
      "}\\int": 4277,
      "##^{-1}\\partial": 4278,
      "##\\Bigg": 4279,
      "d^{3}": 4280,
      "(0)": 4281,
      "+m": 4282,
      "-k": 4283,
      "\\textrm{": 4284,
      "dv": 4285,
      "##^g": 4286,
      "##^F": 4287,
      "##+2\\pi": 4288,
      "##small": 4289,
      "##';": 4290,
      "##}{f": 4291,
      "##^{\\frac{1}{": 4292,
      "\\label{W": 4293,
      "{\\omega": 4294,
      "##-\\,": 4295,
      "##_{i_1": 4296,
      "##}_s": 4297,
      "##}}\\right]": 4298,
      "=\\frac": 4299,
      "dx^\\mu": 4300,
      "dx^\\nu": 4301,
      "\\nabla^2": 4302,
      "}{2}": 4303,
      "##e^{\\frac{": 4304,
      "##-\\frac{\\pi": 4305,
      "##,\\,\\,\\,\\,\\,\\,\\,\\": 4306,
      "##^{\\beta}": 4307,
      "diag": 4308,
      "\\underline{": 4309,
      "dp": 4310,
      "f_2": 4311,
      "n_2": 4312,
      "x^{\\mu": 4313,
      "{\\psi": 4314,
      "##arallel": 4315,
      "##32}": 4316,
      "##-T": 4317,
      "##gn": 4318,
      "##xx": 4319,
      "##\\parallel": 4320,
      "{\\rho": 4321,
      "##)\\Delta": 4322,
      "##}(i": 4323,
      "##}_{B": 4324,
      "\\\\\\\\": 4325,
      "##\\partial_z": 4326,
      "_{-": 4327,
      "##)={1\\over": 4328,
      "\\phi^i": 4329,
      "##(z,\\bar": 4330,
      "##\\rangle=": 4331,
      "##sin\\theta": 4332,
      "##^2-m": 4333,
      "\\label{4.1": 4334,
      "&&": 4335,
      "[x": 4336,
      "or": 4337,
      "p_2": 4338,
      "##bc": 4339,
      "##e}^{": 4340,
      "##-R": 4341,
      "##_5}": 4342,
      "##d\\sigma": 4343,
      "##,Z": 4344,
      "##ct}": 4345,
      "##>0}": 4346,
      "##}\\frac": 4347,
      "##}{s": 4348,
      "##,\\tilde{": 4349,
      "##}}%": 4350,
      "##}}.\\label{": 4351,
      "##=\\lambda": 4352,
      "##=\\langle": 4353,
      "##}(h": 4354,
      "##+\\!": 4355,
      "##+\\bar{\\": 4356,
      "##2}\\left(": 4357,
      "##_3,": 4358,
      "##cccc}": 4359,
      "dx^i": 4360,
      "##,x_2": 4361,
      "\\bar\\theta": 4362,
      "##)^{d": 4363,
      "\\frac{d^2": 4364,
      "##pt]": 4365,
      "##_{\\rho}": 4366,
      "##,q)": 4367,
      "##(\\vec{x": 4368,
      "0|": 4369,
      "g_{\\mu\\nu": 4370,
      "v^2": 4371,
      "##(7": 4372,
      "##\\simeq": 4373,
      "##d^4": 4374,
      "##.6}": 4375,
      "##A_i": 4376,
      "##}\\star": 4377,
      "##_{\\delta": 4378,
      "\\label{z": 4379,
      "\\partial^2": 4380,
      "##mathsf": 4381,
      "(\\varphi": 4382,
      "##}(\\Phi": 4383,
      "##(z_1": 4384,
      "/2": 4385,
      "##31}": 4386,
      "##-P": 4387,
      "##(i\\": 4388,
      "##^0,": 4389,
      "##mon": 4390,
      "##.9": 4391,
      "##ym": 4392,
      "##|\\tau": 4393,
      "##{\\hbar": 4394,
      "##_{\\hat{\\": 4395,
      "##right\\}": 4396,
      "##(\\frac{1}{": 4397,
      "##^{\\hat": 4398,
      "##}_{s": 4399,
      "##^\\ell": 4400,
      "##^{(0)": 4401,
      "_{p": 4402,
      "##2\\beta": 4403,
      "\\frac{\\Gamma": 4404,
      "##}=\\frac": 4405,
      "##}(x),": 4406,
      "##/2}}": 4407,
      "##}^2)": 4408,
      "\\rho^2": 4409,
      "##}\\int\\limits": 4410,
      "\\Bigr)": 4411,
      "##(-i": 4412,
      "\\kappa^2": 4413,
      "##\\left\\{\\": 4414,
      "##box{": 4415,
      "##-\\frac{1}{4}": 4416,
      "##-p)": 4417,
      "##}\\left.": 4418,
      "##^{AB}": 4419,
      "##circle": 4420,
      "-p": 4421,
      "wi": 4422,
      "x,": 4423,
      "##g^2}": 4424,
      "##_Y": 4425,
      "##^u": 4426,
      "##^1}": 4427,
      "##+e": 4428,
      "##\\frac{1}{2}\\": 4429,
      "##~,\\\\": 4430,
      "##perp": 4431,
      "##k})": 4432,
      "##_{N}": 4433,
      "##)\\epsilon": 4434,
      "##}^{1}": 4435,
      "##_{n})": 4436,
      "##}(\\hat{": 4437,
      "\\frac{\\theta": 4438,
      "##e^{2\\pi": 4439,
      "+\\frac{\\": 4440,
      "##_5^2": 4441,
      "##}\\Bigr": 4442,
      "##=0}^{n": 4443,
      "##(v)": 4444,
      "##}{\\hbar}": 4445,
      "##^{(j)}": 4446,
      "##otential": 4447,
      "H_0": 4448,
      "\\put": 4449,
      "i,j": 4450,
      "##-S": 4451,
      "##-{\\cal": 4452,
      "##=r": 4453,
      "##=p": 4454,
      "##\\mathbf{": 4455,
      "##\\hbox{": 4456,
      "##'\\,": 4457,
      "##[f": 4458,
      "##[C": 4459,
      "##_{s}": 4460,
      "\\frac{1": 4461,
      "##}^{r": 4462,
      "##}^{0": 4463,
      "##+\\Gamma": 4464,
      "##}{\\phi": 4465,
      "##\\,,\\qquad": 4466,
      "##^{(0": 4467,
      "\\frac{\\omega": 4468,
      "##Psi}": 4469,
      "##_{j}}": 4470,
      "\\Big]": 4471,
      "##_{3}}": 4472,
      "##[\\varphi": 4473,
      "##_{eff}": 4474,
      "\\biggl": 4475,
      "-\\frac{1}{4}": 4476,
      "##\\bigr": 4477,
      "A_{\\mu}": 4478,
      "L_0": 4479,
      "[L": 4480,
      "eff}": 4481,
      "##b^2": 4482,
      "##}_{\\mu": 4483,
      "##-K": 4484,
      "##ter": 4485,
      "##)^{1/2}": 4486,
      "##,r)": 4487,
      "##c_2": 4488,
      "##]=-": 4489,
      "##|q": 4490,
      "##/r": 4491,
      "##5em": 4492,
      "##{\\xi": 4493,
      "##}\\pm": 4494,
      "##^{R": 4495,
      "##_{\\bot": 4496,
      "\\label{re": 4497,
      "##^{-n": 4498,
      "##}_{j}": 4499,
      "##}={\\cal": 4500,
      "\\cr}": 4501,
      "##)=0.": 4502,
      "##2\\gamma": 4503,
      "##_{nm}": 4504,
      "-\\lambda": 4505,
      "##\\\\\\": 4506,
      "##(z-w": 4507,
      "##tor}": 4508,
      "\\Big[": 4509,
      "(1+": 4510,
      "##\\int\\limits": 4511,
      "##\\sqrt{-g": 4512,
      "##(\\alpha)": 4513,
      "##_{M}": 4514,
      "##\\sb": 4515,
      "##\\Bigl": 4516,
      "##,\\theta)": 4517,
      "##}\\biggr": 4518,
      "\\sum_{a": 4519,
      "-x": 4520,
      "1/2": 4521,
      "A'": 4522,
      "[D": 4523,
      "dr^2": 4524,
      "e^2": 4525,
      "##a)": 4526,
      "##v^2": 4527,
      "##mn}": 4528,
      "##,H": 4529,
      "##RE": 4530,
      "##{\\Phi": 4531,
      "##{\\mathcal{": 4532,
      "##_{7": 4533,
      "##}\\kappa": 4534,
      "##^{z": 4535,
      "##}{}^{\\": 4536,
      "##}^{i}": 4537,
      "##_2)^2": 4538,
      "##}).\\label{": 4539,
      "##+1,": 4540,
      "##^i)": 4541,
      "##(2k": 4542,
      "##_+)": 4543,
      "##rcl}": 4544,
      "##\\left.": 4545,
      "##(\\vec{x}": 4546,
      "##}_{\\nu}": 4547,
      "0,\\label{": 4548,
      "16\\pi": 4549,
      "^3": 4550,
      "_3": 4551,
      "m_1": 4552,
      "##ase": 4553,
      "##34": 4554,
      "##_1}{\\": 4555,
      "##\\|": 4556,
      "##d^3": 4557,
      "##PS": 4558,
      "##A'": 4559,
      "##_{\\;": 4560,
      "{\\gamma": 4561,
      "##-\\Gamma": 4562,
      "\\frac{V": 4563,
      "##_0)}": 4564,
      "##}{\\left(": 4565,
      "##}{\\Gamma": 4566,
      "##^{(m)}": 4567,
      "\\left({": 4568,
      "##+1)}{": 4569,
      "##}_{\\lambda": 4570,
      "##^{2k": 4571,
      "##^{2n}": 4572,
      "##-1)!": 4573,
      "##\\gamma^\\mu": 4574,
      "-1)": 4575,
      "\\bigl": 4576,
      "##hbox{\\": 4577,
      "##)\\right|": 4578,
      "##}(\\tau)": 4579,
      "##.00){\\line": 4580,
      "##^{1/3}": 4581,
      "&\\\\": 4582,
      "-q": 4583,
      "u}": 4584,
      "{f": 4585,
      "##t}}": 4586,
      "##dv": 4587,
      "##,9": 4588,
      "##s)": 4589,
      "##her": 4590,
      "##n!": 4591,
      "##upsilon": 4592,
      "##|^2)": 4593,
      "##,\\Omega": 4594,
      "##^{\\frac": 4595,
      "\\label{pro": 4596,
      "##partial}": 4597,
      "##}^{(1": 4598,
      "##+\\tau": 4599,
      "##}_{n}": 4600,
      "##\\,,\\quad": 4601,
      "_{2": 4602,
      "_{i}": 4603,
      "##.\\label{a": 4604,
      "##_{k+1}": 4605,
      "\\frac{d^3": 4606,
      "##_{IJ}": 4607,
      "##)\\;.": 4608,
      "\\dot{x": 4609,
      "##^{\\frac{1}{2}}": 4610,
      "(\\psi": 4611,
      "F^2": 4612,
      "X^i": 4613,
      "d\\omega": 4614,
      "ma": 4615,
      "|\\phi": 4616,
      "##bra": 4617,
      "##g^{2}": 4618,
      "##rbrace": 4619,
      "##+u": 4620,
      "##\\infty}": 4621,
      "##cy": 4622,
      "##;z": 4623,
      "##LL": 4624,
      "##|{\\bf": 4625,
      "##}{V": 4626,
      "##_{\\!": 4627,
      "##=\\omega": 4628,
      "{\\phi": 4629,
      "##)\\eta": 4630,
      "##}(u)": 4631,
      "##(x'": 4632,
      "##)=1": 4633,
      "##}_r": 4634,
      "##}_p": 4635,
      "##.\\label{e": 4636,
      "##2\\pi^2": 4637,
      "##}_{\\underline{": 4638,
      "##_{00": 4639,
      "##\\,\\partial": 4640,
      "##_4^2": 4641,
      "##dx^\\mu": 4642,
      "##^{-1}\\": 4643,
      "##^{-1/2}\\": 4644,
      "##_{N-1}": 4645,
      "##^{2}\\,": 4646,
      "##\\stackrel{": 4647,
      "##\\propto": 4648,
      "##----": 4649,
      "%\\label{": 4650,
      "(j": 4651,
      "if": 4652,
      "l^2": 4653,
      "r_+": 4654,
      "##-p}": 4655,
      "##(dx": 4656,
      "##+F": 4657,
      "##+m}": 4658,
      "##,f": 4659,
      "##,&": 4660,
      "##j}}": 4661,
      "##sol": 4662,
      "##N-1}": 4663,
      "##]\\,": 4664,
      "##k^{2}": 4665,
      "##k}{(2\\pi": 4666,
      "##{\\Delta": 4667,
      "##_{q}": 4668,
      "##(\\bar{\\": 4669,
      "##,\\overline{": 4670,
      "##^{\\Delta": 4671,
      "\\label{ga": 4672,
      "##}}-": 4673,
      "##}(N": 4674,
      "##_{i}^{2}": 4675,
      "##(x,t)": 4676,
      "(\\vec{": 4677,
      "##}\\,,\\label{": 4678,
      "##\\left(1": 4679,
      "##(t)}": 4680,
      ",\\hspace{1": 4681,
      "\\hat{H": 4682,
      "##_{+})": 4683,
      "##^{abc": 4684,
      "##(s)}": 4685,
      "##_{\\rho\\sigma": 4686,
      "##8\\pi^2": 4687,
      "\\begin{array}{cccc}": 4688,
      "2i": 4689,
      "=1}": 4690,
      "\\triangle": 4691,
      "k})": 4692,
      "##-4}": 4693,
      "##=m": 4694,
      "##cur": 4695,
      "##'}^2": 4696,
      "##_{f}": 4697,
      "##_{L}": 4698,
      "##tag": 4699,
      "##^2)\\": 4700,
      "##}{u": 4701,
      "\\frac{A": 4702,
      "##+\\Delta": 4703,
      "##_2)\\": 4704,
      "_{+": 4705,
      "##_\\mu)": 4706,
      "##}}\\frac{": 4707,
      "##(z)}": 4708,
      "##{1\\over2}": 4709,
      "##-\\frac{d": 4710,
      "##0,1": 4711,
      "##_m,": 4712,
      "\\left(\\frac{\\": 4713,
      "##0.2": 4714,
      "##(R)": 4715,
      "##,\\tau)": 4716,
      "##^{(I)}": 4717,
      "##text{": 4718,
      "(K": 4719,
      ")\\,": 4720,
      "-a": 4721,
      "^{1": 4722,
      "}\\psi": 4723,
      "##b_0": 4724,
      "##-F": 4725,
      "##\\nonumber": 4726,
      "##flo": 4727,
      "##out": 4728,
      "##vspace": 4729,
      "##,~~": 4730,
      "##S_0": 4731,
      "##])": 4732,
      "##k_1": 4733,
      "##_{,": 4734,
      "##}\\in": 4735,
      "##^{8": 4736,
      "##,\\hat": 4737,
      "##,\\Gamma": 4738,
      "##^{\\hat{": 4739,
      "##de}": 4740,
      "##}(1-": 4741,
      "##^{-3": 4742,
      "##}_{m}": 4743,
      "##^{(m": 4744,
      "##}\\right)\\": 4745,
      "##-1)^2": 4746,
      "##}(\\varphi": 4747,
      "\\frac{\\Lambda": 4748,
      "##^a,": 4749,
      "##_{k=1}": 4750,
      "##(n+1)": 4751,
      "##cond": 4752,
      "##}+\\frac{1}{": 4753,
      "##dt^2+": 4754,
      "##)\\;,": 4755,
      "##(\\mu)": 4756,
      "\\int_0^1": 4757,
      "##\\overline{\\psi": 4758,
      "\\gg": 4759,
      "g_2": 4760,
      "g_s": 4761,
      "{r": 4762,
      "{q": 4763,
      "}\\label{": 4764,
      "##3.2": 4765,
      "##-Q": 4766,
      "##rule": 4767,
      "##)^n": 4768,
      "##^h": 4769,
      "##^0}": 4770,
      "##+V": 4771,
      "##ou": 4772,
      "##iel": 4773,
      "##,G": 4774,
      "##su": 4775,
      "##;t": 4776,
      "##k'": 4777,
      "##|\\alpha": 4778,
      "##5.1": 4779,
      "##$$": 4780,
      "##_{B}": 4781,
      "##_{z}": 4782,
      "##_{R}": 4783,
      "##(\\mathbf{": 4784,
      "##^{\\;": 4785,
      "##=\\phi": 4786,
      "##}^{p": 4787,
      "##}^{I": 4788,
      "##+\\ldots": 4789,
      "##_2)}": 4790,
      "##mathop": 4791,
      "-\\left(": 4792,
      "##,\\label{a": 4793,
      "##=0.\\label{": 4794,
      "##^4)": 4795,
      "##nabla}": 4796,
      "##|\\vec{": 4797,
      "\\exp\\left[": 4798,
      "##matrix}": 4799,
      "##(y)\\": 4800,
      "##mbox{\\tiny": 4801,
      "##_{\\tau}": 4802,
      "const": 4803,
      ")\\label{": 4804,
      "=2": 4805,
      "H}_{": 4806,
      "[X": 4807,
      "\\imath": 4808,
      "g^{\\mu": 4809,
      "x'": 4810,
      "z^2": 4811,
      "{N": 4812,
      "##_f}": 4813,
      "##val": 4814,
      "##ddot{": 4815,
      "##z^2": 4816,
      "##2.2": 4817,
      "##.\\end{array}": 4818,
      "##lap": 4819,
      "##ary": 4820,
      "##phy": 4821,
      "##_{\\mbox{": 4822,
      "##(\\vartheta": 4823,
      "##=\\gamma": 4824,
      "##)\\chi": 4825,
      "##}_{a}": 4826,
      "##})^{-1}": 4827,
      "\\;\\;\\;\\;": 4828,
      "##}_l": 4829,
      "##^{\\mu},": 4830,
      "(\\bar": 4831,
      "##=0,\\quad": 4832,
      "##gene": 4833,
      "##_{01}": 4834,
      "##,\\;\\;\\;\\;": 4835,
      "##,1,1": 4836,
      "##=\\sum_{n": 4837,
      "##)\\right\\}": 4838,
      "##ongrightarrow": 4839,
      "##makebox(0,0)": 4840,
      "\\int_{-": 4841,
      "={": 4842,
      "\\|": 4843,
      "~+~": 4844,
      "##ea": 4845,
      "##18": 4846,
      "##_Z": 4847,
      "##_U": 4848,
      "##=e": 4849,
      "##^E": 4850,
      "##q}}": 4851,
      "##ix": 4852,
      "##,{\\cal": 4853,
      "##,~~~": 4854,
      "##z}}": 4855,
      "##NO": 4856,
      "##/k": 4857,
      "##AR": 4858,
      "##_{\\chi": 4859,
      "##,\\kappa": 4860,
      "##alpha}}": 4861,
      "##-\\zeta": 4862,
      "\\frac{f": 4863,
      "##}_{~": 4864,
      "_{m": 4865,
      "\\frac{\\hbar": 4866,
      "-\\sum": 4867,
      "##_{13": 4868,
      "##sin^2\\theta": 4869,
      "##displaystyle\\frac{": 4870,
      "##=1}^{N}": 4871,
      "##-3)": 4872,
      "(p)": 4873,
      "\\label{Eq": 4874,
      "##large": 4875,
      "+g": 4876,
      ",\\,": 4877,
      "A}}": 4878,
      "A_j": 4879,
      "D^2": 4880,
      "N^2": 4881,
      "\\varrho": 4882,
      "\\tanh": 4883,
      "\\atop": 4884,
      "}\\frac{": 4885,
      "##-L": 4886,
      "##\\end{array}\\right": 4887,
      "##x_2": 4888,
      "##;\\quad": 4889,
      "##|l": 4890,
      "##R}}": 4891,
      "##[L": 4892,
      "##[{\\cal": 4893,
      "##{\\hat{": 4894,
      "##_{t}": 4895,
      "\\label{Q": 4896,
      "##alpha'": 4897,
      "\\frac{L": 4898,
      "##}(D": 4899,
      "##_\\Gamma": 4900,
      "##ngth": 4901,
      "\\\\\\end{array}\\right)": 4902,
      "(\\vec": 4903,
      "\\phi)": 4904,
      "-\\sigma": 4905,
      "##)^2-": 4906,
      "##Bigg": 4907,
      "##_{A}": 4908,
      "\\prod_{i": 4909,
      "##\\qquad\\qquad": 4910,
      "##{q}})": 4911,
      "##-1}{2}": 4912,
      "##[\\phi]": 4913,
      "##check{": 4914,
      "##[\\xi|s": 4915,
      "2})": 4916,
      "=\\,": 4917,
      "[{\\cal": 4918,
      "k_2": 4919,
      "v}": 4920,
      "x_j": 4921,
      "##a_0": 4922,
      "##-~": 4923,
      "##=A": 4924,
      "##=T": 4925,
      "##={\\cal": 4926,
      "##={\\rm": 4927,
      "##ob": 4928,
      "##ction}": 4929,
      "##ns": 4930,
      "##/R": 4931,
      "##C_1": 4932,
      "##J_1": 4933,
      "##^{S": 4934,
      "##mass}": 4935,
      "##_{\\vec": 4936,
      "\\label{int": 4937,
      "##}(e": 4938,
      "##+\\varepsilon": 4939,
      "##}{\\tilde": 4940,
      "_{j}": 4941,
      "\\frac{1}{3}": 4942,
      "##Bigl": 4943,
      "##}_{\\gamma": 4944,
      "##_a)": 4945,
      "##mil": 4946,
      "##(t-t": 4947,
      "\\theta)": 4948,
      "\\{Q": 4949,
      "##})\\right]": 4950,
      "##}{16\\pi": 4951,
      "##act}": 4952,
      "##\\!\\!\\!\\!": 4953,
      "##com": 4954,
      "##charge": 4955,
      "##_{i=1}^{n": 4956,
      "##\\frac{d}{d": 4957,
      "##dual": 4958,
      "##metric": 4959,
      "\\sum_{p": 4960,
      ".\\end{array}": 4961,
      "2,": 4962,
      "T_{\\mu": 4963,
      "phy": 4964,
      "##35": 4965,
      "##+Q": 4966,
      "##!\\!": 4967,
      "##se}": 4968,
      "##S}}": 4969,
      "##EN": 4970,
      "##AN": 4971,
      "##A_{\\nu": 4972,
      "##{\\tau": 4973,
      "##_{D}": 4974,
      "##^{K": 4975,
      "##_{\\varepsilon": 4976,
      "\\label{u": 4977,
      "##=\\sigma": 4978,
      "##)\\exp": 4979,
      "##}(d": 4980,
      "##}(B": 4981,
      "##}{\\sqrt{2}": 4982,
      "##Lambda}": 4983,
      "\\phi_2": 4984,
      "\\frac{\\rho": 4985,
      "\\ll": 4986,
      "##-2)}": 4987,
      "##_{ij}}": 4988,
      "\\frac{d^4": 4989,
      "##ity}": 4990,
      "##l(l": 4991,
      "\\frac{\\delta}{\\delta": 4992,
      "##{\\mu}{\\nu": 4993,
      "##}\\!\\!": 4994,
      "##|0>": 4995,
      "##_{\\Sigma}": 4996,
      "##^{(\\pm)}": 4997,
      "2n": 4998,
      "6}": 4999,
      "c^2": 5000,
      "d{\\bf": 5001,
      "dim": 5002,
      "##bound": 5003,
      "##g_{\\mu\\nu": 5004,
      "##g_{\\mu\\nu}": 5005,
      "##+L": 5006,
      "##op}": 5007,
      "##,e": 5008,
      "##z_0": 5009,
      "##60": 5010,
      "##}\\dot": 5011,
      "##}{6}": 5012,
      "##um}": 5013,
      "##}^N": 5014,
      "-\\beta": 5015,
      "##^a)": 5016,
      "##exp}": 5017,
      "##_{j})": 5018,
      "##(x).": 5019,
      "##e^{-\\frac{": 5020,
      "##biggl": 5021,
      "##(u,v": 5022,
      "##}\\circ": 5023,
      "##~,~~~": 5024,
      "##\\cos\\theta": 5025,
      "##(\\omega)": 5026,
      "##)^3}": 5027,
      "##)^4}": 5028,
      "##&&&&": 5029,
      "\\overline{\\psi": 5030,
      "##^{\\ast}": 5031,
      "(Z": 5032,
      "(4\\pi": 5033,
      "(r)": 5034,
      "V(\\phi": 5035,
      "X^{\\mu": 5036,
      "\\tag": 5037,
      "ab": 5038,
      "dq": 5039,
      "p)": 5040,
      "{D": 5041,
      "##of": 5042,
      "##|e": 5043,
      "##{\\nu": 5044,
      "##}\\dot{\\": 5045,
      "##}{8}": 5046,
      "##met}": 5047,
      "\\frac{l": 5048,
      "\\frac{B": 5049,
      "##^{(D": 5050,
      "##~~.": 5051,
      "_{ab": 5052,
      "(\\Lambda": 5053,
      "##^a_i": 5054,
      "##0.4": 5055,
      "\\cr0": 5056,
      "##cond}": 5057,
      "##ute": 5058,
      "2\\pi}": 5059,
      "##(\\beta)": 5060,
      "##mbox{\\boldmath$": 5061,
      "(q)": 5062,
      ",\\;": 5063,
      "2m": 5064,
      "m^{2}": 5065,
      "r)": 5066,
      "##_\\pi": 5067,
      "##=d": 5068,
      "##\\mathrm{": 5069,
      "##\\widetilde{": 5070,
      "##,K": 5071,
      "##64": 5072,
      "##|a": 5073,
      "##[p": 5074,
      "##[\\gamma": 5075,
      "##H}}": 5076,
      "##align": 5077,
      "##_{\\Phi": 5078,
      "##ermi": 5079,
      "{\\theta": 5080,
      "\\frac{Q": 5081,
      "##+\\;": 5082,
      "##},p": 5083,
      "##Gamma}": 5084,
      "##}_I": 5085,
      "##}=\\frac{1}{2}": 5086,
      "##)=\\left(\\begin{array}{": 5087,
      "##}_{\\sigma": 5088,
      "##hspace*": 5089,
      "##cos\\theta": 5090,
      "##[\\hat{": 5091,
      "##}^{(i)}": 5092,
      "##2}{3}": 5093,
      "##{d\\over": 5094,
      "##ant": 5095,
      "\\pmatrix": 5096,
      "##kern-": 5097,
      "\\;\\;\\;\\;\\;\\;": 5098,
      "##raisebox{": 5099,
      "##[\\xi|s]": 5100,
      "1.": 5101,
      "\\rm": 5102,
      "x_\\mu": 5103,
      "|z": 5104,
      "##17": 5105,
      "##g_{\\mu": 5106,
      "##g^{-1}": 5107,
      "##+t": 5108,
      "##\\>": 5109,
      "##x\\,": 5110,
      "##6}}": 5111,
      "##P}}": 5112,
      "##CI": 5113,
      "##[Q": 5114,
      "##[\\frac{": 5115,
      "##{\\Omega": 5116,
      "##}\\dots": 5117,
      "##^{{": 5118,
      "##}{[": 5119,
      "##mass": 5120,
      "##right\\": 5121,
      "##^{\\mathrm{": 5122,
      "\\label{phi": 5123,
      "\\frac{T": 5124,
      "##\\partial^\\mu": 5125,
      "\\frac{1}{2\\pi": 5126,
      "##ex}": 5127,
      "##(1,0)": 5128,
      "##}}\\hat{": 5129,
      "##}^{\\left(": 5130,
      "=\\left(\\begin{array}{": 5131,
      "\\sqrt{1": 5132,
      "##}\\partial_{\\mu}": 5133,
      "##_{abc": 5134,
      "##^{-1}\\,": 5135,
      "##}\\,\\partial": 5136,
      "\\biggl(": 5137,
      ")=\\": 5138,
      "L^2": 5139,
      "c_2": 5140,
      "the": 5141,
      "x},": 5142,
      "|n": 5143,
      "##eft": 5144,
      "##+S": 5145,
      "##m_0": 5146,
      "##[4": 5147,
      "##F}}": 5148,
      "##{\\bar{": 5149,
      "##{\\sqrt": 5150,
      "##^{b}": 5151,
      "##^{\\phi": 5152,
      "{\\tau": 5153,
      "##)\\sigma": 5154,
      "##-\\varphi": 5155,
      "##_\\eta": 5156,
      "##}^{(n": 5157,
      "##frac{\\mu": 5158,
      "##varsigma": 5159,
      "##para": 5160,
      "\\partial_a": 5161,
      "_{r": 5162,
      "##)={": 5163,
      "(\\Gamma": 5164,
      "##.\\label{f": 5165,
      "##^3)": 5166,
      "^{i": 5167,
      "##^\\mu)": 5168,
      "##^i}": 5169,
      "##_{0}=": 5170,
      "=\\langle": 5171,
      "_{\\lambda": 5172,
      "##_1},": 5173,
      "##)}{d": 5174,
      "}\\left[": 5175,
      "##4\\pi}": 5176,
      "##_b}": 5177,
      "##)],": 5178,
      "\\hat{\\cal": 5179,
      "\\bar{\\psi}": 5180,
      "\\bigoplus": 5181,
      "##\\bar{\\psi": 5182,
      "##=-\\infty}^{\\infty}": 5183,
      "{1}{2}": 5184,
      "##[2mm]": 5185,
      "##|y|": 5186,
      "\\cal": 5187,
      "}\\phi": 5188,
      "##1)}": 5189,
      "##\\L": 5190,
      "##m_1": 5191,
      "##0]": 5192,
      "##2)": 5193,
      "##n'": 5194,
      "##non": 5195,
      "##D_{\\mu": 5196,
      "##D_m": 5197,
      "##erwi": 5198,
      "\\label{N": 5199,
      "\\label{ex": 5200,
      "##-\\vec": 5201,
      "##}{\\longrightarrow}": 5202,
      "\\\\\\end{array}": 5203,
      "\\partial_0": 5204,
      "##\\partial_t": 5205,
      "-\\gamma": 5206,
      "##_{1}\\cdots": 5207,
      "##\\phi^2": 5208,
      "##=0,\\label{": 5209,
      "##(z-z": 5210,
      "##}+{1\\over": 5211,
      "##mit": 5212,
      "##spin": 5213,
      "##_{\\nu\\rho": 5214,
      "##_-)": 5215,
      "##-x)": 5216,
      "\\mathcal{L": 5217,
      "##ian}": 5218,
      "##|x|": 5219,
      "(0": 5220,
      "(0,": 5221,
      "2}\\int": 5222,
      "L}{\\partial": 5223,
      "R_{12}": 5224,
      "T_2": 5225,
      "\\long": 5226,
      "{E": 5227,
      "{{\\cal": 5228,
      "##{S": 5229,
      "##_r}": 5230,
      "##=f": 5231,
      "##=\\pi": 5232,
      "##+&": 5233,
      "##+C": 5234,
      "##\\det": 5235,
      "##2\\right)": 5236,
      "##.8}": 5237,
      "##;g": 5238,
      "##]{": 5239,
      "##|^2}": 5240,
      "##^{-\\frac{1}{2}": 5241,
      "##tabu": 5242,
      "##max": 5243,
      "##(\\sum": 5244,
      "##int\\limits": 5245,
      "##}^{(a)}": 5246,
      "##+\\hat{": 5247,
      "##}_{q": 5248,
      "##\\,{\\rm": 5249,
      "##}\\right)^{2": 5250,
      "\\right)}": 5251,
      "##.\\label{p": 5252,
      "##_n^2": 5253,
      "-\\alpha": 5254,
      "##_{10": 5255,
      "##zeta}": 5256,
      "##}^2+": 5257,
      "##&0&1": 5258,
      "##\\delta}": 5259,
      "##^*}": 5260,
      "##)^{3/2}": 5261,
      "##}\\,\\delta": 5262,
      "##e^{\\phi": 5263,
      "##ch}": 5264,
      "_{ij}": 5265,
      "##_{[\\mu": 5266,
      "##^{(r)}": 5267,
      "\\sum_{\\alpha": 5268,
      "+O": 5269,
      "+\\left(": 5270,
      "Im}": 5271,
      "n^2": 5272,
      "##19": 5273,
      "##-C": 5274,
      "##r^2}{": 5275,
      "##)^{2": 5276,
      "##d^2": 5277,
      "##,0)}": 5278,
      "##26}": 5279,
      "##u^2": 5280,
      "##kl}": 5281,
      "##}{b": 5282,
      "##(\\Sigma": 5283,
      "##,\\vec{\\sigma": 5284,
      "##-\\Omega": 5285,
      "##_\\delta": 5286,
      "##}^{l": 5287,
      "##ad}": 5288,
      "##}=2\\": 5289,
      "##=0\\label{": 5290,
      "\\psi_2": 5291,
      "##}^{\\;": 5292,
      "\\begin{array}{c}\\": 5293,
      "\\epsilon}": 5294,
      "_{\\pm": 5295,
      "##^{(1)": 5296,
      "##acute": 5297,
      "e^{ik": 5298,
      "##_{i=1}^{N": 5299,
      "##}^{*}": 5300,
      "##&0&0&0&0&0&0&0&0": 5301,
      "##harpo": 5302,
      "-f": 5303,
      "dA": 5304,
      "f}": 5305,
      "##a_i": 5306,
      "##ey": 5307,
      "##era": 5308,
      "##30}": 5309,
      "##+T": 5310,
      "##+n}": 5311,
      "##onu": 5312,
      "##dr^2": 5313,
      "##sta": 5314,
      "##.7}": 5315,
      "##6)}": 5316,
      "##'_1": 5317,
      "##/M": 5318,
      "##{\\dot{": 5319,
      "##_{8": 5320,
      "##}{a}": 5321,
      "##_{\\mbox{\\scriptsize": 5322,
      "##,\\:": 5323,
      "##^{\\epsilon": 5324,
      "\\label{9": 5325,
      "\\frac{D": 5326,
      "\\frac{E": 5327,
      "##}^{3": 5328,
      "\\cong": 5329,
      "_{l": 5330,
      "##}_1}": 5331,
      "##i\\varepsilon": 5332,
      "##_j]": 5333,
      "\\gamma^0": 5334,
      "##}+g": 5335,
      "##}\\left(x": 5336,
      "##_{2m": 5337,
      "+\\frac": 5338,
      "##|\\eta": 5339,
      "\\hat{a": 5340,
      "^{\\ast": 5341,
      "e^{\\frac{": 5342,
      "##(0)=": 5343,
      "##^{MN": 5344,
      "##0.00}}\\put": 5345,
      "##^{(s)}": 5346,
      "##[3mm]": 5347,
      "\\mbox": 5348,
      "d^{10}": 5349,
      "g_{ij}": 5350,
      "{z": 5351,
      "##em}": 5352,
      "##3)": 5353,
      "##ty": 5354,
      "##=R": 5355,
      "##+D": 5356,
      "##so": 5357,
      "##/T": 5358,
      "##[H": 5359,
      "##A_2": 5360,
      "##A_{\\mu}": 5361,
      "##F_1": 5362,
      "##{\\mathbf": 5363,
      "##}{y": 5364,
      "##}{A": 5365,
      "##}{5": 5366,
      "##^{\\kappa": 5367,
      "\\label{1}": 5368,
      "\\label{new": 5369,
      "##}},\\label{": 5370,
      "##)\\lambda": 5371,
      "##-\\nabla": 5372,
      "##}^{b}": 5373,
      "##+\\Lambda": 5374,
      "##_{i-1}": 5375,
      "##_{\\mu\\nu},": 5376,
      "##_a,": 5377,
      "##}+m": 5378,
      "##^{1-": 5379,
      "\\epsilon^{\\mu": 5380,
      "##_{-})": 5381,
      "##^2+m^2": 5382,
      "##=1,...": 5383,
      "##^{\\mu\\nu\\lambda": 5384,
      "##d\\tilde{\\": 5385,
      "{1\\over2}": 5386,
      "##=-i": 5387,
      "##=-{1\\over": 5388,
      "##})\\;": 5389,
      "##}^{(b)}": 5390,
      "##_{(i": 5391,
      "##^{2}\\over": 5392,
      "##(\\partial_\\mu": 5393,
      "e}^{-": 5394,
      "\\int_{S": 5395,
      "(I": 5396,
      ".%": 5397,
      "2\\,": 5398,
      "C_1": 5399,
      "dX": 5400,
      "e^a": 5401,
      "x^+": 5402,
      "}F": 5403,
      "~~~~": 5404,
      "##{L": 5405,
      "##g^{\\mu\\nu": 5406,
      "##ton": 5407,
      "##48": 5408,
      "##sec": 5409,
      "##:=\\": 5410,
      "##}\\simeq": 5411,
      "##ral}": 5412,
      "##one}": 5413,
      "##}(b": 5414,
      "##}(F": 5415,
      "##}^{M": 5416,
      "##}^{c": 5417,
      "##_2)=": 5418,
      "##^\\phi": 5419,
      "##_{ii": 5420,
      "\\check": 5421,
      "\\right)\\,": 5422,
      "(\\tilde{": 5423,
      "##}^r": 5424,
      "##}}\\sum": 5425,
      "##\\\\&": 5426,
      "##(z)=\\": 5427,
      "##}+{\\cal": 5428,
      "##with": 5429,
      "##\\gamma_5": 5430,
      "##_{-n}": 5431,
      "##^2+2": 5432,
      "e^{-S": 5433,
      "##_{\\mu\\nu}F": 5434,
      "##}{ds": 5435,
      "\\exp(-": 5436,
      "##)}{\\sqrt{": 5437,
      "##2}{3": 5438,
      "##{}~": 5439,
      "##\\begin{array}{c}": 5440,
      "\\sum_{r": 5441,
      ")\\": 5442,
      "={1\\over": 5443,
      "E_0": 5444,
      "L}_{\\": 5445,
      "cm": 5446,
      "x^\\nu": 5447,
      "{2\\pi": 5448,
      "{{d": 5449,
      "##a_{1}": 5450,
      "##=M": 5451,
      "##rr": 5452,
      "##^y": 5453,
      "##dk": 5454,
      "##G^{-1}": 5455,
      "##FO": 5456,
      "##}\\to": 5457,
      "##}{D": 5458,
      "##}{(4\\pi": 5459,
      "##rightharpo": 5460,
      "##)\\left[": 5461,
      "##-\\tilde": 5462,
      "##-\\chi": 5463,
      "##_1|": 5464,
      "##}^{+}": 5465,
      "##^{-s": 5466,
      "##_{\\mu})": 5467,
      "##-1/2": 5468,
      "\\\\\\delta": 5469,
      "##}^m": 5470,
      "##i\\alpha": 5471,
      "##}}\\delta": 5472,
      "##=1}^3": 5473,
      "##}+\\partial": 5474,
      "##^*)": 5475,
      "##}\\;\\;\\;": 5476,
      "\\tilde{A": 5477,
      "##}^{2}}": 5478,
      "##}{d\\tau": 5479,
      "##_{3})": 5480,
      "##(3)": 5481,
      "##)\\right\\rangle": 5482,
      "##trans": 5483,
      "##_{\\bar{z}}": 5484,
      "##makebox(0,0)[": 5485,
      "##align{\\": 5486,
      "##rightharpoonu": 5487,
      "\\alpha_1": 5488,
      "+\\beta": 5489,
      "0\\cr": 5490,
      "A_2": 5491,
      "P}}": 5492,
      "f'": 5493,
      "i\\hbar": 5494,
      "{T": 5495,
      "~~~~~": 5496,
      "##{T": 5497,
      "##12}\\": 5498,
      "##33}": 5499,
      "##^6}": 5500,
      "##i\\over": 5501,
      "##d\\lambda": 5502,
      "##m^2}{": 5503,
      "##x^-": 5504,
      "##]=\\": 5505,
      "##P_0": 5506,
      "##ki": 5507,
      "##/\\Lambda": 5508,
      "##[N": 5509,
      "##_{\\Delta": 5510,
      "##_{\\parallel": 5511,
      "##)\\theta": 5512,
      "##)\\sin": 5513,
      "\\frac{b": 5514,
      "\\frac{z": 5515,
      "##}(G": 5516,
      "##}^{(p": 5517,
      "##_0]": 5518,
      "##^{-3}": 5519,
      "\\partial_\\alpha": 5520,
      "##2\\left(": 5521,
      "\\frac{\\gamma": 5522,
      "##=1}^n": 5523,
      "##(x))": 5524,
      "##}{2m": 5525,
      "##d\\eta": 5526,
      "##d\\hat{": 5527,
      "##_A}": 5528,
      "##(u)=": 5529,
      "##_{bc": 5530,
      "\\label{2.2": 5531,
      "##~,~": 5532,
      "##}\\left\\{\\": 5533,
      "{2\\over": 5534,
      "##_{\\gamma}": 5535,
      "##+i\\epsilon": 5536,
      "##INE": 5537,
      "##rightharpoonup": 5538,
      "-V": 5539,
      "-{1": 5540,
      "8}": 5541,
      "D_i": 5542,
      "a_k": 5543,
      "{S": 5544,
      "##a_{n": 5545,
      "##+K": 5546,
      "##j_2": 5547,
      "##x'": 5548,
      "##B_1": 5549,
      "##OW": 5550,
      "##{\\varphi": 5551,
      "##^2},": 5552,
      "##}{N}": 5553,
      "##length": 5554,
      "\\label{j": 5555,
      "\\label{gen": 5556,
      "##-\\ell": 5557,
      "##_1,\\cdots": 5558,
      "\\frac{8": 5559,
      "##_0}}": 5560,
      "##_{i_1}": 5561,
      "##}=i": 5562,
      "##~~.\\label{": 5563,
      "##eg}": 5564,
      "##}_\\pm": 5565,
      "(\\bar{": 5566,
      "\\phi'": 5567,
      "##i\\omega": 5568,
      "\\lambda_1": 5569,
      "##&0\\end{array}\\right)": 5570,
      "\\tau)": 5571,
      "\\tau_2": 5572,
      "##displaystyle\\sum": 5573,
      "##+\\frac{3": 5574,
      "\\label{sol": 5575,
      "\\bigl(": 5576,
      "##\\to\\infty": 5577,
      "\\int_0^{\\infty}": 5578,
      "##=\\frac{\\pi": 5579,
      "##\\label{eq:}": 5580,
      "##}(q)": 5581,
      "##aaa": 5582,
      "##|z|": 5583,
      "d^{3}x": 5584,
      "\\int_{-\\infty}^{\\infty}": 5585,
      "+\\lambda": 5586,
      "0\\\\0": 5587,
      "BRO": 5588,
      "CH": 5589,
      "CAN": 5590,
      "FO": 5591,
      "LINE": 5592,
      "^4": 5593,
      "x^-": 5594,
      "{F": 5595,
      "}{\\delta": 5596,
      "##a^{2}": 5597,
      "##bc}": 5598,
      "##=c": 5599,
      "##+J": 5600,
      "##\\ast": 5601,
      "##vac": 5602,
      "##,U": 5603,
      "##n\\pi": 5604,
      "##;l": 5605,
      "##;k": 5606,
      "##KEN": 5607,
      "##T^a": 5608,
      "##{\\sf": 5609,
      "##^{P": 5610,
      "##(\\frac": 5611,
      "##\\pmatrix": 5612,
      "##)}=\\": 5613,
      "{\\eta": 5614,
      "{\\Lambda": 5615,
      "##partial_\\mu": 5616,
      "##)\\end{array}\\right)": 5617,
      "##}^{4}": 5618,
      "##}^{(2": 5619,
      "##+\\kappa": 5620,
      "##(x_2": 5621,
      "##_\\mu,": 5622,
      "##}^B": 5623,
      "##}(\\epsilon": 5624,
      "##i\\lambda": 5625,
      "##(1,": 5626,
      "##,\\label{f": 5627,
      "##2\\pi\\alpha": 5628,
      "##\\alpha_2": 5629,
      "##_{1/2}": 5630,
      "##)=\\left(": 5631,
      "##)=\\exp": 5632,
      "##}_{\\pm}": 5633,
      "^{-": 5634,
      "##_{k})": 5635,
      "\\sigma_1": 5636,
      "##(p^2": 5637,
      "##}-{1\\over": 5638,
      "##^2+r^2": 5639,
      "\\mbox{Tr": 5640,
      "\\mbox{Tr}": 5641,
      "##+\\frac{1}{\\": 5642,
      "\\tilde{\\cal": 5643,
      "##}\\sum_{l": 5644,
      "##}\\left(\\frac{\\": 5645,
      "##\\stackrel{\\": 5646,
      "\\,\\left(": 5647,
      "##(\\vec{x})": 5648,
      "##&=&\\displaystyle": 5649,
      "##^{IJ": 5650,
      "\\ddot{": 5651,
      "\\frac{3}{2}": 5652,
      "##ING": 5653,
      "BEFO": 5654,
      "##LLOW": 5655,
      "##NOT": 5656,
      "##eftrightarrow": 5657,
      "BROKEN": 5658,
      "CANNOT": 5659,
      "FOLLOW": 5660,
      "BEFORE": 5661,
      "FOLLOWING": 5662,
      ")^{2}": 5663,
      "80": 5664,
      "F^{\\mu": 5665,
      "_b": 5666,
      "dw": 5667,
      "d\\lambda": 5668,
      "g)": 5669,
      "p_j": 5670,
      "{B": 5671,
      "|\\Psi": 5672,
      "}\\;": 5673,
      "##l^2}": 5674,
      "##{u": 5675,
      "##_l}": 5676,
      "##te}": 5677,
      "##r\\right)": 5678,
      "##+2}\\": 5679,
      "##\\oint": 5680,
      "##f_2": 5681,
      "##m_2": 5682,
      "##;\\alpha": 5683,
      "##ue": 5684,
      "##'),": 5685,
      "##[n": 5686,
      "##X^{\\mu": 5687,
      "##inst": 5688,
      "##_{\\infty}": 5689,
      "\\label{Z": 5690,
      "{\\frac": 5691,
      "{\\it": 5692,
      "##)\\mu": 5693,
      "##lambda}}": 5694,
      "##+\\dots": 5695,
      "##}_{L": 5696,
      "##}^M": 5697,
      "##\\frac{i": 5698,
      "##^i_j": 5699,
      "##-2i": 5700,
      "##\\!-\\!": 5701,
      "##^2}{3": 5702,
      "##^2}{4}": 5703,
      "##\\rho^2": 5704,
      "##\\,\\frac{": 5705,
      "##}\\partial_i": 5706,
      "##_{-}}": 5707,
      "##_\\alpha)": 5708,
      "##^2\\xi": 5709,
      "##|\\Omega": 5710,
      "##\\leftrightarrow": 5711,
      "##~,~~": 5712,
      "##act": 5713,
      "##noalign{\\": 5714,
      "\\biggr": 5715,
      "##(\\eta)": 5716,
      "\\int_{0}^{\\infty}": 5717,
      "H=": 5718,
      "X^I": 5719,
      "[\\phi": 5720,
      "f}{\\partial": 5721,
      "p_\\mu": 5722,
      "t^2": 5723,
      "t_2": 5724,
      "{{\\": 5725,
      "}A": 5726,
      "}(k": 5727,
      "##eff}": 5728,
      "##{2\\": 5729,
      "##^f": 5730,
      "##+P": 5731,
      "##f'": 5732,
      "##mf": 5733,
      "##,l}": 5734,
      "##27}": 5735,
      "##cr}": 5736,
      "##ps": 5737,
      "##p^{2}": 5738,
      "##p+1": 5739,
      "##.9}": 5740,
      "##Begin": 5741,
      "##N_f": 5742,
      "##End": 5743,
      "##'|": 5744,
      "##''}": 5745,
      "##}{h": 5746,
      "##)\\xi": 5747,
      "##_0^2}": 5748,
      "##}{\\sqrt{\\": 5749,
      "##(x_1)": 5750,
      "##^{(q": 5751,
      "_{3": 5752,
      "\\right)\\": 5753,
      "##sum\\limits": 5754,
      "##.\\label{b": 5755,
      "\\frac{1}{3": 5756,
      "\\frac{\\epsilon": 5757,
      "##_3=": 5758,
      "##\\phi)^2": 5759,
      "##)^2\\over": 5760,
      "##gen}": 5761,
      "\\epsilon_{ij}": 5762,
      "##_{m,n": 5763,
      "##_{--": 5764,
      "\\xi}": 5765,
      "##_{ij})": 5766,
      ",\\vec": 5767,
      "##+\\frac{i": 5768,
      "##+2)}": 5769,
      "\\bar{z": 5770,
      "##(-{\\bf": 5771,
      "##}\\sum_{k": 5772,
      "##_{I}": 5773,
      "##_{cl": 5774,
      "##_H}": 5775,
      "##(\\varphi)": 5776,
      "##frac{d}{d": 5777,
      "##{3\\over": 5778,
      "##%\\label{eqn:": 5779,
      "+b": 5780,
      "+\\delta": 5781,
      "1&": 5782,
      "[\\hat{": 5783,
      "d^6": 5784,
      "g_1": 5785,
      "m_i": 5786,
      "x}-{\\bf": 5787,
      "{H": 5788,
      "{2}": 5789,
      "|^2": 5790,
      "##_\\psi": 5791,
      "##_N}": 5792,
      "##=}": 5793,
      "##=E": 5794,
      "##\\underline": 5795,
      "##MAC": 5796,
      "##27": 5797,
      "##2)}": 5798,
      "##25}": 5799,
      "##pr": 5800,
      "##',t": 5801,
      "##|\\lambda": 5802,
      "##O}": 5803,
      "##CS": 5804,
      "##TCI": 5805,
      "##{\\mbox{": 5806,
      "##}\\sp": 5807,
      "##(\\tilde{\\": 5808,
      "\\label{mo": 5809,
      "{\\mbox{": 5810,
      "{\\sqrt": 5811,
      "##)\\sqrt{": 5812,
      "##bar\\psi": 5813,
      "##_0\\over": 5814,
      "##+\\chi": 5815,
      "##}_{k}": 5816,
      "##}{\\tau": 5817,
      "##_{i}=": 5818,
      "##_{i}-": 5819,
      "##(x)\\,": 5820,
      "##\\,=\\": 5821,
      "##}\\,=\\,": 5822,
      "##_{nm": 5823,
      "##(z),": 5824,
      "##sing": 5825,
      "##(p)=": 5826,
      "##(k^2": 5827,
      "##_{2n}": 5828,
      "(x,": 5829,
      ",\\hspace{": 5830,
      "##_{+}}": 5831,
      "##dot{\\phi": 5832,
      "##(-)}": 5833,
      "##_{34}": 5834,
      "##,2,3": 5835,
      "##-\\frac{1}{2": 5836,
      "##,\\ldots,": 5837,
      "##\\dot\\alpha": 5838,
      "##gauge}": 5839,
      "##~~,~~": 5840,
      "##BeginExpansion": 5841,
      "##EndExpansion": 5842,
      "##MACRO": 5843,
      "##TCIMACRO": 5844,
      ",%": 5845,
      "=\\partial": 5846,
      "G_{\\mu": 5847,
      "R}}": 5848,
      "a)": 5849,
      "r\\right)": 5850,
      "{Q": 5851,
      "##-{1": 5852,
      "##\\})": 5853,
      "##\\Xi": 5854,
      "##D}^2": 5855,
      "##|)": 5856,
      "##[\\mu": 5857,
      "##5mm}": 5858,
      "##U^{-1}": 5859,
      "##rane": 5860,
      "##^{\\ell": 5861,
      "##-\\Phi": 5862,
      "##-\\frac{\\partial": 5863,
      "##^{(+": 5864,
      "##-1}\\right)": 5865,
      "##}(\\Omega": 5866,
      "##,\\label{c": 5867,
      "##)^2]": 5868,
      "##}+{": 5869,
      "\\theta_1": 5870,
      "##-\\frac{4": 5871,
      "(x-y)": 5872,
      "##^2+m": 5873,
      "dx\\,": 5874,
      "##=1,\\dots": 5875,
      "\\bar\\psi": 5876,
      "##_1,n_2": 5877,
      "##}\\right].": 5878,
      "##(N)": 5879,
      "d^{d": 5880,
      "##_{C}": 5881,
      "e^{-\\beta": 5882,
      "##}^{ij}": 5883,
      "##_{YM": 5884,
      "\\cos\\theta": 5885,
      "+1}": 5886,
      "-\\,": 5887,
      "B_2": 5888,
      "F_1": 5889,
      "L}}": 5890,
      "N_c": 5891,
      "R)": 5892,
      "T_a": 5893,
      "U}": 5894,
      "\\,\\,\\": 5895,
      "\\iota": 5896,
      "d^d": 5897,
      "e^{\\pm": 5898,
      "g_0": 5899,
      "ig": 5900,
      "p})": 5901,
      "##e^{\\pm": 5902,
      "##-8": 5903,
      "##-k}": 5904,
      "##+\\pi": 5905,
      "##4)": 5906,
      "##pot}": 5907,
      "##;1": 5908,
      "##']": 5909,
      "##|T": 5910,
      "##|\\,": 5911,
      "##/m": 5912,
      "##/\\hbar": 5913,
      "##{\\bar{\\": 5914,
      "##_{(\\alpha": 5915,
      "##^2]": 5916,
      "##inv": 5917,
      "##_{\\zeta": 5918,
      "##(\\dot{": 5919,
      "##^{\\delta": 5920,
      "{\\sigma": 5921,
      "{\\Delta": 5922,
      "##)\\approx": 5923,
      "##}(C": 5924,
      "##}^{t": 5925,
      "##}{\\epsilon": 5926,
      "##}\\right)\\,": 5927,
      "##}_S": 5928,
      "(\\kappa": 5929,
      "##bigl": 5930,
      "##)=\\frac": 5931,
      "##}_{\\hat{\\mu": 5932,
      "##vec{p": 5933,
      "\\gamma_\\mu": 5934,
      "##}(x,x": 5935,
      "##}+i": 5936,
      "##(t,x": 5937,
      "\\label{eq:b": 5938,
      "##(p+1)": 5939,
      "##}\\partial_{\\nu": 5940,
      "##}-\\partial": 5941,
      "e^{2\\pi": 5942,
      "##(n_1": 5943,
      "##(\\tau,\\sigma": 5944,
      "##)+2": 5945,
      "##_{bc}": 5946,
      "\\label{3.2": 5947,
      "##=\\frac{1}{2": 5948,
      "(k)": 5949,
      "##)\\right\\": 5950,
      "##\\biggl": 5951,
      "int": 5952,
      "CHAR": 5953,
      "%%": 5954,
      "-E": 5955,
      "24": 5956,
      "L=": 5957,
      "Q_1": 5958,
      "U(1)": 5959,
      "k)": 5960,
      "z_i": 5961,
      "##}&": 5962,
      "##=N": 5963,
      "##+H": 5964,
      "##dX": 5965,
      "##4.2": 5966,
      "##sol}": 5967,
      "##per": 5968,
      "##p_i": 5969,
      "##G^0": 5970,
      "##[T": 5971,
      "##F}_{": 5972,
      "##V}}": 5973,
      "##T^2": 5974,
      "##$&": 5975,
      "\\label{ab": 5976,
      "##)\\omega": 5977,
      "##}^{d": 5978,
      "##}_{D": 5979,
      "\\left<": 5980,
      "\\overrightarrow": 5981,
      "##\\partial_j": 5982,
      "_{A": 5983,
      "##^{\\mu})": 5984,
      "##}^R": 5985,
      "-\\mu": 5986,
      "##^{-1},": 5987,
      "##\\!+\\!": 5988,
      "##^2}{2}\\": 5989,
      "##\\,\\phi": 5990,
      "##_-}": 5991,
      "##(n+1": 5992,
      "##_{ij},": 5993,
      "##=-\\frac": 5994,
      "##(-k": 5995,
      "##note": 5996,
      "##)=\\frac{1}{\\": 5997,
      "##}=\\frac{1}{\\": 5998,
      "##+p)": 5999,
      "##zero": 6000,
      "\\sum_k": 6001,
      "-n": 6002,
      "1}}": 6003,
      "Z_1": 6004,
      "[\\delta": 6005,
      "_A": 6006,
      "d\\eta": 6007,
      "d^{2}\\": 6008,
      "f_0": 6009,
      "sign": 6010,
      "x^2}": 6011,
      "{c": 6012,
      "}\\delta": 6013,
      "##a'": 6014,
      "##)/2}": 6015,
      "##+...": 6016,
      "##\\forall": 6017,
      "##q})": 6018,
      "##dg": 6019,
      "##.c": 6020,
      "##y}}": 6021,
      "##;m": 6022,
      "##u}}": 6023,
      "##|\\beta": 6024,
      "##A_j": 6025,
      "##}\\sqrt{\\": 6026,
      "##lan": 6027,
      "##igen": 6028,
      "##ft}": 6029,
      "##muta": 6030,
      "##(\\overline{": 6031,
      "##,\\Psi": 6032,
      "##met": 6033,
      "{\\epsilon": 6034,
      "{\\widehat": 6035,
      "##)\\Omega": 6036,
      "##-\\hat": 6037,
      "##}_{R": 6038,
      "##_{\\mu_1": 6039,
      "##}=S": 6040,
      "##~~,\\label{": 6041,
      "##-1}\\over": 6042,
      "_{+}": 6043,
      "##}_2}": 6044,
      "\\frac{1}{g": 6045,
      "##}(\\frac{": 6046,
      "##}_{\\bar": 6047,
      "##_{ji": 6048,
      "\\theta_2": 6049,
      "\\label{eq:s": 6050,
      "\\epsilon_{ijk}": 6051,
      "##{\\partial}": 6052,
      "\\left(\\partial": 6053,
      "##_{ij}=": 6054,
      "##=-\\infty}^\\infty": 6055,
      "##_{cl}": 6056,
      "##-\\frac{\\alpha": 6057,
      "e^{\\phi": 6058,
      "##\\kappa}": 6059,
      "##\\bar{z": 6060,
      "##}\\biggl": 6061,
      "##^{1/4}": 6062,
      "(X)": 6063,
      "A^2": 6064,
      "D_{\\mu}": 6065,
      "M}}": 6066,
      "Q_2": 6067,
      "d\\bar": 6068,
      "{C": 6069,
      "##a_{2}": 6070,
      "##{f": 6071,
      "##{N": 6072,
      "##1/2": 6073,
      "##30": 6074,
      "##-{\\bf": 6075,
      "##)^{-1": 6076,
      "##\\widehat{": 6077,
      "##q_2": 6078,
      "##q_i": 6079,
      "##,k}": 6080,
      "##y^2": 6081,
      "##uv": 6082,
      "##]^2": 6083,
      "##|f": 6084,
      "##FT": 6085,
      "##{\\sum": 6086,
      "##_{2\\": 6087,
      "##_{_{\\rm": 6088,
      "##}{v": 6089,
      "##^{\\lambda}": 6090,
      "##)}.\\label{": 6091,
      "##=\\beta": 6092,
      "{\\left(": 6093,
      "##)\\simeq": 6094,
      "##}(W": 6095,
      "##}(Q": 6096,
      "##}),\\label{": 6097,
      "##\\pi}": 6098,
      "##\\right)\\label{": 6099,
      "##}_F": 6100,
      "##}_5": 6101,
      "(\\zeta": 6102,
      "-\\epsilon": 6103,
      "##left(\\frac{\\": 6104,
      "##}}\\cdot": 6105,
      "##^4\\over": 6106,
      "^{N": 6107,
      "\\limits": 6108,
      "##e^{-\\pi": 6109,
      "##^2\\int": 6110,
      "##|\\omega": 6111,
      "\\Bigl[": 6112,
      "##'''": 6113,
      "##_{31}": 6114,
      "##}{12}": 6115,
      "##foot": 6116,
      "L}_0": 6117,
      "##ite": 6118,
      "\\hat{\\phi": 6119,
      "##\\Bigr": 6120,
      "##\\mbox{for": 6121,
      "\\sum_{n=1}^{\\infty}": 6122,
      "##_{i=1}^n": 6123,
      "(\\partial_\\mu": 6124,
      "##+i\\varepsilon": 6125,
      "\\displaystyle\\frac{": 6126,
      "##}{4\\pi}": 6127,
      "##{r}}": 6128,
      "##sym": 6129,
      "\\begin{array}{lll}": 6130,
      "##0.15em": 6131,
      "##^{(l)}": 6132,
      "##begin{picture": 6133,
      "##_{-\\infty}^{+\\infty}": 6134,
      "##otential}": 6135,
      "\\beta^2": 6136,
      ".\\\\": 6137,
      "J_1": 6138,
      "S_{B": 6139,
      "X_i": 6140,
      "YM": 6141,
      "\\end{array}\\right]": 6142,
      "f(x)": 6143,
      "h}": 6144,
      "ik": 6145,
      "i\\int": 6146,
      "y})": 6147,
      "{[": 6148,
      "##{t": 6149,
      "##36": 6150,
      "##-n}": 6151,
      "##(-2": 6152,
      "##ii": 6153,
      "##downarrow": 6154,
      "##96": 6155,
      "##x^+": 6156,
      "##;\\tau": 6157,
      "##k^2}": 6158,
      "##C}}": 6159,
      "##[\\sigma": 6160,
      "##80": 6161,
      "##<j}": 6162,
      "##_{*": 6163,
      "##_{\\frac{": 6164,
      "##the": 6165,
      "\\frac{h": 6166,
      "##_\\Omega": 6167,
      "##^{-4": 6168,
      "##^\\star": 6169,
      "##}{\\Delta": 6170,
      "##omega^2": 6171,
      "_{b": 6172,
      "##)=2": 6173,
      "(\\begin{array}{": 6174,
      "\\frac{1}{N": 6175,
      "\\frac{\\tilde{": 6176,
      "##^{i},": 6177,
      "##}^{\\lambda": 6178,
      "##\\frac{3": 6179,
      "##_k,": 6180,
      "##^2}{8": 6181,
      "##\\,\\left(": 6182,
      "##)\\,.\\label{": 6183,
      "##e^{-2\\pi": 6184,
      "dx^-": 6185,
      "##_2}}": 6186,
      "##}\\,\\frac{": 6187,
      "##^{++}": 6188,
      "##}\\sum_{m": 6189,
      "##-m)": 6190,
      "##e^{\\beta": 6191,
      "##{\\pi\\over": 6192,
      "##,\\cdots,": 6193,
      "##erms": 6194,
      "##TCIMACRO{\\": 6195,
      "(dx": 6196,
      "0\\end{array}": 6197,
      "1)}": 6198,
      "<0": 6199,
      "A)": 6200,
      "T_{\\mu\\nu": 6201,
      "V_0": 6202,
      "[H": 6203,
      "_i\\": 6204,
      "b^2": 6205,
      "}(x)": 6206,
      "}^{a": 6207,
      "##e^{2}": 6208,
      "##{2\\pi": 6209,
      "##)>": 6210,
      "##^v": 6211,
      "##^S": 6212,
      "##^n}": 6213,
      "##dq": 6214,
      "##,F": 6215,
      "##cs": 6216,
      "##ser": 6217,
      "##p}{(2\\pi": 6218,
      "##;\\lambda": 6219,
      "##P^2": 6220,
      "##:&": 6221,
      "##Z_2": 6222,
      "##[B": 6223,
      "##I}}": 6224,
      "##Q}}": 6225,
      "##_{(n)}": 6226,
      "##}\\widetilde{": 6227,
      "##^{-\\frac{": 6228,
      "##^{N}": 6229,
      "##,\\Delta": 6230,
      "##_\\chi": 6231,
      "##+\\Omega": 6232,
      "\\,+\\,": 6233,
      "##bf{": 6234,
      "\\;,\\label{": 6235,
      "##2}\\sum": 6236,
      "\\partial_r": 6237,
      "\\partial_{\\nu}": 6238,
      "_{R": 6239,
      "##\\cr}": 6240,
      "\\phi,": 6241,
      "\\phi(x)": 6242,
      "##i\\sigma": 6243,
      "##\\alpha_1": 6244,
      "##\\left(1-": 6245,
      "\\label{eq:f": 6246,
      "##^{2N": 6247,
      "##\\lim": 6248,
      "##(r,\\theta": 6249,
      "_{\\tau": 6250,
      "^{\\dagger": 6251,
      "##=-\\int": 6252,
      "##^2-4": 6253,
      "##}^{(j": 6254,
      "##)}{\\delta": 6255,
      "\\widehat": 6256,
      "\\widehat{\\": 6257,
      "##\\rightarrow\\infty": 6258,
      "##-q^{-1}": 6259,
      "##_{CS": 6260,
      "##(f)": 6261,
      "##_{\\Lambda}": 6262,
      "\\sinh^2": 6263,
      "##{\\textstyle\\frac{1}{": 6264,
      "##e^{-i\\omega": 6265,
      "\\frac{2}{3}": 6266,
      "##0.5cm}": 6267,
      "##0.15em\\": 6268,
      "+4": 6269,
      "-A": 6270,
      "=\\pm": 6271,
      "I_1": 6272,
      "\\end{array": 6273,
      "a_j": 6274,
      "r}\\right)": 6275,
      "{1}": 6276,
      "}^{\\": 6277,
      "##l_1": 6278,
      "##au": 6279,
      "##ev": 6280,
      "##{s": 6281,
      "##-J": 6282,
      "##^o": 6283,
      "##+z": 6284,
      "##+{\\rm": 6285,
      "##,u)": 6286,
      "##28}": 6287,
      "##cor": 6288,
      "##ni": 6289,
      "##Large": 6290,
      "##A}_{": 6291,
      "##{\\tilde{": 6292,
      "##_{(n": 6293,
      "##}\\hspace{": 6294,
      "##}{(k": 6295,
      "##}{R}": 6296,
      "##,\\tilde": 6297,
      "\\label{delta": 6298,
      "##)},\\label{": 6299,
      "##=\\frac{\\partial": 6300,
      "{\\tilde{": 6301,
      "{\\mathcal{": 6302,
      "##)\\\\\\": 6303,
      "##bar\\theta": 6304,
      "##_{\\mu}\\phi": 6305,
      "##(x_i": 6306,
      "##(x_{1}": 6307,
      "##\\;.\\label{": 6308,
      "##}=f": 6309,
      "##-1\\over": 6310,
      "##\\partial_x": 6311,
      "_{L": 6312,
      "##}_x": 6313,
      "##_{n,m": 6314,
      "##_{n,l": 6315,
      "\\frac{1}{8": 6316,
      "-\\phi": 6317,
      "##}}\\hat{\\": 6318,
      "##}_{\\perp": 6319,
      "\\quad,": 6320,
      "##spec": 6321,
      "_{\\sigma": 6322,
      "##_{-2}": 6323,
      "##)}{4": 6324,
      "\\mbox{and}": 6325,
      "##+2k": 6326,
      "##})\\right)": 6327,
      "##ord": 6328,
      "##}\\sum\\limits": 6329,
      "d^2z": 6330,
      "\\bigr": 6331,
      "##_{cd": 6332,
      "##(1-q": 6333,
      "\\mathcal{O": 6334,
      "##}^{ij": 6335,
      "##^{p+1}": 6336,
      "\\label{gl": 6337,
      "##^{\\dot\\alpha": 6338,
      "##^{(p)}": 6339,
      "##end{picture": 6340,
      "with": 6341,
      "##footnote": 6342,
      "+2\\": 6343,
      "+\\cdots": 6344,
      "K_{1}": 6345,
      "M}_{": 6346,
      "P_\\mu": 6347,
      "T^a": 6348,
      "\\},": 6349,
      "\\end{array}\\right": 6350,
      "^\\alpha": 6351,
      "_m": 6352,
      "e}^{\\": 6353,
      "p}^2": 6354,
      "##-U": 6355,
      "##gr": 6356,
      "##tra": 6357,
      "##t_1": 6358,
      "##=X": 6359,
      "##+6": 6360,
      "##+\\psi": 6361,
      "##\\}\\": 6362,
      "##dp": 6363,
      "##hfi": 6364,
      "##]{$": 6365,
      "##Eq": 6366,
      "##||": 6367,
      "##V_0": 6368,
      "##YM": 6369,
      "##_{-1": 6370,
      "##^2(x)": 6371,
      "##(\\dot": 6372,
      "##(\\frac{1}{2}": 6373,
      "##(\\mathcal{": 6374,
      "##nu}}": 6375,
      "##)\\hat": 6376,
      "##_i|": 6377,
      "\\phi^*": 6378,
      "##_n,": 6379,
      "\\frac{\\tau": 6380,
      "##\\alpha\\beta}": 6381,
      "##_{1}\\ldots": 6382,
      "##_{\\mu\\nu}+": 6383,
      "##_{jl}": 6384,
      "##)}\\left[": 6385,
      "##dx^{\\mu}": 6386,
      "##^1,": 6387,
      "##|\\xi": 6388,
      "##}{24": 6389,
      "##_{p}}": 6390,
      "##+\\frac{2": 6391,
      "##}{dt}": 6392,
      "##_R}": 6393,
      "##condi": 6394,
      "##&0&0&": 6395,
      "\\prod_{n": 6396,
      "##-m^{2}": 6397,
      "##\\;\\;\\;\\;\\;": 6398,
      "##tru": 6399,
      "##not\\!": 6400,
      "\\dots,": 6401,
      "##energy}": 6402,
      "+\\gamma": 6403,
      "-B": 6404,
      "2)": 6405,
      "^b": 6406,
      "di": 6407,
      "f^2": 6408,
      "i\\,": 6409,
      "m)": 6410,
      "r^{2}": 6411,
      "s^2": 6412,
      "x\\,": 6413,
      "{b": 6414,
      "##asi": 6415,
      "##a_3": 6416,
      "##eigh": 6417,
      "##{c": 6418,
      "##12\\": 6419,
      "##=-2": 6420,
      "##rec": 6421,
      "##^e": 6422,
      "##+8": 6423,
      "##p'": 6424,
      "##E}}": 6425,
      "##|A": 6426,
      "##/\\alpha": 6427,
      "##WZ": 6428,
      "##A]": 6429,
      "##V'": 6430,
      "##T_2": 6431,
      "##<1": 6432,
      "##$}}\\put": 6433,
      "##_{e}": 6434,
      "##^{\\star": 6435,
      "##}}^2": 6436,
      "{\\mathbf": 6437,
      "##_1'": 6438,
      "##deg": 6439,
      "\\frac{{\\cal": 6440,
      "##}(U": 6441,
      "##}(1+": 6442,
      "##}{\\eta": 6443,
      "##}{\\theta": 6444,
      "##}{\\gamma": 6445,
      "##\\;,\\label{": 6446,
      "##},~~~": 6447,
      "(\\tilde": 6448,
      "(\\hat{": 6449,
      "##sqrt{3}": 6450,
      "##}(\\vec": 6451,
      "##}(\\Lambda": 6452,
      "##-1})": 6453,
      "##os}": 6454,
      "##\\mu^2": 6455,
      "\\sigma_2": 6456,
      "\\right>": 6457,
      "##_1}}": 6458,
      "##(\\tau)=": 6459,
      "##)^{D": 6460,
      "##=-\\frac{\\": 6461,
      "##=-\\frac{1}{2}\\": 6462,
      "##}^{(3)}": 6463,
      "##dt^{2}": 6464,
      "##=\\sum_{k": 6465,
      "##}\\Bigl": 6466,
      "##textstyle{\\frac{1}{2}": 6467,
      "##-n)": 6468,
      "##,\\,\\,\\,\\,": 6469,
      "##^{IJ}": 6470,
      "##loop": 6471,
      "##}\\biggr)": 6472,
      "##(E)": 6473,
      "##_{f}}": 6474,
      "##ccc}0": 6475,
      "\\label{rel": 6476,
      "##rel}": 6477,
      "##zero}": 6478,
      "+3": 6479,
      "+\\alpha": 6480,
      "G}}": 6481,
      "J_0": 6482,
      "Q^2": 6483,
      "^j": 6484,
      "a,b": 6485,
      "c_0": 6486,
      "n_i": 6487,
      "{}": 6488,
      "{L": 6489,
      "##lbrack": 6490,
      "##be": 6491,
      "##{{\\bf": 6492,
      "##34}": 6493,
      "##37}": 6494,
      "##-I": 6495,
      "##g^{\\mu": 6496,
      "##=S": 6497,
      "##^P": 6498,
      "##\\oplus": 6499,
      "##id": 6500,
      "##40}": 6501,
      "##sl": 6502,
      "##ssi": 6503,
      "##;\\qquad": 6504,
      "##D_\\mu": 6505,
      "##').": 6506,
      "##CD}": 6507,
      "##[r": 6508,
      "##^{c}": 6509,
      "##(\\vec{\\": 6510,
      "##,\\hspace{1": 6511,
      "##^{\\theta": 6512,
      "##me}": 6513,
      "{\\bar{": 6514,
      "##)\\mid": 6515,
      "##_1,\\dots": 6516,
      "\\frac{{\\rm": 6517,
      "##}(0,": 6518,
      "##_\\Phi": 6519,
      "##}=q": 6520,
      "##\\right)}": 6521,
      "##_\\mu(x)": 6522,
      "\\phi)^2": 6523,
      "##(1,1": 6524,
      "\\frac{\\Delta": 6525,
      "##\\phi_2": 6526,
      "##}=\\sqrt{": 6527,
      "##}_{\\bf": 6528,
      "^{ij": 6529,
      "##exp\\left(": 6530,
      "##_{a,b": 6531,
      "##}\\int_0^\\infty": 6532,
      "##{\\partial\\over\\partial": 6533,
      "##^{-1}\\right)": 6534,
      "##_{p-1}": 6535,
      "##)]=": 6536,
      "\\Lambda^2": 6537,
      "##+2m": 6538,
      "##_{b=1}^N": 6539,
      "##_{II": 6540,
      "##\\subset": 6541,
      "##ds^{2}": 6542,
      "##-\\frac{\\lambda": 6543,
      "##upset": 6544,
      "##^{kl": 6545,
      "##}\\Bigr)": 6546,
      "##{\\pi}": 6547,
      "##^{4}}": 6548,
      "##(M)": 6549,
      "\\displaystyle{": 6550,
      "##^{1/3": 6551,
      "##\\sqrt{\\frac{": 6552,
      "##|m|": 6553,
      "d^Dx": 6554,
      "##unction": 6555,
      "2},": 6556,
      "G_N": 6557,
      "S_1": 6558,
      "S}{\\delta": 6559,
      "X_2": 6560,
      "\\}.": 6561,
      "_1}": 6562,
      "e}": 6563,
      "h_2": 6564,
      "l_s": 6565,
      "n})": 6566,
      "t\\right)": 6567,
      "x_{1}": 6568,
      "{P": 6569,
      "}(x": 6570,
      "##b)": 6571,
      "##{[": 6572,
      "##=y": 6573,
      "##\\varrho": 6574,
      "##wa": 6575,
      "##ic}": 6576,
      "##!}}": 6577,
      "##29}": 6578,
      "##k-1}": 6579,
      "##[\\beta": 6580,
      "##X^\\mu": 6581,
      "##}\\lim": 6582,
      "##rav": 6583,
      "##^2),": 6584,
      "##(\\cos": 6585,
      "##)}]": 6586,
      "##=\\varepsilon": 6587,
      "##_1\\,": 6588,
      "##}^{4": 6589,
      "##}^{s": 6590,
      "##}^{B": 6591,
      "##frac{\\theta": 6592,
      "##}_{d": 6593,
      "##}_{3}": 6594,
      "##^{(J": 6595,
      "##\\partial_-": 6596,
      "_{M": 6597,
      "_{s": 6598,
      "_{n}": 6599,
      "##)={\\cal": 6600,
      "##sum_{i": 6601,
      "\\phi^a": 6602,
      "##}(\\zeta": 6603,
      "\\frac{\\sigma": 6604,
      "-\\theta": 6605,
      "-\\omega": 6606,
      "-\\infty": 6607,
      "##}=\\epsilon": 6608,
      "##_{\\mu\\nu}(x": 6609,
      "##(z,z": 6610,
      "##\\frac{m": 6611,
      "##\\mu\\nu}": 6612,
      "##(2l": 6613,
      "##(p,q": 6614,
      "##_{2j": 6615,
      "##_m)": 6616,
      "\\mbox{$": 6617,
      "\\mbox{for}": 6618,
      "\\tilde{A}": 6619,
      "^{\\nu": 6620,
      "##)].": 6621,
      "##=\\frac{2": 6622,
      "##,t)=": 6623,
      "##(\\lambda)}": 6624,
      "##(m)": 6625,
      "##)\\right).": 6626,
      "^{2}}": 6627,
      "Tr}\\,": 6628,
      "\\label{e:": 6629,
      "##-k)": 6630,
      "##e^{-\\phi": 6631,
      "##ven}": 6632,
      "\\label{pp": 6633,
      "##triangleup": 6634,
      "##_{\\theta}": 6635,
      "\\vec{\\sigma": 6636,
      "##e^{-2\\phi": 6637,
      "##\\ddots": 6638,
      "##\\!\\!\\!/": 6639,
      "##stant": 6640,
      "\\sin\\theta": 6641,
      "\\sum_a": 6642,
      ",\\theta": 6643,
      "2k": 6644,
      "NS": 6645,
      "U^{-1}": 6646,
      "co": 6647,
      "f_i": 6648,
      "k}}": 6649,
      "min": 6650,
      "u)": 6651,
      "{8": 6652,
      "}^{\\mu": 6653,
      "##b'": 6654,
      "##1+\\frac{": 6655,
      "##=j": 6656,
      "##=P": 6657,
      "##={{": 6658,
      "##rot": 6659,
      "##\\atop": 6660,
      "##f^2": 6661,
      "##ib": 6662,
      "##i,j": 6663,
      "##,+": 6664,
      "##,E": 6665,
      "##s})": 6666,
      "##x^\\mu": 6667,
      "##B)": 6668,
      "##L_0": 6669,
      "##/n": 6670,
      "##{\\chi": 6671,
      "##_{Z": 6672,
      "##}\\cosh": 6673,
      "##^{2\\pi": 6674,
      "##^{^{\\prime": 6675,
      "##^{A}": 6676,
      "##ale": 6677,
      "##}{m}": 6678,
      "##_{\\ast": 6679,
      "##mu^2": 6680,
      "##=\\left": 6681,
      "##-\\det": 6682,
      "##}(S": 6683,
      "##}^{j}": 6684,
      "##_2\\right)": 6685,
      "##^{-4}": 6686,
      "##^\\theta": 6687,
      "##}{\\sqrt": 6688,
      "##(x_0": 6689,
      "##\\,R": 6690,
      "##}=c": 6691,
      "##\\right)\\": 6692,
      "##app": 6693,
      "##\\alpha^\\prime": 6694,
      "##_{\\mu\\nu})": 6695,
      "##+1}\\right)": 6696,
      "^{M": 6697,
      "##\\psi_1": 6698,
      "##(2m": 6699,
      "=\\frac{1}{2}": 6700,
      "##\\llap": 6701,
      "_{\\rho": 6702,
      "##_{rs}": 6703,
      "##con}": 6704,
      "##,2)": 6705,
      "\\hat{\\rm": 6706,
      "##^{\\infty}_{n": 6707,
      "##}{2}\\left(": 6708,
      "##}{2}\\int": 6709,
      "d^2\\sigma": 6710,
      "-\\frac{1}{\\": 6711,
      "##}{4}}": 6712,
      "\\big)": 6713,
      "##sinh^2": 6714,
      "##)\\;=\\;": 6715,
      "##^{mn}": 6716,
      "-\\frac{1}{4": 6717,
      "##}(\\theta)": 6718,
      "##footnotesize": 6719,
      "\\int\\!": 6720,
      "-e": 6721,
      "2\\kappa": 6722,
      "A_k": 6723,
      "B_{\\mu": 6724,
      "G_0": 6725,
      "M_1": 6726,
      "dS": 6727,
      "}^a": 6728,
      "##e1}": 6729,
      "##{H": 6730,
      "##{{\\cal": 6731,
      "##1.1": 6732,
      "##f)": 6733,
      "##q_1": 6734,
      "##q^{2}": 6735,
      "##om}": 6736,
      "##01}": 6737,
      "##00}": 6738,
      "##29": 6739,
      "##cla": 6740,
      "##slash": 6741,
      "##~{\\rm": 6742,
      "##x^{\\mu": 6743,
      "##B_2": 6744,
      "##K_1": 6745,
      "##'},": 6746,
      "##[j": 6747,
      "##[R": 6748,
      "##%\\label{eq:}": 6749,
      "##>\\": 6750,
      "##H_1": 6751,
      "##75": 6752,
      "##_{9": 6753,
      "##}\\mathbf{": 6754,
      "##^{h": 6755,
      "##}{9": 6756,
      "##}{}^": 6757,
      "##}{k}": 6758,
      "##right\\rangle": 6759,
      "##^{\\omega": 6760,
      "##^{\\tilde{": 6761,
      "\\label{ec": 6762,
      "{\\kappa": 6763,
      "##)\\alpha": 6764,
      "##)\\end{array}": 6765,
      "##one": 6766,
      "##\\pi^2": 6767,
      "##}{\\cosh": 6768,
      "##2}\\over": 6769,
      "##2}\\int": 6770,
      "##-1.": 6771,
      "##-1)}\\": 6772,
      "_{N": 6773,
      "##}\\,,\\quad": 6774,
      "\\delta}": 6775,
      "##_n=": 6776,
      "##}^L": 6777,
      "##(1-\\alpha": 6778,
      "##,\\label{p": 6779,
      "##,\\label{eqn:": 6780,
      "##}=\\gamma": 6781,
      "##oson": 6782,
      "##_{\\mu\\nu\\lambda}": 6783,
      "##}^{\\rho": 6784,
      "##}+O": 6785,
      "##_{2},": 6786,
      "##_+^2": 6787,
      "dx^j": 6788,
      "\\left(\\frac{1}{": 6789,
      "\\hat{C": 6790,
      "\\hat{R": 6791,
      "\\hat{A}": 6792,
      "##\\right.": 6793,
      "##_{34": 6794,
      "##_{(3)}": 6795,
      "\\nabla_\\mu": 6796,
      "##\\slash": 6797,
      "\\big(": 6798,
      "##e^{\\lambda": 6799,
      "##_{tt}": 6800,
      "##,\\mu}": 6801,
      "\\ddot": 6802,
      "##rans": 6803,
      "##\\dot{x": 6804,
      "##_{\\xi}": 6805,
      "##}(g)": 6806,
      "\\prime}": 6807,
      "{i\\over": 6808,
      "##}^{1/2}": 6809,
      "##ases": 6810,
      "##floor": 6811,
      "##tabular": 6812,
      "(W": 6813,
      "(u)": 6814,
      "+c": 6815,
      "A_{i": 6816,
      "F}_{": 6817,
      "H_1": 6818,
      "P)": 6819,
      "T_1": 6820,
      "V_1": 6821,
      "a}}": 6822,
      "a_{n": 6823,
      "b_n": 6824,
      "e^{\\alpha": 6825,
      "i\\epsilon": 6826,
      "k\\right)": 6827,
      "m}}": 6828,
      "t,": 6829,
      "z_0": 6830,
      "{h": 6831,
      "##ati": 6832,
      "##a_n": 6833,
      "##{(": 6834,
      "##=z": 6835,
      "##reg": 6836,
      "##\\longrightarrow": 6837,
      "##M_2": 6838,
      "##scriptsize": 6839,
      "##]]": 6840,
      "##k}\\,": 6841,
      "##/\\sqrt{": 6842,
      "##R)": 6843,
      "##[K": 6844,
      "##A^2": 6845,
      "##ind": 6846,
      "##_{\\{": 6847,
      "##,\\frac{1}{": 6848,
      "\\label{8}": 6849,
      "##=\\bar": 6850,
      "##=\\theta": 6851,
      "##)\\rho": 6852,
      "##)\\sum": 6853,
      "##)\\varphi": 6854,
      "##)\\ln": 6855,
      "\\frac{6": 6856,
      "\\frac{F": 6857,
      "##}(V": 6858,
      "##}^{c}": 6859,
      "##+\\Phi": 6860,
      "##\\,{\\cal": 6861,
      "##^{(5)}": 6862,
      "\\delta(x": 6863,
      "##i\\frac{": 6864,
      "##}=\\eta": 6865,
      "##^{\\prime},": 6866,
      "\\lambda_2": 6867,
      "##}+b": 6868,
      "\\theta^2": 6869,
      "\\Phi}": 6870,
      "##^2\\left[": 6871,
      "##biggr": 6872,
      "##_c)": 6873,
      "##|\\vec": 6874,
      "##_{+-": 6875,
      "##_{pq": 6876,
      "##}\\right],": 6877,
      "##(y)=": 6878,
      "##)}{\\pi": 6879,
      "##}=0\\": 6880,
      "\\frac{1}{\\sqrt{2}}": 6881,
      "-\\frac{i": 6882,
      "##e^{ip": 6883,
      "##(-1)^n": 6884,
      "##}[\\phi": 6885,
      "{d\\over": 6886,
      "##(\\beta)}": 6887,
      "##-z)": 6888,
      "##_{\\perp}": 6889,
      "\\begin{array}{cc}0": 6890,
      "##\\exp\\left(": 6891,
      "(\\tau)": 6892,
      "##=-\\infty}^{": 6893,
      "##^{\\prime\\prime}": 6894,
      "##ildr": 6895,
      "e^{-2\\phi}": 6896,
      "##_{\\dot\\alpha": 6897,
      "##+1}{2}": 6898,
      "\\Longrightarrow": 6899,
      "##buildr": 6900,
      "##_1\\dots\\mu": 6901,
      "+k": 6902,
      "+\\partial": 6903,
      "2}\\,": 6904,
      "E_{\\rm": 6905,
      "F^{\\mu\\nu": 6906,
      "V}{\\partial": 6907,
      "X^\\nu": 6908,
      "[Q": 6909,
      "a^\\dagger": 6910,
      "g_{ij": 6911,
      "m^2}": 6912,
      "q_j": 6913,
      "t_1": 6914,
      "u^2": 6915,
      "{V": 6916,
      "{J": 6917,
      "}D": 6918,
      "##l_2": 6919,
      "##3\\over": 6920,
      "##36}": 6921,
      "##r})": 6922,
      "##^X": 6923,
      "##+w": 6924,
      "##\\underline{": 6925,
      "##i\\partial": 6926,
      "##s.": 6927,
      "##ur}": 6928,
      "##D}}": 6929,
      "##ka": 6930,
      "##/L": 6931,
      "##/8": 6932,
      "##:\\": 6933,
      "##[h": 6934,
      "##[u": 6935,
      "##[S": 6936,
      "##[\\delta": 6937,
      "##^{i\\": 6938,
      "##}{P": 6939,
      "##}{F": 6940,
      "##_{\\,": 6941,
      "##_{\\mathcal{": 6942,
      "##left<": 6943,
      "##,\\dot": 6944,
      "##,\\cdot": 6945,
      "##\\put": 6946,
      "##-\\ln": 6947,
      "##_1)^2": 6948,
      "\\frac{4\\pi": 6949,
      "##_0\\right)": 6950,
      "##_0)^2": 6951,
      "##+\\varphi": 6952,
      "##}_{-}": 6953,
      "##}=e": 6954,
      "\\;.\\label{": 6955,
      "\\\\1": 6956,
      "\\partial_1": 6957,
      "\\left(x": 6958,
      "##)=\\prod": 6959,
      "(\\hat": 6960,
      "##}(\\vec{x})": 6961,
      "##_{1}...": 6962,
      "##,\\label{d": 6963,
      "##_{\\alpha},": 6964,
      "##^{-1}.": 6965,
      "##=0\\,": 6966,
      "##\\psi_2": 6967,
      "##^a(x)": 6968,
      "\\lambda)": 6969,
      "##)}\\int": 6970,
      "##-2m": 6971,
      "##_{2i": 6972,
      "(x-y": 6973,
      "##}\\partial_j": 6974,
      "##_\\alpha,": 6975,
      "\\rangle=": 6976,
      "\\rangle.": 6977,
      "##^2+4": 6978,
      "e^{-\\frac{": 6979,
      "##ref": 6980,
      "##|\\varphi": 6981,
      "##d\\tilde{": 6982,
      "##d\\zeta": 6983,
      "\\tilde{x": 6984,
      "##\\sqrt{g": 6985,
      "\\prod_{j": 6986,
      "\\mathcal{A": 6987,
      "##(D-1)": 6988,
      "\\hspace{2": 6989,
      "dy^2": 6990,
      "##=-\\infty}^{\\infty": 6991,
      "##|k|": 6992,
      "##milton": 6993,
      "2g": 6994,
      "={\\cal": 6995,
      "A_n": 6996,
      "E_n": 6997,
      "K_1": 6998,
      "V'": 6999,
      "V_{\\rm": 7000,
      "[1": 7001,
      "],": 7002,
      "all": 7003,
      "is": 7004,
      "j_\\mu": 7005,
      "m_0": 7006,
      "reg": 7007,
      "x_n": 7008,
      "|\\Phi": 7009,
      "}-": 7010,
      "}(-{\\bf": 7011,
      "##ax": 7012,
      "##_B}": 7013,
      "##t_2": 7014,
      "##)^*": 7015,
      "##\\end{array}\\right]": 7016,
      "##fa": 7017,
      "##q^{-": 7018,
      "##d\\mu": 7019,
      "##cha": 7020,
      "##L^2": 7021,
      "##NS": 7022,
      "##S}_{": 7023,
      "##'_2": 7024,
      "##/5": 7025,
      "##J}}": 7026,
      "##}\\oplus": 7027,
      "##^{5}": 7028,
      "##^{6}": 7029,
      "##elf": 7030,
      "##}{G": 7031,
      "##}{L}": 7032,
      "##inv}": 7033,
      "##_{\\phi}": 7034,
      "##erm}": 7035,
      "##,\\ell": 7036,
      "\\label{x": 7037,
      "\\label{2}": 7038,
      "##)\\:": 7039,
      "##)\\beta": 7040,
      "##)\\cr": 7041,
      "##-\\tilde{\\": 7042,
      "##integ": 7043,
      "##_\\Delta": 7044,
      "##+\\sin": 7045,
      "##\\over\\delta": 7046,
      "##_i)}": 7047,
      "##(x;": 7048,
      "##\\,a": 7049,
      "##}={\\bf": 7050,
      "\\partial^{\\mu}": 7051,
      "\\right)=": 7052,
      "##^{\\mu}_{\\": 7053,
      "(\\Omega": 7054,
      "##mbox{\\bf": 7055,
      "-\\eta": 7056,
      "##}=\\lambda": 7057,
      "##}}\\epsilon": 7058,
      "^{2}\\right)": 7059,
      "##^a_b": 7060,
      "##)}\\equiv": 7061,
      "##^{10": 7062,
      "##dot{x}": 7063,
      "##\\,\\sqrt{": 7064,
      "##_{a_1": 7065,
      "e^{4": 7066,
      "##e^{-t": 7067,
      "##(\\tau))": 7068,
      "##\\cdot\\!": 7069,
      "##_{lm": 7070,
      "##[\\eta": 7071,
      "##,2)}": 7072,
      "##(y)}": 7073,
      "}{2": 7074,
      "\\kappa}": 7075,
      "\\label{scal": 7076,
      "##_N)": 7077,
      "##^{3}}": 7078,
      "##~.\\end{array}": 7079,
      "Tr}\\;": 7080,
      "##ity": 7081,
      "##(d-2": 7082,
      "##.5cm}": 7083,
      "##overline{\\psi": 7084,
      "##(\\zeta)": 7085,
      "##}(\\phi)": 7086,
      "##constra": 7087,
      "##,w)": 7088,
      "##[g]": 7089,
      "##denti": 7090,
      "\\cos^2": 7091,
      "({\\": 7092,
      "+V": 7093,
      "G^{-1}": 7094,
      "L_1": 7095,
      "N_f": 7096,
      "\\mathbf": 7097,
      "\\Upsilon": 7098,
      "^*": 7099,
      "c_n": 7100,
      "ie": 7101,
      "to": 7102,
      "{4\\pi": 7103,
      "##l_{1}": 7104,
      "##b_2": 7105,
      "##{5": 7106,
      "##=V": 7107,
      "##M^2}": 7108,
      "##0\\rangle": 7109,
      "##j_1": 7110,
      "##~\\,": 7111,
      "##p_0": 7112,
      "##n_1": 7113,
      "##y})": 7114,
      "##u_0": 7115,
      "##]},": 7116,
      "##/a": 7117,
      "##R_{\\mu": 7118,
      "##{\\sin": 7119,
      "##_{ad": 7120,
      "\\label{ad": 7121,
      "\\label{3}": 7122,
      "\\label{chi": 7123,
      "\\label{7}": 7124,
      "##=\\{": 7125,
      "##=\\xi": 7126,
      "##)\\cdots": 7127,
      "##}_{t": 7128,
      "##^\\epsilon": 7129,
      "##}=T": 7130,
      "##}=\\pm": 7131,
      "##^{(4": 7132,
      "##}\\right)^{2}": 7133,
      "##}\\right).\\label{": 7134,
      "\\\\[": 7135,
      "##\\partial_b": 7136,
      "_{{\\rm": 7137,
      "##)=S": 7138,
      "##}_M": 7139,
      "##2\\theta": 7140,
      "##2\\cdot": 7141,
      "##stre": 7142,
      "##}(\\tilde{": 7143,
      "##}(\\bar{": 7144,
      "##left(\\partial": 7145,
      "##iv}": 7146,
      "##+1/2": 7147,
      "##Bigr": 7148,
      "\\lambda_i": 7149,
      "\\gamma^2": 7150,
      "\\sigma_3": 7151,
      "##)}\\frac{": 7152,
      "\\label{eq:a": 7153,
      "##^2}{4\\pi": 7154,
      "##\\,\\alpha": 7155,
      "##dx^{\\nu": 7156,
      "##|\\hat{": 7157,
      "##}\\right.": 7158,
      "##^{-1}\\left(": 7159,
      "##,\\;k": 7160,
      "##)^{3": 7161,
      "##=\\frac{3": 7162,
      "\\exp(": 7163,
      "##_{3/2}": 7164,
      "\\frac{1}{\\sqrt{2}": 7165,
      "##\\bar\\theta": 7166,
      "##\\in{\\bf": 7167,
      "\\label{4.2": 7168,
      "##^{\\frac{n": 7169,
      "##\\bigl": 7170,
      "\\dot{\\phi": 7171,
      "##%%%%": 7172,
      "##\\begin{array}{cc}": 7173,
      "##(x_1,x_2": 7174,
      "##diamon": 7175,
      "##otherwi": 7176,
      "|0\\rangle": 7177,
      "##ype": 7178,
      "##^{(d)}": 7179,
      "\\int_{-\\infty}^\\infty": 7180,
      "-{\\cal": 7181,
      "A=": 7182,
      "A_a": 7183,
      "I_2": 7184,
      "W}{\\partial": 7185,
      "^\\nu": 7186,
      "_c": 7187,
      "d^5": 7188,
      "g^{\\mu\\nu": 7189,
      "odd": 7190,
      "{v": 7191,
      "}{\\pi": 7192,
      "##gf": 7193,
      "##=t": 7194,
      "##^W": 7195,
      "##^j}": 7196,
      "##^5}": 7197,
      "##\\end{array": 7198,
      "##d}}": 7199,
      "##,8": 7200,
      "##subset": 7201,
      "##x^{2}": 7202,
      "##L_1": 7203,
      "##PQ": 7204,
      "##'}\\": 7205,
      "##'\\over": 7206,
      "##/\\partial": 7207,
      "##/\\lambda": 7208,
      "##[m": 7209,
      "##[k": 7210,
      "##T)": 7211,
      "##{\\int": 7212,
      "##are": 7213,
      "##}{(1+": 7214,
      "##_{\\dot{": 7215,
      "##^{\\varepsilon": 7216,
      "\\label{al": 7217,
      "\\label{qu": 7218,
      "##=\\Omega": 7219,
      "##=\\lim": 7220,
      "##}(K": 7221,
      "##}^{-}": 7222,
      "##+\\tilde": 7223,
      "##+\\ell": 7224,
      "##}_{4": 7225,
      "##_i\\right)": 7226,
      "##rho}}": 7227,
      "##(x^-": 7228,
      "_{2}\\": 7229,
      "\\right)^{-1}": 7230,
      "##}\\,,\\qquad": 7231,
      "\\phi_n": 7232,
      "\\frac{1}{r": 7233,
      "##_{14}": 7234,
      "##_{kj": 7235,
      "\\quad.": 7236,
      "##mid\\": 7237,
      "=\\left[": 7238,
      "=\\exp": 7239,
      "##(k_2": 7240,
      "##(k^2)": 7241,
      "##_{24}": 7242,
      "\\qquad\\qquad": 7243,
      "\\eta_{\\mu\\nu}": 7244,
      "##_\\alpha}": 7245,
      "##dx^j": 7246,
      "+\\int": 7247,
      "}\\equiv": 7248,
      "##^{(1)}\\": 7249,
      "\\tilde{a": 7250,
      "##,\\;\\delta": 7251,
      "##_{12})": 7252,
      "\\sum_{n=1}^\\infty": 7253,
      "##^{ijk}": 7254,
      "\\biggl[": 7255,
      "##^{N-1}": 7256,
      "##_{gh": 7257,
      "e^{-\\phi": 7258,
      "##low": 7259,
      "##_{zz": 7260,
      "##unit": 7261,
      "\\label{5.1": 7262,
      "##}_{mn": 7263,
      "##+\\frac{\\lambda": 7264,
      "##(x,x'": 7265,
      "##^{3/2}}": 7266,
      "##symp": 7267,
      "e^{-2\\phi": 7268,
      "##_{\\mu\\nu\\rho\\sigma": 7269,
      "##circle*": 7270,
      "\\alpha_0": 7271,
      "\\int_{{\\cal": 7272,
      "(-i": 7273,
      "-z": 7274,
      "0\\right)": 7275,
      "1\\\\": 7276,
      "=-\\frac{": 7277,
      "F_{\\alpha": 7278,
      "M}_": 7279,
      "T_0": 7280,
      "\\end{array}\\label{": 7281,
      "a^{\\dagger": 7282,
      "d\\psi": 7283,
      "h_1": 7284,
      "}^{2}": 7285,
      "}^{\\infty": 7286,
      "##eB": 7287,
      "##{B": 7288,
      "##gro": 7289,
      "##t^2": 7290,
      "##fmf": 7291,
      "##d\\rho": 7292,
      "##x^0": 7293,
      "##GH": 7294,
      "##;\\;\\;": 7295,
      "##ull": 7296,
      "##S=\\int": 7297,
      "##|_{x": 7298,
      "##:\\quad": 7299,
      "##[M": 7300,
      "##AB}": 7301,
      "##%\\frac{": 7302,
      "##_{y}": 7303,
      "##^{F": 7304,
      "##}{{\\partial": 7305,
      "##_{\\it": 7306,
      "##(\\mbox{": 7307,
      "##=\\Lambda": 7308,
      "{\\mathrm": 7309,
      "##-\\left[": 7310,
      "##cal}": 7311,
      "\\frac{y": 7312,
      "##_2|": 7313,
      "##_i\\": 7314,
      "##}{\\sinh": 7315,
      "##eqn}": 7316,
      "##}=-2": 7317,
      "##-1}\\left(": 7318,
      "##)=-\\frac{": 7319,
      "##2\\delta": 7320,
      "\\frac{1}{16\\pi": 7321,
      "##}^t": 7322,
      "##}^x": 7323,
      "##}(\\pi": 7324,
      "##,\\label{b": 7325,
      "##,\\label{e": 7326,
      "^{j": 7327,
      "##}(x)=\\": 7328,
      "##wist": 7329,
      "##diff": 7330,
      "##^{2/3}": 7331,
      "=\\epsilon": 7332,
      "_{\\beta": 7333,
      "##}\\overline": 7334,
      "##re}": 7335,
      "##}}{2}\\": 7336,
      "\\bar{\\cal": 7337,
      "\\frac{dz": 7338,
      "\\frac{\\partial^2": 7339,
      "\\exp\\{": 7340,
      "##,1)}": 7341,
      "##}{1+": 7342,
      "##~~~~&": 7343,
      "\\label{eq3": 7344,
      "##\\quad,": 7345,
      "\\vec{p": 7346,
      "{d^2": 7347,
      "(2n": 7348,
      "##^{ijk": 7349,
      "##(4)": 7350,
      "4\\pi}": 7351,
      "##^{D-2}": 7352,
      "##}\\begin{array}{c}": 7353,
      "##energy": 7354,
      "\\sum_j": 7355,
      "\\int_{M": 7356,
      "+a": 7357,
      "-d": 7358,
      "-h": 7359,
      "0<": 7360,
      "1},": 7361,
      "A}_{": 7362,
      "E_2": 7363,
      "F}}": 7364,
      "H_{\\rm": 7365,
      "M_P": 7366,
      "N}}": 7367,
      "P_0": 7368,
      "Sp": 7369,
      "[2": 7370,
      "\\underline{\\": 7371,
      "_p": 7372,
      "_2}": 7373,
      "b_1": 7374,
      "c_i": 7375,
      "d\\alpha": 7376,
      "d^n": 7377,
      "f(r)": 7378,
      "q^{": 7379,
      "z\\right)": 7380,
      "}\\,\\": 7381,
      "##a^2}": 7382,
      "##{P": 7383,
      "##{F": 7384,
      "##_\\parallel": 7385,
      "##=D": 7386,
      "##=C": 7387,
      "##\\bf": 7388,
      "##free": 7389,
      "##oo": 7390,
      "##iz": 7391,
      "##40": 7392,
      "##,W": 7393,
      "##,I": 7394,
      "##cb": 7395,
      "##c_{1}": 7396,
      "##GM": 7397,
      "##;~~": 7398,
      "##u_2": 7399,
      "##us}": 7400,
      "##SP": 7401,
      "##k_i": 7402,
      "##|{\\cal": 7403,
      "##><": 7404,
      "##@{\\": 7405,
      "##{\\widehat": 7406,
      "##}\\sinh": 7407,
      "##}{E": 7408,
      "##tic}": 7409,
      "##_{\\ell}": 7410,
      "\\label{action": 7411,
      "##da}": 7412,
      "##=\\bar{": 7413,
      "{\\hbar": 7414,
      "##)\\to": 7415,
      "##-\\overline{": 7416,
      "##_1\\right)": 7417,
      "##^\\tau": 7418,
      "##}{\\psi": 7419,
      "##}{\\sin": 7420,
      "##varian": 7421,
      "##frac{1}{2": 7422,
      "##}=-\\frac{1}{": 7423,
      "##^{(b": 7424,
      "##}\\right)}": 7425,
      "##\\partial_+": 7426,
      "##\\partial_-\\": 7427,
      "(\\bar{\\": 7428,
      "##}\\,=\\": 7429,
      "##_\\mu}": 7430,
      "\\delta_1": 7431,
      "\\frac{1}{N}": 7432,
      "##}(\\kappa": 7433,
      "\\frac{\\eta": 7434,
      "##2\\pi}\\int": 7435,
      "##+1/2}": 7436,
      "\\psi_0": 7437,
      "##}_{\\mathrm{": 7438,
      "##^\\mu}": 7439,
      "##_k^2": 7440,
      "\\sigma^2": 7441,
      "##(t,t": 7442,
      "\\Phi_1": 7443,
      "##(r)}{": 7444,
      "##e^{a": 7445,
      "##^2)+": 7446,
      "##simp": 7447,
      "##^2\\left(\\": 7448,
      "##}}{4": 7449,
      "\\left(\\matrix{": 7450,
      "##\\sqrt{-g}": 7451,
      "##_{3},": 7452,
      "##_{(m": 7453,
      "\\label{su": 7454,
      "##}{2}\\,": 7455,
      "##comp}": 7456,
      "\\vec{x": 7457,
      "##,k)": 7458,
      "##\\end{array}\\right).": 7459,
      "##(\\mu)}": 7460,
      "_{\\mu}": 7461,
      "-\\frac{1}{2": 7462,
      "##_{0}^{1}": 7463,
      "##(0,1)": 7464,
      "##^{cd": 7465,
      "##=\\left(\\begin{array}{cc": 7466,
      "##-N_f": 7467,
      "##odd": 7468,
      "##grang": 7469,
      "##normal": 7470,
      "##(z,\\bar{z})": 7471,
      "\\int_{\\partial": 7472,
      "+{\\rm": 7473,
      "-c": 7474,
      "/2}": 7475,
      "1})": 7476,
      "F)": 7477,
      "J_{\\mu": 7478,
      "J^0": 7479,
      "Re}": 7480,
      "V_i": 7481,
      "^0": 7482,
      "g_{\\alpha": 7483,
      "mod": 7484,
      "on": 7485,
      "##a^\\dagger": 7486,
      "##{l": 7487,
      "##g_s": 7488,
      "##_9}": 7489,
      "##=U": 7490,
      "##^G": 7491,
      "##\\vec{x": 7492,
      "##m})": 7493,
      "##pp": 7494,
      "##x^i": 7495,
      "##B_{\\mu": 7496,
      "##D-1}": 7497,
      "##]}.": 7498,
      "##R_{12}": 7499,
      "##Vert": 7500,
      "##}\\underline{": 7501,
      "##^{-\\": 7502,
      "##}{(1": 7503,
      "##_{\\left(": 7504,
      "##mul": 7505,
      "##(\\Psi": 7506,
      "##(\\hbar": 7507,
      "##(\\ln": 7508,
      "##,\\left(": 7509,
      "\\label{action}": 7510,
      "##}}~": 7511,
      "##}},\\": 7512,
      "{\\Phi": 7513,
      "##)\\hat{": 7514,
      "##)\\cos": 7515,
      "\\frac{v": 7516,
      "##}(H": 7517,
      "##_\\varepsilon": 7518,
      "##_0|": 7519,
      "##_0\\,": 7520,
      "##}_{b}": 7521,
      "##})-": 7522,
      "##_i]": 7523,
      "##}{\\xi": 7524,
      "##}{\\mathbf": 7525,
      "##(x^+": 7526,
      "##(x)\\right)": 7527,
      "##\\,u": 7528,
      "##^{(6)}": 7529,
      "\\left|\\": 7530,
      "##},L": 7531,
      "##},Q": 7532,
      "\\\\\\hat{": 7533,
      "\\partial_y": 7534,
      "\\partial_{\\bar": 7535,
      "_{5": 7536,
      "##)=f": 7537,
      "##sum_i": 7538,
      "##sum_{j": 7539,
      "##begin{array}": 7540,
      "(\\chi": 7541,
      "\\delta^2": 7542,
      "\\frac{1}{z": 7543,
      "##\\phi)": 7544,
      "##_j,": 7545,
      "\\null": 7546,
      "##}_{\\hat{\\": 7547,
      "##(z))": 7548,
      "##^a}": 7549,
      "\\gamma^5": 7550,
      "##^i{": 7551,
      "##(t,": 7552,
      "##(t)=\\": 7553,
      "\\rho_0": 7554,
      "\\right]\\label{": 7555,
      "##}-g": 7556,
      "}\\epsilon": 7557,
      "\\Bigr]": 7558,
      "##sqrt{\\alpha": 7559,
      "##lll}": 7560,
      "\\exp[": 7561,
      "##^{n-2}": 7562,
      "##(\\sigma)}": 7563,
      "##}=0.\\label{": 7564,
      "##\\bar\\psi": 7565,
      "\\bigr)": 7566,
      "##=\\sum\\limits": 7567,
      "##_{D-2}": 7568,
      "##{k}}": 7569,
      "##^{\\frac{d": 7570,
      "##cm]": 7571,
      "tr}\\,": 7572,
      "##^{cd}": 7573,
      "##%%TCIMACRO{\\": 7574,
      "##{\\theta}": 7575,
      "##}(s)": 7576,
      "##}(A)": 7577,
      "##_{WZ": 7578,
      "\\hline\\Gamma": 7579,
      "##^{(\\alpha)}": 7580,
      "##d^4x": 7581,
      "##hfill": 7582,
      "##truec": 7583,
      "(\\nu": 7584,
      "+\\mu": 7585,
      "-b": 7586,
      "2}\\epsilon": 7587,
      "32": 7588,
      ";\\qquad": 7589,
      "=i": 7590,
      "D_\\nu": 7591,
      "J_\\mu": 7592,
      "J^\\mu": 7593,
      "X^0": 7594,
      "\\underline": 7595,
      "_B": 7596,
      "a'": 7597,
      "d^": 7598,
      "e^b": 7599,
      "n)": 7600,
      "q_1": 7601,
      "str": 7602,
      "u_1": 7603,
      "w}": 7604,
      "z_j": 7605,
      "|m": 7606,
      "|B": 7607,
      "}T": 7608,
      "}^{\\prime": 7609,
      "##eV": 7610,
      "##e^{\\alpha": 7611,
      "##rt": 7612,
      "##orm": 7613,
      "##dw": 7614,
      "##h_1": 7615,
      "##p_3": 7616,
      "##x_i": 7617,
      "##ual": 7618,
      "##D^2": 7619,
      "##E_i": 7620,
      "##|=": 7621,
      "##/H": 7622,
      "##/\\pi": 7623,
      "##[\\theta": 7624,
      "##>>": 7625,
      "##{\\frac{\\": 7626,
      "##{\\mathrm": 7627,
      "##^{y": 7628,
      "##^{|": 7629,
      "##^{-\\alpha": 7630,
      "##ine": 7631,
      "\\label{J": 7632,
      "\\label{th": 7633,
      "##=\\rho": 7634,
      "##)\\wedge": 7635,
      "##)\\vert": 7636,
      "##)\\,\\,": 7637,
      "##_1\\over": 7638,
      "\\frac{t": 7639,
      "##}^{0}": 7640,
      "##}^{(\\pm": 7641,
      "##\\label{s": 7642,
      "##}=a": 7643,
      "\\coth": 7644,
      "_{1}\\": 7645,
      "##}_t": 7646,
      "##^{\\mu_1": 7647,
      "##begin{array}{c}": 7648,
      "##}(\\hat": 7649,
      "##ext}": 7650,
      "##_{\\alpha_{1}": 7651,
      "##}}\\equiv": 7652,
      "\\psi}": 7653,
      "^{n": 7654,
      "##_{kj}": 7655,
      "##\\theta^2": 7656,
      "\\label{eq:B": 7657,
      "##+1},": 7658,
      "##-\\frac{m": 7659,
      "##_{24": 7660,
      "##\\lbrack": 7661,
      "##_{m+n": 7662,
      "\\right.\\label{": 7663,
      "\\rangle}": 7664,
      "e^{-t": 7665,
      "\\tau_1": 7666,
      "dx^2": 7667,
      "##}\\;=\\;": 7668,
      "\\mbox{s": 7669,
      "}\\varphi": 7670,
      "##^{(1/2)}": 7671,
      "\\hat{G": 7672,
      "##_{++}": 7673,
      "##^-}": 7674,
      "##_b)": 7675,
      "##)^{2}\\": 7676,
      "##}{d\\lambda": 7677,
      "##[\\tilde{": 7678,
      "##_{(m)}": 7679,
      "##\\frac{\\alpha": 7680,
      "##(N-1)": 7681,
      "A}_\\mu": 7682,
      "##=\\frac{1}{4": 7683,
      "##.5cm": 7684,
      "\\label{tw": 7685,
      "##\\sin\\theta": 7686,
      "##^{\\rho}": 7687,
      "##)\\Bigg": 7688,
      "##grav": 7689,
      "##resul": 7690,
      "##,\\;\\;\\;\\;\\;\\;": 7691,
      ",\\hspace{1cm}": 7692,
      "##buildrel": 7693,
      "##truecm": 7694,
      "\\int_{": 7695,
      "+f": 7696,
      "+q": 7697,
      ",x": 7698,
      "-\\pi": 7699,
      "1\\right)": 7700,
      "2}+": 7701,
      "E^2": 7702,
      "E_i": 7703,
      "II": 7704,
      "R_1": 7705,
      "S^{-1}": 7706,
      "lo": 7707,
      "p_0": 7708,
      "p^{2}": 7709,
      "q,": 7710,
      "r'": 7711,
      "x^{i": 7712,
      "x^{\\mu}": 7713,
      "y_1": 7714,
      "|{\\bf": 7715,
      "~-~": 7716,
      "##{v": 7717,
      "##{z": 7718,
      "##-W": 7719,
      "##-2\\pi": 7720,
      "##++": 7721,
      "##+G": 7722,
      "##+5": 7723,
      "##\\}=\\": 7724,
      "##j'": 7725,
      "##ci": 7726,
      "##;{\\bf": 7727,
      "##|{\\rm": 7728,
      "##[\\rho": 7729,
      "##A_{2}": 7730,
      "##>,": 7731,
      "##>.": 7732,
      "##_{6}": 7733,
      "##}\\vec": 7734,
      "##}\\,\\,\\": 7735,
      "##}\\longrightarrow": 7736,
      "##}\\end{array}\\right.": 7737,
      "##lar}": 7738,
      "##let}": 7739,
      "##,\\Pi": 7740,
      "##^{\\mp": 7741,
      "##=\\tilde": 7742,
      "{\\mathrm{": 7743,
      "\\frac{S": 7744,
      "\\frac{P": 7745,
      "\\frac{dx": 7746,
      "##_\\star": 7747,
      "##}^{-1}\\": 7748,
      "##_0'": 7749,
      "##_0^1": 7750,
      "##_2]": 7751,
      "##frac{\\gamma": 7752,
      "##}_{ab}": 7753,
      "##})=0": 7754,
      "##^\\delta": 7755,
      "##}=x": 7756,
      "_{3}": 7757,
      "##)={\\rm": 7758,
      "##}_J": 7759,
      "##hat{g}}": 7760,
      "\\delta_{": 7761,
      "\\frac{1}{n": 7762,
      "##}(\\bar": 7763,
      "##_{\\mu\\nu\\rho}": 7764,
      "^{3}": 7765,
      "##}^{\\hat{\\": 7766,
      "##\\lambda^2": 7767,
      "##)}\\delta": 7768,
      "##^{2k}": 7769,
      "##-1)/2}": 7770,
      "\\epsilon_{\\mu": 7771,
      "##(p'": 7772,
      "##\\rho|": 7773,
      "\\right|^2": 7774,
      "##}\\over{\\partial": 7775,
      "##)\\,=\\,": 7776,
      "##res}": 7777,
      ",\\end{array}": 7778,
      "##+\\frac{4": 7779,
      "##_{r,s": 7780,
      "##_{(4)}": 7781,
      "-1\\right)": 7782,
      "##~,~~~~": 7783,
      "##\\sum\\limits": 7784,
      "d^2\\theta": 7785,
      "-\\frac{3": 7786,
      "=0\\": 7787,
      "##-\\frac{\\mu": 7788,
      "##^{kl}": 7789,
      "##(d-2)": 7790,
      "##_{tt": 7791,
      "\\sum_{n=0}^{\\infty}": 7792,
      "##(x)\\rangle": 7793,
      "##bar{z}}": 7794,
      "##}{r^2}": 7795,
      "##^{\\frac{3}{2}": 7796,
      "##e^{i\\omega": 7797,
      "##\\biggr": 7798,
      "##e^{-ik": 7799,
      "##case": 7800,
      "##two": 7801,
      "\\sum_{i}": 7802,
      "\\alpha_2": 7803,
      "\\int_{\\cal": 7804,
      "1,2": 7805,
      "2\\alpha": 7806,
      "A,": 7807,
      "A_+": 7808,
      "A_-": 7809,
      "B_\\mu": 7810,
      "D}_{": 7811,
      "L_n": 7812,
      "O}_{\\": 7813,
      "V(r)": 7814,
      "X_1": 7815,
      "Z=\\int": 7816,
      "\\ne": 7817,
      "].": 7818,
      "dt}": 7819,
      "d\\chi": 7820,
      "f)": 7821,
      "f_n": 7822,
      "k'": 7823,
      "q_2": 7824,
      "x}}": 7825,
      "{X": 7826,
      "{{1": 7827,
      "##lb": 7828,
      "##35}": 7829,
      "##}S": 7830,
      "##=L": 7831,
      "##(e^{": 7832,
      "##r'": 7833,
      "##r_2": 7834,
      "##+E": 7835,
      "##\\rm": 7836,
      "##q)": 7837,
      "##ome": 7838,
      "##42}": 7839,
      "##0\\right)": 7840,
      "##pmatrix{": 7841,
      "##na": 7842,
      "##G_0": 7843,
      "##|t": 7844,
      "##|^2-": 7845,
      "##[c": 7846,
      "##[5": 7847,
      "##[V": 7848,
      "##F^{\\mu\\nu": 7849,
      "##{\\underline{": 7850,
      "##{\\it": 7851,
      "##_{st": 7852,
      "##^2}\\int": 7853,
      "##}{n}": 7854,
      "##,\\varepsilon": 7855,
      "##^{\\pi": 7856,
      "##^{\\;\\;": 7857,
      "##)\\in": 7858,
      "##)\\Lambda": 7859,
      "##-\\triangle": 7860,
      "##}^{ab}": 7861,
      "##^{--": 7862,
      "##^{-s}": 7863,
      "##frac{\\Gamma": 7864,
      "##_i)=": 7865,
      "##}{\\tilde{": 7866,
      "##}=A": 7867,
      "##}=-i": 7868,
      "##},{\\cal": 7869,
      "##\\partial^2": 7870,
      "##\\partial^{\\mu": 7871,
      "_{B": 7872,
      "##2\\epsilon": 7873,
      "##2\\Delta": 7874,
      "\\frac{1}{4\\pi": 7875,
      "##}^5": 7876,
      "##}^J": 7877,
      "##}(\\psi": 7878,
      "##(1/": 7879,
      "##{10.00}}\\put": 7880,
      "##-1},": 7881,
      "##-1}.": 7882,
      "##_{\\alpha_1": 7883,
      "##_{1,1}": 7884,
      "##}}\\phi": 7885,
      "##}}\\exp": 7886,
      "##_{\\mu\\nu}(x)": 7887,
      "\\psi'": 7888,
      "##(z_2": 7889,
      "##}^{\\dot": 7890,
      "##prop}": 7891,
      "##(t),": 7892,
      "##\\lambda_2": 7893,
      "##^{2p": 7894,
      "##^2}{r": 7895,
      "##^2}{r^2}": 7896,
      "\\sqrt{3}": 7897,
      "##\\,\\mu": 7898,
      "##^1)": 7899,
      "##^1)^2": 7900,
      "+\\epsilon": 7901,
      "##|\\mathbf{": 7902,
      "\\hat{A": 7903,
      "##}^{2})": 7904,
      "##\\right],": 7905,
      "##^{(2)": 7906,
      "##(\\alpha\\cdot": 7907,
      "\\label{1.1": 7908,
      "##coth": 7909,
      "##)\\right),": 7910,
      "##\\prod_{i": 7911,
      "##-q)": 7912,
      "##+m^{2}": 7913,
      "##_{d+1}": 7914,
      "##}=-{1\\over": 7915,
      "##=0}^{N": 7916,
      "##^{I}": 7917,
      "\\left(\\begin{array}{cc": 7918,
      "##,\\lambda)": 7919,
      "##rane}": 7920,
      "##_\\perp)": 7921,
      "##(h)": 7922,
      "##frac{\\delta}{\\delta": 7923,
      "\\right\\}.": 7924,
      "##[1mm]": 7925,
      "_{1}\\cdots": 7926,
      "##rotect": 7927,
      "+A": 7928,
      ",a": 7929,
      "-R": 7930,
      "V}}": 7931,
      "\\matrix": 7932,
      "\\mbox{\\": 7933,
      "^1": 7934,
      "_r": 7935,
      "a_\\mu": 7936,
      "i\\sigma": 7937,
      "k\\cdot": 7938,
      "ro": 7939,
      "r_-": 7940,
      "t_i": 7941,
      "|Z": 7942,
      "##l^{2}": 7943,
      "##ak": 7944,
      "##a}\\hat{": 7945,
      "##b_{1}": 7946,
      "##1\\over": 7947,
      "##-{\\rm": 7948,
      "##gs": 7949,
      "##)~.": 7950,
      "##+U": 7951,
      "##q_0": 7952,
      "##our": 7953,
      "##irac": 7954,
      "##hen": 7955,
      "##pot": 7956,
      "##pq}": 7957,
      "##xy": 7958,
      "##;0": 7959,
      "##N)}": 7960,
      "##DE": 7961,
      "##/b": 7962,
      "##/\\mu": 7963,
      "##O}}": 7964,
      "##[\\lambda": 7965,
      "##[\\chi": 7966,
      "##Q_1": 7967,
      "##_{g}": 7968,
      "##_{d}": 7969,
      "##}\\ast": 7970,
      "##^2}{2}": 7971,
      "##_{\\mp": 7972,
      "##mu}}": 7973,
      "##,\\hat{\\": 7974,
      "\\label{6}": 7975,
      "##)\\tilde": 7976,
      "##_\\zeta": 7977,
      "##_\\mp": 7978,
      "##}^{(2)": 7979,
      "##_0.": 7980,
      "##+\\left[": 7981,
      "##}_{11}": 7982,
      "##\\,A": 7983,
      "##\\,+\\": 7984,
      "##}=M": 7985,
      "##nd}": 7986,
      "_{a}": 7987,
      "\\delta_{n": 7988,
      "##}^s": 7989,
      "\\frac{\\xi": 7990,
      "##{10}}\\put": 7991,
      "##}}\\psi": 7992,
      "##+1]": 7993,
      "##=0,\\": 7994,
      "##}_{\\theta": 7995,
      "##^{\\prime})\\": 7996,
      "##dagger}": 7997,
      "##_{0i": 7998,
      "##e^{4": 7999
    }
  }
}